<unk>	0
<s>	0
</s>	0
▁the	-3.1188
,	-3.47656
.	-3.54892
s	-3.78612
▁of	-3.80666
▁to	-3.88493
▁in	-3.91233
▁a	-3.92131
▁and	-4.25335
-	-4.49917
'	-4.60146
▁on	-4.60331
▁said	-4.63152
▁for	-4.9324
▁"	-4.9783
▁The	-5.079
▁	-5.20623
▁was	-5.26477
▁that	-5.29692
▁by	-5.31676
▁with	-5.333
▁at	-5.35838
▁from	-5.53559
,"	-5.61298
▁as	-5.61925
▁is	-5.63666
▁an	-5.69978
▁his	-5.7631
▁after	-5.81639
)	-5.89105
▁were	-5.90869
▁(	-5.92046
▁US	-5.92157
▁be	-5.9227
▁has	-5.94354
▁he	-5.95807
▁will	-5.9703
▁it	-6.01094
ing	-6.01456
▁have	-6.0983
▁had	-6.12222
▁which	-6.13468
ed	-6.15611
▁its	-6.16864
▁who	-6.17823
"	-6.19763
▁A	-6.25694
▁their	-6.26926
▁percent	-6.27101
▁two	-6.28307
▁Tuesday	-6.28533
▁Wednesday	-6.29246
▁Thursday	-6.2932
▁Monday	-6.33544
▁Friday	-6.35585
▁are	-6.35956
▁not	-6.3654
▁told	-6.38309
▁over	-6.39436
▁been	-6.39924
▁government	-6.44714
▁first	-6.49113
▁would	-6.50192
▁but	-6.51052
▁up	-6.55234
d	-6.57797
▁this	-6.63117
▁people	-6.63784
▁year	-6.63854
▁against	-6.63911
▁dollars	-6.65904
▁one	-6.66668
▁last	-6.66955
▁here	-6.68532
▁Sunday	-6.70217
▁President	-6.71533
▁they	-6.71847
▁out	-6.74132
▁Minister	-6.76138
t	-6.76857
▁Saturday	-6.77905
▁million	-6.81016
▁three	-6.81159
▁new	-6.82311
▁police	-6.83672
▁United	-6.84862
▁country	-6.88316
▁into	-6.89972
▁more	-6.92434
▁official	-6.94916
▁when	-6.96279
ly	-6.97258
."	-6.99649
▁--	-7.00115
▁billion	-7.00763
▁than	-7.0355
▁officials	-7.0356
▁state	-7.03995
a	-7.0433
e	-7.04458
▁week	-7.07478
er	-7.08861
▁statement	-7.089
▁or	-7.09055
year	-7.09067
▁world	-7.10222
▁points	-7.1087
The	-7.11772
▁also	-7.11811
y	-7.12246
▁between	-7.1288
▁killed	-7.14943
▁European	-7.15237
▁about	-7.16634
▁spokesman	-7.17694
▁military	-7.18686
▁all	-7.19558
▁China	-7.19717
▁I	-7.20318
▁second	-7.20616
▁years	-7.21482
▁AFP	-7.21763
I	-7.22384
▁UN	-7.22406
▁since	-7.23661
▁reported	-7.24701
▁talks	-7.24749
▁group	-7.24777
▁Iraq	-7.24801
▁South	-7.26081
▁four	-7.26999
▁States	-7.27022
▁we	-7.27204
▁former	-7.29121
▁before	-7.29165
▁day	-7.30242
▁time	-7.31494
▁down	-7.31584
▁New	-7.31858
▁no	-7.32281
old	-7.33587
▁could	-7.33721
▁off	-7.33827
▁meeting	-7.34185
▁French	-7.34698
We	-7.35091
▁World	-7.35246
m	-7.35545
▁other	-7.37207
▁her	-7.37211
▁leader	-7.37305
▁during	-7.37669
:	-7.39004
i	-7.39248
▁president	-7.39727
▁next	-7.40034
▁while	-7.4095
▁Prime	-7.41032
▁security	-7.41541
th	-7.41853
▁some	-7.41992
▁war	-7.42403
▁city	-7.42802
▁news	-7.44108
▁five	-7.44771
▁capital	-7.4509
▁international	-7.45421
▁under	-7.45461
in	-7.46011
▁foreign	-7.46422
▁month	-7.46584
n	-7.4756
▁minister	-7.47702
▁In	-7.48002
▁end	-7.48672
o	-7.48804
▁where	-7.49941
▁British	-7.50803
▁being	-7.55325
▁agency	-7.5547
re	-7.56256
),	-7.56299
▁top	-7.5633
▁He	-7.56336
▁made	-7.56696
▁back	-7.57831
▁Israeli	-7.58113
▁court	-7.58331
al	-7.58515
▁chief	-7.58701
▁announced	-7.58715
▁set	-7.5875
▁ministry	-7.58908
▁late	-7.59348
▁them	-7.61215
▁Cup	-7.61446
▁six	-7.61716
▁prices	-7.62404
▁France	-7.62916
▁there	-7.63056
▁Palestinian	-7.64465
▁him	-7.6456
▁take	-7.65827
▁Japan	-7.6601
▁10	-7.66063
es	-7.66374
▁only	-7.66608
▁Russian	-7.68053
▁market	-7.68098
▁report	-7.68867
▁economic	-7.69348
▁oil	-7.70005
▁following	-7.7003
▁team	-7.70833
▁early	-7.74446
▁if	-7.75209
▁including	-7.75305
▁peace	-7.75397
▁North	-7.75446
▁countries	-7.75464
▁home	-7.75722
▁political	-7.76347
▁left	-7.76618
▁forces	-7.76662
r	-7.7692
▁head	-7.76963
▁expected	-7.77478
▁visit	-7.77678
▁troops	-7.783
▁attack	-7.78612
▁Israel	-7.78762
▁called	-7.78921
▁win	-7.78952
▁just	-7.79391
▁nuclear	-7.79561
▁months	-7.79742
▁final	-7.79864
▁saying	-7.80314
▁index	-7.80359
▁ahead	-7.80429
▁trade	-7.80444
▁won	-7.80734
▁party	-7.80756
▁days	-7.80802
▁near	-7.80923
▁can	-7.81127
▁according	-7.81316
▁third	-7.8158
▁It	-7.81796
▁company	-7.81973
▁now	-7.82042
▁held	-7.82468
▁German	-7.82843
▁leaders	-7.82983
▁part	-7.83001
▁But	-7.83317
▁southern	-7.83445
on	-7.83592
▁de	-7.83876
▁region	-7.83955
▁S	-7.84074
▁most	-7.84103
▁Korea	-7.84968
▁Union	-7.85764
▁around	-7.86392
▁she	-7.86766
▁any	-7.87112
an	-7.87402
▁high	-7.87775
▁opposition	-7.87882
▁EU	-7.88309
▁Bank	-7.89009
▁our	-7.89438
▁national	-7.90483
▁added	-7.90505
▁Russia	-7.90697
▁number	-7.91174
▁so	-7.91254
▁through	-7.9142
5	-7.91498
▁India	-7.91611
▁conference	-7.91694
▁due	-7.91779
▁Al	-7.92053
▁re	-7.93435
▁African	-7.93919
▁earlier	-7.94136
▁closed	-7.9434
▁least	-7.9451
▁still	-7.9504
▁town	-7.95241
▁20	-7.96114
▁England	-7.96156
to	-7.96173
▁local	-7.96203
▁Iran	-7.963
▁reporters	-7.96322
▁elections	-7.96369
▁Iraqi	-7.96379
▁took	-7.96529
▁Chinese	-7.97386
▁close	-7.97404
▁authorities	-7.97614
day	-7.97882
▁because	-7.98356
1	-7.99074
h	-7.99259
▁public	-7.99662
ers	-8.00068
▁Japanese	-8.00166
▁W	-8.00815
▁members	-8.01586
▁should	-8.01643
▁decision	-8.0168
▁came	-8.01869
▁Britain	-8.01983
▁International	-8.02225
▁Bush	-8.02411
▁place	-8.02785
▁central	-8.02791
▁major	-8.02809
▁London	-8.03189
▁deal	-8.03503
▁Foreign	-8.03877
▁crisis	-8.04002
▁main	-8.04416
▁12	-8.04653
▁dollar	-8.04773
▁15	-8.05072
▁found	-8.05247
▁army	-8.0528
▁election	-8.05432
▁Australia	-8.05631
▁Pakistan	-8.05807
▁National	-8.0586
▁An	-8.06272
▁man	-8.06286
▁parliament	-8.06664
▁make	-8.06779
▁men	-8.06922
▁match	-8.07065
▁share	-8.07132
▁what	-8.07451
2	-8.07603
▁death	-8.07879
▁al	-8.08001
7	-8.08332
A	-8.08407
man	-8.08668
▁died	-8.0877
▁economy	-8.09161
en	-8.09189
▁hit	-8.09368
▁office	-8.09412
▁arrested	-8.09522
▁bank	-8.09838
▁Germany	-8.10054
▁euros	-8.10115
▁American	-8.10262
▁Africa	-8.10317
▁press	-8.1045
▁record	-8.10991
▁season	-8.11332
▁key	-8.11577
▁seven	-8.11609
▁well	-8.11632
▁1	-8.11753
▁GMT	-8.1227
▁support	-8.12306
▁Australian	-8.1248
8	-8.12502
▁attacks	-8.12504
▁northern	-8.12581
▁dead	-8.13063
▁rose	-8.13297
▁another	-8.13789
▁Secretary	-8.14319
▁power	-8.14646
▁Indian	-8.1471
▁West	-8.14952
▁long	-8.15086
▁March	-8.1543
▁global	-8.15472
▁ago	-8.15538
▁Europe	-8.15729
k	-8.15739
▁round	-8.15888
▁York	-8.15924
▁help	-8.16249
0	-8.16879
▁victory	-8.16972
▁both	-8.17405
▁quarter	-8.17702
▁media	-8.17713
▁financial	-8.17899
▁dealers	-8.18353
▁do	-8.1841
S	-8.18441
▁way	-8.18504
▁put	-8.18608
▁general	-8.18731
▁State	-8.18748
▁side	-8.1986
▁General	-8.19865
▁yen	-8.20109
u	-8.20168
▁newspaper	-8.20169
▁work	-8.20175
▁fell	-8.20307
▁Washington	-8.20796
led	-8.20847
▁May	-8.2107
▁agreement	-8.21127
▁-	-8.21418
▁fire	-8.21422
▁June	-8.21475
▁19	-8.21607
▁lead	-8.21809
▁province	-8.22157
▁O	-8.22247
▁League	-8.22545
▁television	-8.22701
▁Hong	-8.2286
▁start	-8.23024
▁Kong	-8.23507
▁soldiers	-8.23553
▁several	-8.23711
3	-8.23907
▁border	-8.23985
▁summit	-8.24003
▁30	-8.24048
▁injured	-8.24365
l	-8.24633
▁amid	-8.2477
▁vote	-8.24886
▁sources	-8.24886
▁eight	-8.25028
▁11	-8.25054
▁meet	-8.25664
▁rights	-8.25968
▁force	-8.26008
▁September	-8.26094
▁George	-8.26469
▁Council	-8.26714
▁shares	-8.26721
4	-8.26784
It	-8.27013
▁Nations	-8.27228
up	-8.27956
▁later	-8.28199
▁senior	-8.28405
▁Afghanistan	-8.29383
▁despite	-8.29459
▁released	-8.2949
▁go	-8.30313
▁reports	-8.30347
▁did	-8.30487
▁half	-8.30581
▁bid	-8.30795
▁miles	-8.3117
▁House	-8.31343
▁presidential	-8.31362
▁warned	-8.3161
▁car	-8.31855
▁such	-8.31863
na	-8.31995
▁move	-8.32009
▁January	-8.32136
▁plan	-8.32456
▁without	-8.32792
▁anti	-8.32866
▁Asian	-8.32884
▁un	-8.33059
C	-8.33245
▁Party	-8.33748
▁taken	-8.34542
▁Islamic	-8.34698
▁East	-8.34809
▁further	-8.34896
▁prime	-8.34961
9	-8.34972
▁B	-8.35017
▁hours	-8.35707
▁women	-8.35937
▁leading	-8.36299
▁quoted	-8.3639
6	-8.36533
▁accused	-8.36537
▁Paris	-8.3675
▁many	-8.37101
▁G	-8.37446
▁campaign	-8.3793
▁agreed	-8.38282
▁weekend	-8.38406
▁very	-8.3847
▁Korean	-8.38523
).	-8.38688
▁led	-8.38696
▁April	-8.38807
▁December	-8.39163
▁Security	-8.39607
▁return	-8.39865
▁C	-8.40089
z	-8.40092
▁past	-8.40446
▁may	-8.40671
▁At	-8.41045
▁already	-8.41116
▁club	-8.41129
▁bomb	-8.41459
or	-8.41608
ne	-8.41634
▁E	-8.41637
▁November	-8.42061
▁until	-8.42108
▁plans	-8.42131
▁violence	-8.42292
▁right	-8.424
▁showed	-8.42404
▁same	-8.42427
▁John	-8.4243
▁area	-8.4254
▁July	-8.42647
▁wounded	-8.42765
▁Italian	-8.42862
▁growth	-8.42863
▁rebels	-8.43322
▁rate	-8.43361
▁opened	-8.43389
P	-8.43412
▁among	-8.43467
▁higher	-8.43617
▁Gaza	-8.43839
g	-8.44197
▁2	-8.44204
▁100	-8.44267
ar	-8.44313
▁air	-8.44395
▁Baghdad	-8.444
▁must	-8.44733
▁those	-8.44767
▁14	-8.45122
▁50	-8.45141
▁face	-8.45206
▁lower	-8.45566
▁island	-8.46058
▁series	-8.4609
le	-8.46097
▁18	-8.4643
G	-8.46458
▁hospital	-8.46517
▁giant	-8.46823
▁ruling	-8.46848
▁October	-8.4744
▁P	-8.47484
▁weeks	-8.47523
▁shot	-8.47533
▁case	-8.4773
▁recent	-8.48355
N	-8.48453
▁play	-8.48756
il	-8.4884
el	-8.49006
▁aid	-8.49518
ve	-8.49708
ro	-8.49756
▁human	-8.4979
li	-8.49841
▁profit	-8.50078
▁biggest	-8.50212
▁lost	-8.50268
▁signed	-8.50431
st	-8.5055
▁Asia	-8.50663
▁13	-8.50873
▁morning	-8.51065
▁nation	-8.5113
▁far	-8.51276
▁weapons	-8.51301
▁law	-8.51359
B	-8.51425
▁member	-8.51442
▁trading	-8.51795
▁process	-8.52125
▁interest	-8.52174
▁title	-8.52324
▁taking	-8.52572
▁trial	-8.52605
▁possible	-8.52638
▁say	-8.52738
▁began	-8.52851
▁nine	-8.52908
▁Obama	-8.52942
F	-8.52958
▁coach	-8.52966
▁charges	-8.53023
▁K	-8.53046
▁opening	-8.53221
▁across	-8.53313
de	-8.53354
▁confirmed	-8.53497
▁action	-8.53591
▁director	-8.53654
▁whose	-8.53657
▁They	-8.53836
▁16	-8.53872
▁outside	-8.54068
▁daily	-8.54111
▁come	-8.54695
▁latest	-8.55057
▁killing	-8.55251
time	-8.55272
▁even	-8.55408
the	-8.55568
▁south	-8.55571
b	-8.55711
c	-8.55926
▁business	-8.56221
▁run	-8.56259
w	-8.56521
▁White	-8.56644
▁total	-8.57086
▁largest	-8.57219
▁champion	-8.5722
▁Arab	-8.57264
based	-8.57366
▁am	-8.57432
▁T	-8.57642
▁strong	-8.57659
▁markets	-8.58173
▁strike	-8.58213
▁children	-8.58406
▁met	-8.58653
ra	-8.58667
▁Beijing	-8.58927
▁efforts	-8.58949
▁Tokyo	-8.59183
▁arrived	-8.59414
▁3	-8.59432
▁investors	-8.59937
is	-8.60352
▁ministers	-8.60446
▁Italy	-8.60493
▁Co	-8.60737
▁fourth	-8.60914
▁August	-8.60967
▁40	-8.61043
te	-8.61096
▁centre	-8.61301
▁1,	-8.61345
▁give	-8.61487
▁February	-8.61586
▁used	-8.61607
▁Democratic	-8.6183
▁Two	-8.6185
▁get	-8.61856
▁hold	-8.62329
▁policy	-8.62359
▁source	-8.62398
▁contract	-8.62465
p	-8.62571
▁adding	-8.62681
▁cut	-8.62733
▁eastern	-8.63203
▁health	-8.63585
▁control	-8.6371
▁previous	-8.63813
▁Spanish	-8.63881
▁night	-8.64314
▁life	-8.64336
▁game	-8.64435
▁free	-8.64583
no	-8.64713
ta	-8.64802
▁failed	-8.64823
ri	-8.64895
▁went	-8.65023
▁Group	-8.65122
▁north	-8.65153
▁see	-8.65277
▁Spain	-8.65361
▁N	-8.65512
D	-8.65531
▁going	-8.65642
▁body	-8.65713
▁NATO	-8.65723
▁25	-8.65746
▁race	-8.6576
▁stock	-8.65853
▁defence	-8.65903
it	-8.6601
▁behind	-8.66155
▁whether	-8.66317
▁future	-8.66354
▁post	-8.66444
▁like	-8.66464
▁situation	-8.66711
▁workers	-8.66723
▁gas	-8.66813
▁pressure	-8.66868
▁radio	-8.67521
▁given	-8.67663
ic	-8.67748
▁M	-8.67841
▁17	-8.67884
▁asked	-8.67966
▁Le	-8.67978
▁airport	-8.68036
▁Taiwan	-8.68041
▁level	-8.68082
▁become	-8.68133
▁Department	-8.68436
▁seen	-8.68548
▁order	-8.68741
▁coalition	-8.68836
▁joint	-8.69022
▁D	-8.69242
se	-8.69298
▁then	-8.69352
▁minutes	-8.69388
▁rebel	-8.69591
K	-8.69726
▁Open	-8.69753
▁issue	-8.69779
▁interview	-8.69784
M	-8.69897
▁house	-8.69945
▁launched	-8.69973
▁best	-8.70254
ll	-8.70284
▁open	-8.703
▁Zealand	-8.70318
T	-8.70442
▁armed	-8.70528
▁use	-8.70619
▁results	-8.70712
ir	-8.70818
able	-8.71104
f	-8.71142
▁per	-8.71174
▁sent	-8.71364
▁Police	-8.71407
▁current	-8.71519
▁away	-8.71612
▁Street	-8.71639
▁fighting	-8.71667
▁suspected	-8.71712
▁prison	-8.71888
▁aimed	-8.71897
▁pro	-8.71995
ch	-8.7201
▁published	-8.72413
▁Singapore	-8.72528
▁full	-8.72626
▁much	-8.72709
ter	-8.72748
▁chairman	-8.73012
▁Clinton	-8.7309
▁protest	-8.73333
▁others	-8.73346
▁militants	-8.73504
▁4	-8.73679
▁executive	-8.73768
▁Olympic	-8.73797
▁continue	-8.73908
▁release	-8.74017
ate	-8.74064
▁Moscow	-8.7411
▁ended	-8.74273
co	-8.74277
▁how	-8.74695
▁within	-8.74707
▁p	-8.74776
▁Commission	-8.74846
▁special	-8.75083
▁line	-8.75273
▁F	-8.75288
▁board	-8.75297
▁want	-8.75375
▁firm	-8.75426
lo	-8.75521
▁gave	-8.75552
▁family	-8.75559
▁sales	-8.75668
▁operation	-8.75705
▁thousands	-8.75791
ion	-8.75909
▁nearly	-8.75975
▁good	-8.76016
▁price	-8.76044
di	-8.76583
▁need	-8.76615
▁own	-8.76775
▁regional	-8.76867
▁Muslim	-8.76932
▁increase	-8.76972
▁mission	-8.7699
▁Wall	-8.77032
▁Iranian	-8.77468
▁call	-8.7767
▁period	-8.77687
▁La	-8.77707
▁kilometres	-8.77713
▁groups	-8.77743
▁Test	-8.77985
▁urged	-8.78076
▁Middle	-8.7814
▁We	-8.78302
▁claimed	-8.7859
ni	-8.78937
▁Sri	-8.79009
▁reached	-8.79418
▁low	-8.79498
▁Court	-8.79542
la	-8.79598
▁Saudi	-8.79607
▁decided	-8.79737
▁companies	-8.79756
▁Turkey	-8.79963
ul	-8.80137
at	-8.80155
▁again	-8.80155
▁annual	-8.80279
▁district	-8.80348
▁my	-8.80456
ur	-8.80552
▁Sa	-8.80639
ist	-8.81133
▁event	-8.8119
▁stocks	-8.81325
▁Bosnian	-8.81598
▁system	-8.81672
ma	-8.82008
▁light	-8.8202
▁clear	-8.82051
▁received	-8.82139
▁5	-8.82476
▁known	-8.82593
ton	-8.82833
da	-8.82862
▁24	-8.82955
▁point	-8.8296
▁negotiations	-8.82985
▁euro	-8.83101
ling	-8.8322
▁Exchange	-8.83328
▁likely	-8.83507
et	-8.83522
▁alleged	-8.83737
aeda	-8.83747
▁western	-8.83751
▁demand	-8.83774
▁ex	-8.83834
▁Afghan	-8.83982
ia	-8.84035
▁parties	-8.84184
▁energy	-8.84367
▁data	-8.84487
▁R	-8.84656
▁rise	-8.8528
▁suicide	-8.85294
▁building	-8.85321
▁star	-8.85456
ba	-8.8547
▁industry	-8.85472
30	-8.85527
us	-8.85709
▁fight	-8.85797
▁along	-8.85964
▁Turkish	-8.86037
▁session	-8.86056
▁players	-8.8633
▁charged	-8.86347
▁show	-8.86435
ry	-8.86848
▁think	-8.86857
ation	-8.86901
▁change	-8.86994
▁woman	-8.87084
This	-8.87144
E	-8.87294
▁you	-8.87473
▁rival	-8.87642
▁figures	-8.87676
▁planned	-8.87784
▁relations	-8.8783
▁net	-8.8794
▁Lebanon	-8.87947
▁details	-8.88583
▁service	-8.88599
▁Re	-8.88643
▁us	-8.88662
▁overnight	-8.8891
▁issued	-8.89049
▁tournament	-8.89106
dollar	-8.89147
▁spokeswoman	-8.89242
ka	-8.89272
▁loss	-8.89389
un	-8.89472
ti	-8.89528
▁One	-8.8957
▁ban	-8.89642
sh	-8.89758
▁role	-8.90168
▁deputy	-8.90478
▁San	-8.90498
do	-8.90528
▁measures	-8.90582
▁step	-8.90762
off	-8.90832
▁ground	-8.91014
▁few	-8.91082
▁beat	-8.91105
ted	-8.91173
▁continued	-8.912
".	-8.91307
▁leave	-8.9142
▁co	-8.9147
▁information	-8.91508
▁named	-8.91508
▁having	-8.91536
▁cabinet	-8.91618
▁yet	-8.91641
▁Stock	-8.91652
▁making	-8.91797
▁Central	-8.9183
x	-8.91849
▁Taliban	-8.92065
▁H	-8.92129
▁David	-8.92164
ment	-8.92269
H	-8.92324
▁pay	-8.92347
▁defeat	-8.9237
▁Li	-8.92399
▁stage	-8.92456
ian	-8.92649
▁ordered	-8.93036
▁tour	-8.93088
▁working	-8.93344
ity	-8.93401
▁crude	-8.93593
▁result	-8.93723
▁De	-8.93735
▁sector	-8.93792
▁money	-8.94004
▁base	-8.94417
▁murder	-8.9447
be	-8.94656
▁conflict	-8.94757
▁services	-8.94867
▁pre	-8.95086
▁embassy	-8.95231
There	-8.9527
▁Michael	-8.95374
ke	-8.95457
▁short	-8.95607
▁domestic	-8.95614
▁nations	-8.95656
ce	-8.95875
▁concerns	-8.96032
ty	-8.9635
▁operations	-8.96462
▁regime	-8.96724
▁22	-8.96809
▁polls	-8.96909
▁each	-8.96916
▁football	-8.96968
▁goal	-8.97013
▁hope	-8.97038
▁worth	-8.97166
▁gold	-8.97321
▁plane	-8.97411
▁manager	-8.97484
▁Congress	-8.97518
▁Bosnia	-8.97565
▁analysts	-8.97602
▁secretary	-8.97638
▁Canada	-8.97644
▁food	-8.9774
▁discuss	-8.97755
▁No	-8.97885
▁21	-8.97946
L	-8.97997
▁emergency	-8.98091
▁compared	-8.982
▁budget	-8.98208
▁finance	-8.98341
▁offer	-8.98407
▁Hussein	-8.98466
▁arrest	-8.98623
▁Ali	-8.98626
am	-8.9867
▁carried	-8.98675
▁English	-8.98746
me	-8.98758
▁small	-8.9877
▁massive	-8.98874
min	-8.98944
▁stop	-8.99031
▁test	-8.99157
ge	-8.99283
▁Saddam	-8.99337
▁private	-8.99348
ca	-8.9948
▁reach	-8.99553
▁victims	-8.99714
▁Ro	-8.99718
▁hopes	-8.99729
▁trying	-8.99781
▁forced	-8.99849
▁commission	-8.9988
▁Na	-8.99895
▁less	-8.99895
go	-8.99933
▁fears	-8.99943
▁civil	-9.00105
▁committee	-9.0029
▁missing	-9.00349
▁position	-9.0039
▁threat	-9.00629
▁investment	-9.0067
▁City	-9.00801
▁Thailand	-9.00854
▁Ma	-9.01068
▁officer	-9.01072
▁Serb	-9.01286
▁remain	-9.01331
▁soon	-9.01477
▁pounds	-9.01575
j	-9.01692
▁Association	-9.01716
▁almost	-9.01743
ga	-9.01783
mo	-9.01916
▁terrorism	-9.0209
W	-9.02142
▁issues	-9.02144
ko	-9.0222
▁fired	-9.02248
▁Ireland	-9.02328
,000	-9.02347
▁Sea	-9.02487
▁allow	-9.02534
▁Republic	-9.02591
▁investigation	-9.02785
▁200	-9.03011
month	-9.03121
▁west	-9.03351
▁champions	-9.03381
▁journalists	-9.03437
▁production	-9.03441
▁On	-9.03471
ent	-9.03518
▁launch	-9.03624
▁condition	-9.03659
▁scheduled	-9.0368
▁Palestinians	-9.03816
▁community	-9.0394
ck	-9.04075
AFP	-9.04226
ive	-9.04267
▁keep	-9.04385
▁states	-9.0448
▁water	-9.0452
▁War	-9.04563
▁forward	-9.04612
▁front	-9.04903
▁All	-9.0507
est	-9.05234
▁semi	-9.05242
ol	-9.05301
▁heavy	-9.05328
▁join	-9.05328
▁Pakistani	-9.05523
▁Indonesia	-9.05572
▁captain	-9.05725
▁poll	-9.05802
ya	-9.05809
▁trip	-9.05841
▁caused	-9.05855
",	-9.05964
▁mass	-9.05971
▁cooperation	-9.05982
out	-9.0615
▁programme	-9.06451
▁break	-9.06544
▁east	-9.06647
▁saw	-9.06678
▁injury	-9.06689
▁Mo	-9.06818
▁station	-9.06879
ting	-9.06979
▁U	-9.07003
▁village	-9.07021
▁camp	-9.07163
▁Red	-9.07216
▁hand	-9.07248
▁serious	-9.07292
▁coming	-9.0736
▁development	-9.07579
▁towards	-9.07583
▁fresh	-9.07635
▁winning	-9.07826
▁gains	-9.07898
▁non	-9.07932
▁23	-9.08021
▁crimes	-9.08089
▁legal	-9.08112
▁movement	-9.08122
run	-9.08435
▁brought	-9.08485
▁Lanka	-9.08651
▁republic	-9.08746
▁problems	-9.08764
▁Paul	-9.08918
▁immediately	-9.0901
▁administration	-9.0923
▁deadly	-9.09443
▁60	-9.09492
▁battle	-9.09629
▁America	-9.09745
as	-9.0977
▁large	-9.10021
▁territory	-9.10043
▁controversial	-9.10071
▁Swiss	-9.10094
▁Barack	-9.10241
▁exchange	-9.10439
▁detained	-9.10492
▁wanted	-9.10875
▁form	-9.10942
▁Robert	-9.10947
▁figure	-9.11037
▁based	-9.11109
▁(1	-9.11166
▁7	-9.11211
▁port	-9.11221
▁sign	-9.11337
▁...	-9.1148
▁blast	-9.11597
▁union	-9.11832
▁parliamentary	-9.11889
▁better	-9.11993
▁conditions	-9.12143
▁currency	-9.12178
▁26	-9.12244
▁ready	-9.124
▁As	-9.12463
▁civilians	-9.12483
▁Ra	-9.12541
▁Ho	-9.12545
▁aircraft	-9.12802
▁incident	-9.12815
▁term	-9.1284
▁II	-9.12866
▁history	-9.13008
pa	-9.1301
▁young	-9.13048
▁Gulf	-9.13052
▁carrying	-9.13105
▁Canadian	-9.13112
▁Hamas	-9.13137
▁terrorist	-9.13217
▁me	-9.13287
▁jail	-9.13293
▁Strip	-9.13307
▁sanctions	-9.13317
▁don	-9.13397
▁Hu	-9.13504
▁travel	-9.13549
▁rates	-9.13588
▁resolution	-9.1369
▁speech	-9.13787
▁project	-9.13788
▁ever	-9.13832
▁Times	-9.13846
▁name	-9.13917
▁ties	-9.14076
ie	-9.14093
ex	-9.1413
▁progress	-9.14138
▁holding	-9.14239
▁premier	-9.14279
▁staff	-9.14326
▁diplomatic	-9.14364
▁bring	-9.14488
za	-9.14509
▁started	-9.14536
▁banks	-9.14728
▁played	-9.14979
▁fall	-9.15094
▁Zimbabwe	-9.15147
▁important	-9.15439
▁medical	-9.15522
▁majority	-9.15623
▁draw	-9.15846
▁Indonesian	-9.15868
▁these	-9.15958
▁kilometers	-9.16101
▁Ko	-9.16108
▁approved	-9.16182
▁Former	-9.16196
▁himself	-9.16214
▁Mar	-9.16391
im	-9.16601
ak	-9.16685
▁charge	-9.16693
▁appeal	-9.16705
▁Air	-9.16829
▁areas	-9.16875
▁Egyptian	-9.17026
▁St	-9.17064
▁Egypt	-9.17135
▁officers	-9.1717
id	-9.17195
▁dropped	-9.17319
▁rejected	-9.17364
▁worst	-9.17515
▁letter	-9.17648
▁Bo	-9.17711
▁Some	-9.17722
▁mark	-9.17752
▁growing	-9.17812
▁toll	-9.17843
▁Dutch	-9.1808
▁arms	-9.18112
▁Greek	-9.18293
▁once	-9.18348
▁El	-9.18417
▁positive	-9.18499
▁land	-9.18538
▁Arafat	-9.18591
▁Blair	-9.1864
▁remained	-9.18655
▁suffered	-9.18668
▁rally	-9.18671
▁envoy	-9.18749
▁seeking	-9.1875
▁turned	-9.18812
▁f	-9.18945
▁Agency	-9.1896
▁Grand	-9.19094
▁Games	-9.19217
▁hundreds	-9.19244
▁announcement	-9.19304
▁losses	-9.19373
▁Corp	-9.19414
▁sides	-9.19612
▁scored	-9.19769
▁protests	-9.1981
▁boost	-9.20045
▁player	-9.20077
po	-9.20132
▁believe	-9.20156
▁know	-9.20174
wa	-9.20194
▁judge	-9.20229
▁27	-9.20234
▁warning	-9.2032
▁With	-9.20404
▁squad	-9.20578
▁flu	-9.20588
▁fuel	-9.20663
▁denied	-9.20787
▁site	-9.20933
▁Trade	-9.21022
▁ambassador	-9.21036
vi	-9.21139
▁program	-9.21207
ary	-9.21293
▁drug	-9.21305
ov	-9.21349
O	-9.21426
▁Three	-9.21445
▁website	-9.21454
▁Thai	-9.21581
▁coast	-9.216
▁Jewish	-9.21605
▁Nigeria	-9.2166
▁benchmark	-9.21683
▁appeared	-9.21717
son	-9.21778
ated	-9.21915
▁rule	-9.22048
▁28	-9.22048
▁winner	-9.2225
▁ruled	-9.223
▁concern	-9.22306
▁telephone	-9.22511
▁single	-9.22554
▁broke	-9.22564
▁currently	-9.22586
▁6	-9.22622
▁involved	-9.22679
ad	-9.22716
land	-9.2278
▁big	-9.22856
▁Jones	-9.22902
▁After	-9.22948
▁try	-9.23061
▁Shiite	-9.2316
▁deficit	-9.23167
▁huge	-9.23201
20	-9.23235
▁Tour	-9.23258
▁counterpart	-9.23426
▁struck	-9.23428
▁believed	-9.23492
▁illegal	-9.23626
▁leaving	-9.23674
▁bodies	-9.23777
▁might	-9.23881
▁little	-9.24044
▁response	-9.24093
sa	-9.24098
▁refused	-9.24131
▁council	-9.24281
▁Federal	-9.24356
▁supporters	-9.2437
▁find	-9.24439
lu	-9.24444
▁matches	-9.24489
R	-9.24538
▁debt	-9.24748
▁list	-9.24881
▁competition	-9.24969
▁provide	-9.25036
▁road	-9.25095
▁stand	-9.25132
▁commander	-9.25292
▁league	-9.25339
▁tax	-9.25344
V	-9.25372
▁afternoon	-9.2552
ho	-9.2563
▁Tehran	-9.25857
▁network	-9.25865
▁So	-9.25949
▁says	-9.26019
▁Bill	-9.26074
▁got	-9.26242
▁bill	-9.26285
▁ceremony	-9.26286
▁cents	-9.26485
ut	-9.26494
▁row	-9.26646
▁today	-9.26743
▁Organisation	-9.26777
▁Ba	-9.26841
▁clashes	-9.26863
▁build	-9.27028
▁Jean	-9.27098
▁film	-9.27127
▁wife	-9.27144
▁cost	-9.2717
▁c	-9.27176
▁Pa	-9.27187
▁able	-9.27331
▁job	-9.27431
▁great	-9.27789
▁career	-9.27798
ja	-9.27828
▁Sudan	-9.27892
▁experts	-9.27923
▁returned	-9.2796
▁never	-9.28302
▁forecast	-9.28305
▁admitted	-9.28307
▁seed	-9.2832
▁Ar	-9.28428
▁leg	-9.28481
▁intelligence	-9.28651
▁J	-9.28734
▁fifth	-9.28759
▁needed	-9.2881
▁declared	-9.28931
▁followed	-9.28945
▁seized	-9.2898
▁expressed	-9.29057
▁highest	-9.29181
▁school	-9.29364
▁headquarters	-9.29434
▁heart	-9.29554
▁begin	-9.29554
less	-9.29639
▁risk	-9.29676
v	-9.29723
▁request	-9.29985
ci	-9.30014
▁Kim	-9.30068
▁delegation	-9.30324
▁flight	-9.30325
▁L	-9.30361
▁reform	-9.30364
ine	-9.30405
▁Ha	-9.30542
▁governor	-9.30576
we	-9.30587
▁striker	-9.30671
▁People	-9.30686
▁tried	-9.30761
bo	-9.30894
▁Champions	-9.31004
▁Be	-9.31034
▁stay	-9.31035
▁500	-9.31115
▁King	-9.31185
hi	-9.31241
▁lawyer	-9.31251
he	-9.31258
▁cricket	-9.31324
▁News	-9.31408
▁3,	-9.31415
▁Western	-9.31449
▁Committee	-9.31455
▁explosion	-9.31542
▁disease	-9.31554
▁stake	-9.31683
▁prevent	-9.3177
▁threatened	-9.31953
▁inflation	-9.31962
▁training	-9.3199
▁Lo	-9.32032
▁games	-9.32323
um	-9.32347
▁terror	-9.32351
▁candidate	-9.32433
▁plant	-9.32504
▁2,	-9.32524
▁Madrid	-9.32546
▁dis	-9.32599
▁soldier	-9.32682
ous	-9.32688
▁federal	-9.32698
▁hard	-9.32737
▁sentenced	-9.32838
nd	-9.33006
▁course	-9.33033
gu	-9.33054
▁Malaysia	-9.33121
▁date	-9.33122
▁Ki	-9.33143
▁finish	-9.33143
▁Mexico	-9.33187
▁cases	-9.33212
▁There	-9.33231
and	-9.33622
▁too	-9.33709
In	-9.33974
▁confidence	-9.33986
▁proposed	-9.3406
▁mid	-9.34105
▁accord	-9.3422
▁although	-9.34256
one	-9.34291
▁remains	-9.34621
▁recovery	-9.3471
▁Manchester	-9.34737
em	-9.34791
▁problem	-9.34792
▁9	-9.34818
▁moved	-9.34976
ating	-9.35119
▁target	-9.35131
▁His	-9.35175
ang	-9.35217
▁She	-9.35225
men	-9.35347
ha	-9.35348
▁together	-9.35378
▁Ja	-9.35422
▁gained	-9.35488
▁Abu	-9.35559
▁earthquake	-9.35595
▁interior	-9.35682
▁barrel	-9.35684
rs	-9.35956
▁bombing	-9.35988
▁powerful	-9.36123
▁Vietnam	-9.36129
▁2004	-9.36148
▁attempt	-9.36161
▁unit	-9.36202
▁sea	-9.36487
▁vowed	-9.36545
▁2008	-9.36653
▁More	-9.36698
▁witnesses	-9.36723
▁Putin	-9.36761
final	-9.36774
▁separatist	-9.36794
▁Se	-9.36863
ley	-9.36865
▁increased	-9.36955
▁prepared	-9.37012
▁rising	-9.37032
ant	-9.37055
▁damage	-9.37078
▁communist	-9.37121
▁Su	-9.37299
▁Jose	-9.37335
▁finished	-9.37397
▁study	-9.37403
▁does	-9.37584
▁credit	-9.37729
▁suspended	-9.37741
ance	-9.37798
▁Man	-9.37926
▁lives	-9.37993
▁field	-9.37997
▁address	-9.38078
▁Republican	-9.38186
▁performance	-9.38422
▁Premier	-9.38461
fa	-9.38526
▁Pacific	-9.38681
▁Irish	-9.38767
▁Vi	-9.38769
▁And	-9.38778
▁Philippines	-9.38821
▁corruption	-9.38837
▁using	-9.38865
▁Tony	-9.38962
▁claims	-9.39005
com	-9.39133
▁handed	-9.3926
▁presidency	-9.39303
▁hour	-9.39486
ru	-9.39568
▁raised	-9.39581
long	-9.39603
ek	-9.39624
J	-9.39653
▁calling	-9.39659
▁Major	-9.39727
▁debate	-9.39826
▁funds	-9.39876
▁guilty	-9.40034
▁immediate	-9.40088
▁8	-9.40172
▁Syria	-9.40172
▁70	-9.40197
▁became	-9.40243
▁son	-9.4025
▁35	-9.40359
▁allowed	-9.40452
▁Internet	-9.40457
▁Bar	-9.40477
que	-9.40606
of	-9.4083
▁rescue	-9.40869
▁survey	-9.40957
nation	-9.40991
▁Dow	-9.41105
▁pm	-9.41204
▁Shanghai	-9.41225
der	-9.41319
▁Philippine	-9.41407
▁Lebanese	-9.41672
▁evening	-9.41825
▁Peter	-9.41856
▁Euro	-9.41931
va	-9.42158
▁send	-9.42183
che	-9.42223
ig	-9.42249
▁running	-9.42274
▁delivery	-9.42339
▁rest	-9.42435
▁rivals	-9.42449
▁chance	-9.42468
▁defense	-9.42493
▁buy	-9.42496
▁affairs	-9.4259
▁Brazil	-9.42619
▁enough	-9.42647
▁jobs	-9.42725
▁giving	-9.42727
▁sell	-9.42729
▁terms	-9.4277
▁calls	-9.42787
sec	-9.42907
war	-9.42991
▁department	-9.43013
U	-9.43034
ki	-9.4305
15	-9.43071
▁host	-9.43106
▁bus	-9.43408
▁drop	-9.43436
▁zone	-9.43534
▁Myanmar	-9.43558
▁evidence	-9.43569
▁independent	-9.43603
▁industrial	-9.43627
▁every	-9.43637
▁Me	-9.43849
▁Czech	-9.4386
▁constitution	-9.43882
▁looking	-9.44069
▁present	-9.4408
▁ceasefire	-9.44103
▁residents	-9.44334
▁militant	-9.44461
▁democracy	-9.44466
▁con	-9.4452
▁inside	-9.44532
▁hearing	-9.44655
▁old	-9.4476
▁Defence	-9.44789
▁To	-9.44906
▁Senate	-9.44933
▁attacked	-9.45035
▁Force	-9.45107
▁turn	-9.45141
▁ethnic	-9.45156
ud	-9.45219
▁vice	-9.45255
▁Lee	-9.45259
ise	-9.4533
▁Milan	-9.45449
▁comments	-9.45537
▁times	-9.45544
▁Index	-9.45582
finals	-9.45615
▁clash	-9.45706
▁playing	-9.45957
▁29	-9.45981
q	-9.45995
▁straight	-9.46042
▁train	-9.4608
▁Ka	-9.46123
▁banned	-9.46201
▁goals	-9.46201
▁Ri	-9.46201
ish	-9.46523
ner	-9.46755
▁Kashmir	-9.46878
▁joined	-9.47053
▁dispute	-9.4706
ot	-9.47159
▁space	-9.47181
ness	-9.47236
▁For	-9.4725
▁effort	-9.47294
▁Jan	-9.47488
ism	-9.47488
▁headed	-9.47554
member	-9.47558
ong	-9.47627
con	-9.4778
▁track	-9.47915
▁voted	-9.4804
▁However	-9.48059
by	-9.48059
▁allegedly	-9.48064
▁voters	-9.48123
bi	-9.48315
▁real	-9.48362
▁passengers	-9.48387
▁disaster	-9.48462
▁Coast	-9.4849
▁Islamist	-9.48599
dy	-9.48643
ised	-9.4867
vo	-9.48699
▁missile	-9.48719
▁paper	-9.48772
▁crew	-9.48856
▁Poland	-9.48912
00	-9.4895
▁Da	-9.48973
▁prosecutor	-9.4905
▁exports	-9.49062
▁offered	-9.49071
▁ship	-9.49123
▁Tamil	-9.49125
▁Army	-9.49288
▁Development	-9.4929
▁anniversary	-9.4929
▁independence	-9.49376
He	-9.49422
▁linked	-9.49465
▁helped	-9.49498
ng	-9.49618
▁scene	-9.49692
▁comes	-9.49864
▁cannot	-9.49892
▁Ben	-9.50007
▁Bangladesh	-9.50122
▁poor	-9.50143
▁draft	-9.50145
▁Abbas	-9.50213
▁wants	-9.50292
▁80	-9.50559
▁accident	-9.50702
▁shortly	-9.50715
▁1.5	-9.50721
gi	-9.50731
▁2003	-9.50739
▁blue	-9.50877
▁Four	-9.50961
▁airline	-9.50963
▁ending	-9.51025
▁(2	-9.51069
▁civilian	-9.51089
▁refugees	-9.51117
tic	-9.51117
▁black	-9.51137
line	-9.51147
▁live	-9.51221
▁decades	-9.51238
▁citing	-9.51286
▁allegations	-9.51459
▁leadership	-9.51523
▁Economic	-9.51567
▁message	-9.51587
ally	-9.51649
▁Jordan	-9.51655
▁32	-9.5179
ver	-9.51816
▁Martin	-9.5192
▁conservative	-9.51949
▁population	-9.52012
▁speaking	-9.52048
wing	-9.52063
▁spending	-9.52168
▁starting	-9.52221
ful	-9.52267
ou	-9.52304
▁probe	-9.52369
▁Ta	-9.52553
▁double	-9.52676
▁Arabia	-9.52698
▁Di	-9.52744
▁prisoners	-9.52755
▁streets	-9.52758
ah	-9.52797
▁justice	-9.52835
▁posted	-9.52943
▁claim	-9.53013
age	-9.53021
lin	-9.53031
term	-9.53135
▁estimated	-9.53222
▁hotel	-9.53263
▁avoid	-9.53321
▁ensure	-9.53338
▁storm	-9.5335
▁resort	-9.53377
▁lawmakers	-9.53422
▁troubled	-9.53455
▁person	-9.53529
▁Ban	-9.53537
▁earnings	-9.53559
▁passed	-9.53584
▁activities	-9.53619
▁Ru	-9.5374
▁Lu	-9.53773
▁recently	-9.5399
▁Jerusalem	-9.54064
▁alliance	-9.54076
▁Do	-9.54099
▁fund	-9.54118
▁crashed	-9.54118
mi	-9.54195
▁vehicle	-9.54297
▁settlement	-9.54425
▁described	-9.54455
▁cash	-9.5449
▁minute	-9.54496
▁rain	-9.54497
▁31	-9.54508
▁proposal	-9.54556
▁act	-9.54601
ence	-9.54663
▁Chirac	-9.54811
▁Park	-9.54874
▁summer	-9.54924
▁scandal	-9.55185
▁Greece	-9.55241
pe	-9.55269
▁deaths	-9.55275
▁Brown	-9.55384
▁sale	-9.55566
▁drive	-9.55589
million	-9.55655
▁impact	-9.55861
▁Abdullah	-9.55905
▁attend	-9.55919
.1	-9.55931
▁included	-9.55976
▁Po	-9.56054
▁Ukraine	-9.56058
billion	-9.56212
▁Du	-9.56277
bu	-9.56306
▁Christian	-9.56325
inhua	-9.56496
▁virus	-9.56582
ran	-9.56606
▁Gu	-9.56621
▁diplomat	-9.56692
▁insisted	-9.56828
40	-9.56892
way	-9.56941
▁v	-9.56957
▁referendum	-9.57009
ies	-9.5701
▁sparked	-9.57087
ji	-9.57124
▁transport	-9.57134
ham	-9.57139
om	-9.5719
▁Vladimir	-9.57411
▁include	-9.57497
▁center	-9.57665
▁runs	-9.57796
▁championship	-9.57873
▁facing	-9.57898
▁Moslem	-9.57978
▁Brussels	-9.57999
▁Mark	-9.58034
▁gathered	-9.58039
▁38	-9.58076
ina	-9.58139
▁This	-9.58141
▁Za	-9.58153
▁Mi	-9.58236
▁search	-9.58265
▁Soviet	-9.58331
▁Liberation	-9.58431
▁child	-9.58471
▁tough	-9.58491
▁access	-9.58537
▁banking	-9.58649
▁injuries	-9.58686
▁vehicles	-9.58762
▁hands	-9.58771
▁question	-9.58857
▁raid	-9.58978
▁Catholic	-9.59025
▁cause	-9.59126
▁focus	-9.59258
▁hostage	-9.59267
▁Argentina	-9.59276
▁religious	-9.59376
▁High	-9.59422
▁Sweden	-9.59498
▁treatment	-9.59546
▁closing	-9.59617
▁resume	-9.59622
▁ADDS	-9.59629
▁historic	-9.59655
▁paid	-9.59947
▁organisation	-9.59961
▁fans	-9.6025
▁identified	-9.60322
▁kept	-9.60328
▁bin	-9.6035
▁Jacques	-9.60383
10	-9.60451
▁300	-9.60478
▁elected	-9.60493
▁seek	-9.60504
▁humanitarian	-9.60528
▁division	-9.60535
▁reforms	-9.60663
▁average	-9.60837
▁sharp	-9.60847
▁mainly	-9.60869
▁table	-9.60911
▁occurred	-9.60994
▁above	-9.61039
▁composite	-9.61045
▁Reserve	-9.61046
▁crash	-9.61048
▁safety	-9.61073
▁Swedish	-9.61114
▁consumer	-9.61115
▁look	-9.61206
ana	-9.61255
▁2006	-9.61281
▁sought	-9.61308
▁convicted	-9.61312
▁Americans	-9.61326
▁father	-9.61333
▁Yasser	-9.61346
▁package	-9.61428
▁33	-9.61534
▁Richard	-9.61605
▁secret	-9.61733
▁Justice	-9.61754
▁construction	-9.61769
If	-9.61783
▁raise	-9.61853
▁showing	-9.61875
▁activists	-9.61883
▁planning	-9.61928
▁Olympics	-9.61946
side	-9.61989
▁2002	-9.62065
mer	-9.6208
▁phone	-9.62164
▁success	-9.62168
▁shooting	-9.62276
▁slightly	-9.62304
▁seriously	-9.62324
▁lack	-9.62329
▁48	-9.62336
▁Jo	-9.62336
▁Mohammed	-9.625
▁casualties	-9.62686
▁suspects	-9.62708
▁committed	-9.62803
au	-9.62811
▁challenge	-9.62832
tra	-9.62882
under	-9.62936
ler	-9.63035
▁g	-9.63097
half	-9.63203
▁homes	-9.63237
▁backed	-9.63273
▁Defense	-9.63353
They	-9.63477
har	-9.63484
ster	-9.63538
▁overall	-9.63554
▁commercial	-9.63627
▁45	-9.63631
▁rocket	-9.63639
▁offensive	-9.63658
▁sentence	-9.63663
▁assault	-9.63688
▁4,	-9.63689
▁Ga	-9.63896
▁social	-9.63916
▁90	-9.63941
▁Nigerian	-9.63943
▁bloc	-9.64018
▁votes	-9.64019
▁potential	-9.64072
▁holiday	-9.6417
▁Six	-9.64284
▁students	-9.64284
▁crowd	-9.64387
▁Kenya	-9.64399
▁Fa	-9.64404
▁Premiership	-9.64406
▁b	-9.64431
▁Ne	-9.64448
▁technology	-9.64452
▁though	-9.64494
▁University	-9.64503
▁condemned	-9.64633
ft	-9.64737
▁flights	-9.64971
▁diplomats	-9.65088
▁Ahmed	-9.65107
▁profits	-9.65133
▁rules	-9.65136
▁failure	-9.65266
▁comment	-9.65285
all	-9.65342
▁means	-9.65348
op	-9.6536
▁Real	-9.65393
ten	-9.65503
ye	-9.65611
hour	-9.65907
▁suspect	-9.6595
▁guard	-9.66
▁revealed	-9.66024
▁Scotland	-9.66026
▁Brazilian	-9.66027
▁Energy	-9.66127
▁moment	-9.66147
▁Malaysian	-9.66161
par	-9.66186
▁products	-9.6621
▁Mohammad	-9.66244
▁recession	-9.66302
▁research	-9.66349
▁blamed	-9.66387
▁self	-9.66485
▁en	-9.66501
▁yuan	-9.66627
▁Har	-9.66642
▁citizens	-9.66734
▁Northern	-9.66757
▁Ltd	-9.66873
▁living	-9.6688
▁transfer	-9.66917
▁century	-9.66984
▁Wales	-9.66986
...	-9.6705
▁age	-9.67065
▁34	-9.67123
▁criminal	-9.67215
ard	-9.67359
pi	-9.67433
▁Chelsea	-9.67442
ber	-9.67452
▁coup	-9.67462
▁range	-9.67471
▁respect	-9.67494
▁personal	-9.67498
▁initial	-9.67503
▁driver	-9.67547
▁blow	-9.67686
▁families	-9.67694
▁similar	-9.67715
▁crucial	-9.67736
▁Office	-9.67801
ab	-9.67866
▁Berlin	-9.67867
▁Sharon	-9.67929
▁Los	-9.67996
▁crime	-9.68007
▁cross	-9.68011
mp	-9.68182
wan	-9.68187
▁tonnes	-9.68323
▁seats	-9.68403
▁separate	-9.68419
▁Pi	-9.68476
▁decide	-9.68513
▁fact	-9.68529
▁Car	-9.68582
▁combat	-9.68592
▁welcomed	-9.68652
▁themselves	-9.68662
▁output	-9.68741
han	-9.68742
▁protect	-9.68765
▁James	-9.68775
▁faces	-9.68816
ung	-9.68834
▁popular	-9.68939
▁Williams	-9.69049
▁spot	-9.69133
▁2005	-9.69145
▁effect	-9.69179
▁concerned	-9.69214
▁Labour	-9.69232
▁climate	-9.69264
▁Z	-9.69271
▁radical	-9.69328
sen	-9.69352
▁account	-9.69387
▁amount	-9.69387
▁36	-9.69414
▁supply	-9.6944
▁basis	-9.69527
ning	-9.69554
our	-9.69595
▁Under	-9.69615
▁1,000	-9.69626
▁e	-9.69684
▁accept	-9.69709
▁Switzerland	-9.69734
▁helicopter	-9.69786
▁pledged	-9.69879
▁dialogue	-9.6989
▁tensions	-9.7002
▁Deputy	-9.70026
▁resignation	-9.70215
▁maker	-9.70233
▁2001	-9.70243
▁however	-9.70321
▁Sarkozy	-9.7034
▁Hezbollah	-9.7034
▁losing	-9.70359
▁Pyongyang	-9.70399
▁Football	-9.70478
▁sold	-9.70511
▁difficult	-9.7052
▁Croatia	-9.70588
mar	-9.70816
ani	-9.70832
▁exploded	-9.70971
▁Nikkei	-9.71004
▁consider	-9.71007
▁Kuwait	-9.71166
▁Day	-9.71187
▁Health	-9.71192
ac	-9.71278
▁firms	-9.71317
▁innings	-9.71349
▁responsible	-9.71358
▁fighters	-9.71433
▁red	-9.71522
▁Supreme	-9.7162
▁heads	-9.71723
▁necessary	-9.71761
▁fellow	-9.71778
▁Interfax	-9.71816
▁operating	-9.71839
▁thought	-9.71899
ring	-9.71925
▁Ca	-9.71985
▁Sheikh	-9.72038
▁declined	-9.72069
ay	-9.72076
▁42	-9.72125
▁tourists	-9.72135
▁Syrian	-9.72143
▁done	-9.72147
▁review	-9.72212
les	-9.72243
▁decline	-9.72299
▁rugby	-9.72569
▁detention	-9.72682
end	-9.72758
▁Chechen	-9.72775
ign	-9.72797
▁teams	-9.72865
▁captured	-9.72922
▁tests	-9.72939
os	-9.72984
for	-9.73023
▁di	-9.73036
▁longer	-9.73056
▁Super	-9.73074
ever	-9.73078
▁bilateral	-9.73349
▁suffering	-9.73362
back	-9.73433
▁quake	-9.73438
▁cars	-9.73441
▁violent	-9.73495
▁completed	-9.73657
▁solution	-9.7372
▁demanded	-9.73824
▁disputed	-9.73906
▁1:	-9.73906
▁penalty	-9.73922
▁Serbia	-9.73927
▁certain	-9.74099
▁Kabul	-9.742
▁treaty	-9.7424
owned	-9.74247
io	-9.7449
▁bad	-9.745
▁midfielder	-9.7465
▁Polish	-9.74676
▁d	-9.74724
▁presence	-9.74727
45	-9.74731
▁push	-9.74769
▁protesters	-9.74807
▁bombings	-9.74865
backed	-9.7487
▁37	-9.74895
▁beginning	-9.74901
▁weekly	-9.7496
▁video	-9.75275
▁Pe	-9.75278
▁neighbouring	-9.75289
▁Mu	-9.75391
▁candidates	-9.75396
▁Cuba	-9.75406
▁Pro	-9.75454
▁Human	-9.75461
▁multi	-9.75505
▁Go	-9.75543
▁Darfur	-9.75555
▁39	-9.75588
si	-9.75643
▁weather	-9.75691
▁eurozone	-9.75838
hu	-9.75875
▁relief	-9.75926
▁Movement	-9.75956
▁book	-9.75965
▁marked	-9.75989
▁turnover	-9.76008
▁Si	-9.76015
▁spent	-9.76017
▁create	-9.76045
▁pulled	-9.7615
▁drugs	-9.76159
▁itself	-9.76196
▁replace	-9.76268
▁responsibility	-9.76275
▁jailed	-9.76302
▁la	-9.76319
▁management	-9.76393
▁fraud	-9.7645
▁Portugal	-9.76458
▁nearby	-9.76474
▁either	-9.76679
▁deadline	-9.76733
▁Annan	-9.76754
▁V	-9.76799
▁needs	-9.76832
▁stability	-9.76863
▁outbreak	-9.76908
▁Powell	-9.7693
▁counter	-9.77069
▁entered	-9.77079
▁prosecutors	-9.7708
▁whom	-9.77118
▁Oil	-9.77142
▁traffic	-9.77187
▁Con	-9.77223
ger	-9.77271
▁2007	-9.77358
▁powers	-9.77363
zi	-9.77369
gen	-9.77379
rich	-9.77414
fi	-9.77457
▁deep	-9.77476
▁cities	-9.77545
▁property	-9.77573
▁freed	-9.77573
▁pace	-9.77578
ev	-9.77618
▁41	-9.7766
▁Sydney	-9.77724
▁imposed	-9.77769
▁faced	-9.77779
▁Kurdish	-9.7778
▁mother	-9.77851
▁carry	-9.7786
red	-9.77905
▁northwest	-9.77914
▁Finance	-9.77974
▁2010	-9.78031
▁levels	-9.78039
▁journalist	-9.78132
▁halt	-9.78176
▁carrier	-9.78204
▁California	-9.78204
▁1-0	-9.78292
▁Daily	-9.78367
▁view	-9.78477
▁Authority	-9.78554
▁lot	-9.78593
ial	-9.78598
▁freedom	-9.78655
▁Rice	-9.78715
▁agencies	-9.78718
right	-9.7875
▁complete	-9.78757
▁marks	-9.78826
▁parts	-9.78967
▁bringing	-9.79067
▁criticism	-9.79088
▁wake	-9.79169
▁considered	-9.79288
▁confirm	-9.79344
▁Angeles	-9.79366
▁Belgian	-9.79423
▁broad	-9.79473
▁5,	-9.79498
ny	-9.79607
▁Organization	-9.79745
▁broadcast	-9.79758
▁continuing	-9.79785
▁Prince	-9.79838
▁supplies	-9.79848
▁approval	-9.79879
▁43	-9.79941
▁Rome	-9.79951
wi	-9.79993
▁remarks	-9.8
▁fast	-9.80058
tro	-9.80073
▁events	-9.80361
▁(3	-9.80461
▁filed	-9.80519
▁Ivory	-9.80529
▁status	-9.80751
▁secure	-9.80758
▁available	-9.80767
▁Liverpool	-9.80887
▁panel	-9.80902
▁Mahmud	-9.80919
▁Rights	-9.80943
▁10-	-9.80957
chi	-9.80963
▁Fund	-9.81053
▁provincial	-9.81302
mon	-9.8138
per	-9.81457
rd	-9.81565
▁signing	-9.8194
▁boat	-9.82026
▁direct	-9.82072
▁improve	-9.82095
▁remaining	-9.82104
▁allies	-9.82146
lan	-9.82364
▁44	-9.8238
▁Kosovo	-9.8247
▁metres	-9.82494
▁referring	-9.82584
▁(7	-9.82608
▁Cha	-9.82613
▁Jakarta	-9.82624
▁stood	-9.82624
▁auto	-9.82692
▁costs	-9.82705
▁resolve	-9.82738
▁1990	-9.82757
▁Press	-9.82809
▁different	-9.8281
▁According	-9.82817
▁wave	-9.82819
je	-9.82866
ther	-9.82924
▁read	-9.8293
▁destroyed	-9.82992
▁sentiment	-9.8303
▁white	-9.83088
den	-9.83128
▁Tiger	-9.83191
▁below	-9.83206
ron	-9.8325
▁product	-9.83267
▁couple	-9.83324
▁veteran	-9.83362
▁visiting	-9.83367
▁interim	-9.83391
▁gunmen	-9.83473
▁refugee	-9.83527
▁Chi	-9.83538
▁watchdog	-9.83586
▁placed	-9.83655
▁electoral	-9.83676
▁surprise	-9.8381
ey	-9.83815
▁Ya	-9.83838
▁demands	-9.83949
▁Congo	-9.83952
▁sixth	-9.84085
▁militia	-9.84091
▁equipment	-9.84095
▁65	-9.8411
▁previously	-9.84116
▁Chancellor	-9.84193
▁sharply	-9.8422
▁expect	-9.84225
▁trillion	-9.84251
▁matter	-9.84256
▁develop	-9.84268
▁par	-9.84331
▁Serbs	-9.84346
▁weak	-9.84354
▁voting	-9.84367
▁spread	-9.84383
ub	-9.84445
▁55	-9.84457
▁hurt	-9.84525
▁1.	-9.84526
▁decade	-9.84721
▁medal	-9.84764
▁announce	-9.84766
▁changes	-9.84876
▁stopped	-9.84905
▁Seoul	-9.85013
Y	-9.85122
▁Arsenal	-9.85262
▁patrol	-9.85273
▁blood	-9.85276
▁0	-9.85299
▁withdrawal	-9.85343
ward	-9.85369
▁technical	-9.85386
▁expectations	-9.85435
▁anonymity	-9.85471
▁democratic	-9.85485
25	-9.85544
pro	-9.85545
▁nothing	-9.8555
▁That	-9.85588
▁speed	-9.85674
▁12-	-9.85721
▁unchanged	-9.8578
▁export	-9.85871
▁Croatian	-9.85941
▁46	-9.85994
▁Georgia	-9.8611
▁Ministry	-9.86124
▁kidnapped	-9.86166
▁Front	-9.86228
ik	-9.86303
▁Serbian	-9.8641
▁toward	-9.86498
▁extra	-9.86699
▁Wa	-9.86723
▁heard	-9.8673
▁Five	-9.86961
ite	-9.87092
▁promised	-9.87101
▁Sha	-9.87124
hit	-9.87187
▁mobile	-9.87257
▁Frankfurt	-9.874
king	-9.87469
▁reduce	-9.87536
fe	-9.87634
▁loan	-9.8771
od	-9.87771
▁400	-9.87809
▁guerrillas	-9.87937
▁demonstrators	-9.87952
▁sports	-9.88105
▁delay	-9.8813
▁Prix	-9.88141
▁Inter	-9.88235
▁Abdul	-9.88349
▁opinion	-9.88401
▁Khan	-9.88425
▁inter	-9.8843
▁Democrats	-9.88486
▁common	-9.88584
▁Chechnya	-9.88607
▁30-	-9.88836
▁receive	-9.88867
▁Ku	-9.88901
▁defender	-9.88953
▁Athens	-9.89074
▁15-	-9.8911
▁arrival	-9.89117
▁hardline	-9.8913
▁aged	-9.89153
▁falling	-9.89163
▁Ham	-9.89268
qui	-9.89299
▁selling	-9.89307
▁serve	-9.89338
point	-9.89362
ai	-9.8938
▁street	-9.89381
▁cuts	-9.89451
▁tie	-9.89464
▁connection	-9.8949
▁affected	-9.89518
▁worldwide	-9.89538
ct	-9.89558
▁buying	-9.89588
▁Musharraf	-9.89603
▁magazine	-9.89611
▁pair	-9.89688
▁52	-9.89732
round	-9.89739
▁value	-9.89955
▁assembly	-9.90004
▁unrest	-9.9005
▁Cairo	-9.90058
▁steps	-9.90071
▁looked	-9.90116
▁involving	-9.90222
▁gain	-9.90268
▁adopted	-9.90422
▁0.1	-9.90481
▁officially	-9.90483
▁developing	-9.90513
▁Ke	-9.9065
▁discussions	-9.90662
▁arm	-9.9067
▁measure	-9.90681
▁150	-9.90691
▁signs	-9.90694
▁twice	-9.90722
▁Alexander	-9.90723
▁sweet	-9.90793
born	-9.90835
called	-9.90909
▁landmark	-9.90937
▁brief	-9.90983
mb	-9.91011
▁activity	-9.91024
▁mine	-9.91049
▁cast	-9.91058
▁agree	-9.91074
04	-9.91083
▁Per	-9.9109
▁sex	-9.91101
▁documents	-9.91117
▁setting	-9.91277
▁Bay	-9.91281
▁collapse	-9.91398
▁Airlines	-9.91402
▁appointed	-9.91479
▁Charles	-9.91494
▁dismissed	-9.915
▁welcome	-9.91584
▁links	-9.91587
▁drawn	-9.91588
ku	-9.91692
▁Nicolas	-9.91693
▁authority	-9.91724
▁beating	-9.91727
▁Netherlands	-9.9173
▁sub	-9.91789
▁dozens	-9.91795
▁link	-9.91806
tu	-9.91902
▁Federation	-9.91935
▁truck	-9.92031
▁caught	-9.92159
torn	-9.92202
▁Ni	-9.92228
taking	-9.92286
▁Commissioner	-9.92323
▁hoped	-9.92345
▁Delhi	-9.9236
▁representative	-9.92404
▁mayor	-9.9247
▁peaceful	-9.92516
▁1991	-9.92555
▁destruction	-9.9256
▁unveiled	-9.9268
▁47	-9.92716
▁finally	-9.92721
▁renewed	-9.92777
▁Barcelona	-9.92883
▁follow	-9.92898
▁newspapers	-9.93091
hr	-9.93213
ure	-9.9322
▁advance	-9.93332
▁particularly	-9.93375
▁2-1	-9.93429
▁Far	-9.93583
ists	-9.93603
US	-9.93862
▁presented	-9.93884
▁rather	-9.93895
▁Sudanese	-9.93945
▁75	-9.94006
▁extended	-9.94105
ren	-9.94105
▁getting	-9.94122
▁Vice	-9.94126
▁crackdown	-9.94178
▁quickly	-9.94183
▁representatives	-9.94264
▁Stadium	-9.94304
▁attended	-9.94356
▁t	-9.94357
▁normal	-9.94378
▁boss	-9.94386
▁formal	-9.9441
▁favour	-9.94413
▁partner	-9.94415
share	-9.94491
▁Han	-9.94527
▁Cooperation	-9.94599
▁appear	-9.946
▁provided	-9.94624
▁Yeltsin	-9.94679
ze	-9.94697
▁mostly	-9.94702
▁Sam	-9.9473
▁Am	-9.9473
▁1998	-9.94739
▁Championship	-9.94768
▁heading	-9.94908
▁lift	-9.94935
▁scale	-9.94956
▁employees	-9.95105
▁stadium	-9.95174
Our	-9.952
▁2009	-9.95204
▁ma	-9.95208
▁championships	-9.95235
▁wing	-9.95248
▁Industrial	-9.95257
▁custody	-9.95257
▁brother	-9.9526
▁unemployment	-9.95285
▁insurgents	-9.95285
bb	-9.95332
▁Nepal	-9.95393
▁block	-9.95429
▁consecutive	-9.9546
▁policies	-9.95469
▁bird	-9.95498
▁struggling	-9.95515
▁stepped	-9.95553
▁northeast	-9.95564
tre	-9.95565
so	-9.95621
▁prize	-9.95626
▁positions	-9.95628
▁fear	-9.95639
▁Bi	-9.9568
▁Singh	-9.95686
▁lifted	-9.95689
▁orders	-9.95706
▁score	-9.95709
▁ongoing	-9.95771
▁Indies	-9.9583
▁threats	-9.95833
▁Speak	-9.95863
▁0.5	-9.95878
su	-9.95883
▁arrive	-9.95905
▁protection	-9.9593
▁Austrian	-9.95956
▁passenger	-9.95987
▁hoping	-9.96018
▁49	-9.96055
▁1996	-9.96109
▁51	-9.96123
▁stations	-9.96158
▁Berlusconi	-9.96228
mate	-9.96283
▁failing	-9.96294
▁discovered	-9.96295
▁foot	-9.96311
▁53	-9.96373
▁fled	-9.96388
yo	-9.96426
ize	-9.96472
▁governing	-9.96479
kh	-9.9656
▁maintain	-9.96638
▁recovered	-9.9673
over	-9.96762
▁Mugabe	-9.96815
▁1994	-9.96825
▁Tu	-9.96844
▁personnel	-9.96853
▁cover	-9.96855
sta	-9.969
▁van	-9.96912
▁Center	-9.96937
▁shut	-9.96972
▁widely	-9.97031
▁mis	-9.97044
percent	-9.97057
▁corporate	-9.97106
▁If	-9.97106
ving	-9.97118
▁boy	-9.97145
▁mosque	-9.97162
▁Seven	-9.97188
▁Austria	-9.97381
▁natural	-9.97415
▁whole	-9.97464
▁imports	-9.97469
▁While	-9.97481
▁girl	-9.97686
▁54	-9.9774
▁plunged	-9.97741
▁feet	-9.97803
▁Royal	-9.97891
▁especially	-9.97925
▁abuse	-9.97931
pri	-9.97943
▁causing	-9.98038
▁preparing	-9.98171
▁instead	-9.98467
sha	-9.98497
▁legislation	-9.98503
dis	-9.98505
▁church	-9.9855
14	-9.98673
▁alert	-9.98865
▁defending	-9.98907
▁room	-9.98957
▁let	-9.99061
jo	-9.99116
▁hostages	-9.99158
▁daughter	-9.99171
▁formally	-9.99201
AS	-9.99246
▁satellite	-9.99247
▁Pentagon	-9.99257
▁ousted	-9.99299
her	-9.99311
▁suit	-9.99323
▁broader	-9.99415
▁invasion	-9.9942
▁Post	-9.99489
05	-9.9951
▁correspondent	-9.99546
▁Netanyahu	-9.99564
Z	-9.99575
▁shock	-9.99622
▁safe	-9.9964
▁Danish	-9.99659
▁policemen	-9.997
▁discussed	-9.99786
▁assets	-9.99839
▁farm	-9.99957
▁offices	-9.99977
▁1.1	-10.0005
du	-10.0008
▁fly	-10.0014
▁ran	-10.0015
km	-10.0015
▁organisers	-10.0022
▁fully	-10.0022
▁traditional	-10.0027
ations	-10.0031
ized	-10.0031
▁strategy	-10.0035
▁doubt	-10.0037
▁throughout	-10.0037
▁accepted	-10.004
▁strikes	-10.0042
▁Southeast	-10.0042
▁labour	-10.0045
▁gathering	-10.0046
▁moving	-10.0052
▁0.4	-10.0056
▁2-0	-10.0059
▁interests	-10.0062
sk	-10.0063
▁march	-10.0063
▁massacre	-10.0065
▁reason	-10.0066
▁Norway	-10.0075
▁Securities	-10.0077
▁apparently	-10.0082
af	-10.0082
▁demanding	-10.0087
▁2000	-10.0095
▁takeover	-10.0096
shi	-10.0106
van	-10.0108
▁commitment	-10.0111
ven	-10.0111
▁partners	-10.0116
lic	-10.0121
▁overseas	-10.0121
▁Portuguese	-10.0137
ging	-10.0139
▁happened	-10.0141
▁fair	-10.0141
▁tribunal	-10.0143
▁quoting	-10.0148
▁qualifying	-10.0151
ising	-10.0152
▁sending	-10.0163
▁square	-10.017
nt	-10.0172
▁po	-10.0174
▁Somalia	-10.0177
▁Eight	-10.0181
▁southeast	-10.0185
▁laws	-10.0185
▁becoming	-10.0208
▁goods	-10.0213
▁care	-10.0213
75	-10.0215
ker	-10.0218
▁reportedly	-10.0218
isation	-10.0221
▁largely	-10.0224
▁delayed	-10.0225
▁lawyers	-10.0226
▁Cross	-10.0238
▁pass	-10.0243
▁Belgium	-10.0245
▁enter	-10.0253
▁Carlos	-10.0253
▁0.3	-10.0256
strong	-10.0263
▁river	-10.027
▁abroad	-10.0271
▁talk	-10.0282
▁1.2	-10.0282
▁Cyprus	-10.0284
fer	-10.0287
▁Karzai	-10.0299
▁computer	-10.03
▁feel	-10.0307
▁really	-10.0314
ach	-10.0317
▁hailed	-10.0318
▁Fi	-10.0329
▁built	-10.033
▁Ti	-10.0335
▁0.2	-10.0337
▁strategic	-10.0343
▁southwest	-10.0345
ical	-10.0348
▁units	-10.0348
▁deployed	-10.0352
▁Year	-10.0355
▁Boris	-10.0361
▁movie	-10.0364
▁struggle	-10.0369
ow	-10.0375
▁preliminary	-10.0388
▁Roman	-10.0394
ap	-10.0396
ier	-10.0403
▁grew	-10.0411
▁Norwegian	-10.042
▁significant	-10.0424
▁critical	-10.0424
▁jumped	-10.0425
week	-10.0432
minute	-10.0434
▁doctor	-10.0434
▁Church	-10.0439
▁housing	-10.0442
▁Tom	-10.0443
▁planes	-10.0448
lon	-10.045
▁Mubarak	-10.0454
▁advanced	-10.0455
▁Her	-10.0456
50	-10.046
▁Institute	-10.047
▁doing	-10.0472
▁Club	-10.0472
18	-10.0475
ee	-10.0477
▁command	-10.0484
▁Financial	-10.0493
▁contest	-10.0498
▁knee	-10.0499
atar	-10.0501
ible	-10.0511
▁Affairs	-10.0515
▁Somali	-10.0515
▁Rwanda	-10.0522
▁outlook	-10.0523
▁Pope	-10.0524
▁managed	-10.0524
▁northeastern	-10.0529
▁returning	-10.0532
▁pull	-10.0533
▁resigned	-10.0537
▁missiles	-10.0539
▁spoke	-10.0553
▁tight	-10.0556
ual	-10.0559
▁inquiry	-10.0563
▁closer	-10.0569
pped	-10.0571
tor	-10.0573
▁convoy	-10.0573
▁emerged	-10.0574
▁traders	-10.0576
▁kind	-10.0578
▁Haiti	-10.0581
▁tsunami	-10.0586
▁sure	-10.0589
▁investigating	-10.0593
▁Chen	-10.0595
▁successful	-10.0596
▁1992	-10.0605
▁possibility	-10.0611
▁jet	-10.0611
▁channel	-10.0612
▁Smith	-10.0613
▁bomber	-10.0615
▁Cricket	-10.062
▁agenda	-10.0623
well	-10.0628
low	-10.064
▁erupted	-10.0641
▁Board	-10.0643
▁document	-10.0648
▁IMF	-10.0653
▁kill	-10.0656
▁greater	-10.0658
tin	-10.0662
▁defeated	-10.0663
▁Ver	-10.0667
▁climbed	-10.0675
▁surgery	-10.0675
▁doctors	-10.0678
▁analyst	-10.0684
kin	-10.0684
▁(4	-10.0686
▁opposed	-10.0694
▁Airbus	-10.0696
▁contact	-10.0696
▁gross	-10.0708
▁Va	-10.0709
▁purchase	-10.0714
level	-10.0716
▁explosives	-10.0718
▁bombs	-10.0728
▁author	-10.073
▁First	-10.0736
▁save	-10.074
▁Mohamed	-10.0743
eh	-10.0747
▁extend	-10.0749
▁Monetary	-10.0759
▁calm	-10.076
▁always	-10.0761
▁56	-10.0773
35	-10.0775
▁pact	-10.0776
▁dangerous	-10.0779
▁strongly	-10.0781
▁victim	-10.0782
▁uranium	-10.0783
▁worked	-10.0788
ju	-10.0788
ors	-10.079
▁57	-10.0805
▁Cuban	-10.0806
▁aboard	-10.0809
▁Nobel	-10.0813
▁offering	-10.0814
▁danger	-10.0831
▁Black	-10.0835
▁bar	-10.0837
▁triggered	-10.0838
▁considering	-10.084
▁Dr	-10.0841
▁involvement	-10.0844
▁upcoming	-10.0846
▁quit	-10.0847
▁meetings	-10.0848
▁includes	-10.0858
ue	-10.086
▁unless	-10.0862
▁route	-10.0865
▁Bu	-10.0868
▁66	-10.0872
▁Seng	-10.0872
▁Boeing	-10.0876
▁Howard	-10.088
▁sport	-10.0885
▁ten	-10.0886
cha	-10.0896
▁produce	-10.0898
▁dozen	-10.09
16	-10.0901
▁probably	-10.0901
▁Assembly	-10.0902
▁Saint	-10.091
▁sp	-10.0913
▁72	-10.0914
▁Pan	-10.0914
▁58	-10.0914
▁proposals	-10.0919
▁membership	-10.0922
▁backing	-10.0924
▁ill	-10.0925
sion	-10.0928
▁TV	-10.0929
▁plot	-10.0932
▁occupied	-10.0932
▁Sarajevo	-10.0933
▁initiative	-10.0939
▁reasons	-10.0942
▁10,000	-10.0943
▁sidelines	-10.0944
very	-10.0952
▁additional	-10.0957
▁Colin	-10.0957
▁husband	-10.096
▁environmental	-10.0964
▁Hang	-10.0968
▁Gordon	-10.0975
▁withdraw	-10.0978
iv	-10.0979
▁regular	-10.0982
▁Socialist	-10.0986
80	-10.0989
▁Muslims	-10.0995
▁Guinea	-10.1001
▁Standard	-10.1003
▁trouble	-10.1004
12	-10.101
▁assistance	-10.1012
▁created	-10.1013
▁picked	-10.1019
▁Chris	-10.1029
▁staged	-10.1029
mal	-10.1031
▁constitutional	-10.1041
▁speaker	-10.1042
▁venture	-10.1046
▁your	-10.1055
▁fine	-10.1062
▁wrote	-10.1063
▁Geneva	-10.1063
▁clean	-10.1069
▁rock	-10.1072
▁designed	-10.1076
▁opportunity	-10.1076
▁67	-10.1076
▁Social	-10.108
13	-10.1081
▁student	-10.1082
▁helping	-10.1097
▁mixed	-10.111
70	-10.1112
▁permanent	-10.112
▁Cambodia	-10.1126
▁increasing	-10.1129
ping	-10.1134
▁task	-10.1134
▁Munich	-10.1139
▁waters	-10.114
▁Dubai	-10.1143
ari	-10.1144
▁Ariel	-10.115
▁speculation	-10.1151
90	-10.116
▁confident	-10.116
▁ask	-10.1162
▁fiscal	-10.1165
med	-10.1167
▁0.6	-10.1175
▁education	-10.1183
▁determined	-10.1186
▁capacity	-10.1186
▁Port	-10.1195
▁projects	-10.1203
▁shed	-10.1205
election	-10.121
▁Yu	-10.121
▁atomic	-10.1211
▁Shi	-10.1214
▁tennis	-10.1214
▁changed	-10.1216
▁green	-10.1217
▁unity	-10.1222
▁honour	-10.1222
▁why	-10.1222
▁believes	-10.1226
▁targets	-10.1234
ara	-10.1236
▁BBC	-10.124
▁finals	-10.1241
▁jump	-10.1243
vers	-10.1251
▁ally	-10.1253
▁recorded	-10.1253
▁remote	-10.1255
▁tribal	-10.1259
▁6,	-10.126
▁Bangkok	-10.1262
▁Thousands	-10.1266
▁Van	-10.1267
▁heavily	-10.127
qua	-10.127
▁1.3	-10.1272
▁Thomas	-10.1272
▁Abdel	-10.1273
▁Te	-10.1275
▁visited	-10.1278
▁64	-10.1285
ef	-10.1286
▁Communist	-10.1288
gar	-10.1289
ding	-10.129
▁ease	-10.1292
▁bitter	-10.1296
▁junta	-10.1299
▁Mc	-10.1308
gg	-10.131
55	-10.131
▁1995	-10.1312
24	-10.1313
▁Maria	-10.1317
▁forum	-10.1322
▁slipped	-10.1323
▁Hamid	-10.1325
if	-10.1327
▁judicial	-10.1333
▁palace	-10.1334
din	-10.1339
car	-10.134
▁cleric	-10.1343
▁Colonel	-10.1347
▁allowing	-10.1349
▁entire	-10.1351
▁questions	-10.1351
▁Ahmadinejad	-10.1351
▁2,000	-10.1358
03	-10.1362
▁hike	-10.1364
▁Sunni	-10.1364
▁11,	-10.1364
▁25-	-10.1365
▁rare	-10.1367
▁Wimbledon	-10.137
▁festival	-10.1371
▁collapsed	-10.1373
▁Colombia	-10.1378
▁Scottish	-10.1379
▁located	-10.1381
▁Kenyan	-10.1384
▁mandate	-10.1389
▁Che	-10.1389
▁often	-10.1403
▁flew	-10.1408
▁increasingly	-10.1423
ok	-10.1428
▁Com	-10.1431
▁declaration	-10.1435
▁cancelled	-10.1438
▁environment	-10.1445
▁politicians	-10.1447
▁62	-10.1447
uk	-10.1451
▁Pat	-10.147
▁Sir	-10.1471
▁waiting	-10.1473
tan	-10.1474
ned	-10.1475
▁AIDS	-10.148
60	-10.1485
▁Islam	-10.1491
▁houses	-10.1496
▁flat	-10.1497
▁volume	-10.1502
▁king	-10.1502
▁conducted	-10.1502
▁unable	-10.1508
▁Daniel	-10.1511
▁defend	-10.1513
▁resources	-10.1515
▁pushed	-10.1518
▁Christmas	-10.1533
▁cancer	-10.1539
▁gone	-10.1541
▁francs	-10.1541
▁feared	-10.156
▁unprecedented	-10.156
95	-10.1569
val	-10.1577
▁claiming	-10.1578
▁Average	-10.1586
▁alive	-10.1595
▁Pre	-10.1596
▁putting	-10.1597
pt	-10.1597
▁insurgency	-10.1614
▁lay	-10.1615
▁severe	-10.1617
▁minority	-10.1627
cc	-10.1628
▁Both	-10.1628
▁24-	-10.163
▁raising	-10.163
▁gun	-10.1634
let	-10.1642
▁68	-10.1644
▁institutions	-10.1645
ueen	-10.1647
▁Andrew	-10.1652
▁approach	-10.1663
▁divided	-10.1678
port	-10.1685
era	-10.1685
ities	-10.1689
▁Ukrainian	-10.1693
11	-10.1693
▁About	-10.1702
▁flag	-10.1702
ration	-10.1705
▁internal	-10.1711
▁CAC	-10.172
eng	-10.1725
▁peacekeeping	-10.1727
az	-10.1729
08	-10.1734
▁debut	-10.1737
▁Nasdaq	-10.1738
▁OPEC	-10.174
▁Ocean	-10.1741
▁Yugoslavia	-10.1745
65	-10.1745
▁Rwandan	-10.1751
▁tourist	-10.1752
▁music	-10.1757
▁seventh	-10.1763
nes	-10.1765
▁Commonwealth	-10.177
▁promote	-10.177
▁resign	-10.178
▁Conference	-10.1784
▁wickets	-10.1793
▁ball	-10.1796
▁pick	-10.1799
NA	-10.1799
▁Nazi	-10.1807
▁bloody	-10.181
▁limit	-10.1815
▁Lieutenant	-10.1815
field	-10.1817
▁driving	-10.1823
As	-10.1824
▁assassination	-10.1825
▁friendly	-10.1827
▁Denmark	-10.1834
▁choice	-10.1835
▁comp	-10.1835
▁telecom	-10.1841
▁20-	-10.1857
▁shown	-10.1858
ture	-10.186
▁threatening	-10.1861
▁fierce	-10.1862
▁Florida	-10.1865
gan	-10.1866
berg	-10.1875
▁answer	-10.1877
▁wide	-10.1882
▁serving	-10.1888
▁Libya	-10.1894
-225	-10.1894
▁Twenty	-10.1899
▁relationship	-10.1902
ved	-10.1904
▁Hindu	-10.1905
▁Alex	-10.1905
▁limited	-10.1907
▁Top	-10.1909
▁suggested	-10.191
▁9.	-10.191
▁2.5	-10.1911
▁lowest	-10.1912
▁Sun	-10.1913
▁eve	-10.1915
uff	-10.1918
▁slow	-10.1929
▁Ge	-10.1934
▁crown	-10.1935
▁immigration	-10.1938
▁targeted	-10.1939
tri	-10.1942
ita	-10.1946
▁ca	-10.1958
07	-10.1961
▁mu	-10.1961
▁Or	-10.1962
aw	-10.1963
▁seat	-10.1965
▁Benjamin	-10.1967
▁triumph	-10.1967
▁tackle	-10.1968
ship	-10.1968
▁things	-10.1971
▁politics	-10.1974
▁terrorists	-10.1978
▁Gi	-10.1989
▁Laden	-10.199
vin	-10.1994
▁Chief	-10.1999
▁Motor	-10.2003
▁revised	-10.2014
▁something	-10.2015
▁newly	-10.2021
▁section	-10.2022
▁Hundreds	-10.2022
▁1.4	-10.2028
▁kick	-10.2029
▁reduced	-10.2037
▁reaching	-10.2044
28	-10.2047
len	-10.2047
▁advantage	-10.2053
17	-10.2056
▁edged	-10.206
▁supported	-10.2063
▁served	-10.2067
▁Steve	-10.2072
▁tear	-10.2077
▁Atlantic	-10.2078
▁63	-10.2083
▁Brent	-10.2085
▁demonstration	-10.2085
pping	-10.2089
▁surplus	-10.2099
▁ounce	-10.21
▁slammed	-10.21
▁loans	-10.2105
▁SARS	-10.2108
▁predicted	-10.2119
▁Omar	-10.212
▁text	-10.2122
▁award	-10.2124
▁Interior	-10.2128
▁FTSE	-10.2128
▁complex	-10.2129
▁delivered	-10.214
▁art	-10.2147
▁commissioner	-10.2151
▁fought	-10.2153
▁damaged	-10.2158
▁operator	-10.2163
▁boycott	-10.2169
▁statistics	-10.217
hy	-10.2177
▁produced	-10.2178
▁economies	-10.2178
▁influence	-10.2178
▁travelling	-10.2185
▁various	-10.2185
▁Jackson	-10.2192
▁appearance	-10.2194
▁Kofi	-10.2201
▁Hassan	-10.2202
ei	-10.2206
06	-10.2211
▁association	-10.2219
▁compound	-10.222
ants	-10.2221
▁Green	-10.2224
▁Emirates	-10.2226
▁survivors	-10.2227
▁intention	-10.2229
▁expansion	-10.223
▁royal	-10.2233
▁required	-10.2233
▁cr	-10.2236
▁Bayern	-10.224
▁practice	-10.224
▁Mir	-10.2252
ization	-10.2258
than	-10.2276
▁pipeline	-10.2281
▁stressed	-10.2281
▁reaction	-10.2283
▁beaten	-10.2287
▁highly	-10.2288
▁verdict	-10.2293
▁vast	-10.2295
▁residence	-10.2302
▁female	-10.2306
▁Vatican	-10.231
▁moderate	-10.231
chip	-10.2314
tar	-10.2315
▁dominated	-10.2315
▁edition	-10.2316
▁guards	-10.2319
▁display	-10.2324
▁phase	-10.2326
▁dramatic	-10.2326
▁Sch	-10.233
▁Masters	-10.2333
▁Frank	-10.2333
▁Iraqis	-10.2339
▁Tri	-10.2349
▁appealed	-10.2352
▁improved	-10.2356
▁era	-10.2357
▁questioned	-10.2358
ban	-10.2366
▁informed	-10.2367
▁Ibrahim	-10.2368
▁retail	-10.2374
▁legislative	-10.2382
▁3,000	-10.2387
▁lose	-10.2387
ions	-10.239
▁Roger	-10.2397
▁missed	-10.2399
▁Treasury	-10.24
▁vessel	-10.2403
▁Merkel	-10.2414
▁broken	-10.2417
▁truce	-10.242
▁navy	-10.242
▁begun	-10.2425
▁Peace	-10.2428
ep	-10.243
▁1.0	-10.2434
▁Service	-10.2435
▁7-6	-10.2438
▁indicated	-10.244
▁subject	-10.2442
▁producer	-10.2443
bar	-10.2446
▁Several	-10.2449
▁foreigners	-10.2451
▁suspension	-10.2453
mit	-10.246
▁1.6	-10.2462
▁holds	-10.2464
▁federation	-10.2465
▁Dan	-10.247
▁flying	-10.2471
gue	-10.2473
22	-10.2477
head	-10.248
▁Hillary	-10.2487
▁Hill	-10.2488
▁hot	-10.2507
▁Min	-10.2508
▁lo	-10.2509
▁Belgrade	-10.2512
▁lunch	-10.2522
ney	-10.2525
▁Slam	-10.2528
▁swept	-10.2538
▁sites	-10.2544
▁plea	-10.2544
▁owned	-10.2546
09	-10.2547
▁Most	-10.2547
▁suspicion	-10.2549
▁prepare	-10.255
government	-10.2552
ative	-10.2553
▁replaced	-10.256
▁online	-10.2562
▁string	-10.2569
▁Beirut	-10.2569
▁monthly	-10.2573
▁restore	-10.2575
▁Tigers	-10.2587
02	-10.2591
▁Ahmad	-10.2592
euro	-10.2593
kov	-10.2595
▁providing	-10.2597
ovic	-10.2608
▁traded	-10.2608
▁Christopher	-10.2613
▁6-3,	-10.2613
mu	-10.2615
▁thanks	-10.262
▁marking	-10.2621
▁genocide	-10.2628
▁agents	-10.2634
▁Bureau	-10.2635
▁immigrants	-10.2655
▁Ex	-10.2656
state	-10.2659
▁negative	-10.2671
▁electricity	-10.2671
ino	-10.2673
ag	-10.2674
tain	-10.2691
row	-10.2697
nu	-10.2699
▁Jordanian	-10.2703
▁Representatives	-10.2703
▁fate	-10.2707
▁beyond	-10.2711
party	-10.2712
▁landed	-10.2715
29	-10.2715
▁northwestern	-10.2716
dic	-10.2719
▁61	-10.2724
ell	-10.2725
▁park	-10.2727
▁invited	-10.2728
▁postponed	-10.2728
▁w	-10.2732
▁Stephen	-10.2734
▁buildings	-10.2736
▁factory	-10.2738
▁stable	-10.2739
▁mountain	-10.2744
▁Star	-10.2744
▁Lankan	-10.2745
can	-10.2746
▁strength	-10.2752
▁nationwide	-10.2753
▁opponents	-10.2756
▁Manila	-10.2756
38	-10.2757
▁delegates	-10.2768
uri	-10.2771
ple	-10.2772
▁sc	-10.2773
▁happy	-10.2776
▁exercise	-10.2778
▁eased	-10.2781
ight	-10.2786
▁compromise	-10.2786
▁material	-10.2787
▁Kremlin	-10.2797
▁Federer	-10.2811
▁blocked	-10.2812
▁Kar	-10.2814
vis	-10.2814
▁disarmament	-10.2829
▁0.8	-10.283
▁observers	-10.283
▁69	-10.2831
▁extremists	-10.2832
▁crossing	-10.2834
▁acting	-10.2835
▁camps	-10.2837
▁Senator	-10.2838
▁Juan	-10.284
▁mounting	-10.284
▁nationalist	-10.284
▁unions	-10.2852
▁facilities	-10.2858
▁steel	-10.2863
▁ski	-10.2863
dar	-10.2865
▁Finland	-10.2865
▁Ed	-10.2868
▁granted	-10.2872
▁William	-10.2873
▁written	-10.2881
not	-10.2884
quarter	-10.2884
47	-10.2887
▁resumed	-10.2888
26	-10.289
ade	-10.289
▁cargo	-10.2894
▁watch	-10.2898
▁Romania	-10.2902
▁naval	-10.2904
▁scores	-10.2909
▁sacked	-10.2911
▁facility	-10.2912
▁criticised	-10.2914
ries	-10.2917
held	-10.2919
ill	-10.2927
SA	-10.2927
tal	-10.293
▁exit	-10.293
▁monetary	-10.2932
▁stronger	-10.2933
nk	-10.2939
▁rocked	-10.2945
▁blew	-10.2947
19	-10.2949
▁reporter	-10.295
▁university	-10.2961
▁bail	-10.2966
▁felt	-10.2977
▁check	-10.2983
air	-10.2983
▁attention	-10.2985
▁59	-10.2988
▁takes	-10.2997
set	-10.2998
▁aim	-10.3002
▁Lord	-10.3011
▁alone	-10.3015
cent	-10.3016
▁deals	-10.3018
▁arch	-10.3019
▁organised	-10.302
▁execution	-10.3021
▁joining	-10.3023
und	-10.3023
▁(5	-10.3028
▁nationals	-10.3031
▁registered	-10.3031
▁Officials	-10.3032
▁Space	-10.3033
▁Algeria	-10.3034
▁aide	-10.3048
▁modern	-10.3049
▁territories	-10.3049
des	-10.3049
-20	-10.3052
▁chances	-10.3052
▁tiny	-10.3057
▁inspectors	-10.3061
▁poverty	-10.3063
▁Poor	-10.3064
▁Vienna	-10.3066
▁Mexican	-10.3071
ug	-10.3073
▁stronghold	-10.3078
▁Un	-10.3079
▁Algerian	-10.3079
nce	-10.3081
▁related	-10.3084
▁Chavez	-10.3084
form	-10.3092
44	-10.3092
tter	-10.3093
▁En	-10.3093
▁slump	-10.3094
▁famous	-10.3095
▁testing	-10.31
▁surge	-10.3101
▁estimate	-10.3103
▁grave	-10.3106
cy	-10.3109
▁outcome	-10.3115
▁Viktor	-10.3116
▁boosted	-10.3117
▁Celtic	-10.3117
▁o	-10.3119
37	-10.3119
27	-10.312
▁differences	-10.3121
▁kingdom	-10.3132
▁closely	-10.3134
▁Judge	-10.3134
ram	-10.3137
▁Cypriot	-10.3139
▁ho	-10.3141
▁briefing	-10.3146
ice	-10.3149
▁Mer	-10.3153
▁Gold	-10.3156
▁southwestern	-10.3165
IC	-10.3165
▁scoring	-10.3167
▁conduct	-10.3171
▁southeastern	-10.3174
▁Mike	-10.3174
▁everything	-10.3179
▁owner	-10.318
tion	-10.3191
▁widespread	-10.3192
▁volatile	-10.3195
▁meanwhile	-10.3195
▁peacekeepers	-10.3206
match	-10.3209
66	-10.3214
▁landing	-10.3215
▁Gar	-10.3218
▁Kha	-10.3222
▁Cor	-10.3223
ec	-10.3223
▁polling	-10.3224
▁Inc	-10.3225
▁signal	-10.3225
▁120	-10.3229
▁warrant	-10.3229
▁hundred	-10.3233
▁Vietnamese	-10.3237
▁pain	-10.3237
▁deployment	-10.3244
▁assistant	-10.3247
▁Mediterranean	-10.3247
▁absence	-10.3254
▁devastating	-10.3255
▁Oscar	-10.3255
ble	-10.3262
▁helicopters	-10.3263
▁eye	-10.3263
▁Y	-10.3263
▁strain	-10.3266
▁activist	-10.3267
▁creation	-10.3272
▁Aziz	-10.3281
▁chemical	-10.3281
▁firing	-10.3289
ified	-10.3289
▁imp	-10.329
▁initially	-10.329
▁Par	-10.3294
ming	-10.3299
▁compatriot	-10.3299
,500	-10.3301
▁Dar	-10.3301
▁Tor	-10.3302
▁Islamabad	-10.3303
▁6-4,	-10.3305
▁effective	-10.3311
▁mo	-10.332
art	-10.3321
▁wounding	-10.3328
▁shareholders	-10.3343
▁DA	-10.3346
ama	-10.3346
▁attempts	-10.3346
ped	-10.335
▁standing	-10.3353
▁friends	-10.3354
▁flow	-10.3356
▁raids	-10.3359
▁Latin	-10.3365
▁Ram	-10.3366
▁particular	-10.3371
bal	-10.3374
yn	-10.3374
▁Venezuela	-10.3375
▁prosecution	-10.3386
▁holy	-10.3398
▁occupation	-10.3403
▁suburb	-10.3409
▁treated	-10.3409
▁Parliament	-10.341
▁friend	-10.3411
▁Another	-10.3414
▁moves	-10.3418
▁cited	-10.3418
▁strengthen	-10.342
▁app	-10.3424
▁entry	-10.3424
▁bridge	-10.3425
▁surged	-10.3425
▁income	-10.3426
▁Hurricane	-10.3428
▁relatives	-10.3431
▁dream	-10.3434
cl	-10.3438
▁ballot	-10.3446
munications	-10.3446
▁idea	-10.3448
▁businesses	-10.3448
▁Ad	-10.3453
▁r	-10.3453
ala	-10.3455
▁hosts	-10.3459
▁underway	-10.3462
▁curb	-10.3472
▁wrong	-10.3473
▁Ju	-10.3478
ini	-10.3482
▁automaker	-10.3496
▁unbeaten	-10.3497
pre	-10.3504
▁ways	-10.3508
sur	-10.3509
▁Aceh	-10.3514
▁narrow	-10.3515
▁0.9	-10.3521
▁tourism	-10.3525
▁Mandela	-10.353
▁super	-10.3534
ib	-10.3546
▁accompanied	-10.3551
ile	-10.3551
▁actions	-10.3558
▁millions	-10.3561
▁pilot	-10.3563
▁River	-10.3563
▁Texas	-10.3563
▁Shah	-10.3565
▁wait	-10.3565
tti	-10.3572
▁visitors	-10.3575
▁reserves	-10.358
▁succeed	-10.3581
▁Atomic	-10.3582
▁Tel	-10.3584
▁split	-10.3585
▁pitch	-10.3586
▁acts	-10.3586
▁Basque	-10.3589
▁Olmert	-10.3589
▁silver	-10.3592
▁developed	-10.3601
▁auction	-10.3603
▁Forces	-10.3604
cker	-10.3611
▁subsidiary	-10.3614
▁meant	-10.3622
▁hopeful	-10.3622
▁Earlier	-10.3623
36	-10.3623
ide	-10.3626
▁Scott	-10.3628
▁bought	-10.3637
▁demonstrations	-10.3637
▁retired	-10.3638
▁71	-10.3642
▁escaped	-10.3643
▁tell	-10.3646
▁22-	-10.3654
▁quotes	-10.3654
▁quick	-10.3657
iti	-10.3657
▁continent	-10.3657
▁Del	-10.3657
▁Libyan	-10.366
▁Old	-10.3664
ded	-10.3665
▁5,000	-10.3667
▁parents	-10.3669
▁investigators	-10.3672
▁attempted	-10.3677
85	-10.3679
hal	-10.368
▁deliver	-10.368
▁ta	-10.369
▁Johnson	-10.3694
▁Davis	-10.3694
ez	-10.3696
▁Condoleezza	-10.37
▁professional	-10.3701
ric	-10.3701
▁76	-10.3703
▁Arroyo	-10.3703
23	-10.3707
▁miss	-10.3711
▁benefit	-10.3711
▁negotiator	-10.3713
41	-10.3721
▁Newcastle	-10.3725
But	-10.3725
▁unknown	-10.3733
▁Luis	-10.3734
▁eighth	-10.3738
VI	-10.3739
▁1999	-10.374
▁expand	-10.3741
No	-10.3742
▁prospects	-10.3745
▁farmers	-10.3746
▁aviation	-10.3747
▁schools	-10.3748
▁midnight	-10.3749
▁experience	-10.3751
▁alongside	-10.3755
dra	-10.3757
▁bit	-10.3759
▁asylum	-10.3761
made	-10.3769
43	-10.3769
▁unlikely	-10.3769
▁Yemen	-10.3776
▁Rugby	-10.3783
▁surrounding	-10.3785
▁Wen	-10.3787
▁society	-10.3789
PA	-10.3789
▁agent	-10.3794
▁partnership	-10.3797
31	-10.38
42	-10.3801
▁Pervez	-10.3803
mat	-10.3806
▁path	-10.3809
▁1.8	-10.381
▁Around	-10.381
▁1997	-10.3819
▁departure	-10.3823
▁apparent	-10.3826
▁Treaty	-10.3828
▁Osama	-10.3833
▁winter	-10.3834
▁Despite	-10.3835
▁funding	-10.3836
▁funeral	-10.384
▁100,000	-10.3845
▁Centre	-10.385
▁established	-10.385
ff	-10.3852
▁upon	-10.3862
ria	-10.3867
▁grow	-10.3868
▁sustained	-10.3868
▁angry	-10.387
▁rebound	-10.3872
▁Kyi	-10.3875
▁accusing	-10.3875
At	-10.3882
▁merger	-10.3885
▁Telecom	-10.3892
▁thing	-10.3894
ane	-10.3895
▁Tra	-10.3901
▁cautious	-10.3902
▁Belarus	-10.3907
ged	-10.391
▁shows	-10.3915
▁By	-10.3917
▁winners	-10.3917
▁trend	-10.3918
▁breaking	-10.3925
49	-10.3927
▁wall	-10.3931
62	-10.3932
▁UEFA	-10.3934
▁Maoist	-10.3934
▁Woods	-10.3935
▁recover	-10.3936
▁spend	-10.3937
▁Ol	-10.3938
▁WTO	-10.394
▁j	-10.394
▁villages	-10.3945
▁Statistics	-10.3945
▁winds	-10.3946
▁voiced	-10.3946
▁Burundi	-10.395
▁formed	-10.3951
▁riot	-10.3956
▁explosive	-10.3956
▁resistance	-10.3963
▁fallen	-10.3964
▁Ce	-10.3972
fu	-10.3973
market	-10.3976
01	-10.3979
▁compete	-10.3981
▁8.	-10.3982
dan	-10.3984
▁born	-10.3988
▁laid	-10.3989
▁buried	-10.3993
32	-10.3995
▁steady	-10.4
▁Michel	-10.4004
▁Commerce	-10.4007
-3	-10.4009
▁advisor	-10.4012
▁Manuel	-10.4018
ition	-10.4019
▁revenue	-10.402
▁Sc	-10.402
▁institute	-10.4024
▁establish	-10.4028
▁policeman	-10.4032
▁faction	-10.4035
▁Last	-10.4035
yan	-10.4039
▁organization	-10.4039
▁coastal	-10.405
uring	-10.4053
▁Andy	-10.4054
▁accusations	-10.4056
iz	-10.4057
▁worries	-10.4058
▁Mac	-10.4058
▁breakaway	-10.4062
▁FIFA	-10.4069
▁mainland	-10.4069
▁futures	-10.4071
▁Thaksin	-10.4072
▁27-	-10.4077
▁prove	-10.4077
▁Villa	-10.4081
▁achieve	-10.4087
▁Fatah	-10.4088
▁peninsula	-10.4089
▁cleared	-10.4093
▁giants	-10.4093
▁active	-10.4095
▁rail	-10.4096
▁blasts	-10.4098
▁threw	-10.41
▁software	-10.4104
▁individual	-10.4106
▁rockets	-10.4107
▁trafficking	-10.4107
▁invest	-10.4109
▁nor	-10.4112
▁250	-10.4112
▁mining	-10.4112
▁continues	-10.4114
▁Toyota	-10.4117
34	-10.4119
▁Medvedev	-10.412
gre	-10.4122
▁hero	-10.4127
▁sank	-10.4128
▁via	-10.4129
stra	-10.4131
▁prompted	-10.4131
▁packed	-10.4131
▁AC	-10.4132
▁Mon	-10.4133
▁warm	-10.4136
39	-10.414
iya	-10.4142
▁gang	-10.4143
▁receiving	-10.4143
▁names	-10.4144
ola	-10.4145
▁onto	-10.4147
▁8,	-10.4148
▁keeping	-10.4149
▁barrels	-10.4157
▁Colombian	-10.4157
96	-10.4157
▁rallied	-10.4159
▁contain	-10.4161
zo	-10.4163
▁insurance	-10.4167
▁brand	-10.4167
▁defended	-10.4168
▁dealing	-10.4171
Ba	-10.4171
▁Schroeder	-10.4173
▁happen	-10.4176
law	-10.4178
▁73	-10.418
UN	-10.4182
▁Great	-10.4183
▁85	-10.4189
▁tested	-10.4189
▁Fernando	-10.4192
▁Ankara	-10.4193
▁prospect	-10.4195
▁nomination	-10.4203
▁balance	-10.4204
▁neighbours	-10.421
▁witness	-10.4212
▁tens	-10.4215
ip	-10.4216
ious	-10.4216
Pacific	-10.4219
▁politician	-10.4224
▁injuring	-10.423
▁tr	-10.4238
▁Mor	-10.4244
▁Donald	-10.4245
▁direction	-10.4245
53	-10.4246
▁Damascus	-10.4251
▁machine	-10.4251
work	-10.4254
▁removed	-10.4264
▁middle	-10.4265
▁Democrat	-10.4265
▁Bulgaria	-10.4267
All	-10.4271
▁protestors	-10.4272
av	-10.4273
oc	-10.4278
▁anything	-10.428
tz	-10.4281
▁Zaire	-10.4281
▁(6	-10.4285
▁Suu	-10.4286
▁cell	-10.4289
▁Bernard	-10.4289
▁Sol	-10.429
▁evacuated	-10.4294
▁scheme	-10.4295
▁affect	-10.43
▁sa	-10.4304
ira	-10.4306
my	-10.4309
▁1.7	-10.4309
▁Morocco	-10.4316
▁count	-10.4319
pp	-10.4328
-1	-10.4331
▁trapped	-10.4332
▁1-1	-10.4334
ett	-10.4335
▁organisations	-10.4342
▁Andre	-10.4345
▁minor	-10.4345
▁wish	-10.4346
▁Mahmoud	-10.4347
▁venue	-10.4351
▁21-	-10.4354
▁Ferguson	-10.4359
▁dawn	-10.4361
▁Mr	-10.4363
▁Peres	-10.4363
▁Motors	-10.4365
▁stars	-10.437
▁Basketball	-10.4371
▁turmoil	-10.4371
▁Argentine	-10.4374
▁Aung	-10.4376
rk	-10.4379
▁Airways	-10.438
ova	-10.4382
▁wearing	-10.4385
▁fit	-10.4386
▁3-0	-10.4387
▁dictator	-10.439
):	-10.4392
▁Bali	-10.4393
take	-10.4395
▁belonging	-10.4405
ash	-10.4408
▁reconstruction	-10.4411
rat	-10.4413
▁hunt	-10.4414
▁elite	-10.4418
xi	-10.4418
▁shuttle	-10.4421
▁numbers	-10.4421
▁vital	-10.4422
▁judges	-10.4424
▁adviser	-10.4428
▁Taylor	-10.4432
▁awarded	-10.4433
46	-10.4434
▁incidents	-10.4438
hor	-10.4439
▁capture	-10.4457
▁forecasts	-10.4458
▁prominent	-10.4465
▁Laurent	-10.448
▁600	-10.4482
▁opener	-10.4484
▁Kevin	-10.4486
▁bronze	-10.4487
▁78	-10.4491
▁obtained	-10.4493
▁Caribbean	-10.4493
▁Labor	-10.4493
▁risks	-10.4494
▁embattled	-10.4499
cho	-10.4499
▁metal	-10.45
5,000	-10.45
▁restrictions	-10.4505
▁Hollywood	-10.4509
▁snow	-10.4509
▁scientists	-10.4511
▁standards	-10.4512
▁asking	-10.4513
▁intervention	-10.4514
▁Tim	-10.4526
▁intended	-10.453
▁Ye	-10.4531
▁Ze	-10.4536
▁percentage	-10.4541
bor	-10.4544
rie	-10.4545
▁Es	-10.4546
▁mistake	-10.4554
▁bat	-10.4561
▁Men	-10.4561
▁Can	-10.4565
▁noted	-10.4566
▁islands	-10.4568
▁reduction	-10.4579
▁solid	-10.4579
▁Chicago	-10.4585
▁extremist	-10.4585
▁Tibet	-10.4589
64	-10.4589
▁Spaniard	-10.459
▁seconds	-10.4597
▁Simon	-10.46
▁enclave	-10.4602
▁Melbourne	-10.4605
pur	-10.4612
▁restive	-10.4613
▁77	-10.4616
tur	-10.4617
▁goes	-10.4618
nan	-10.4624
▁2.0	-10.4626
▁Rio	-10.4627
▁Guantanamo	-10.4633
▁Milosevic	-10.4634
▁chain	-10.4635
▁liberal	-10.4637
ob	-10.4639
mir	-10.4641
▁1980	-10.4643
▁Radio	-10.4643
▁da	-10.4644
33	-10.4645
▁depend	-10.4647
▁9,	-10.4648
▁Democracy	-10.4648
▁Championships	-10.4649
sol	-10.465
▁Hosni	-10.4653
▁investor	-10.4655
▁tanks	-10.4659
▁forest	-10.4661
▁800	-10.4662
▁Silvio	-10.4662
▁Bro	-10.4664
▁assist	-10.4664
▁Castro	-10.4665
▁expert	-10.4671
▁embargo	-10.4673
▁escape	-10.4674
lla	-10.4675
▁attorney	-10.468
▁improvement	-10.4682
▁Formula	-10.4685
99	-10.469
▁Georgian	-10.4691
▁kidnapping	-10.4691
▁Ten	-10.4696
▁74	-10.4708
▁Albanian	-10.4711
▁fishing	-10.4719
▁ailing	-10.472
▁Joseph	-10.472
▁Gra	-10.472
making	-10.4724
▁Niger	-10.4726
▁successor	-10.4729
▁bottom	-10.4733
▁Free	-10.4736
▁bowler	-10.4737
▁Uganda	-10.4737
Re	-10.4741
▁drew	-10.475
▁finding	-10.4751
▁arrests	-10.4753
▁hitting	-10.4754
ura	-10.4765
▁Hungary	-10.4766
▁device	-10.4772
▁Bas	-10.4775
▁1989	-10.4776
▁skipper	-10.4777
▁Rangers	-10.478
▁deputies	-10.4781
ked	-10.4788
▁fighter	-10.4792
rin	-10.4796
▁elect	-10.4797
▁telling	-10.4797
ute	-10.4798
▁attending	-10.4801
▁duty	-10.4812
DA	-10.4812
kar	-10.4815
▁urging	-10.482
56	-10.4821
▁import	-10.4825
▁Kan	-10.4825
▁sovereignty	-10.4825
elect	-10.4833
▁se	-10.4834
▁Workers	-10.4839
▁speak	-10.4844
▁determine	-10.4844
▁submitted	-10.4844
▁existing	-10.4847
ear	-10.4848
▁Bra	-10.4852
▁Jack	-10.4853
▁box	-10.4854
▁Food	-10.4855
▁appears	-10.4857
▁rape	-10.4858
▁contracts	-10.4862
▁beef	-10.4866
▁sexual	-10.4866
▁tension	-10.4871
▁railway	-10.4873
▁Sergei	-10.4877
down	-10.4878
▁Timor	-10.4881
▁rich	-10.4881
▁actor	-10.4882
▁invitation	-10.4884
ters	-10.4887
▁luxury	-10.4891
▁Brian	-10.4892
▁2003,	-10.4893
▁3.5	-10.4895
▁version	-10.4895
▁negotiating	-10.4899
▁die	-10.4903
▁class	-10.4907
▁Pu	-10.4912
bra	-10.4919
▁factions	-10.493
controlled	-10.4931
▁turning	-10.4932
63	-10.4939
▁compensation	-10.4943
▁torture	-10.4947
▁voice	-10.4948
▁monitoring	-10.4956
ris	-10.4961
▁Antonio	-10.4962
▁sensitive	-10.4973
▁appointment	-10.498
▁cap	-10.4984
▁illegally	-10.4988
69	-10.4991
board	-10.4993
▁clubs	-10.4995
▁When	-10.4998
▁pope	-10.4999
▁During	-10.5001
▁businessman	-10.5001
▁Khartoum	-10.5001
▁mortar	-10.5001
▁stormed	-10.5002
▁favourite	-10.5004
▁emerging	-10.5006
▁article	-10.5008
night	-10.501
▁23-	-10.501
▁6-4	-10.5013
▁agriculture	-10.5017
▁Rafael	-10.5019
ons	-10.5022
▁ring	-10.5022
▁lines	-10.5023
58	-10.5033
▁touch	-10.5036
▁Tan	-10.5036
sch	-10.5036
▁Je	-10.5038
▁aims	-10.5041
▁Gal	-10.5043
▁Carl	-10.5044
▁badly	-10.505
For	-10.5054
▁Kurdistan	-10.5054
▁Cho	-10.5057
eg	-10.5057
had	-10.5058
▁Koizumi	-10.506
▁Although	-10.5063
▁combined	-10.5066
▁sit	-10.5066
aki	-10.5068
93	-10.5072
will	-10.5077
▁1993	-10.5078
▁door	-10.508
You	-10.509
▁entering	-10.5093
▁driven	-10.5096
▁bargain	-10.5101
▁anger	-10.5101
▁detainees	-10.5104
▁Jiang	-10.5107
▁FA	-10.5111
▁Alan	-10.5114
▁ATP	-10.5115
▁wild	-10.5118
▁directly	-10.5121
▁colleagues	-10.5122
ano	-10.5125
▁Ford	-10.5126
▁pleaded	-10.513
▁Istanbul	-10.5141
▁rider	-10.5142
bro	-10.5147
88	-10.5152
▁Liberal	-10.5152
▁unidentified	-10.5152
▁language	-10.5152
▁Hans	-10.5153
seat	-10.5156
▁bond	-10.5158
59	-10.516
▁MPs	-10.516
▁HIV	-10.5163
▁roads	-10.5165
▁infrastructure	-10.5165
▁swine	-10.5167
▁cooperate	-10.5167
▁unnamed	-10.517
▁concluded	-10.5171
ets	-10.518
▁image	-10.5181
▁chair	-10.5184
▁Bob	-10.5187
▁Cape	-10.5187
ale	-10.5188
▁heat	-10.5193
▁3-1	-10.5195
▁Government	-10.5199
▁golf	-10.52
TASS	-10.5201
▁origin	-10.5202
▁wins	-10.5203
▁easing	-10.5212
▁regions	-10.5215
tax	-10.5222
▁modest	-10.5231
▁mind	-10.5242
ali	-10.5243
▁exile	-10.5246
▁18-	-10.5248
97	-10.5254
-19	-10.5255
related	-10.5259
92	-10.526
▁landslide	-10.5264
▁culture	-10.5266
▁edge	-10.5267
▁forcing	-10.5272
▁struggled	-10.5274
vent	-10.528
fo	-10.5281
▁ITAR	-10.5282
▁pledge	-10.5282
▁suspend	-10.5283
▁understand	-10.5285
▁requested	-10.5291
▁outgoing	-10.5296
▁Frenchman	-10.5299
nch	-10.5301
86	-10.5302
▁store	-10.5305
▁Wang	-10.531
Ha	-10.531
▁Share	-10.5312
▁completely	-10.5315
ati	-10.5316
▁Israelis	-10.5317
▁gap	-10.5318
▁notably	-10.5325
▁jury	-10.5328
foot	-10.533
▁700	-10.5337
▁standoff	-10.5341
▁killer	-10.5343
like	-10.5348
▁ice	-10.5351
▁consortium	-10.5351
▁battling	-10.5353
▁representing	-10.5353
ski	-10.5354
▁announcing	-10.5355
▁Char	-10.5357
▁Ethiopian	-10.5359
▁notice	-10.5362
▁Company	-10.5363
are	-10.5364
▁Kuala	-10.5367
57	-10.5369
▁false	-10.5369
▁Yugoslav	-10.5369
▁Sal	-10.5376
▁questioning	-10.538
▁cutting	-10.5381
▁page	-10.5381
▁express	-10.5383
▁peak	-10.5385
▁guarantee	-10.5385
American	-10.5389
▁urgent	-10.539
press	-10.5391
▁desert	-10.5392
▁troop	-10.5392
▁Ber	-10.5395
▁brutal	-10.5396
terrorist	-10.5397
▁schedule	-10.5397
win	-10.5398
▁bolster	-10.5404
▁proved	-10.5406
▁Airport	-10.5416
▁violations	-10.5418
▁clearly	-10.5421
▁leftist	-10.5428
▁love	-10.5432
▁grounds	-10.5437
▁ballots	-10.5438
president	-10.5439
▁mean	-10.5439
▁earned	-10.5439
▁Lumpur	-10.5441
▁didn	-10.5444
▁16-	-10.5447
▁expects	-10.5449
light	-10.5453
▁secured	-10.5453
▁controlled	-10.5454
48	-10.5463
▁youth	-10.5464
br	-10.5464
▁maximum	-10.5467
uc	-10.547
▁Sar	-10.5477
▁Kerry	-10.5478
▁Cambodian	-10.5478
▁grant	-10.548
▁story	-10.5487
▁generation	-10.549
21	-10.5492
mm	-10.5492
ph	-10.5493
▁abducted	-10.5498
▁encounter	-10.5501
unt	-10.5502
▁birth	-10.5507
house	-10.5512
▁reconciliation	-10.5512
▁Guard	-10.5513
▁model	-10.5513
▁customs	-10.5515
▁Eastern	-10.5521
98	-10.5521
),"	-10.5521
54	-10.5531
▁Aviv	-10.5536
zz	-10.5538
▁intense	-10.5539
▁towns	-10.5552
ator	-10.5555
94	-10.5558
▁cloud	-10.5563
▁restructuring	-10.5563
▁floor	-10.5567
ich	-10.5569
▁(12	-10.5577
▁card	-10.5578
▁Louis	-10.5586
▁blaze	-10.559
▁impose	-10.559
ability	-10.5591
▁closure	-10.5591
▁controversy	-10.5591
▁Rumsfeld	-10.5602
▁Gates	-10.5605
▁Mumbai	-10.5607
68	-10.5607
▁sum	-10.5609
dri	-10.5609
52	-10.5616
▁Liberia	-10.5616
▁goalkeeper	-10.5619
ory	-10.5626
▁Islands	-10.5629
expected	-10.5632
▁equal	-10.5635
▁labor	-10.5636
▁Nelson	-10.5639
▁editor	-10.564
▁reading	-10.564
▁harm	-10.5641
mile	-10.5641
▁Hague	-10.5642
LTTE	-10.5642
▁provinces	-10.5647
til	-10.5648
▁accounts	-10.5654
dom	-10.5655
▁Il	-10.566
▁referee	-10.5661
▁fail	-10.5663
▁manufacturing	-10.5664
▁risen	-10.5665
pic	-10.5666
ew	-10.5676
▁Cla	-10.5677
▁Chile	-10.5679
▁showdown	-10.5681
▁tries	-10.5682
▁apartment	-10.5684
▁founder	-10.5687
67	-10.569
adi	-10.5693
▁Henry	-10.5697
▁playoff	-10.5702
▁floods	-10.5703
▁God	-10.5705
▁concert	-10.5709
mba	-10.571
▁trust	-10.5712
▁82	-10.5714
▁critics	-10.5714
▁Croat	-10.5717
bel	-10.5719
▁Azerbaijan	-10.5721
▁2004,	-10.5721
▁branch	-10.5723
▁Peru	-10.5731
hai	-10.5735
▁2.2	-10.5736
▁Angel	-10.5739
▁Morgan	-10.5741
▁electronic	-10.5741
▁l	-10.5743
cal	-10.5744
▁rein	-10.5745
▁qualifier	-10.5751
▁participation	-10.5751
▁rescued	-10.5752
▁killings	-10.5753
▁motion	-10.5754
▁drivers	-10.5757
▁84	-10.5761
▁Criminal	-10.5765
▁loyal	-10.5766
▁currencies	-10.5767
My	-10.5768
▁slowdown	-10.5771
▁freeze	-10.5772
▁anyone	-10.5777
▁grand	-10.5779
▁pound	-10.578
▁tense	-10.5791
▁decree	-10.5793
zer	-10.5795
cle	-10.5797
▁disarm	-10.5803
▁complaint	-10.5805
▁lifting	-10.5805
▁investigate	-10.5807
izing	-10.5808
▁Ehud	-10.5808
▁supporting	-10.5808
▁falls	-10.581
▁screen	-10.5814
▁crack	-10.582
▁affair	-10.5823
▁cold	-10.5825
gging	-10.5826
far	-10.5828
▁14.	-10.5833
▁Fu	-10.5838
71	-10.5839
▁executed	-10.584
int	-10.584
▁Finnish	-10.5841
ient	-10.5841
▁spill	-10.5843
▁Global	-10.5845
terrorism	-10.5845
▁Fiji	-10.5846
▁worker	-10.5852
▁aside	-10.5857
▁slumped	-10.5858
▁Fed	-10.5859
▁word	-10.586
▁Bulgarian	-10.5866
fin	-10.5867
▁remove	-10.5869
What	-10.587
▁possibly	-10.587
▁sister	-10.5872
▁temporary	-10.5872
▁ships	-10.5873
▁shots	-10.5873
▁Costa	-10.5873
▁agreements	-10.5885
72	-10.5896
▁singles	-10.5897
zar	-10.5899
▁respond	-10.5899
▁20,000	-10.5903
▁2005,	-10.5907
▁rushed	-10.5908
▁Benedict	-10.591
▁operate	-10.5928
▁handling	-10.5931
▁counterparts	-10.5931
▁makes	-10.5933
▁Hospital	-10.5942
▁PLO	-10.5944
Ma	-10.5945
style	-10.5945
rit	-10.5953
▁Straits	-10.5956
▁Marc	-10.5958
ologist	-10.5958
▁Tibetan	-10.596
▁Act	-10.5962
▁arriving	-10.5963
▁warming	-10.5965
nn	-10.5969
▁Yemeni	-10.597
▁priority	-10.5971
▁weaker	-10.5973
▁recall	-10.5978
▁borders	-10.5981
▁listed	-10.5982
▁urge	-10.5984
▁6-2	-10.5985
▁16.	-10.599
▁enrichment	-10.5991
▁1.9	-10.5996
▁Baltic	-10.5997
dge	-10.6001
▁cons	-10.6011
▁focused	-10.6013
▁Taiwanese	-10.6016
▁Vo	-10.6027
▁Armed	-10.6028
An	-10.603
▁true	-10.6031
▁Alliance	-10.6035
▁wind	-10.6038
def	-10.604
▁consensus	-10.604
▁size	-10.6041
range	-10.6053
nie	-10.6054
▁26-	-10.6066
▁Corporation	-10.6072
▁preparations	-10.6077
▁identity	-10.6077
▁Jews	-10.6077
eb	-10.6078
▁approve	-10.6078
lay	-10.6078
nic	-10.6081
▁Microsoft	-10.6083
▁rating	-10.6084
76	-10.6089
pac	-10.609
87	-10.6092
▁83	-10.6095
▁Young	-10.61
▁Bhutto	-10.6102
▁reference	-10.6104
▁du	-10.6109
▁retirement	-10.6114
▁Bahrain	-10.6114
▁chip	-10.6116
▁celebrations	-10.6116
▁Lake	-10.6118
▁option	-10.6123
▁upset	-10.6125
ery	-10.6126
ville	-10.6132
▁Pri	-10.6133
▁impoverished	-10.6134
77	-10.6135
▁Romanian	-10.6135
▁Slovakia	-10.6142
▁Lyon	-10.6144
cra	-10.6145
▁potentially	-10.6148
▁twin	-10.6151
▁bankruptcy	-10.6152
▁artillery	-10.6154
▁looks	-10.6163
▁Mat	-10.6165
▁thrown	-10.6165
▁marriage	-10.6165
ched	-10.6173
▁hear	-10.6175
▁Ian	-10.6182
emi	-10.6188
▁sweeping	-10.6188
ification	-10.6194
▁appeals	-10.6198
▁Francisco	-10.6207
▁fashion	-10.6211
▁add	-10.6214
▁improving	-10.6218
▁el	-10.622
▁locked	-10.6222
▁2.3	-10.6222
▁Ethiopia	-10.6227
ea	-10.6229
ese	-10.6229
▁Er	-10.6232
▁smoke	-10.6233
▁Solana	-10.6234
BC	-10.6237
▁Em	-10.6237
mann	-10.6242
cer	-10.6245
▁Square	-10.6249
▁words	-10.6249
▁settle	-10.6256
▁clashed	-10.6257
▁shift	-10.6257
lat	-10.6258
▁Kat	-10.6258
▁Bel	-10.6262
▁warnings	-10.6267
▁Hutu	-10.6268
▁retain	-10.6269
▁2001,	-10.6273
▁6-2,	-10.6277
▁baby	-10.628
▁Angela	-10.6281
▁(8	-10.6289
ral	-10.6289
▁successive	-10.629
▁2.1	-10.6293
▁conclusion	-10.6296
▁Roma	-10.6298
▁ripped	-10.6302
▁works	-10.6303
▁11-	-10.6304
ada	-10.6308
▁tea	-10.631
▁soared	-10.6312
DP	-10.6317
▁Industry	-10.6318
▁girls	-10.6318
▁introduced	-10.6323
▁Ferrari	-10.6323
▁Wi	-10.6328
▁televised	-10.6332
▁Ab	-10.6337
▁extradition	-10.6338
▁28-	-10.6338
▁shared	-10.634
PO	-10.6341
▁Ci	-10.6342
▁overcome	-10.6355
▁displaced	-10.6356
▁favor	-10.6357
▁sealed	-10.6363
▁celebrated	-10.6365
▁rec	-10.6372
▁hall	-10.6373
▁managing	-10.6375
▁creating	-10.638
▁legend	-10.6385
use	-10.6387
▁le	-10.6387
89	-10.6389
▁supreme	-10.6391
▁Authorities	-10.6392
▁88	-10.6393
▁Nick	-10.6393
▁patients	-10.6394
▁wicket	-10.6403
▁upper	-10.6404
▁pension	-10.6406
▁Sen	-10.6409
▁selected	-10.6409
To	-10.6414
▁Kuwaiti	-10.6414
ua	-10.6417
▁municipal	-10.642
▁Nine	-10.6423
vest	-10.6428
▁heavyweight	-10.6428
▁Don	-10.6429
▁stance	-10.6437
83	-10.6439
▁Deutsche	-10.644
ered	-10.6447
▁Joe	-10.6449
73	-10.6451
▁spirit	-10.6453
▁ninth	-10.6453
cher	-10.6455
▁6-3	-10.6456
▁implement	-10.6456
▁principle	-10.6457
▁watched	-10.6459
ON	-10.6459
▁Pen	-10.646
zu	-10.6463
▁survived	-10.6469
▁Boutros	-10.647
▁background	-10.6476
▁circumstances	-10.6481
▁maintained	-10.6481
▁sound	-10.6483
▁trans	-10.6491
load	-10.6493
tel	-10.6494
▁coal	-10.6499
ire	-10.6504
▁grenade	-10.6505
▁regret	-10.6508
gui	-10.651
bre	-10.6514
▁denounced	-10.6514
▁Public	-10.6521
▁owners	-10.6523
gun	-10.6524
▁bombers	-10.6524
78	-10.6529
▁2008,	-10.6535
top	-10.6537
lt	-10.654
▁stretch	-10.6543
ced	-10.6543
ened	-10.6547
▁Bre	-10.6548
▁plus	-10.6553
▁0.7	-10.6558
ably	-10.6561
▁Lama	-10.6567
▁outskirts	-10.6571
▁pursue	-10.6575
▁Ak	-10.6576
▁Pra	-10.6577
more	-10.6579
▁headline	-10.658
▁specialist	-10.6589
▁Journal	-10.6595
▁fundamentalist	-10.66
▁Governor	-10.6606
▁Now	-10.661
▁Moroccan	-10.6613
mes	-10.6614
ken	-10.6617
▁challenger	-10.6618
▁file	-10.6618
▁birthday	-10.662
▁places	-10.6622
NP	-10.6624
▁Hungarian	-10.6635
ement	-10.6636
▁explain	-10.6637
▁pushing	-10.6639
▁ba	-10.664
▁2003.	-10.6641
▁challenges	-10.6642
ps	-10.6642
▁k	-10.6643
▁MP	-10.6654
▁importance	-10.6655
▁originally	-10.6655
▁chips	-10.6663
▁surface	-10.6663
sel	-10.6664
▁breakthrough	-10.6669
▁alarm	-10.6669
▁stalled	-10.6673
▁uncertainty	-10.6679
▁deeply	-10.6679
mad	-10.6692
▁Ji	-10.6692
mor	-10.6695
▁abandoned	-10.6697
▁follows	-10.6698
▁bound	-10.6699
▁fastest	-10.6702
▁feeling	-10.6702
▁uprising	-10.6703
▁PGA	-10.6704
▁Mal	-10.6705
▁cultural	-10.6706
▁Composite	-10.6708
▁chosen	-10.6711
▁illness	-10.6712
▁Anatolia	-10.6716
▁worried	-10.6718
▁trucks	-10.6721
▁NASA	-10.6722
▁Nairobi	-10.6722
▁customers	-10.6726
▁110	-10.6729
▁Mogadishu	-10.6733
hel	-10.6735
▁Market	-10.6736
▁briefly	-10.6736
▁Adam	-10.6737
▁effectively	-10.6742
▁catch	-10.6745
▁ministerial	-10.6747
▁sight	-10.6748
lli	-10.6751
▁Chan	-10.6752
▁sentences	-10.6753
gh	-10.6759
▁Petroleum	-10.6761
▁acknowledged	-10.6763
free	-10.6767
lor	-10.6769
▁17.	-10.6771
▁specific	-10.6774
▁celebrate	-10.6774
▁Mel	-10.6775
stone	-10.6777
has	-10.6779
AN	-10.678
left	-10.6781
▁prior	-10.6784
▁Sh	-10.6785
dia	-10.6787
▁Forum	-10.6787
general	-10.6796
▁Revolutionary	-10.68
▁Cameroon	-10.6803
▁drove	-10.6805
▁2011	-10.6807
▁sectors	-10.6808
▁NBA	-10.6808
metre	-10.6809
▁CNN	-10.6809
lam	-10.681
▁2012	-10.6811
▁Angola	-10.6811
▁UPDATES	-10.6817
▁picture	-10.6818
▁margin	-10.6823
▁pending	-10.6824
▁achieved	-10.6827
▁addition	-10.6828
istic	-10.683
▁corner	-10.683
▁highlight	-10.6831
FA	-10.6835
▁81	-10.6836
▁explosions	-10.6838
▁ETA	-10.6841
▁abandon	-10.6842
▁bear	-10.6846
▁Yo	-10.6849
▁targeting	-10.685
▁Philip	-10.6851
▁Sierra	-10.6853
▁gr	-10.6854
▁Their	-10.6854
▁Bou	-10.6856
▁Chad	-10.6857
▁Island	-10.6863
▁assess	-10.6865
rov	-10.6869
▁2.4	-10.6869
▁leak	-10.6874
star	-10.6882
▁infected	-10.6884
▁smaller	-10.6888
▁basic	-10.6889
▁behalf	-10.6893
400	-10.6895
61	-10.69
del	-10.6902
▁kicked	-10.6902
▁electronics	-10.6904
▁Silva	-10.6906
▁consequences	-10.6907
act	-10.6907
▁cancel	-10.6909
▁ferry	-10.691
▁praised	-10.6911
▁Hi	-10.6911
▁adopt	-10.6913
▁Roh	-10.6915
ks	-10.692
▁developments	-10.6923
▁enable	-10.6923
▁hunger	-10.6924
▁Wal	-10.6924
▁structure	-10.6928
84	-10.6929
▁tanker	-10.693
page	-10.693
▁Rabin	-10.6933
▁2006,	-10.6933
▁publication	-10.6933
▁titles	-10.6937
▁refusing	-10.6937
▁Hariri	-10.694
▁effects	-10.694
▁Fo	-10.694
▁ability	-10.694
▁repeated	-10.6941
▁occasion	-10.6941
▁BP	-10.6942
▁band	-10.6946
91	-10.6946
▁95	-10.6947
▁slid	-10.6956
Israeli	-10.6958
og	-10.6958
tte	-10.6965
SE	-10.6965
▁brokers	-10.6966
▁museum	-10.6968
▁Bur	-10.6969
gra	-10.6969
▁pop	-10.697
74	-10.697
▁eventually	-10.6975
▁underground	-10.6975
▁Nadal	-10.6975
AL	-10.6976
▁symbol	-10.6976
▁notorious	-10.6978
▁singer	-10.6979
▁lawmaker	-10.6982
▁executives	-10.6988
gal	-10.6991
▁hole	-10.6995
▁Miami	-10.7008
▁recovering	-10.7009
These	-10.7014
▁(10	-10.7014
▁downturn	-10.7025
▁implementation	-10.7026
▁reigning	-10.7028
▁Ken	-10.7028
lle	-10.7031
▁Matt	-10.7039
-2	-10.704
▁Marseille	-10.704
▁humanity	-10.7045
▁spy	-10.7047
▁2002,	-10.7052
▁congress	-10.7052
put	-10.7054
▁2004.	-10.7058
▁Mbeki	-10.706
▁Kam	-10.7061
▁veto	-10.7064
▁rapid	-10.7064
▁Division	-10.7066
▁Leone	-10.7067
▁understanding	-10.7068
▁burst	-10.707
▁participate	-10.7072
▁Kazakhstan	-10.7072
▁Luxembourg	-10.7083
▁concrete	-10.7084
ena	-10.7085
ica	-10.7086
▁benefits	-10.709
▁2007,	-10.7093
▁Mont	-10.7103
pen	-10.7107
▁Information	-10.7113
▁starts	-10.7113
79	-10.7121
▁Franco	-10.7121
▁Filipino	-10.7121
▁communities	-10.7121
▁estimates	-10.7123
▁n	-10.7126
▁walked	-10.7129
▁marched	-10.713
▁items	-10.7135
▁shoulder	-10.7135
ium	-10.7135
ao	-10.7139
▁worse	-10.7142
dal	-10.7143
▁doping	-10.7144
▁resumption	-10.7152
▁Liu	-10.7152
▁rains	-10.7155
▁Dec	-10.7156
▁spell	-10.7163
▁separatists	-10.7164
burg	-10.7165
pat	-10.7166
ero	-10.7169
▁highway	-10.717
▁gay	-10.7172
▁Fidel	-10.7172
▁Land	-10.7178
▁shelter	-10.718
▁violation	-10.7181
▁tunnel	-10.7182
ency	-10.7183
▁crossed	-10.7185
▁choose	-10.719
ast	-10.719
lia	-10.7191
▁payments	-10.7191
▁cool	-10.7192
shed	-10.7195
▁Gul	-10.7209
high	-10.7213
▁Ramallah	-10.7214
▁Sadr	-10.7217
▁tank	-10.7224
▁willing	-10.7225
▁rural	-10.7226
▁Only	-10.7226
▁2005.	-10.7227
ix	-10.7237
▁negotiate	-10.7238
▁Pla	-10.724
▁cow	-10.7243
▁checkpoint	-10.7246
▁proceed	-10.7249
▁refusal	-10.7249
▁commit	-10.7253
▁7,	-10.7253
▁shopping	-10.7256
ges	-10.7258
▁Sur	-10.7266
▁guns	-10.7268
-6	-10.7271
awa	-10.7273
▁wounds	-10.7274
▁Cu	-10.7274
▁Administration	-10.7275
▁repair	-10.7276
▁lawsuit	-10.7276
▁cartel	-10.7276
▁rounds	-10.7277
▁walk	-10.7277
▁encourage	-10.7278
▁reiterated	-10.7279
▁Copenhagen	-10.7281
▁hill	-10.7282
▁86	-10.7287
▁repeat	-10.7289
uch	-10.7289
▁assessment	-10.729
▁Col	-10.7291
▁Lisbon	-10.7293
▁13-	-10.7295
▁Sab	-10.7297
▁solve	-10.7297
▁tomorrow	-10.7299
▁note	-10.73
▁paramilitary	-10.7307
▁Ghana	-10.732
AM	-10.7321
▁systems	-10.7333
▁Team	-10.7334
▁teammate	-10.7335
▁convention	-10.7337
82	-10.7348
▁economists	-10.735
▁Jihad	-10.7354
China	-10.7359
▁spring	-10.7361
▁2001.	-10.7364
eva	-10.7365
▁Law	-10.7366
▁boosting	-10.7367
ford	-10.7369
▁sworn	-10.737
pel	-10.7371
▁sun	-10.7372
▁brain	-10.7372
▁Schumacher	-10.7376
▁87	-10.7379
▁Since	-10.7384
▁dissident	-10.7384
▁Richter	-10.7388
▁1,500	-10.7389
▁lit	-10.7391
▁airlines	-10.7391
▁Patrick	-10.7397
▁stem	-10.7398
▁framework	-10.7398
▁flood	-10.7404
▁Marco	-10.7406
▁views	-10.741
▁communications	-10.7414
▁quiet	-10.7419
▁correct	-10.7422
▁reject	-10.7425
▁Following	-10.7426
▁fined	-10.7426
▁nature	-10.7428
▁revenues	-10.7433
dor	-10.7437
▁finishing	-10.7438
▁leads	-10.7438
▁fatal	-10.7438
▁Gerhard	-10.7439
▁Javier	-10.7443
▁miners	-10.7443
▁shore	-10.7443
▁Francois	-10.7446
ult	-10.7449
On	-10.7453
lock	-10.7454
lies	-10.7457
▁Hugo	-10.7461
▁turnout	-10.7461
▁yesterday	-10.7465
▁revive	-10.7465
Al	-10.7467
▁iron	-10.7468
water	-10.7469
▁jets	-10.7473
▁seal	-10.7475
▁easy	-10.7475
51	-10.7476
▁guerrilla	-10.7481
▁prompting	-10.7481
▁soaring	-10.7483
▁passing	-10.7484
▁chamber	-10.7485
▁blame	-10.7486
▁abuses	-10.7486
▁artist	-10.7487
▁Bor	-10.7488
▁seeing	-10.7488
▁options	-10.7491
▁Amnesty	-10.7493
jan	-10.7497
▁Jong	-10.7498
▁standings	-10.7503
mber	-10.7504
hand	-10.7507
▁core	-10.7508
▁Im	-10.7512
▁Ser	-10.7515
bank	-10.7517
▁declare	-10.7521
▁fe	-10.7524
hin	-10.7525
▁devastated	-10.7526
fla	-10.7528
▁stimulus	-10.7528
two	-10.753
▁Fe	-10.7531
▁McCain	-10.7532
table	-10.7532
▁Mad	-10.7535
▁hub	-10.7539
▁ECB	-10.7539
sky	-10.754
▁Net	-10.7541
▁plants	-10.7541
▁Hebron	-10.7543
hn	-10.7544
▁stick	-10.7545
▁consumers	-10.7547
▁ha	-10.7556
▁bourse	-10.7559
▁honor	-10.756
▁Sho	-10.7561
▁Juventus	-10.7565
▁fi	-10.7567
▁79	-10.7571
▁launching	-10.7574
▁citizen	-10.7575
▁yellow	-10.7575
largest	-10.7577
▁Val	-10.7579
▁pictures	-10.7584
▁Ag	-10.7591
▁Home	-10.7594
▁essential	-10.7597
▁aides	-10.7602
▁Elizabeth	-10.7604
▁lived	-10.7604
▁stages	-10.7609
some	-10.7612
▁suffer	-10.7615
▁Up	-10.7617
wal	-10.7618
▁sense	-10.762
▁conviction	-10.7628
▁confirmation	-10.7631
▁county	-10.7642
▁financing	-10.7644
▁type	-10.7644
▁You	-10.7645
▁virtually	-10.7647
▁represented	-10.765
▁Prize	-10.7651
▁visa	-10.7653
▁Export	-10.7655
▁boats	-10.7657
gy	-10.766
▁3.0	-10.766
▁senator	-10.7661
▁halted	-10.7662
▁enemy	-10.7664
▁style	-10.7669
▁soil	-10.7671
▁perfect	-10.7672
▁identify	-10.7675
▁bureau	-10.7681
▁transition	-10.7681
▁spiritual	-10.7681
▁original	-10.7682
▁Dalai	-10.7683
▁certainly	-10.7684
▁taxes	-10.7684
tta	-10.7687
▁teenager	-10.7692
ject	-10.7692
▁epidemic	-10.7693
pon	-10.7694
▁junior	-10.7698
▁sparking	-10.7703
bed	-10.771
▁terminal	-10.7719
moon	-10.7719
▁Delta	-10.7723
▁Trust	-10.7726
▁apart	-10.7728
▁estate	-10.773
▁drawing	-10.7731
▁tragedy	-10.7731
▁Asked	-10.7738
▁Lin	-10.774
ments	-10.7742
bert	-10.7742
▁batsman	-10.7746
▁2.7	-10.775
profile	-10.7756
eri	-10.7756
▁repeatedly	-10.7756
▁discussion	-10.7759
▁haven	-10.7759
▁hunting	-10.7761
▁4.5	-10.7764
▁predecessor	-10.7765
▁transferred	-10.7766
Today	-10.777
▁fixed	-10.7774
▁obtain	-10.7784
▁rupees	-10.7785
▁lending	-10.7786
▁Research	-10.7786
2.5	-10.7788
aya	-10.7789
▁stands	-10.7792
▁Senior	-10.7792
▁CIA	-10.7794
▁resolved	-10.78
with	-10.78
▁Mil	-10.7806
▁comeback	-10.7808
▁acquisition	-10.7809
▁Win	-10.7811
▁deadlock	-10.7812
ien	-10.7812
▁settlers	-10.7813
scale	-10.7813
▁meters	-10.7815
▁14-	-10.7819
▁permit	-10.7821
▁emissions	-10.7826
▁engaged	-10.7831
▁substantial	-10.7834
▁male	-10.7836
▁mounted	-10.7836
▁smuggling	-10.7836
▁Anti	-10.784
oni	-10.7845
▁restaurant	-10.7845
▁Google	-10.7849
▁Johannesburg	-10.7849
▁code	-10.7853
▁tumbled	-10.7854
▁waste	-10.7856
▁represent	-10.7856
▁breach	-10.7857
▁50,000	-10.7858
str	-10.7862
▁surrender	-10.7864
ctic	-10.7871
pper	-10.7871
▁climb	-10.7872
▁Venezuelan	-10.7874
▁predict	-10.7875
▁Dmitry	-10.7876
▁89	-10.7882
ttle	-10.7883
▁Haitian	-10.7884
▁imminent	-10.7885
▁simply	-10.7885
▁Bridge	-10.7888
wood	-10.7897
ction	-10.7899
▁quite	-10.79
▁pole	-10.7904
▁economist	-10.7908
▁Phil	-10.7908
▁fundamental	-10.7909
▁Hall	-10.7909
cing	-10.791
▁covered	-10.7911
▁blockade	-10.7912
▁engine	-10.7913
▁Leeds	-10.7915
▁ankle	-10.7926
▁impressive	-10.7927
nar	-10.7933
▁Women	-10.7936
▁IRNA	-10.794
▁greatest	-10.7945
▁shop	-10.7949
▁smashed	-10.7953
▁Ambassador	-10.7959
▁audience	-10.7959
▁unanimously	-10.796
▁mini	-10.7961
▁WTA	-10.7962
cess	-10.7966
▁19-	-10.7969
▁provisional	-10.7973
▁2.6	-10.7977
▁Renault	-10.7982
ough	-10.7982
hir	-10.7983
▁chiefs	-10.7983
▁momentum	-10.7988
▁130	-10.7992
▁su	-10.7992
▁chaos	-10.7994
▁29-	-10.7996
▁Eelam	-10.7996
▁duties	-10.7996
▁Palace	-10.8001
▁surrounded	-10.8005
▁shoot	-10.8005
▁31,	-10.8015
▁extension	-10.8015
▁Steven	-10.8016
▁Palestine	-10.802
▁Kal	-10.8022
pin	-10.8023
▁Sto	-10.8024
▁appropriate	-10.8031
▁extending	-10.8035
ras	-10.8037
▁seems	-10.8039
▁96	-10.8043
▁Meanwhile	-10.8045
pan	-10.8051
That	-10.8052
rap	-10.8055
▁Mur	-10.8056
net	-10.8057
▁Winter	-10.806
▁crunch	-10.8063
▁Erdogan	-10.8065
▁employment	-10.8065
SS	-10.8066
▁represents	-10.8071
ska	-10.8071
▁successfully	-10.8072
▁murdered	-10.8077
▁extremely	-10.8078
▁ranked	-10.8083
▁Nor	-10.8086
▁Director	-10.8086
▁del	-10.8088
▁Ivan	-10.8089
pet	-10.8091
ros	-10.8094
▁protested	-10.8096
ili	-10.8097
▁Honda	-10.8098
▁Ve	-10.8099
▁Lithuania	-10.8101
▁pan	-10.811
cus	-10.811
▁Town	-10.8111
▁fragile	-10.8113
char	-10.8114
▁Pierre	-10.8114
▁consultations	-10.8119
▁Alberto	-10.812
▁animal	-10.8121
rant	-10.8122
▁photographer	-10.8127
▁manufacturer	-10.8127
▁Among	-10.8132
▁error	-10.8136
▁Karadzic	-10.8141
▁gunfire	-10.8143
▁punishment	-10.8145
▁dealer	-10.8146
▁reactor	-10.816
▁Taipei	-10.8178
▁tech	-10.8182
▁disappointing	-10.8184
▁talking	-10.8185
▁mutual	-10.8189
▁negotiators	-10.8193
yard	-10.8194
tant	-10.8196
▁decisive	-10.8197
▁Ron	-10.8199
▁complained	-10.82
▁Representative	-10.8201
▁Mikhail	-10.8202
▁30,000	-10.8203
▁fo	-10.8212
▁respectively	-10.8215
▁avert	-10.8216
▁Ter	-10.8217
▁parade	-10.822
▁possession	-10.8222
▁riots	-10.8223
fall	-10.8224
▁youths	-10.8224
tive	-10.8224
▁tribute	-10.8225
▁outrage	-10.8228
▁marathon	-10.8244
▁shrine	-10.8248
▁quality	-10.8249
stan	-10.8252
▁opponent	-10.8253
▁Ash	-10.8253
thi	-10.8257
▁prisoner	-10.8257
▁panic	-10.8258
▁expanded	-10.8266
aging	-10.8266
▁BA	-10.8269
▁sole	-10.8269
▁scrap	-10.827
▁Here	-10.8271
GDP	-10.8271
▁Boston	-10.8272
▁suggest	-10.8272
▁rush	-10.8272
▁Rodriguez	-10.8277
▁Gloria	-10.8279
▁comprehensive	-10.8292
cked	-10.8297
▁withdrew	-10.8301
rule	-10.8303
▁stunning	-10.8304
▁contained	-10.8304
maker	-10.8304
▁actress	-10.8306
▁incumbent	-10.8308
▁barrier	-10.831
▁Mas	-10.8311
▁17-	-10.8315
▁oust	-10.8319
▁roadside	-10.832
CO	-10.8321
▁99	-10.8321
hur	-10.8325
▁fleeing	-10.833
rr	-10.8331
▁reporting	-10.8335
▁application	-10.8337
▁desire	-10.8344
▁battled	-10.8349
EU	-10.8349
most	-10.8351
▁Lewis	-10.8354
door	-10.8357
▁Jintao	-10.8368
▁platform	-10.8377
▁innocent	-10.8377
▁tied	-10.8377
▁object	-10.8377
▁bo	-10.8378
yer	-10.838
▁Mussa	-10.8381
▁Tar	-10.8381
▁spare	-10.8383
▁cur	-10.8384
▁objective	-10.8387
arm	-10.8387
ick	-10.8388
▁Series	-10.8391
ela	-10.8392
▁optimistic	-10.8392
▁books	-10.8394
cu	-10.8398
▁oppose	-10.8401
fire	-10.8404
▁recruit	-10.8404
▁trains	-10.8405
▁Ugandan	-10.8407
elli	-10.8408
▁plotting	-10.8408
▁wa	-10.841
▁primary	-10.841
▁destroy	-10.8417
81	-10.842
▁GM	-10.842
tech	-10.8421
bound	-10.8422
▁character	-10.8424
▁everyone	-10.8425
▁thousand	-10.8435
▁charity	-10.8435
▁poised	-10.8439
▁exchanges	-10.8439
ried	-10.844
▁covering	-10.8441
▁Many	-10.8441
lar	-10.8443
▁Atlanta	-10.8446
▁regarding	-10.8447
AR	-10.8449
▁Special	-10.8451
▁broadcaster	-10.8451
▁setback	-10.8452
lit	-10.8454
▁Art	-10.8457
▁midday	-10.8459
▁alternative	-10.8462
▁function	-10.8462
▁Zimbabwean	-10.8462
oon	-10.8465
▁Cro	-10.8465
▁distance	-10.8466
▁jobless	-10.8471
▁Kur	-10.848
▁strict	-10.8481
▁Feb	-10.8484
CC	-10.849
▁homeland	-10.8492
▁broker	-10.8493
oo	-10.8498
▁permission	-10.8499
▁IAEA	-10.8499
▁Shimon	-10.8501
▁bases	-10.8502
▁sprint	-10.8503
late	-10.8504
▁isolated	-10.8505
▁3-2	-10.8505
esh	-10.8507
▁assured	-10.8508
▁bailout	-10.8516
ying	-10.8518
▁Abd	-10.8522
▁stroke	-10.8522
ld	-10.8522
ology	-10.8523
▁Cas	-10.8529
▁elsewhere	-10.853
▁neighbourhood	-10.8532
▁Earth	-10.8534
eu	-10.8538
▁tycoon	-10.8539
▁Ashes	-10.8539
▁programs	-10.854
▁airliner	-10.854
▁ultra	-10.8541
▁controls	-10.8541
▁aggressive	-10.8543
▁2:	-10.8545
rate	-10.8546
▁Analysts	-10.8548
▁regulations	-10.8548
▁begins	-10.855
▁complaints	-10.855
▁prayers	-10.855
▁gate	-10.855
▁settlements	-10.8551
With	-10.8556
▁Mali	-10.8557
▁producers	-10.856
▁researchers	-10.8561
▁Der	-10.8562
rise	-10.8563
▁4,000	-10.8571
lie	-10.8579
language	-10.8579
▁Tha	-10.8585
ES	-10.8588
▁sets	-10.8593
▁gear	-10.8596
▁covers	-10.8598
▁holes	-10.8603
▁Mun	-10.8613
▁sectarian	-10.8614
Ar	-10.8614
▁revolution	-10.8615
▁earn	-10.8616
▁athletes	-10.8619
▁shadow	-10.8623
gor	-10.8623
▁Gbagbo	-10.8625
meter	-10.8629
▁mastermind	-10.863
▁Southern	-10.8635
9.5	-10.8636
▁wrapped	-10.8641
▁Beckham	-10.865
▁reputation	-10.865
AC	-10.8656
▁Oval	-10.8658
▁monitor	-10.8662
mas	-10.8663
▁raided	-10.8665
▁racing	-10.8673
▁petition	-10.8673
▁indicted	-10.8676
▁dubbed	-10.8678
▁extraordinary	-10.8679
▁200,000	-10.868
▁bonds	-10.8681
▁drought	-10.8685
▁weakness	-10.8687
▁Tsvangirai	-10.8687
▁wage	-10.8689
▁prevented	-10.8698
General	-10.8699
log	-10.87
▁stayed	-10.8703
tch	-10.8706
▁Shin	-10.8707
▁weight	-10.8708
▁Intelligence	-10.871
Palestinian	-10.871
▁Rouge	-10.8712
▁Serie	-10.8719
-4	-10.8719
▁capable	-10.8719
▁decisions	-10.8721
▁optimism	-10.8724
▁cable	-10.8726
▁busy	-10.8728
▁Tottenham	-10.8728
▁collection	-10.873
wide	-10.8731
▁awaiting	-10.8734
▁30,	-10.8735
▁magistrate	-10.8735
▁2.8	-10.8737
▁example	-10.8738
▁Khmer	-10.8741
mis	-10.8745
ball	-10.8745
One	-10.8749
▁territorial	-10.8749
▁Shinawatra	-10.8752
▁Mount	-10.8753
▁Gas	-10.8755
▁Bal	-10.8757
▁Slobodan	-10.8759
▁Ross	-10.8759
▁stolen	-10.8763
▁(11	-10.8765
▁Jim	-10.8765
▁attempting	-10.8766
▁minimum	-10.8768
▁paying	-10.8768
▁apply	-10.877
▁replacement	-10.8773
▁92	-10.8776
▁hiding	-10.8777
▁distribution	-10.878
▁bars	-10.8781
▁blasted	-10.8782
▁13,	-10.8783
▁Wu	-10.8784
uz	-10.8785
room	-10.8787
▁memory	-10.8787
don	-10.8788
▁Bru	-10.879
▁Cal	-10.879
▁Sta	-10.8791
▁writer	-10.8797
▁Ramos	-10.8797
So	-10.8798
bin	-10.881
security	-10.8813
illa	-10.8816
▁native	-10.8819
▁amendment	-10.882
▁140	-10.882
▁keen	-10.8826
▁Hanoi	-10.8831
▁ASEAN	-10.8833
▁settled	-10.8834
PC	-10.8835
▁acquire	-10.8836
Mo	-10.8842
hen	-10.8848
wo	-10.8853
▁Mag	-10.8854
▁Warren	-10.8855
▁autonomy	-10.8861
▁quarterly	-10.8862
▁(19	-10.8869
▁greeted	-10.8869
▁Straw	-10.8874
▁lies	-10.8877
▁measuring	-10.8877
▁investments	-10.8878
weight	-10.8878
season	-10.8879
ense	-10.888
▁Everton	-10.888
▁sweep	-10.8886
▁proceedings	-10.8887
▁prop	-10.889
Le	-10.8892
bul	-10.8893
▁automatic	-10.8896
▁Agriculture	-10.8896
▁2008.	-10.8897
▁medicine	-10.8903
▁qualify	-10.8905
▁testimony	-10.8908
▁91	-10.8908
▁relay	-10.891
fra	-10.8911
▁lock	-10.8912
▁offset	-10.8915
▁Dick	-10.8917
▁interested	-10.8923
▁Zairean	-10.8923
3.5	-10.8926
▁rapidly	-10.8929
▁promise	-10.8929
IS	-10.8931
▁6-1	-10.8936
face	-10.8937
▁98	-10.8939
▁District	-10.8939
▁individuals	-10.8945
▁Ac	-10.8946
mel	-10.8956
▁hostile	-10.8956
seeded	-10.896
▁drink	-10.8962
▁fleet	-10.8962
▁favourites	-10.8964
keeper	-10.8965
▁Classic	-10.8972
▁Harry	-10.8974
▁colony	-10.8976
▁weapon	-10.898
▁(18	-10.8987
▁Ari	-10.899
▁Business	-10.8991
▁Republicans	-10.8994
▁pilgrims	-10.8998
▁doors	-10.9001
▁flown	-10.9002
▁Zagreb	-10.9005
▁flee	-10.9008
▁disappointed	-10.9008
▁indicator	-10.901
▁2002.	-10.9015
▁contacts	-10.9022
governmental	-10.9022
▁21,	-10.9025
▁exist	-10.9026
yu	-10.9027
▁pressed	-10.9029
MA	-10.9034
ctor	-10.9036
▁involve	-10.9038
▁Tutsi	-10.9038
▁foundation	-10.9039
▁runner	-10.904
▁Buddhist	-10.9043
▁haul	-10.9044
▁establishment	-10.9045
▁tip	-10.9045
▁Mak	-10.9047
▁watching	-10.9047
▁influential	-10.905
pu	-10.9052
▁(9	-10.9052
▁Investment	-10.9052
▁discovery	-10.9054
▁reply	-10.9054
▁multinational	-10.9055
▁jointly	-10.9057
▁ratings	-10.9057
▁2009,	-10.9057
▁icon	-10.9065
▁Results	-10.9074
▁contribute	-10.9075
▁ringgit	-10.9079
▁Estonia	-10.9083
▁Tanzania	-10.9083
▁Burma	-10.9085
▁publicly	-10.9087
cial	-10.9088
▁Turnover	-10.9088
▁donors	-10.9089
▁aware	-10.909
▁dipped	-10.909
▁warplanes	-10.9091
▁counted	-10.9091
▁mountains	-10.9095
▁animals	-10.9096
winning	-10.9097
▁(20	-10.9098
▁temperatures	-10.9101
part	-10.9103
▁hosted	-10.9106
▁2006.	-10.9108
▁bidding	-10.9109
▁(15	-10.911
▁temporarily	-10.911
▁employee	-10.9111
▁para	-10.9115
▁Hol	-10.9127
▁ambush	-10.9128
cul	-10.9128
▁3.4	-10.9133
▁Obasanjo	-10.9134
▁elements	-10.9137
▁outfit	-10.9138
▁reserve	-10.914
elected	-10.9141
▁Channel	-10.9141
▁attacking	-10.9142
▁Slovenia	-10.9145
▁Confederation	-10.9146
▁Even	-10.915
ui	-10.9152
lov	-10.9153
▁agricultural	-10.9156
▁flags	-10.9163
▁jersey	-10.9165
▁Prodi	-10.9165
▁battered	-10.9165
wn	-10.9168
▁Riyadh	-10.917
▁2007.	-10.917
▁papers	-10.9174
▁downtown	-10.9179
ically	-10.918
▁Bolton	-10.9181
▁persuade	-10.9185
lk	-10.9186
▁Transport	-10.9188
ties	-10.9192
▁expelled	-10.9193
▁Refugees	-10.9194
▁warlord	-10.9194
▁winger	-10.9194
democracy	-10.9195
but	-10.9197
▁Spe	-10.9197
leg	-10.9198
▁competitive	-10.9199
▁Karachi	-10.9199
▁Conservative	-10.9201
▁villagers	-10.9203
linked	-10.9203
▁silence	-10.9204
▁fields	-10.9205
avi	-10.9215
▁Over	-10.9218
▁exhibition	-10.922
vil	-10.922
1.6	-10.9221
▁Pas	-10.9222
▁Kandahar	-10.9226
▁Eric	-10.9227
▁relatively	-10.9236
▁roof	-10.9238
▁grip	-10.924
▁cycling	-10.924
▁fugitive	-10.924
▁pave	-10.9241
▁Result	-10.9245
▁Assistance	-10.9248
▁si	-10.9249
tha	-10.925
ering	-10.9252
▁Long	-10.9255
▁spectacular	-10.9257
▁Attorney	-10.926
placed	-10.9261
sim	-10.9265
▁striking	-10.9267
After	-10.9268
▁greenback	-10.9268
bl	-10.927
▁neighbour	-10.9271
▁27,	-10.9271
mobil	-10.9273
▁conversation	-10.9277
▁destination	-10.9277
▁aiming	-10.9287
▁Shimbun	-10.9287
▁conspiracy	-10.9289
▁Civil	-10.9289
new	-10.9291
▁recalled	-10.9292
ado	-10.9294
▁posts	-10.9295
▁3.3	-10.9295
▁longest	-10.9298
▁neck	-10.9298
▁Relations	-10.9299
ending	-10.9305
▁Of	-10.9305
▁Electric	-10.9306
▁ranks	-10.9308
▁Chu	-10.9309
▁resist	-10.9309
oli	-10.9312
▁350	-10.9313
▁subsidies	-10.9314
▁attackers	-10.9314
▁Camp	-10.9317
▁exiled	-10.932
crea	-10.932
▁Senegal	-10.9321
▁waves	-10.9323
▁County	-10.9326
lf	-10.9326
▁Diego	-10.9327
▁Luc	-10.9328
▁congressional	-10.9328
teen	-10.9331
▁flooding	-10.9335
▁barred	-10.9335
▁circuit	-10.9338
vic	-10.934
▁Burns	-10.9346
ret	-10.9346
▁neighboring	-10.9349
▁Doha	-10.9354
8.7	-10.9355
▁master	-10.9359
▁Grozny	-10.936
▁ride	-10.9362
▁Liberian	-10.9363
▁Saleh	-10.9369
▁businessmen	-10.9372
ata	-10.9373
oi	-10.9377
7.7	-10.9381
▁Independent	-10.9383
▁Syndrome	-10.9385
west	-10.9389
Il	-10.9389
▁shook	-10.939
▁Command	-10.9391
ila	-10.9395
▁pilots	-10.9396
▁attract	-10.94
▁Trafford	-10.9402
▁expecting	-10.9403
ux	-10.9406
▁airports	-10.9409
▁confrontation	-10.941
▁window	-10.9412
▁professor	-10.9412
▁3.6	-10.9424
ori	-10.9424
ore	-10.9428
▁equity	-10.9434
▁Amman	-10.9435
las	-10.9438
▁sort	-10.9438
▁1988	-10.9439
▁enjoyed	-10.9441
▁commitments	-10.9447
py	-10.945
▁containing	-10.945
▁inmates	-10.9454
▁28,	-10.9454
▁31-	-10.9459
▁participants	-10.9459
▁Shan	-10.946
▁Yushchenko	-10.9462
▁contingent	-10.9462
▁2000,	-10.9462
▁Az	-10.9463
▁fill	-10.9465
▁knock	-10.9467
▁Power	-10.947
▁Basra	-10.947
▁Miller	-10.9471
▁hat	-10.9475
▁rice	-10.9475
8.8	-10.9485
▁rubber	-10.9489
7.5	-10.9493
▁20,	-10.9496
▁substance	-10.9499
chan	-10.9501
▁beach	-10.9501
▁snap	-10.9503
pra	-10.9504
▁bloodshed	-10.9505
sharing	-10.9505
▁160	-10.951
▁Ur	-10.9512
uck	-10.9514
▁35-	-10.9517
▁Mary	-10.9518
▁punish	-10.9518
▁location	-10.952
▁entrance	-10.9524
▁responded	-10.9527
▁accords	-10.9528
▁32-	-10.953
▁difficulties	-10.9531
▁Bet	-10.9535
▁superstar	-10.9537
▁curfew	-10.9539
played	-10.9541
sson	-10.9542
▁routine	-10.9547
▁faith	-10.9547
▁prestigious	-10.9552
▁gather	-10.9552
kan	-10.9553
▁exactly	-10.9555
▁disappeared	-10.9566
Sa	-10.9579
▁oldest	-10.958
bon	-10.9582
▁Services	-10.9584
▁pirates	-10.9584
▁rallies	-10.9584
1.4	-10.9586
▁ambitious	-10.9587
▁Carter	-10.9587
▁Zi	-10.959
▁experienced	-10.9591
ami	-10.9591
▁Kadhafi	-10.9592
▁cocaine	-10.9592
▁priest	-10.9595
▁Ismail	-10.9597
▁Sales	-10.96
▁evacuation	-10.9602
▁dinner	-10.9604
iyah	-10.9607
▁searching	-10.9611
bat	-10.9612
▁users	-10.9614
▁consumption	-10.9614
serious	-10.962
▁demonstrated	-10.9621
vol	-10.9622
▁therefore	-10.9632
ended	-10.9632
▁pe	-10.9634
▁homeless	-10.9635
RC	-10.9636
▁rebuild	-10.9638
▁pulling	-10.9641
enko	-10.9645
▁Wayne	-10.965
▁thin	-10.9656
test	-10.9661
▁content	-10.9663
▁firmly	-10.9664
▁commanders	-10.9667
4.5	-10.9668
▁mortgage	-10.9668
▁1970	-10.9669
▁ancient	-10.967
eau	-10.9671
▁equivalent	-10.9673
ort	-10.9673
▁addressed	-10.9678
▁bell	-10.9679
▁investigations	-10.968
2.2	-10.968
▁Bundesliga	-10.968
▁shops	-10.9681
▁desperate	-10.9684
▁elderly	-10.9688
fur	-10.9688
8.6	-10.9689
▁Shell	-10.9689
▁renew	-10.969
Hercegovina	-10.9698
▁SA	-10.9699
▁Kennedy	-10.9701
▁Resistance	-10.9701
▁Uruguay	-10.9703
tting	-10.9706
non	-10.971
▁23,	-10.9711
▁Iceland	-10.9712
▁administrative	-10.9717
▁protesting	-10.9718
rus	-10.9725
▁21.	-10.9725
▁districts	-10.9727
three	-10.9733
cies	-10.9737
▁concerning	-10.9742
TA	-10.9749
▁doubts	-10.9752
▁feed	-10.9755
▁extreme	-10.9755
▁ambitions	-10.9756
ben	-10.9757
▁refuse	-10.9761
▁strip	-10.9765
▁siege	-10.9767
▁22,	-10.977
▁Nuri	-10.9772
▁neither	-10.9775
ika	-10.9778
▁Toronto	-10.978
uba	-10.978
een	-10.9781
▁Golf	-10.9784
▁condemn	-10.9787
vel	-10.9787
100	-10.9789
3.6	-10.9795
▁securities	-10.9795
▁strongest	-10.9798
▁petrol	-10.98
2.6	-10.9803
▁medals	-10.9807
▁copy	-10.9809
▁drama	-10.9813
▁counts	-10.9813
▁25,	-10.9815
▁knocked	-10.9817
▁sitting	-10.9818
▁warship	-10.9819
▁Prague	-10.9819
▁actually	-10.982
▁handle	-10.9823
▁battles	-10.9824
▁Abe	-10.983
gas	-10.9832
▁Kas	-10.9836
▁Captain	-10.9842
When	-10.9842
▁26,	-10.9843
▁Fallujah	-10.9847
▁Algiers	-10.9847
▁shell	-10.985
▁lender	-10.9852
▁streak	-10.9852
▁Dublin	-10.9857
▁dark	-10.9857
PKK	-10.9857
▁reducing	-10.986
▁Watch	-10.9862
▁Bat	-10.9864
▁Yi	-10.9864
USA	-10.9865
▁belt	-10.9868
▁GDP	-10.9868
▁Marine	-10.987
▁Java	-10.9874
AT	-10.9877
▁pleased	-10.9879
▁partial	-10.988
worth	-10.9881
▁Good	-10.9888
▁recognise	-10.989
▁changing	-10.9891
▁reveal	-10.9893
shot	-10.9893
hl	-10.9896
▁Nearly	-10.9896
▁Ker	-10.9896
▁Tal	-10.9897
▁confirming	-10.9898
▁Fla	-10.9906
▁materials	-10.9906
pect	-10.9907
▁Caucasus	-10.9909
-50	-10.9911
▁journey	-10.9912
▁knew	-10.9912
▁Ger	-10.9913
▁alcohol	-10.9914
▁Mah	-10.9915
▁insisting	-10.9917
2.7	-10.9917
▁occur	-10.9919
▁balls	-10.9923
▁accounting	-10.9924
▁Credit	-10.9925
▁indicate	-10.9927
▁pharmaceutical	-10.993
▁payment	-10.9932
▁rubble	-10.9932
▁oversee	-10.9933
8.4	-10.9937
▁talent	-10.9938
▁seemed	-10.9941
▁eyes	-10.9944
▁Harare	-10.9944
tle	-10.9945
▁cope	-10.9948
▁regard	-10.9953
▁Himalayan	-10.9956
▁McLaren	-10.9956
▁sporting	-10.9958
▁examine	-10.9959
▁withdrawn	-10.9962
▁recommended	-10.9963
▁Crown	-10.9964
▁inspections	-10.997
▁Military	-10.9972
▁degrees	-10.9978
▁delays	-10.9982
▁Kohl	-10.9989
rous	-10.9989
▁consulate	-10.999
▁der	-10.9991
▁overhaul	-10.9992
▁Severe	-10.9992
gli	-10.9994
8.2	-10.9996
▁93	-11.0003
unc	-11.0005
▁Anglo	-11.0006
app	-11.0007
lip	-11.0007
ullah	-11.0008
▁parent	-11.0008
▁wealth	-11.0009
▁heroin	-11.001
how	-11.0014
▁Bombay	-11.0016
class	-11.0018
▁Blacks	-11.0019
▁larger	-11.002
running	-11.0021
▁pool	-11.0023
yl	-11.0023
▁reality	-11.0025
▁films	-11.0035
▁baseball	-11.0036
▁Nu	-11.0039
▁Apple	-11.0041
espiratory	-11.0042
▁boys	-11.0047
▁Spi	-11.0049
bri	-11.0051
hard	-11.0054
0.6	-11.0055
crimin	-11.0056
▁2.9	-11.0058
▁Briton	-11.0061
die	-11.0062
▁bullet	-11.0062
▁Junichiro	-11.0064
▁Tribunal	-11.0064
▁frozen	-11.0073
▁trail	-11.0074
llo	-11.0079
▁damaging	-11.008
▁mar	-11.0081
▁strife	-11.0082
▁selection	-11.0087
▁gunman	-11.0089
▁Mill	-11.009
▁Sport	-11.0091
▁horse	-11.0093
▁penalties	-11.0093
▁Non	-11.0094
▁memorial	-11.0095
▁contested	-11.0097
▁attitude	-11.0097
ele	-11.0097
▁yield	-11.0098
anda	-11.01
lly	-11.0104
▁uniform	-11.0106
-10	-11.0106
▁normally	-11.0107
▁slight	-11.0107
▁design	-11.0109
▁informal	-11.0111
▁Ronaldo	-11.0111
▁Control	-11.0111
slav	-11.0114
▁producing	-11.0115
▁Just	-11.0115
▁organizations	-11.0117
▁Steel	-11.0117
▁2000.	-11.012
▁Kiev	-11.0121
▁Mitsubishi	-11.0123
▁Media	-11.0125
5.5	-11.0126
aj	-11.0127
▁Felipe	-11.0127
2.8	-11.0128
▁Navy	-11.0142
RI	-11.0143
lim	-11.0144
hab	-11.0151
▁burned	-11.0151
▁exercises	-11.0153
▁convinced	-11.0154
▁shocked	-11.0156
▁atmosphere	-11.0156
▁Victoria	-11.0157
▁rupiah	-11.017
▁Had	-11.0171
▁Acute	-11.0178
▁argued	-11.0184
IAEA	-11.0184
fold	-11.0185
9.6	-11.0187
▁Ivanov	-11.0191
▁resident	-11.0191
1.9	-11.0192
▁WHO	-11.0193
▁swimming	-11.0194
▁Gri	-11.0198
▁cha	-11.0198
▁recognition	-11.0199
▁clinch	-11.02
▁6-1,	-11.02
▁crowded	-11.0201
vac	-11.0202
hum	-11.0207
▁impossible	-11.0207
▁bench	-11.021
ula	-11.021
▁Gazprom	-11.0213
▁married	-11.0213
ida	-11.0216
▁Ecuador	-11.0217
▁manage	-11.022
▁victories	-11.0221
▁Shu	-11.0221
▁3.1	-11.0225
nal	-11.0226
▁communique	-11.0226
gn	-11.0227
▁Sk	-11.023
▁medallist	-11.0232
holder	-11.0234
▁hospitals	-11.0235
▁switch	-11.0237
▁Hamilton	-11.0242
TV	-11.0246
assi	-11.0249
▁Dhaka	-11.025
known	-11.0252
▁critic	-11.0254
▁reward	-11.0256
2.4	-11.0259
▁Ren	-11.026
▁teachers	-11.0263
AF	-11.0264
pass	-11.0265
▁difference	-11.0267
dou	-11.0267
▁500,000	-11.0272
▁Roberto	-11.0273
▁learn	-11.0275
▁doesn	-11.0276
▁select	-11.0279
▁bullets	-11.0283
▁outstanding	-11.0283
▁household	-11.0284
▁FBI	-11.0285
▁Wenger	-11.0289
▁hurricane	-11.0291
▁grabbed	-11.0291
0.5	-11.0292
▁Valencia	-11.0293
▁buses	-11.0298
▁(13	-11.03
▁marine	-11.0303
8.3	-11.0305
▁matters	-11.0306
▁Miguel	-11.0307
▁bigger	-11.0308
▁reverse	-11.0309
9.9	-11.0315
She	-11.0317
▁criminals	-11.0319
▁Bangladeshi	-11.0324
▁strengthening	-11.0325
▁Mosul	-11.0326
▁Convention	-11.0328
▁Road	-11.0329
▁Albert	-11.0333
▁print	-11.0334
ush	-11.0336
▁17,	-11.0336
Soviet	-11.0341
▁require	-11.0342
▁Yang	-11.0343
▁stone	-11.035
▁offers	-11.0351
▁offshore	-11.0352
yi	-11.0352
▁religion	-11.0353
▁soft	-11.0353
9.8	-11.0365
▁socialist	-11.0365
▁triple	-11.0369
▁Warsaw	-11.0369
cat	-11.037
▁song	-11.0373
four	-11.0373
▁tender	-11.0374
iff	-11.0376
EC	-11.0378
▁Gary	-11.0379
▁Sony	-11.0381
▁opportunities	-11.0383
▁damages	-11.0384
▁attributed	-11.0391
▁Petro	-11.0391
▁15,000	-11.0391
▁resulted	-11.0392
▁fish	-11.0393
▁except	-11.0394
▁contribution	-11.0394
▁94	-11.0394
place	-11.0394
▁24,	-11.0395
▁180	-11.0395
▁Latvia	-11.0397
ott	-11.0402
rated	-11.0403
8.9	-11.0406
▁submit	-11.0407
▁Stockholm	-11.0407
▁pack	-11.0409
▁Rod	-11.0409
▁(30	-11.041
▁finger	-11.0412
▁3.2	-11.0412
9.4	-11.0414
▁firefighters	-11.0418
▁reflect	-11.0418
▁administrator	-11.0421
▁cent	-11.0422
▁united	-11.0422
▁dropping	-11.0423
▁sufficient	-11.0429
▁treat	-11.043
five	-11.0432
▁Leading	-11.0432
yev	-11.0434
gainst	-11.0434
▁RECASTS	-11.0435
▁disrupt	-11.0435
▁Chang	-11.0435
▁Greg	-11.0437
▁Change	-11.0438
▁pose	-11.0442
▁pen	-11.0443
▁gaining	-11.0444
▁posed	-11.0444
▁Kyrgyzstan	-11.0446
▁staying	-11.0456
▁neighborhood	-11.0457
rio	-11.0461
▁Cre	-11.0462
▁Barroso	-11.0462
▁seeks	-11.0464
hara	-11.0465
rup	-11.0465
▁Montenegro	-11.0466
ert	-11.0466
▁undergo	-11.0467
▁exact	-11.0477
▁teenage	-11.0482
▁Hamburg	-11.0485
aries	-11.0487
▁Uzbekistan	-11.049
▁Bol	-11.0492
▁Yitzhak	-11.0498
▁6-0	-11.0498
key	-11.0499
▁29,	-11.0499
▁40-	-11.05
▁expanding	-11.0501
▁From	-11.0502
▁Bull	-11.0502
▁Academy	-11.0504
▁dam	-11.0504
tract	-11.0507
▁Cold	-11.0508
gate	-11.0509
▁tipped	-11.0515
▁dock	-11.0515
idi	-11.052
▁enjoy	-11.0525
8.5	-11.0526
▁brothers	-11.0533
▁Roy	-11.0534
awi	-11.0536
▁throw	-11.0538
▁determination	-11.0538
ray	-11.0541
▁politically	-11.0545
▁register	-11.0546
was	-11.0547
▁Dominique	-11.0553
▁explained	-11.0554
host	-11.0554
1.8	-11.0558
▁Alain	-11.0565
0.4	-11.0565
▁AU	-11.0565
3.3	-11.0565
▁medium	-11.0567
▁suggesting	-11.057
▁networks	-11.057
▁sick	-11.0571
bour	-11.0571
▁Graham	-11.0571
▁submarine	-11.0573
▁summoned	-11.0573
RA	-11.0577
ave	-11.058
▁Fox	-11.0581
▁50-	-11.0582
direct	-11.0583
zh	-11.0586
▁Total	-11.0586
▁27.	-11.0589
▁travelled	-11.0592
▁perform	-11.0595
▁directors	-11.0598
cur	-11.0598
▁pit	-11.06
rac	-11.0605
hood	-11.0607
▁weighted	-11.0607
▁reacted	-11.0608
▁Albania	-11.0609
▁expense	-11.0612
▁trophy	-11.0617
▁institutional	-11.062
▁eligible	-11.062
▁emotional	-11.062
▁supposed	-11.062
3.4	-11.0622
▁advertising	-11.0623
lev	-11.0625
lea	-11.0625
▁Protection	-11.0626
▁Rally	-11.0628
uni	-11.0628
mmer	-11.063
▁bull	-11.0632
▁science	-11.0634
▁medics	-11.0634
9.3	-11.0636
MI	-11.0639
▁Gre	-11.064
▁murders	-11.0641
awaited	-11.0643
▁clinched	-11.0645
chu	-11.0647
▁USA	-11.0648
▁steep	-11.0648
▁qualified	-11.0651
▁Television	-11.0651
pul	-11.0656
▁ElBaradei	-11.0656
RE	-11.0658
▁Hewitt	-11.0659
breaking	-11.066
▁charter	-11.0663
tern	-11.0663
▁introduce	-11.0666
9.7	-11.0668
▁Murray	-11.0673
▁harsh	-11.0673
ruled	-11.0675
CA	-11.0677
▁retire	-11.0678
▁Palm	-11.068
elle	-11.0692
▁Yonhap	-11.0693
▁spark	-11.0693
sar	-11.0696
▁stones	-11.0697
▁violated	-11.0699
▁Hor	-11.0701
▁pollution	-11.0702
ima	-11.0708
▁wine	-11.0708
▁vessels	-11.0713
▁unacceptable	-11.0718
cen	-11.0721
▁5.5	-11.0723
▁promises	-11.0724
▁awaited	-11.0728
▁hockey	-11.0732
President	-11.0734
▁16,	-11.0735
▁mile	-11.0736
BA	-11.0738
▁Mahathir	-11.0741
▁Dealers	-11.0741
mont	-11.0743
▁usually	-11.0744
▁grenades	-11.0744
▁findings	-11.0746
▁Monaco	-11.0749
mic	-11.075
▁Sports	-11.0755
eli	-11.0756
▁Rose	-11.0757
▁Freedom	-11.0758
▁Programme	-11.0758
▁remember	-11.0764
▁lashed	-11.0764
▁3.8	-11.0767
▁Fer	-11.0767
▁Zhang	-11.0772
▁Hotel	-11.0774
▁sat	-11.0777
▁incursion	-11.0778
▁handover	-11.0778
▁Islamists	-11.0784
▁Colombo	-11.0789
▁classic	-11.0789
▁Bell	-11.0791
mark	-11.0794
▁diplomacy	-11.0795
pir	-11.08
▁images	-11.0804
▁kilograms	-11.0804
▁threaten	-11.081
▁manner	-11.0811
una	-11.0816
▁300,000	-11.0817
▁detected	-11.0817
itz	-11.0819
▁easily	-11.082
▁accuse	-11.0821
ttered	-11.0822
▁temple	-11.0823
▁enforcement	-11.0824
▁Community	-11.0826
▁shield	-11.0826
▁overthrow	-11.0831
▁blocking	-11.0831
▁Armstrong	-11.0832
▁integration	-11.0835
▁sidelined	-11.0837
▁spreading	-11.0841
▁grouping	-11.0842
▁1994,	-11.0842
▁Oman	-11.0843
court	-11.0844
▁Science	-11.0849
▁Moslems	-11.085
▁organized	-11.0851
▁Other	-11.0852
2.3	-11.0852
▁barely	-11.0855
6.5	-11.0855
▁exclusive	-11.0855
▁pa	-11.0856
fr	-11.0861
▁surveillance	-11.0863
▁orbit	-11.0864
▁Perry	-11.0865
▁Bak	-11.0868
ij	-11.0868
▁write	-11.0868
▁900	-11.0869
▁Malawi	-11.087
9.2	-11.0873
EA	-11.0874
3.8	-11.0875
▁Benazir	-11.0877
▁gunned	-11.0878
▁Detroit	-11.088
▁Klaus	-11.0881
zone	-11.0881
1)	-11.0882
▁Birmingham	-11.0886
▁touched	-11.0887
coming	-11.0898
▁Roland	-11.09
▁1995,	-11.0901
▁lobby	-11.0903
tsu	-11.0905
▁Pol	-11.0907
▁bi	-11.091
▁flames	-11.091
NS	-11.0911
▁abduction	-11.0914
FC	-11.0917
▁Bri	-11.0917
▁monitored	-11.0921
▁97	-11.0924
hol	-11.0926
▁urban	-11.0932
▁reformist	-11.0937
game	-11.0938
▁licence	-11.0938
ueensland	-11.0938
▁4.0	-11.0939
▁(14	-11.0941
▁Economy	-11.0946
▁expulsion	-11.0946
stroke	-11.0947
▁respected	-11.0952
▁pump	-11.0956
PS	-11.0956
▁Bond	-11.0956
▁Bern	-11.0958
▁ticket	-11.0959
▁33-	-11.0962
▁slaughter	-11.0964
▁Raj	-11.0966
▁richest	-11.0966
▁Santa	-11.0972
▁Nar	-11.0975
▁34-	-11.0977
▁shipping	-11.0977
▁System	-11.0978
▁Popular	-11.0978
▁105	-11.098
▁emerge	-11.0981
rc	-11.0988
dre	-11.0988
▁values	-11.0995
▁billionaire	-11.0996
▁pointed	-11.0997
pla	-11.0998
▁poultry	-11.0998
▁outlawed	-11.0998
▁records	-11.0999
▁Tunisia	-11.0999
wen	-11.1001
▁Baseball	-11.1001
▁Golden	-11.1005
▁im	-11.1005
▁deny	-11.1007
▁obligations	-11.1007
▁defuse	-11.1008
▁Holdings	-11.1009
▁Capital	-11.101
▁slalom	-11.1016
▁programmes	-11.1018
▁Second	-11.1025
▁rig	-11.1026
▁scare	-11.1028
▁Greenpeace	-11.1031
ranking	-11.1035
▁conf	-11.1036
▁detail	-11.1037
poli	-11.1038
▁My	-11.1039
▁armoured	-11.1042
▁Katrina	-11.1045
▁nerve	-11.1045
kha	-11.1046
cious	-11.1049
▁lap	-11.105
▁stepping	-11.1052
▁numerous	-11.1054
▁Zambia	-11.106
▁promising	-11.1062
▁preventing	-11.1063
▁Hun	-11.1063
▁Will	-11.1064
▁feature	-11.1064
▁motor	-11.1074
vy	-11.1074
wer	-11.1077
▁shareholder	-11.1081
▁Anthony	-11.1083
vert	-11.1086
-16	-11.1087
,700	-11.1088
cio	-11.1091
▁restrict	-11.1092
▁Koreans	-11.1092
▁shape	-11.1093
▁Mario	-11.1094
▁Roddick	-11.1095
▁Ordinaries	-11.1097
band	-11.1102
La	-11.1102
NC	-11.1104
2.9	-11.1105
▁Houston	-11.1109
▁sky	-11.111
▁tradition	-11.1112
▁Bos	-11.1113
▁burning	-11.1115
▁hurdle	-11.1118
▁engineering	-11.1121
▁Kra	-11.1122
▁sharing	-11.1124
▁map	-11.1125
▁witnessed	-11.113
real	-11.1131
uf	-11.1132
hui	-11.1135
▁revenge	-11.1136
▁resolving	-11.1139
▁timetable	-11.1139
▁Cam	-11.1142
▁formation	-11.1144
▁Heavy	-11.1147
turn	-11.1151
▁privatisation	-11.1153
▁Hashimoto	-11.1162
▁procedures	-11.1163
▁transit	-11.1164
▁Princess	-11.1164
▁weighed	-11.1164
▁footage	-11.1164
▁generally	-11.1165
▁nurse	-11.1165
▁intensive	-11.1168
▁vaccine	-11.1177
MC	-11.1177
gent	-11.1179
▁ruler	-11.1181
▁stranded	-11.1183
▁guarantees	-11.1184
▁regain	-11.1185
▁Vajpayee	-11.1186
▁campaigning	-11.1186
ravaged	-11.1187
▁shake	-11.1189
▁31.	-11.119
▁surprised	-11.1191
teg	-11.1191
▁collided	-11.1192
▁Zu	-11.1192
▁extent	-11.1194
▁brink	-11.1195
▁carbon	-11.1195
▁birds	-11.1196
▁4.2	-11.1197
▁behaviour	-11.1198
▁maritime	-11.12
▁securing	-11.12
▁slain	-11.12
▁str	-11.1202
▁deploy	-11.1203
▁Fischer	-11.1203
▁crushed	-11.1205
▁stamp	-11.1213
▁disc	-11.1214
▁Wood	-11.1215
▁autonomous	-11.1219
▁Gha	-11.122
▁Blue	-11.1221
AP	-11.1227
▁marred	-11.1228
▁races	-11.1231
▁clinic	-11.1232
▁Vol	-11.1234
zan	-11.1235
▁Medical	-11.1236
▁Local	-11.1238
pound	-11.1238
▁Leg	-11.124
▁movements	-11.1244
▁Welsh	-11.1245
iber	-11.1247
▁narrowly	-11.1247
▁Trans	-11.1248
▁underwent	-11.1251
1.7	-11.1252
▁significantly	-11.1255
▁steer	-11.1257
▁endorsed	-11.1257
▁undermine	-11.1258
▁multiple	-11.1258
▁spying	-11.1258
ona	-11.1261
▁Gui	-11.1261
cap	-11.1266
▁pullout	-11.1266
rian	-11.1267
asse	-11.1268
rai	-11.1272
▁amnesty	-11.1278
▁riding	-11.1279
ette	-11.1279
iko	-11.128
▁rumours	-11.1283
▁Horn	-11.1284
▁anticipated	-11.1285
▁Prosecutors	-11.1286
▁collision	-11.1287
▁comply	-11.1287
▁Joint	-11.1288
▁species	-11.129
▁Mozambique	-11.1293
▁deadliest	-11.1293
▁leaves	-11.1297
▁sponsor	-11.1301
▁residential	-11.1302
▁Akbar	-11.1305
ranked	-11.1309
▁roll	-11.1311
▁capped	-11.1312
▁partly	-11.1313
▁Owen	-11.1313
▁swing	-11.1314
▁insurgent	-11.1315
▁principal	-11.1316
atory	-11.1317
bla	-11.1317
Ghali	-11.1319
▁supplier	-11.1319
▁piece	-11.1323
mili	-11.1329
break	-11.133
▁ranging	-11.133
six	-11.133
▁plunge	-11.1333
▁seeded	-11.1334
▁else	-11.1335
wor	-11.1346
▁cards	-11.1348
▁applied	-11.1349
-5	-11.1351
▁none	-11.1352
gin	-11.1354
▁Rudd	-11.1355
▁violating	-11.1355
▁camera	-11.1356
▁nervous	-11.1358
▁solidarity	-11.1358
DC	-11.1362
▁disperse	-11.1365
ID	-11.1366
ius	-11.1367
▁promotion	-11.1371
▁Ste	-11.1371
▁Oslo	-11.1371
▁Mus	-11.1372
▁robust	-11.138
▁tent	-11.138
▁rebellion	-11.1383
makers	-11.1384
▁Sher	-11.1385
▁kidnappers	-11.1395
▁faster	-11.1399
▁gives	-11.1401
▁causes	-11.1401
▁tower	-11.1404
▁fixture	-11.1404
▁booked	-11.1405
▁scientific	-11.1407
cit	-11.1409
▁Holocaust	-11.1413
oun	-11.1414
▁upward	-11.1415
▁architect	-11.1416
▁slogans	-11.1417
▁monitors	-11.1419
▁slash	-11.1419
▁Sean	-11.1422
▁directed	-11.1425
▁tape	-11.1426
▁warn	-11.1431
dem	-11.1431
▁Lavrov	-11.1431
▁dress	-11.1431
▁swap	-11.1433
▁Ana	-11.1433
▁adjusted	-11.1433
▁pin	-11.1435
▁retained	-11.1436
▁fan	-11.1436
▁relegation	-11.1437
ugh	-11.1438
▁Election	-11.1441
Maliki	-11.1443
▁migrants	-11.1444
armed	-11.1445
nia	-11.1445
▁Valley	-11.1447
ITA	-11.1447
▁principles	-11.1448
nov	-11.1448
▁competing	-11.1449
aga	-11.1451
▁describing	-11.1452
▁contrast	-11.1455
▁substitute	-11.1455
irre	-11.1456
olo	-11.1456
▁Cheney	-11.1461
Some	-11.1462
▁Bad	-11.1463
▁ranking	-11.1465
▁Christ	-11.1465
shire	-11.1466
▁Wei	-11.1466
shing	-11.1472
▁engineer	-11.1472
Do	-11.1473
▁patient	-11.1474
Assad	-11.1476
▁inform	-11.1478
▁dec	-11.148
▁forming	-11.1484
▁boom	-11.1485
▁hidden	-11.1486
▁trials	-11.1489
▁Staff	-11.1493
▁murdering	-11.1498
▁5.2	-11.1503
▁insists	-11.1508
▁Craig	-11.1508
3.2	-11.1509
▁Lula	-11.1509
▁Yukos	-11.151
▁micro	-11.151
▁liquidity	-11.1511
▁batting	-11.1513
▁fruit	-11.1513
▁Matthew	-11.1516
▁Assistant	-11.1519
▁militiamen	-11.1519
▁1986	-11.1521
iri	-11.1521
oe	-11.1524
▁root	-11.1525
ump	-11.1526
bit	-11.153
▁sovereign	-11.153
▁IRA	-11.1534
▁Lance	-11.1535
▁aggression	-11.1537
mun	-11.1543
▁Investors	-11.1545
4.6	-11.1546
▁caution	-11.1547
▁Amsterdam	-11.1553
▁Management	-11.1553
eer	-11.1555
ema	-11.1556
Jazeera	-11.1556
▁empty	-11.1556
ere	-11.1558
equ	-11.156
4.4	-11.1564
▁shattered	-11.1565
▁Reg	-11.1571
▁fishermen	-11.1571
▁Jacob	-11.1571
▁lying	-11.1574
▁Hai	-11.1575
▁dealt	-11.1575
▁Stan	-11.1577
▁Ven	-11.1579
▁Thabo	-11.1579
bur	-11.1579
▁Kh	-11.1586
aba	-11.159
▁slide	-11.1591
▁associate	-11.1591
6.6	-11.1592
▁disclosed	-11.1595
▁courts	-11.1595
lah	-11.1601
▁5.0	-11.1606
▁29.	-11.1607
firm	-11.1608
▁crowds	-11.1609
▁Tests	-11.161
▁6,000	-11.1612
▁meaning	-11.1612
▁(16	-11.1617
▁saved	-11.1625
▁Lagos	-11.1627
▁Fein	-11.1629
gel	-11.163
ller	-11.1631
▁Igor	-11.1633
▁indictment	-11.1636
imp	-11.1636
▁rand	-11.1636
▁liquid	-11.1638
hine	-11.1643
uan	-11.1645
lum	-11.1646
▁Terry	-11.1647
Ju	-11.165
▁inspector	-11.1651
▁laureate	-11.1657
▁factors	-11.1663
▁legislature	-11.1664
▁Turk	-11.1666
▁Maz	-11.1666
▁torn	-11.1667
woman	-11.1669
▁encouraging	-11.167
▁undergoing	-11.1672
▁Blackburn	-11.1673
▁rejection	-11.1676
border	-11.1676
▁Topix	-11.1677
▁conglomerate	-11.1679
▁inaugural	-11.1679
▁truth	-11.1679
▁returns	-11.168
▁looming	-11.1682
ean	-11.1682
▁physical	-11.1685
▁wedding	-11.1686
▁8,000	-11.1687
▁DRC	-11.1687
▁Kon	-11.1687
▁severely	-11.1689
▁throwing	-11.169
▁promoting	-11.1692
▁cat	-11.1693
▁Hockey	-11.1695
▁Robinson	-11.1696
▁fault	-11.1698
▁bio	-11.1699
Co	-11.1703
▁operated	-11.1707
▁Lar	-11.1708
4.7	-11.1712
▁container	-11.1713
▁advice	-11.1713
▁standard	-11.1714
▁tally	-11.1719
▁seize	-11.1719
▁filled	-11.1719
▁Campbell	-11.1723
hong	-11.1725
ching	-11.1728
▁safeguard	-11.1729
▁Dal	-11.1729
▁external	-11.1735
▁Shenzhen	-11.1748
▁tariffs	-11.1749
3.7	-11.1752
▁mountainous	-11.1756
get	-11.1756
▁Pop	-11.1756
▁condemnation	-11.1759
▁6.5	-11.176
▁weakened	-11.1761
▁trained	-11.1763
▁Srinagar	-11.1763
▁portfolio	-11.1763
▁tobacco	-11.1763
▁unclear	-11.1768
▁Foundation	-11.1773
▁Alonso	-11.1773
▁aftermath	-11.1776
▁limits	-11.1776
ayev	-11.1778
▁tougher	-11.1779
▁Thi	-11.178
▁breath	-11.1783
5.6	-11.1784
▁dominant	-11.1785
▁acquired	-11.1788
▁depth	-11.1788
6.7	-11.1791
▁manufacturers	-11.1792
▁Petersburg	-11.1795
cast	-11.1795
▁Anwar	-11.1797
seven	-11.1798
▁healthy	-11.1801
▁usual	-11.1802
▁mediator	-11.1802
ille	-11.1807
▁Clark	-11.1811
▁Ay	-11.1818
▁passage	-11.1819
▁proof	-11.1823
▁Sultan	-11.1826
▁UK	-11.1827
▁Said	-11.1829
200	-11.1834
▁yacht	-11.1835
▁Kabila	-11.1836
▁criticized	-11.1836
▁Virginia	-11.1837
▁achievement	-11.184
SARS	-11.1841
▁cruise	-11.1841
▁1,4	-11.1845
▁stores	-11.1845
▁overturned	-11.1851
▁clients	-11.1851
▁arrangements	-11.1853
ky	-11.1854
▁mines	-11.1857
▁cells	-11.1859
iev	-11.1861
Ro	-11.1861
▁holders	-11.1861
▁Ran	-11.1862
▁3.7	-11.1864
▁fix	-11.1864
▁Brigadier	-11.1867
Russian	-11.1868
▁Philippe	-11.1868
▁Bla	-11.1869
▁2-2	-11.187
fri	-11.1876
▁projected	-11.1876
▁disturb	-11.1877
iro	-11.1877
▁teacher	-11.1877
▁4-1	-11.1878
▁sometimes	-11.1878
▁defendants	-11.1879
▁drinking	-11.188
oy	-11.1882
▁guide	-11.1882
Ta	-11.1882
vas	-11.1884
5.7	-11.1886
▁retailer	-11.1887
▁7-5,	-11.1891
▁vision	-11.1891
▁disappointment	-11.1892
▁someone	-11.1896
▁hammer	-11.1897
▁hotels	-11.1898
▁abortion	-11.1899
▁Ly	-11.1899
▁shells	-11.19
▁Rock	-11.1903
▁divers	-11.1904
▁devices	-11.1905
▁nominee	-11.1905
▁Sinn	-11.1908
European	-11.1909
Sha	-11.1909
NE	-11.1911
▁Trophy	-11.1912
▁stunned	-11.1912
▁frontier	-11.1912
LA	-11.1912
▁shelling	-11.1912
▁mob	-11.1913
▁stress	-11.1914
▁Aviation	-11.1915
▁reign	-11.1915
▁Kelly	-11.1918
▁highlighted	-11.1921
▁lucrative	-11.1921
gle	-11.1922
ichi	-11.1924
▁comm	-11.1926
▁Ryan	-11.1927
EL	-11.1937
▁wider	-11.1938
tag	-11.194
▁fever	-11.1946
▁Dozens	-11.1946
▁Yan	-11.195
▁Pin	-11.1951
▁Station	-11.1951
▁slip	-11.1951
1.5	-11.1952
▁poorest	-11.1953
▁Macedonia	-11.1954
▁searched	-11.1958
▁height	-11.1961
▁employers	-11.1964
▁Serena	-11.1966
▁Bir	-11.1969
▁Sy	-11.1969
PR	-11.1971
▁allows	-11.1972
▁peacefully	-11.1974
▁kronor	-11.1975
▁Bin	-11.1981
▁Investigation	-11.1982
ER	-11.1983
▁scorer	-11.1983
▁lie	-11.1984
zza	-11.1988
▁unilateral	-11.1988
▁divisions	-11.1989
6.8	-11.1989
▁Bab	-11.1992
▁emirate	-11.1995
▁Zapatero	-11.1998
▁welfare	-11.2001
▁mood	-11.2002
cor	-11.2002
▁dog	-11.2003
▁owing	-11.2003
▁Rao	-11.2008
▁Clarke	-11.201
card	-11.2012
▁rotating	-11.2014
Mi	-11.2015
▁prince	-11.2021
4.8	-11.2022
play	-11.2026
▁Chilean	-11.2027
▁bogey	-11.203
▁4.7	-11.2031
▁Papua	-11.2041
ora	-11.2045
▁threatens	-11.2045
▁Sharif	-11.2047
▁Abuja	-11.2048
▁hosting	-11.2049
▁gesture	-11.2049
▁judiciary	-11.2049
▁heightened	-11.2049
▁Stade	-11.2049
▁shootout	-11.2051
▁founded	-11.2055
▁increases	-11.2056
ison	-11.2059
borne	-11.206
▁Lang	-11.206
▁monarch	-11.206
▁ammunition	-11.2062
▁secular	-11.2062
▁Hal	-11.2065
▁Ty	-11.2067
▁14,	-11.2068
ution	-11.2072
▁collected	-11.2073
▁accession	-11.2073
1.3	-11.2075
▁Shares	-11.2078
▁ignored	-11.2078
plo	-11.2079
found	-11.2079
▁Rad	-11.2083
▁noon	-11.2084
▁Leaders	-11.2084
▁7.5	-11.2084
▁Defending	-11.2084
▁tickets	-11.2087
▁Cameron	-11.2088
▁hospitalised	-11.209
▁proud	-11.2091
▁pressing	-11.2098
▁absolutely	-11.2099
▁Shane	-11.2101
▁Fra	-11.2102
▁Orthodox	-11.2103
▁fulfill	-11.2104
▁Peruvian	-11.2107
gro	-11.2107
▁transitional	-11.2109
▁18,	-11.2112
▁fake	-11.2113
▁fence	-11.2113
▁escalating	-11.2114
▁Najaf	-11.2114
▁approached	-11.2115
5.4	-11.2116
▁protecting	-11.2117
have	-11.2118
▁Gonzalez	-11.2123
AIDS	-11.2123
▁Scot	-11.2125
▁taxi	-11.2126
▁Zo	-11.2126
▁satisfied	-11.2128
▁Mourinho	-11.213
▁Dai	-11.2131
▁downhill	-11.2133
▁enlargement	-11.214
▁cinema	-11.214
▁defeating	-11.2142
▁comfortable	-11.2143
dle	-11.2143
▁totally	-11.2145
▁subway	-11.2145
▁appoint	-11.2145
▁upbeat	-11.2146
▁highs	-11.2149
▁Ramadan	-11.2149
▁Rashid	-11.2149
ME	-11.2149
▁Ayatollah	-11.2153
▁Kurds	-11.2153
▁Action	-11.2153
used	-11.2154
▁elder	-11.2155
▁Orleans	-11.2159
▁dressed	-11.2162
Claude	-11.2163
4.2	-11.2163
▁Ground	-11.2165
▁airspace	-11.2166
▁plastic	-11.2169
▁Pedro	-11.2169
▁bed	-11.2169
▁symbolic	-11.2172
terror	-11.2176
De	-11.218
▁discussing	-11.2182
▁OECD	-11.2187
▁Price	-11.2188
▁coordinator	-11.2188
4.3	-11.2198
▁Countries	-11.2198
▁Dhabi	-11.2201
▁enhance	-11.2201
about	-11.2202
▁Stanley	-11.2202
▁Balkan	-11.2203
▁toppled	-11.2203
▁suburbs	-11.2204
▁whi	-11.2207
▁Patriotic	-11.2209
▁encouraged	-11.2211
▁Karim	-11.2216
DRC	-11.2219
ces	-11.222
ify	-11.2221
hri	-11.2225
fully	-11.2227
OM	-11.2228
▁tri	-11.2228
▁ABC	-11.223
▁volcano	-11.2232
▁regulators	-11.2234
▁Gay	-11.2235
▁Armenian	-11.2235
hat	-11.2236
▁170	-11.2237
▁smooth	-11.2237
▁inspection	-11.2238
▁infection	-11.224
race	-11.2243
shan	-11.2244
▁defensive	-11.2244
▁Nicholas	-11.2247
▁investigated	-11.225
Hyun	-11.2252
▁rescuers	-11.2253
▁Swede	-11.2255
▁valued	-11.2256
▁x	-11.2257
▁Fort	-11.2262
▁Ray	-11.2262
▁convince	-11.2263
▁debts	-11.2266
stein	-11.2269
▁Garcia	-11.2271
▁125	-11.2272
▁(60	-11.2272
▁hijacked	-11.2273
▁unfair	-11.2275
▁1979	-11.2275
lation	-11.2275
▁banning	-11.2277
nor	-11.228
3.9	-11.228
CB	-11.2281
6.2	-11.2285
5.8	-11.2287
▁industries	-11.2287
▁painting	-11.229
▁Player	-11.2291
rum	-11.2291
media	-11.2291
▁detailed	-11.2294
▁4.4	-11.2298
▁Rai	-11.2298
pho	-11.2301
▁450	-11.2302
▁clay	-11.2302
▁grab	-11.2304
▁Tre	-11.2305
▁organ	-11.2311
▁dragged	-11.2313
dominated	-11.2321
▁cigarette	-11.2323
▁Rahman	-11.2323
Com	-11.2324
roll	-11.2324
▁models	-11.2325
▁coverage	-11.2326
▁trace	-11.2329
▁1999.	-11.233
▁entitled	-11.2333
▁bright	-11.2334
▁computers	-11.2335
▁stated	-11.2339
ident	-11.2339
▁makers	-11.234
▁Chairman	-11.234
▁concentrate	-11.234
▁exposed	-11.234
phe	-11.234
ique	-11.2341
▁maintaining	-11.2342
▁passport	-11.2342
▁ICC	-11.2343
▁Jar	-11.2343
oud	-11.2343
▁Aristide	-11.2343
▁preparation	-11.2344
0.8	-11.2345
▁loose	-11.2348
1.2	-11.2348
heavy	-11.2348
▁Sky	-11.2349
▁rolled	-11.235
▁booming	-11.2353
6.4	-11.2356
▁McC	-11.2357
▁Boxing	-11.236
▁pray	-11.236
▁birdies	-11.2362
▁reshuffle	-11.2363
▁bout	-11.2363
▁Portsmouth	-11.2366
▁conceded	-11.237
hon	-11.2372
▁Plan	-11.2374
rak	-11.2374
▁Villepin	-11.238
▁consideration	-11.238
SC	-11.2381
▁Final	-11.2382
SET	-11.2383
lee	-11.239
▁Stalinist	-11.239
▁Carlo	-11.2391
▁slowing	-11.2391
OC	-11.2392
▁What	-11.2392
▁intervene	-11.2393
▁Members	-11.2393
▁spate	-11.2394
ister	-11.2397
▁Mayor	-11.2402
ost	-11.2406
section	-11.2407
5.2	-11.2409
▁Amr	-11.2412
▁Nik	-11.2412
▁Hen	-11.2416
▁Rus	-11.2418
▁Madagascar	-11.2423
▁indication	-11.2423
▁chicken	-11.2423
6.3	-11.243
▁persons	-11.243
▁recognised	-11.2431
pol	-11.2431
rri	-11.2433
▁salary	-11.2433
▁Lau	-11.2435
▁convert	-11.2436
GER	-11.2438
▁Brad	-11.2439
▁tropical	-11.244
▁disputes	-11.2443
▁deported	-11.2445
try	-11.2447
▁lengthy	-11.2447
▁Toulouse	-11.2448
Me	-11.2449
▁simple	-11.245
trick	-11.245
▁editorial	-11.2451
▁4.8	-11.2452
▁engagement	-11.2452
▁chest	-11.2453
▁visits	-11.2455
▁Karl	-11.2456
▁1994.	-11.2463
▁publisher	-11.2463
▁Didier	-11.2463
▁hanging	-11.2474
▁sudden	-11.2481
▁knowledge	-11.249
▁lodged	-11.2491
▁purpose	-11.2492
uma	-11.2496
▁4.1	-11.2499
▁bearing	-11.2499
▁Likud	-11.25
▁Tripoli	-11.2501
▁savings	-11.2502
▁declining	-11.2503
▁detonated	-11.2503
appointed	-11.2505
cro	-11.2507
▁carmaker	-11.2507
▁Nablus	-11.251
▁shall	-11.2514
▁younger	-11.2515
▁SET	-11.2515
▁mourning	-11.2516
▁baht	-11.2517
▁Jen	-11.2524
▁cancellation	-11.2524
agon	-11.2525
▁colonial	-11.2527
▁Rooney	-11.2527
ome	-11.2529
▁Lam	-11.253
▁Congolese	-11.253
▁ministries	-11.253
▁motorcycle	-11.253
▁nominated	-11.2534
▁Arabic	-11.2534
▁expression	-11.2535
▁lake	-11.2536
▁1996,	-11.2536
phone	-11.2537
▁Mitchell	-11.2537
▁Film	-11.2537
▁fee	-11.2538
▁Chamber	-11.2539
igh	-11.2539
▁1975	-11.2539
▁rob	-11.254
▁Kinshasa	-11.2541
▁Fire	-11.2541
▁Society	-11.2544
▁cement	-11.2546
bomb	-11.2547
▁Rafiq	-11.2547
bian	-11.2552
cept	-11.2554
ological	-11.2554
▁entertainment	-11.2555
▁3:	-11.2557
▁contacted	-11.2558
▁novel	-11.2559
yards	-11.256
▁Walter	-11.2562
▁advised	-11.2564
▁Brigades	-11.2567
▁diamond	-11.2568
▁upheld	-11.2568
▁replacing	-11.2571
▁inauguration	-11.2572
▁sect	-11.2573
▁condolences	-11.2575
▁Hay	-11.2576
▁digital	-11.2578
▁dumped	-11.2581
wed	-11.2586
▁carriers	-11.2588
▁torch	-11.2592
trial	-11.2594
▁herself	-11.2597
▁intends	-11.2598
5.3	-11.2598
▁perhaps	-11.2598
▁Rafah	-11.2599
▁wire	-11.2599
▁regarded	-11.2602
▁1960	-11.2603
rick	-11.2604
▁pocket	-11.2605
▁gift	-11.2605
vid	-11.2611
▁FC	-11.2615
start	-11.2615
▁academic	-11.2615
▁publishing	-11.2616
▁greenhouse	-11.2616
7.6	-11.2617
power	-11.262
nik	-11.262
PF	-11.2621
ude	-11.2622
▁practices	-11.2622
▁Sao	-11.2623
eo	-11.2625
▁Radovan	-11.2626
▁Lions	-11.2635
lift	-11.2638
▁racial	-11.2639
▁scan	-11.2642
▁loud	-11.2645
▁defect	-11.2646
hold	-11.2647
vit	-11.2648
▁glass	-11.2653
▁Recep	-11.2658
▁handing	-11.2659
bling	-11.2661
ASEAN	-11.2663
▁pontiff	-11.2663
▁Big	-11.2663
▁Nat	-11.2666
▁Dennis	-11.2667
▁ordering	-11.2667
▁closest	-11.2671
▁ambassadors	-11.2671
dong	-11.2672
▁slowed	-11.2673
▁Kaczynski	-11.2673
▁crippling	-11.2677
▁cyclone	-11.2677
▁overwhelming	-11.2678
▁inspired	-11.2682
▁Adams	-11.2682
hid	-11.2683
▁burn	-11.2686
tank	-11.2691
▁conducting	-11.2691
▁formerly	-11.2692
▁procedure	-11.2693
▁Anna	-11.2695
▁contracted	-11.2697
▁Protestant	-11.2697
▁doubled	-11.2698
▁Bai	-11.27
▁toxic	-11.2702
▁govern	-11.2704
▁otherwise	-11.2705
▁Den	-11.2707
kilometre	-11.2708
▁Operation	-11.2708
▁sailors	-11.2709
▁Saad	-11.271
biggest	-11.2711
▁Express	-11.2712
,300	-11.2714
▁Sin	-11.2717
▁institution	-11.2717
Russia	-11.272
▁bombed	-11.272
▁holidays	-11.2723
▁doubles	-11.2727
▁Chrysler	-11.2728
St	-11.2729
▁holed	-11.2729
▁listen	-11.273
▁spin	-11.273
▁Sand	-11.2734
▁Ossetia	-11.2735
▁Tur	-11.2739
▁Agassi	-11.2739
▁refuge	-11.2744
▁meat	-11.2745
ella	-11.2745
And	-11.2747
▁protocol	-11.2749
ici	-11.2753
7.4	-11.2754
ume	-11.2755
0.2	-11.2755
count	-11.2757
▁deposit	-11.2759
▁(50	-11.2759
▁organising	-11.276
▁Industries	-11.2761
▁assailants	-11.2761
cia	-11.2767
▁followers	-11.2769
ED	-11.2771
▁windows	-11.2773
▁crushing	-11.2774
▁Christians	-11.2777
▁Togo	-11.2778
7.8	-11.278
▁slashed	-11.278
▁Yangon	-11.2782
▁factor	-11.2784
▁Wil	-11.2786
▁115	-11.2788
float	-11.2789
wear	-11.279
Two	-11.2794
▁forge	-11.2797
▁Telegraph	-11.2798
Ho	-11.28
▁gets	-11.2801
▁bone	-11.2807
▁triggering	-11.2807
▁kilo	-11.2807
▁popularity	-11.2811
▁factories	-11.2813
▁dance	-11.2813
▁Rob	-11.2814
▁grass	-11.2815
▁Communications	-11.2818
▁Bowl	-11.282
▁telecoms	-11.282
▁sail	-11.282
zy	-11.2822
▁Moo	-11.2822
BO	-11.2824
uit	-11.2828
▁108	-11.2828
▁seizure	-11.2832
7.3	-11.2833
▁Bashar	-11.2834
▁Leicester	-11.2836
iao	-11.2837
▁Lithuanian	-11.2838
▁Luiz	-11.2838
▁Mul	-11.284
▁cult	-11.2844
▁mention	-11.2848
380	-11.2848
▁101	-11.2849
rou	-11.285
ene	-11.2853
▁commerce	-11.2853
▁woes	-11.2853
▁operators	-11.2854
▁1999,	-11.2856
shock	-11.2856
ifying	-11.2856
▁reopen	-11.2857
▁Santos	-11.2858
▁Key	-11.2858
▁shortages	-11.2858
▁exporters	-11.2858
▁flash	-11.286
▁Jonathan	-11.286
▁Kyodo	-11.286
▁pursuit	-11.286
▁4.6	-11.2864
list	-11.2865
▁unexpected	-11.287
▁Hamad	-11.2872
▁laboratory	-11.2875
▁Bremen	-11.2876
▁Cle	-11.2877
▁Jason	-11.2878
▁textile	-11.2879
food	-11.288
▁Britons	-11.2881
him	-11.2882
4.9	-11.2884
▁Tro	-11.2884
▁Zuma	-11.2887
▁BMW	-11.2888
▁Mohamad	-11.2888
▁Med	-11.2894
▁2010,	-11.2894
▁4.3	-11.2896
▁disciplinary	-11.2899
Li	-11.2899
vor	-11.29
▁awards	-11.2902
▁rep	-11.2903
▁consult	-11.2911
▁Eriksson	-11.2916
var	-11.2917
▁captive	-11.292
▁muscle	-11.2923
▁topped	-11.2928
▁archipelago	-11.293
▁challenging	-11.293
tam	-11.2933
▁tactics	-11.2934
▁imported	-11.2935
▁trick	-11.2935
▁declaring	-11.2937
▁preserve	-11.2938
▁moral	-11.2944
▁Jiabao	-11.2944
▁Sanchez	-11.2944
▁earth	-11.2946
▁Samoa	-11.2946
▁Cole	-11.2951
▁credibility	-11.2951
bil	-11.2954
▁Belfast	-11.2955
▁mechanism	-11.2955
▁Namibia	-11.2955
▁fewer	-11.2957
▁opens	-11.2958
▁stabbed	-11.2959
▁Moqtada	-11.2962
▁Sino	-11.2963
▁expires	-11.2965
▁Vancouver	-11.2966
▁clock	-11.2967
▁theatre	-11.2973
▁collective	-11.2974
▁bag	-11.2974
ground	-11.2978
att	-11.2978
▁Carolina	-11.298
▁survival	-11.2983
▁debris	-11.2983
,600	-11.2985
▁Children	-11.299
▁worsening	-11.2991
▁Mission	-11.2992
EM	-11.2992
▁Wigan	-11.2993
▁Monte	-11.2994
▁imprisonment	-11.2994
▁Opposition	-11.2994
▁facto	-11.2996
▁Henri	-11.2997
▁valley	-11.2997
zen	-11.2999
▁Tayyip	-11.3001
▁wages	-11.3006
▁Columbia	-11.3008
▁0-0	-11.3008
▁Berg	-11.3012
5.9	-11.3014
▁Survey	-11.3015
▁Allen	-11.3015
▁offences	-11.3015
cr	-11.3021
▁analysis	-11.3026
▁Rica	-11.303
sponsored	-11.3031
▁Mai	-11.3036
kovic	-11.3038
▁managers	-11.3039
abi	-11.3039
ern	-11.304
0.9	-11.3044
▁exceed	-11.3044
▁survive	-11.3044
▁signature	-11.3047
RO	-11.3049
▁owns	-11.305
▁duo	-11.305
DR	-11.3051
▁arguing	-11.3054
▁explanation	-11.3054
org	-11.3055
▁runway	-11.3058
▁Romano	-11.306
▁Play	-11.3065
▁Dole	-11.3066
Con	-11.3067
▁1995.	-11.3069
▁burden	-11.3072
ito	-11.3073
▁routes	-11.3076
inger	-11.3078
▁dissidents	-11.3079
▁berth	-11.308
▁Eritrea	-11.3081
FRA	-11.3084
empt	-11.3087
▁exploit	-11.3088
▁divorce	-11.3093
▁hair	-11.3094
▁brings	-11.3097
▁restored	-11.3097
rival	-11.3098
▁40,000	-11.3099
▁uncertain	-11.31
asso	-11.3102
mbo	-11.3104
▁birdie	-11.3104
chen	-11.3104
▁Line	-11.3104
tat	-11.3108
▁profile	-11.3109
▁Juppe	-11.3111
▁apology	-11.3111
▁Jorge	-11.3112
7.2	-11.3118
▁seasonally	-11.3118
▁objections	-11.3119
▁Olusegun	-11.3122
▁legendary	-11.3128
magnitude	-11.3128
▁pandemic	-11.3129
▁ransom	-11.3129
6.9	-11.3134
▁vowing	-11.3137
▁Ul	-11.314
ime	-11.314
▁requirements	-11.3141
▁discount	-11.3141
▁disrupted	-11.3142
▁confront	-11.3145
mond	-11.3149
▁wreck	-11.315
▁belong	-11.3151
▁thus	-11.3151
issa	-11.3151
▁revolt	-11.3154
▁Cel	-11.3155
▁117	-11.316
▁36-	-11.3165
▁biological	-11.3165
▁4-0	-11.3166
▁wound	-11.3166
EN	-11.3168
▁delighted	-11.3169
▁100-	-11.3171
▁ceremonies	-11.3172
▁unusual	-11.3174
gger	-11.3175
0.3	-11.3175
▁Anton	-11.3176
▁branded	-11.3177
▁personally	-11.3178
wicket	-11.3179
▁protected	-11.3181
▁3.9	-11.3181
▁magnitude	-11.3188
▁drowned	-11.319
▁conclude	-11.3191
▁9:	-11.3194
▁plays	-11.3196
▁Deng	-11.3199
▁Johan	-11.3201
▁resulting	-11.3204
▁2009.	-11.3204
▁banners	-11.3208
▁knife	-11.3208
thirds	-11.321
▁designer	-11.3215
▁Wallabies	-11.3216
▁2,0	-11.3216
▁agreeing	-11.3217
▁Ei	-11.3218
▁rejecting	-11.3219
▁intend	-11.3222
▁persistent	-11.3224
▁lasted	-11.3227
▁lethal	-11.3228
▁Than	-11.3229
▁Dia	-11.3238
▁operational	-11.3239
▁dates	-11.3239
storey	-11.3244
▁centres	-11.3244
▁19,	-11.3248
▁destroying	-11.3251
▁Stuart	-11.3252
▁marines	-11.3255
mod	-11.3256
▁Dam	-11.3259
▁Out	-11.326
▁catastrophe	-11.3261
fle	-11.3267
▁legislators	-11.327
administered	-11.327
eff	-11.3274
▁chemicals	-11.3277
▁mud	-11.3279
▁(23	-11.328
▁Snow	-11.328
▁rebounded	-11.3283
▁contributed	-11.3284
▁coordinated	-11.3285
▁spotted	-11.3292
century	-11.3295
rid	-11.3298
▁Ponting	-11.3299
▁Son	-11.33
▁Jam	-11.3302
▁Hel	-11.3308
▁sleep	-11.3308
▁statue	-11.331
▁restart	-11.3317
oz	-11.332
Ra	-11.332
▁Jun	-11.3321
▁Benitez	-11.3325
▁Newswires	-11.3325
▁anonymous	-11.3325
▁disruption	-11.3326
▁sees	-11.3329
▁Sven	-11.3329
pers	-11.3332
▁Stuttgart	-11.3332
rah	-11.3335
▁Spurs	-11.3336
▁testify	-11.3336
▁Environment	-11.334
▁holder	-11.3345
▁exceptional	-11.3346
▁consistent	-11.3347
▁Tens	-11.3349
▁Pretoria	-11.3351
▁marketing	-11.3352
▁Dis	-11.3353
▁Victor	-11.3358
▁asset	-11.3358
▁aired	-11.336
▁mix	-11.3363
uin	-11.3364
▁acquitted	-11.3365
▁Hart	-11.3365
▁Jenin	-11.3369
▁thinking	-11.3373
TT	-11.3374
▁implemented	-11.3377
▁Raul	-11.3378
▁Admiral	-11.338
▁Bordeaux	-11.338
▁mad	-11.3382
ifi	-11.3382
ease	-11.3385
aff	-11.3386
▁finances	-11.3389
▁deemed	-11.3391
▁Uni	-11.3395
▁dispatch	-11.3396
▁guests	-11.3396
▁OSCE	-11.3397
▁Lahore	-11.3398
▁rises	-11.3399
▁8:00	-11.3399
▁Zia	-11.3404
▁negotiated	-11.3405
▁Gabon	-11.3407
nam	-11.3407
▁spotlight	-11.3407
▁deliveries	-11.3408
▁craft	-11.3409
▁chose	-11.3411
▁license	-11.3413
▁Bolivia	-11.3414
▁absolute	-11.3415
▁Fri	-11.3416
DS	-11.3418
▁Anders	-11.3422
▁stuck	-11.3428
▁sinking	-11.3433
▁Andrei	-11.3434
WTO	-11.3436
▁4-6,	-11.3439
▁Boucher	-11.3439
▁4.9	-11.344
▁fitness	-11.3441
▁youngest	-11.3442
▁Kathmandu	-11.3443
▁Those	-11.3443
▁Fred	-11.3445
sai	-11.3445
▁graft	-11.3448
▁Moody	-11.3451
▁bowling	-11.3453
▁knows	-11.3453
▁Cannes	-11.3455
OL	-11.3455
▁stationed	-11.3456
▁overshadowed	-11.3459
▁workforce	-11.346
▁journal	-11.3461
TR	-11.347
▁irregularities	-11.3472
▁Balkans	-11.3475
▁discipline	-11.3485
▁Nam	-11.3487
▁demonstrate	-11.3492
▁retreat	-11.3493
rating	-11.3495
WFP	-11.3496
▁Die	-11.3497
▁confessed	-11.3499
▁3-6,	-11.3502
▁Volume	-11.3502
▁buyers	-11.3504
▁1,200	-11.3504
▁knockout	-11.3504
▁inspect	-11.3504
▁1993.	-11.3509
▁prohibit	-11.3509
▁staging	-11.351
▁amend	-11.3511
▁Canberra	-11.3513
▁EADS	-11.3513
▁Kirkuk	-11.3513
▁spur	-11.3513
▁Osaka	-11.3517
▁college	-11.3517
▁expensive	-11.3517
may	-11.352
▁conflicts	-11.3526
▁learned	-11.3527
▁propose	-11.3527
9.0	-11.3528
▁Suharto	-11.3528
▁1987	-11.353
Marie	-11.3531
▁electric	-11.3533
IT	-11.3534
▁celebrating	-11.3536
▁Commons	-11.3543
▁Sid	-11.3547
▁zero	-11.3547
▁strongman	-11.3548
▁Kumar	-11.355
▁proper	-11.355
▁surging	-11.3554
▁afford	-11.3554
▁psychological	-11.3558
▁gangs	-11.3561
▁Amir	-11.3562
lier	-11.3564
▁Paulo	-11.3565
9,000	-11.3566
▁(17	-11.3567
▁signalled	-11.357
▁hectares	-11.357
▁107	-11.357
▁Tommy	-11.357
▁Yudhoyono	-11.3573
▁vulnerable	-11.3573
▁Evans	-11.3573
▁Gunmen	-11.3574
Pierre	-11.3574
▁provides	-11.3581
▁Fiat	-11.3582
read	-11.3583
▁Report	-11.3585
▁Tam	-11.3587
vir	-11.3588
▁Country	-11.3588
▁scar	-11.3592
Zarqawi	-11.3592
▁Trichet	-11.3592
▁eager	-11.3592
▁Henin	-11.3592
kilometer	-11.3594
▁Holy	-11.3595
▁globe	-11.3596
▁Fin	-11.3597
Na	-11.3602
national	-11.3604
▁lasting	-11.3605
▁ambushed	-11.3606
oma	-11.3606
▁smoking	-11.3607
▁waited	-11.3611
cru	-11.3616
▁drill	-11.3617
▁deposed	-11.3622
▁Disney	-11.3622
▁imposing	-11.3629
▁organizers	-11.363
▁Sumatra	-11.3633
▁donor	-11.3638
▁Kibaki	-11.3641
▁109	-11.3643
▁Rossi	-11.3644
TU	-11.3644
▁cemetery	-11.3645
▁Lukashenko	-11.3645
▁blind	-11.3645
uous	-11.365
▁concessions	-11.3651
▁affiliate	-11.3652
▁Work	-11.3654
cord	-11.3654
Israel	-11.3654
▁Australians	-11.3656
▁HSBC	-11.3656
▁shoe	-11.3656
fil	-11.3662
▁stoppage	-11.3662
6,000	-11.3667
▁whale	-11.3668
▁performances	-11.3669
hem	-11.367
▁Srebrenica	-11.3671
▁5.6	-11.3672
piece	-11.3674
▁tall	-11.3674
▁strained	-11.3677
▁Sel	-11.3677
▁dismissal	-11.3681
▁contractor	-11.3686
▁pretty	-11.3686
▁Bonn	-11.3688
▁cycle	-11.369
▁Simpson	-11.3694
laden	-11.3694
▁counting	-11.3694
▁grim	-11.3695
▁(22	-11.3697
▁Guatemala	-11.3698
▁Veteran	-11.3698
▁poured	-11.3698
▁injection	-11.3698
▁1993,	-11.3698
▁Goma	-11.3699
▁feud	-11.3699
▁foul	-11.37
▁colour	-11.3701
▁Volkswagen	-11.3701
ening	-11.3701
ym	-11.3704
▁acted	-11.3704
▁punch	-11.3709
▁referred	-11.3709
▁clothes	-11.371
MDC	-11.3711
,800	-11.3714
▁(25	-11.3715
7.9	-11.3716
▁104	-11.3719
▁Fulham	-11.372
▁defiant	-11.372
▁constant	-11.3725
▁wreckage	-11.3725
▁5.4	-11.3726
ators	-11.3726
▁Life	-11.3726
▁engage	-11.3727
▁Samsung	-11.3736
▁Aston	-11.3736
▁client	-11.374
▁Kho	-11.3741
▁sessions	-11.3742
▁extensive	-11.3743
▁thwart	-11.3743
Islam	-11.3744
▁Aden	-11.3752
▁surrendered	-11.3754
▁Manmohan	-11.3755
▁6.0	-11.3755
▁1982	-11.3756
▁Main	-11.3758
▁retaliation	-11.3758
▁featuring	-11.3759
▁103	-11.3759
▁Gun	-11.376
PL	-11.3762
Goran	-11.3763
▁brokerage	-11.3764
▁internationally	-11.3765
▁clocked	-11.3766
▁7,000	-11.3768
▁performed	-11.3768
▁naming	-11.377
North	-11.3772
▁Paraguay	-11.3774
▁deciding	-11.3774
▁decrease	-11.3774
▁afterwards	-11.3777
▁nationality	-11.3778
▁studying	-11.378
▁ordinary	-11.3781
▁studies	-11.3781
PP	-11.3788
met	-11.3788
▁5.3	-11.3794
lio	-11.3797
▁rankings	-11.3798
▁Minh	-11.3802
▁poison	-11.3804
▁radar	-11.3804
ivity	-11.3807
▁intellectual	-11.3808
EP	-11.3811
▁mediation	-11.3813
▁Robin	-11.3817
▁Aso	-11.3818
▁Guardian	-11.3819
▁merge	-11.3827
▁Museum	-11.3828
▁pilgrimage	-11.3828
ular	-11.3828
standing	-11.3829
▁Springbok	-11.3835
▁unveil	-11.3836
▁Sim	-11.3838
▁tighten	-11.3838
▁probing	-11.3839
▁apartheid	-11.3839
▁Mass	-11.384
▁School	-11.384
ose	-11.3843
▁UAE	-11.3843
▁seem	-11.3845
▁neutral	-11.3847
▁hinted	-11.3849
▁messages	-11.3852
▁ambulance	-11.3854
▁Samuel	-11.3854
▁2,500	-11.3857
▁install	-11.3859
▁shouted	-11.3862
▁bow	-11.3864
▁ceiling	-11.3866
▁wear	-11.3866
▁topple	-11.3869
▁chaired	-11.3869
pose	-11.387
▁Dallas	-11.387
▁Talks	-11.387
▁voter	-11.3871
▁5.7	-11.3871
▁Cur	-11.3872
▁audit	-11.3872
ND	-11.3873
▁118	-11.3873
speed	-11.3873
▁Witnesses	-11.3874
▁circle	-11.3874
▁furious	-11.3874
▁barriers	-11.3874
▁Zemin	-11.3874
▁1997,	-11.3875
▁trader	-11.3876
▁spearhead	-11.3878
▁installed	-11.3879
ddle	-11.3881
▁trio	-11.3885
▁Festival	-11.3885
▁Mari	-11.3886
hun	-11.3886
▁recognize	-11.3887
▁prayer	-11.3887
▁Water	-11.3888
▁heir	-11.3888
▁Philadelphia	-11.3893
▁homosexual	-11.3893
▁participating	-11.3893
▁fines	-11.3894
▁easier	-11.3897
▁Pool	-11.3897
▁visas	-11.39
▁Av	-11.3902
▁photo	-11.3905
▁Ivorian	-11.3909
▁checks	-11.391
ridden	-11.3914
ack	-11.3915
▁missions	-11.3915
▁bonus	-11.3915
▁length	-11.3916
▁Helmand	-11.3916
▁chapter	-11.3916
▁boot	-11.3917
▁torrent	-11.392
▁Venus	-11.3922
heim	-11.3926
▁Drag	-11.3927
▁Khatami	-11.3928
▁Kir	-11.3932
Syrian	-11.3933
▁tee	-11.3935
▁downward	-11.3935
British	-11.3935
▁Kad	-11.3936
▁ownership	-11.3937
▁component	-11.3944
▁Gor	-11.3949
▁Lakers	-11.395
ink	-11.395
▁posting	-11.3951
▁autumn	-11.3951
▁calendar	-11.3951
▁Gil	-11.3952
▁atrocities	-11.3955
▁relative	-11.3955
▁eventual	-11.3959
antas	-11.396
▁listing	-11.3962
▁rampage	-11.3966
▁Ang	-11.3967
▁deepening	-11.3969
▁resolutions	-11.3974
▁reflected	-11.3977
▁Guangdong	-11.3979
▁enemies	-11.3979
▁twist	-11.3983
▁disastrous	-11.3986
▁hurled	-11.3987
▁tribe	-11.3988
▁approximately	-11.399
▁Khaled	-11.3993
eni	-11.3993
▁Stoxx	-11.3994
▁allied	-11.3996
▁convincing	-11.4002
▁definitely	-11.4004
kel	-11.4005
▁Thirty	-11.4006
▁enormous	-11.401
▁Pad	-11.401
▁lawless	-11.4011
▁evacuate	-11.4012
▁dramatically	-11.4012
▁Glasgow	-11.4017
▁Pradesh	-11.4018
▁milk	-11.4018
▁Maj	-11.4022
▁Leon	-11.4022
▁regularly	-11.4025
▁advocate	-11.4026
▁rifles	-11.4027
▁whatever	-11.4031
▁NZ	-11.4031
▁reassure	-11.4033
umi	-11.4034
hop	-11.4036
▁Margaret	-11.4037
▁gunbattle	-11.4037
▁embark	-11.4037
▁influenza	-11.4041
▁Strauss	-11.4041
▁Douglas	-11.4041
▁raging	-11.4042
▁ideas	-11.4045
▁Nur	-11.4048
▁hang	-11.4053
▁4:	-11.4054
▁requires	-11.4055
▁slowly	-11.4057
▁wealthy	-11.4057
fixing	-11.4058
▁Peng	-11.406
▁commuter	-11.4061
via	-11.4072
▁Time	-11.4075
▁helm	-11.4076
▁chancellor	-11.4077
▁superb	-11.4077
▁steam	-11.4078
▁Bethlehem	-11.4085
▁uncovered	-11.4087
▁addressing	-11.4089
▁explore	-11.4089
bble	-11.409
2,000	-11.4092
▁SP	-11.4092
▁Turin	-11.4093
▁intensified	-11.4093
▁comparison	-11.4093
▁chasing	-11.4093
▁Ricky	-11.4094
▁Tru	-11.41
▁defiance	-11.41
(	-11.4103
▁legitimate	-11.4104
uebec	-11.4104
8,000	-11.4109
▁photographs	-11.4109
mph	-11.4111
▁Brisbane	-11.4112
▁cubic	-11.4112
gha	-11.4116
▁Rasmussen	-11.4116
▁planet	-11.4117
▁spoken	-11.4117
▁counsel	-11.412
▁overwhelmingly	-11.4123
▁Stra	-11.4124
hole	-11.4127
▁Dong	-11.4129
rell	-11.4129
▁wartime	-11.413
▁Fuji	-11.413
▁planted	-11.4131
▁Jersey	-11.4132
▁sluggish	-11.4132
▁succeeded	-11.4133
▁Twickenham	-11.4136
-11	-11.4137
atari	-11.4139
▁pieces	-11.4141
▁painful	-11.4143
▁spike	-11.4145
rel	-11.4147
▁belief	-11.4148
▁Stefan	-11.4148
German	-11.4149
▁responding	-11.4151
▁robbery	-11.4152
▁queen	-11.4152
▁gasoline	-11.4156
▁flooded	-11.4157
▁Jiji	-11.4157
▁Sil	-11.4158
uddin	-11.4159
where	-11.416
▁insurer	-11.416
▁defied	-11.416
▁Phnom	-11.4164
asi	-11.4169
APEC	-11.4169
▁5.8	-11.417
▁116	-11.4172
▁Tajikistan	-11.4172
▁rebuilding	-11.4173
▁pregnant	-11.4176
▁writing	-11.4176
▁11:	-11.4176
▁Raf	-11.4176
▁roadmap	-11.4176
glo	-11.4181
▁Miss	-11.4183
▁Technology	-11.4184
▁completing	-11.4184
▁samples	-11.4184
ech	-11.4188
▁Havana	-11.4188
▁Mid	-11.4192
▁LPGA	-11.4192
▁embassies	-11.4196
▁trees	-11.4199
▁Rebel	-11.4199
▁Electoral	-11.42
▁utility	-11.42
▁stripped	-11.42
Neill	-11.4202
▁quest	-11.4205
llar	-11.4209
▁seasons	-11.421
▁distributed	-11.4211
▁Jeff	-11.4211
propelled	-11.4212
▁mental	-11.4213
hra	-11.4213
mail	-11.4213
▁excessive	-11.4214
▁franc	-11.422
▁adoption	-11.4221
▁Mother	-11.4223
▁rift	-11.4224
selling	-11.4231
▁Hy	-11.4232
organ	-11.4233
▁hail	-11.4234
▁withdrawing	-11.4234
aire	-11.4236
▁engines	-11.4237
▁reactors	-11.4238
▁freestyle	-11.424
▁restraint	-11.424
▁Cit	-11.4248
▁Adrian	-11.4249
vat	-11.4251
▁intent	-11.4251
▁stiff	-11.4252
▁stream	-11.4254
▁Regional	-11.4254
▁Cardiff	-11.4256
▁Megawati	-11.4256
▁Herald	-11.4256
▁150,000	-11.4257
▁bribes	-11.4259
▁dogs	-11.4262
▁Left	-11.4262
Un	-11.4266
▁Burmese	-11.4268
▁Nissan	-11.4268
▁Thierry	-11.4272
▁hostilities	-11.4272
Bo	-11.4275
▁unspecified	-11.4276
▁pesos	-11.4281
▁1984	-11.4282
▁warring	-11.4282
▁Ou	-11.4284
▁pledges	-11.4286
▁underlined	-11.4288
▁wrest	-11.4288
▁surpass	-11.4292
TS	-11.4292
▁piracy	-11.4292
▁seminar	-11.4297
▁refinery	-11.4298
Sam	-11.4299
▁Greenspan	-11.43
▁Ng	-11.4308
▁ANSA	-11.4308
▁isolation	-11.4308
▁escalation	-11.4312
▁appearances	-11.4315
▁Executive	-11.4316
▁emb	-11.4324
▁firefight	-11.4326
▁colleague	-11.4326
▁web	-11.4328
stop	-11.4331
imi	-11.4331
▁6-7	-11.4334
kg	-11.4335
▁Agreement	-11.4336
▁strengthened	-11.4339
▁shortage	-11.4339
▁senators	-11.434
▁expressing	-11.4343
▁Blues	-11.4345
▁reopened	-11.4349
▁Take	-11.4349
▁thank	-11.4351
▁scandals	-11.4351
▁opted	-11.4352
▁60-	-11.4353
▁exporter	-11.4353
India	-11.436
▁bowled	-11.436
▁Helen	-11.4361
▁McG	-11.4361
matic	-11.4364
▁Order	-11.4364
▁Kobe	-11.4364
▁Cardinal	-11.4365
▁Francis	-11.4367
▁Armenia	-11.4368
▁integrity	-11.4369
▁coordination	-11.4369
▁qualifiers	-11.437
▁implementing	-11.4373
▁flashpoint	-11.4374
vision	-11.4375
▁swift	-11.4376
CE	-11.4376
▁myself	-11.4378
open	-11.4378
▁Macau	-11.4379
Aqsa	-11.4382
Mu	-11.4383
▁copper	-11.4384
▁reaffirmed	-11.4384
▁safely	-11.4384
▁jungle	-11.4389
▁quell	-11.4389
330	-11.439
▁Hyundai	-11.4393
▁Ob	-11.4394
▁adult	-11.4396
▁historical	-11.4397
▁examination	-11.4397
▁8:	-11.4399
▁Not	-11.4404
orei	-11.4406
▁Bernanke	-11.441
▁walking	-11.441
▁challenged	-11.4416
▁exploration	-11.4418
▁tremor	-11.4418
▁scientist	-11.4418
▁zones	-11.442
▁veterans	-11.4427
▁prefer	-11.443
▁Okinawa	-11.443
▁5.1	-11.4431
hang	-11.4432
▁Broadcasting	-11.4434
▁laundering	-11.4436
rounder	-11.4437
▁pig	-11.4438
▁foes	-11.4438
▁disappearance	-11.4443
▁Vincent	-11.4446
▁channels	-11.4448
rist	-11.4448
▁Abidjan	-11.445
action	-11.4451
▁opposite	-11.4455
▁skating	-11.4455
▁Cabinet	-11.4459
▁multilateral	-11.4459
▁Lima	-11.446
▁athletics	-11.4463
ST	-11.4465
▁caps	-11.4465
UNHCR	-11.4465
wracked	-11.4467
▁raged	-11.4469
▁Bundesbank	-11.4471
▁Mann	-11.4475
▁accepting	-11.4478
grad	-11.4478
orn	-11.4478
▁Strasbourg	-11.4479
▁slapped	-11.4479
CS	-11.4489
ulation	-11.449
▁Mercedes	-11.4491
Da	-11.4491
▁centuries	-11.4496
▁Jimmy	-11.4496
▁sad	-11.4498
▁Kris	-11.4498
▁(1.2	-11.45
▁prevail	-11.4504
▁indicating	-11.4504
▁associated	-11.4506
▁Cook	-11.4507
▁sheet	-11.4507
▁pneumonia	-11.4508
▁Bruce	-11.4511
▁Dun	-11.4518
hia	-11.452
▁Saakashvili	-11.452
▁provider	-11.4521
▁Santiago	-11.4524
talled	-11.4525
injiang	-11.4525
▁dying	-11.4527
▁Gro	-11.4529
▁photograph	-11.4529
boo	-11.4531
sure	-11.4535
▁grid	-11.4537
▁60,000	-11.4537
▁Max	-11.4538
▁Boy	-11.454
▁traditionally	-11.4545
▁Sharapova	-11.4545
▁rent	-11.4545
lop	-11.4546
omi	-11.4546
▁Marines	-11.4552
emp	-11.4553
▁37-	-11.4555
▁Virgin	-11.4555
cip	-11.4557
▁IOC	-11.4557
RD	-11.4558
▁denying	-11.4559
▁Gan	-11.4559
▁reinforce	-11.456
▁Prophet	-11.4562
▁Wat	-11.4562
▁golden	-11.4565
▁Graeme	-11.4566
▁Sensex	-11.4566
▁7:	-11.4566
built	-11.4569
▁valid	-11.457
▁Auto	-11.4572
▁reception	-11.4574
cin	-11.4578
SF	-11.4581
ancy	-11.4583
▁Holland	-11.4584
▁Eduardo	-11.4585
▁praise	-11.4585
▁soccer	-11.4587
looking	-11.4587
tier	-11.4587
Beshir	-11.459
▁barracks	-11.4595
▁10:00	-11.4595
▁tightening	-11.4597
▁fun	-11.46
▁Beit	-11.4606
▁sustain	-11.4606
▁Sebastien	-11.4607
▁Fabio	-11.4607
▁implicated	-11.4608
eta	-11.4608
▁unofficial	-11.4609
▁Shui	-11.461
▁sons	-11.4611
▁populous	-11.4611
▁Ohio	-11.4611
designate	-11.4619
▁hanged	-11.4621
▁eliminate	-11.4623
▁replied	-11.4624
itation	-11.4627
▁neo	-11.4627
▁preferred	-11.4629
▁salaries	-11.4632
▁Estonian	-11.4633
▁intercepted	-11.4638
▁accidents	-11.4639
▁sand	-11.4642
▁roughly	-11.4645
▁McClellan	-11.4645
▁extremism	-11.4645
▁hemisphere	-11.4645
▁assume	-11.4645
rest	-11.4651
▁Af	-11.4652
▁clothing	-11.4655
▁militias	-11.4659
▁constitute	-11.4661
7,000	-11.4663
aud	-11.4666
boy	-11.4667
▁Kor	-11.467
▁chanted	-11.467
▁eat	-11.467
▁cheap	-11.467
▁registration	-11.4678
▁celebration	-11.468
▁discrimination	-11.4682
▁106	-11.4683
yang	-11.4687
▁controlling	-11.469
▁wrap	-11.4691
ENG	-11.4691
▁Fujimori	-11.4691
▁toss	-11.4691
▁guest	-11.4693
▁Flor	-11.4696
enberg	-11.4696
force	-11.4697
▁cafe	-11.4697
▁shipments	-11.4698
▁Hussain	-11.4699
▁Muhammad	-11.4699
cco	-11.47
▁Laos	-11.4702
▁Barry	-11.4705
▁clearing	-11.4706
best	-11.4712
▁1997.	-11.4715
wai	-11.4715
▁Auckland	-11.4716
▁suspicious	-11.4716
▁maiden	-11.4718
▁astronauts	-11.4726
country	-11.473
▁Penh	-11.473
▁Montreal	-11.4733
▁6.2	-11.4734
▁lowered	-11.4738
▁Amid	-11.474
handed	-11.474
▁famed	-11.474
▁advancing	-11.4741
▁Trading	-11.4742
▁Doctors	-11.4747
▁widow	-11.475
▁111	-11.4751
TI	-11.4752
▁recording	-11.4752
▁enforce	-11.4752
▁odds	-11.4754
dent	-11.4756
▁hideout	-11.4759
▁transaction	-11.4762
▁Honduras	-11.4762
print	-11.4764
▁Las	-11.4764
▁empire	-11.4767
▁shirt	-11.4767
▁industrials	-11.4767
uer	-11.4768
▁extract	-11.4769
▁provisions	-11.477
▁sprawling	-11.4771
▁Dev	-11.4771
AA	-11.4775
▁Arsene	-11.4775
dict	-11.4779
powered	-11.478
▁supermarket	-11.478
SO	-11.4787
▁tabloid	-11.4788
storm	-11.4788
3,000	-11.4793
MO	-11.48
▁sexually	-11.48
▁Uzbek	-11.48
▁podium	-11.48
iano	-11.4808
▁handful	-11.4809
▁snatched	-11.4811
▁tortured	-11.4812
▁label	-11.4813
▁dominate	-11.4816
▁prosecute	-11.4822
ffe	-11.4827
▁adjourned	-11.4827
▁Gla	-11.4832
cell	-11.4832
▁elaborate	-11.4834
▁Diana	-11.4838
▁affecting	-11.484
▁appearing	-11.484
▁trailing	-11.4843
-21	-11.4844
▁114	-11.4846
▁losers	-11.4851
▁revision	-11.4851
▁Blix	-11.4851
▁tap	-11.4852
▁engineers	-11.4853
▁Shen	-11.4853
ranging	-11.4853
▁trigger	-11.4853
▁travellers	-11.4856
▁dump	-11.4859
▁Lind	-11.486
▁ocean	-11.486
comfort	-11.486
dam	-11.4864
▁pardon	-11.487
▁Atal	-11.4875
▁Guy	-11.4876
▁suddenly	-11.4876
▁Angolan	-11.4876
▁expel	-11.4878
SU	-11.4878
▁flock	-11.4879
▁Province	-11.4881
▁tragic	-11.4886
▁Helmut	-11.4886
▁7-5	-11.4887
▁Slovak	-11.4888
nine	-11.4892
▁firmer	-11.4893
▁Moamer	-11.4894
kick	-11.4895
RB	-11.4896
▁incoming	-11.4897
▁ensuring	-11.4898
▁basketball	-11.4899
did	-11.49
▁deposits	-11.4901
▁Arizona	-11.4903
▁bust	-11.4908
▁Din	-11.491
▁besieged	-11.4916
▁cease	-11.4917
▁1985	-11.492
post	-11.4923
▁unanimous	-11.4923
east	-11.4924
▁establishing	-11.4927
▁Tai	-11.4929
▁monks	-11.4929
▁borrowing	-11.4931
ook	-11.4933
▁Jon	-11.4934
▁Anne	-11.4934
majority	-11.4934
▁condemning	-11.4934
▁Conservatives	-11.4935
▁Easter	-11.4935
funded	-11.4935
▁ultimatum	-11.4937
azi	-11.4938
▁Mladic	-11.4941
▁wood	-11.4944
▁blaming	-11.4946
▁Consumer	-11.495
▁hospitalized	-11.4951
▁Luca	-11.4953
▁fallout	-11.4954
▁opt	-11.4954
nuclear	-11.4956
▁inhabitants	-11.4959
▁interrogation	-11.4959
▁guided	-11.496
▁These	-11.4961
▁25,000	-11.4963
▁1967	-11.4966
▁Rene	-11.4967
▁annually	-11.4971
▁Met	-11.4974
▁precise	-11.4976
▁communication	-11.4979
▁Hin	-11.4983
▁unpopular	-11.4984
▁cup	-11.4987
▁Downer	-11.4988
ees	-11.4992
▁102	-11.4993
cut	-11.4993
▁bishop	-11.4994
South	-11.5008
hari	-11.5009
▁divide	-11.5009
▁constructive	-11.5013
▁crises	-11.5015
▁runners	-11.5016
▁postpone	-11.5016
▁bt	-11.5017
▁pursuing	-11.5019
▁Middlesbrough	-11.5023
▁tasked	-11.5029
▁Banda	-11.5033
▁Downing	-11.5033
CP	-11.5034
▁Tennis	-11.5036
▁Dayton	-11.5037
▁Abdallah	-11.5041
mission	-11.5043
▁6.1	-11.5043
▁fatalities	-11.5046
quest	-11.505
▁tree	-11.5053
LO	-11.5054
▁gradually	-11.5055
▁eliminated	-11.5055
▁contenders	-11.5058
▁Abkhazia	-11.5058
▁brave	-11.506
▁detect	-11.5061
eller	-11.5065
▁pride	-11.5067
▁Allawi	-11.5069
▁Kun	-11.5069
▁tail	-11.507
isa	-11.5073
▁thorough	-11.5076
▁measured	-11.5078
TH	-11.5079
▁hometown	-11.508
▁memorandum	-11.508
▁tyre	-11.508
▁7.0	-11.5081
▁attracted	-11.5082
▁cameras	-11.5086
▁partially	-11.5087
unfortunate	-11.5089
▁Hossein	-11.5089
▁Eleven	-11.509
▁DNA	-11.5091
▁6.4	-11.5093
▁Talabani	-11.5093
▁Morris	-11.5095
,200	-11.5096
▁recommend	-11.5096
▁Hughes	-11.5097
▁forthcoming	-11.5102
▁dating	-11.5102
▁specify	-11.5104
▁stressing	-11.5104
speaking	-11.5111
WHO	-11.5112
▁farewell	-11.5115
ae	-11.5117
▁Khamenei	-11.5119
▁Drug	-11.5121
▁regulatory	-11.5122
▁Norman	-11.5123
▁Bayer	-11.5123
▁bankrupt	-11.5123
▁exhaust	-11.5124
▁UNHCR	-11.5125
Jo	-11.5129
▁Aid	-11.513
▁Isa	-11.5131
▁Kyoto	-11.5132
▁Jamaica	-11.5136
▁buoyed	-11.5137
▁Reid	-11.5138
gat	-11.514
▁unique	-11.514
▁Carr	-11.5141
itor	-11.5141
▁aerospace	-11.5141
▁citizenship	-11.5142
▁entirely	-11.5143
tun	-11.5144
fit	-11.5145
▁rout	-11.5151
▁Our	-11.5152
▁candidacy	-11.5154
▁Edwards	-11.5158
eight	-11.5158
cost	-11.5161
FI	-11.5162
▁hide	-11.5162
connect	-11.5164
▁recommendations	-11.5166
▁impasse	-11.5168
▁rulers	-11.5171
▁Tang	-11.5171
▁category	-11.5172
▁landmine	-11.5172
▁priests	-11.5176
▁Lopez	-11.5176
▁instrument	-11.5176
▁shrugged	-11.5176
other	-11.5179
▁Stone	-11.518
▁skin	-11.5181
▁deportation	-11.5183
▁accordance	-11.5184
▁coincide	-11.5185
▁Nation	-11.5186
▁Harper	-11.5189
IFOR	-11.5189
▁Cra	-11.5192
▁112	-11.5195
▁Challenge	-11.5198
▁caretaker	-11.5198
▁Geoff	-11.5199
▁suggestions	-11.5199
▁AS	-11.52
▁creditors	-11.5207
▁punished	-11.5209
▁prefecture	-11.5212
rag	-11.5214
▁Nasser	-11.5216
▁cattle	-11.5217
▁Electronics	-11.5219
▁Porto	-11.5223
ISAF	-11.5223
col	-11.5231
▁Dean	-11.5231
▁ratify	-11.5238
▁Casey	-11.5239
▁Justin	-11.5241
▁picking	-11.5242
▁Bryant	-11.5243
▁Aznar	-11.5243
grade	-11.5247
▁Suspect	-11.5247
▁instability	-11.5247
any	-11.5247
qi	-11.525
▁leaked	-11.5251
▁austerity	-11.5251
▁dedicated	-11.5251
dawn	-11.5252
▁Masa	-11.5256
active	-11.5258
aving	-11.5259
bid	-11.526
political	-11.526
▁scrapped	-11.5261
bpd	-11.5262
▁disagreement	-11.5263
▁Lan	-11.5264
shore	-11.5273
▁remarkable	-11.5275
▁Fat	-11.5285
▁APEC	-11.5286
▁aggregate	-11.5287
▁disposal	-11.5287
▁Parma	-11.5295
▁happening	-11.5298
▁(21	-11.53
▁guaranteed	-11.5302
person	-11.5303
▁McCormack	-11.5305
lead	-11.5306
gie	-11.5306
▁construct	-11.5307
aught	-11.5311
hua	-11.5311
▁compar	-11.5314
Faisal	-11.5314
▁6.3	-11.5324
▁Mauritania	-11.5326
▁column	-11.5327
arian	-11.533
▁Capello	-11.5332
▁obviously	-11.5333
▁unexpectedly	-11.5335
▁Residents	-11.5336
▁studio	-11.5336
tus	-11.5336
▁grown	-11.5337
▁Anderson	-11.5341
▁6:00	-11.5341
human	-11.5342
▁nose	-11.5344
▁Siemens	-11.5345
▁dry	-11.5346
▁Rescue	-11.5349
▁Kenneth	-11.5349
mac	-11.535
▁pot	-11.5352
▁Alvaro	-11.5354
▁lady	-11.5354
▁Nuclear	-11.5354
▁rid	-11.5356
▁throne	-11.5358
sized	-11.5359
▁breast	-11.5359
▁courage	-11.536
▁Clo	-11.5362
▁freezing	-11.5363
kill	-11.5364
▁stopping	-11.5364
▁consolidated	-11.5365
▁Blo	-11.5367
▁raft	-11.5368
▁coordinate	-11.5372
▁drone	-11.5372
▁verge	-11.5372
▁Zen	-11.5374
capt	-11.5377
vie	-11.5383
▁poisoning	-11.5387
▁Hav	-11.5393
▁Kumaratunga	-11.5399
▁Arnold	-11.5408
▁sustainable	-11.541
▁strokes	-11.541
CH	-11.5412
▁justify	-11.5412
▁servants	-11.5413
▁tons	-11.5416
▁relating	-11.5417
good	-11.5418
People	-11.542
hwa	-11.5423
▁skies	-11.5425
▁removal	-11.5426
town	-11.543
▁Sichuan	-11.543
▁derail	-11.5432
▁Lloyd	-11.5435
▁overcame	-11.5435
▁interference	-11.5435
▁adults	-11.5437
▁critically	-11.5437
▁Storm	-11.5437
▁mouth	-11.5438
▁shrink	-11.5439
▁email	-11.544
▁45-	-11.5443
brokered	-11.5443
▁chase	-11.5446
▁lined	-11.5455
agh	-11.5456
▁yards	-11.5457
▁combination	-11.5458
ava	-11.5458
▁Lech	-11.5459
▁Discovery	-11.5462
▁symptoms	-11.5462
▁bags	-11.5463
▁stabilise	-11.5467
Asia	-11.547
▁prepares	-11.5471
▁Twelve	-11.5476
▁admission	-11.5476
Mr	-11.5476
▁Chiefs	-11.5477
▁friendship	-11.5477
Arab	-11.5478
▁violate	-11.548
▁Sayyaf	-11.548
▁contradict	-11.548
serving	-11.5482
▁firmed	-11.5483
▁cheer	-11.5484
sufficient	-11.5485
▁Nihon	-11.5486
▁alter	-11.5489
GA	-11.5493
▁Moldova	-11.5494
▁issuing	-11.5494
▁7:00	-11.5495
▁consist	-11.5495
▁tightened	-11.5497
▁Ferdinand	-11.5498
▁Helsinki	-11.5498
▁wholesale	-11.5499
▁degree	-11.55
▁shipment	-11.5503
▁Ryder	-11.5503
▁refer	-11.5512
▁ravaged	-11.5512
▁beleaguered	-11.5512
▁Wo	-11.5515
▁Davies	-11.5517
▁automobile	-11.5521
UC	-11.5521
▁crush	-11.5522
▁babies	-11.5526
▁raced	-11.553
▁RIA	-11.553
▁Gill	-11.5531
▁dust	-11.5531
▁swiftly	-11.5532
▁boast	-11.5535
▁pounded	-11.5536
▁carefully	-11.5541
▁Addis	-11.5541
▁Kara	-11.5545
▁Barr	-11.5546
▁frequent	-11.5548
▁Telekom	-11.5549
▁immunity	-11.5549
Yes	-11.5549
▁examined	-11.555
▁lung	-11.555
▁Var	-11.5551
▁lone	-11.5551
Star	-11.5552
▁Lebed	-11.5552
▁neighbors	-11.5553
▁Wilson	-11.5555
▁martial	-11.5558
▁employ	-11.556
▁laps	-11.5563
▁dictatorship	-11.5563
▁ruin	-11.5564
▁hydro	-11.5567
▁restricted	-11.5567
▁Marcel	-11.5568
▁Derby	-11.5568
▁unleashed	-11.5569
▁joy	-11.5572
▁airplane	-11.5573
trust	-11.5573
▁Waziristan	-11.5576
▁Tunisian	-11.5577
▁Duma	-11.5579
▁incentives	-11.5581
▁banner	-11.5583
▁paving	-11.5583
▁Ricardo	-11.5585
▁Yahoo	-11.5585
▁ratified	-11.5585
▁Moh	-11.5585
▁broadcasting	-11.5587
▁Gore	-11.559
▁Fernandez	-11.559
▁Kouchner	-11.559
▁familiar	-11.559
▁Kaz	-11.559
▁Jin	-11.5592
▁indefinitely	-11.5592
▁salvage	-11.5594
▁plate	-11.5598
▁Bala	-11.5602
▁motive	-11.5604
▁deliberately	-11.5605
▁tracking	-11.5612
▁Head	-11.5612
▁Perez	-11.5614
▁exchanged	-11.5615
ific	-11.5618
▁acceptable	-11.5619
▁offence	-11.5619
itch	-11.562
7.1	-11.5622
▁volunteers	-11.5622
▁Gur	-11.5626
▁treason	-11.5627
▁boxing	-11.5628
▁blanket	-11.5629
▁hammered	-11.5629
▁assurances	-11.563
▁HAMAS	-11.5631
▁Sebastian	-11.5631
▁plunging	-11.5631
▁113	-11.5634
▁stealing	-11.5635
▁NBC	-11.5636
While	-11.5636
▁Network	-11.5636
stad	-11.5639
▁Jay	-11.5639
▁400,000	-11.5642
even	-11.5642
▁stockpile	-11.565
aged	-11.565
▁existence	-11.5651
▁completion	-11.5654
▁Nepalese	-11.5655
320	-11.5656
▁sacking	-11.5656
▁Sofia	-11.5659
▁openly	-11.5659
▁Independence	-11.5663
▁Fac	-11.5664
▁acres	-11.5664
▁committing	-11.5666
▁deeper	-11.5667
▁Sunderland	-11.5668
▁traffickers	-11.5668
▁Bun	-11.5674
▁coffee	-11.5677
▁stomach	-11.5677
▁mediators	-11.5679
▁refrain	-11.5682
▁approaching	-11.5682
dependent	-11.5684
ander	-11.5685
▁Yong	-11.5686
▁Adelaide	-11.5687
▁Colorado	-11.5687
4,000	-11.5688
▁raw	-11.5688
▁focusing	-11.5688
▁examining	-11.5691
▁slower	-11.5691
▁Fre	-11.5695
▁Hak	-11.5696
▁Burkina	-11.5696
▁lingering	-11.5696
▁wheel	-11.5697
▁reflecting	-11.5699
▁restoring	-11.5701
▁Au	-11.5701
▁attached	-11.5701
▁Moore	-11.5703
▁arsenal	-11.5705
bia	-11.5706
front	-11.5707
▁Grant	-11.5709
OR	-11.5711
▁authorised	-11.5713
▁Garros	-11.5715
▁tonne	-11.5718
▁Arena	-11.5718
▁Gandhi	-11.5719
2.0	-11.5722
▁6.8	-11.5724
▁clan	-11.5725
▁features	-11.5727
▁proportion	-11.5728
▁Gerard	-11.573
zhou	-11.573
▁6:	-11.5731
▁Chadian	-11.5736
▁Aires	-11.5736
▁contrary	-11.5738
▁admitting	-11.5739
▁Archbishop	-11.5742
▁adequate	-11.5742
▁Clijsters	-11.5752
▁overseeing	-11.5753
▁DJ	-11.5753
▁depart	-11.5755
▁12,000	-11.5756
▁Denis	-11.5757
▁commandos	-11.5759
▁alleging	-11.5761
PD	-11.5763
▁Naga	-11.5765
▁Djokovic	-11.5766
▁Kuchma	-11.5766
▁staunch	-11.5766
▁regulator	-11.5767
▁avoided	-11.5767
▁filing	-11.5769
▁Keizai	-11.577
▁sabotage	-11.577
▁reversing	-11.577
dated	-11.5775
ESP	-11.5775
▁Buenos	-11.5775
eman	-11.5779
▁harvest	-11.578
oka	-11.578
▁Tung	-11.5782
boat	-11.5782
▁indoor	-11.5785
▁expired	-11.5786
RU	-11.5787
▁Mala	-11.5789
▁thick	-11.5789
▁queue	-11.5794
▁rough	-11.5795
▁restaurants	-11.5797
▁kilometre	-11.5797
▁Kamal	-11.5798
▁Bambang	-11.5798
▁reluctant	-11.5798
▁Raymond	-11.5799
▁adapt	-11.5799
▁tele	-11.5805
▁crashing	-11.5806
▁SPA	-11.5807
▁minus	-11.5808
mani	-11.5808
▁Mongolia	-11.5812
▁unemployed	-11.5812
▁criteria	-11.5817
▁Behari	-11.5818
pha	-11.5818
jar	-11.5819
▁1950	-11.582
▁ouster	-11.5821
▁cheat	-11.5823
Western	-11.5823
tonne	-11.5832
▁Zurich	-11.5832
▁dividend	-11.5832
▁observed	-11.5832
▁brace	-11.5837
Test	-11.5839
▁founding	-11.584
▁undisclosed	-11.5841
▁racist	-11.5845
chief	-11.5846
▁slim	-11.5848
mura	-11.5848
▁glory	-11.585
▁Kai	-11.5851
MS	-11.5851
guard	-11.5854
mounted	-11.586
Sabah	-11.5861
▁Chung	-11.5861
Lo	-11.5863
▁epicentre	-11.5864
▁Brothers	-11.5864
▁240	-11.5865
aid	-11.5866
▁latter	-11.5866
▁observer	-11.5867
▁Maha	-11.5869
bir	-11.5869
world	-11.5871
▁entity	-11.5874
owski	-11.5874
▁update	-11.5874
▁Tak	-11.5877
▁Nabil	-11.588
gri	-11.5881
▁belonged	-11.5883
▁cholera	-11.5883
▁arrangement	-11.5891
▁commodity	-11.5893
▁monopoly	-11.5893
▁scenario	-11.5893
IMF	-11.5894
▁135	-11.5896
▁absent	-11.5896
gic	-11.5896
▁timing	-11.5897
▁polled	-11.5897
▁milestone	-11.5898
▁Metropolitan	-11.5902
setting	-11.5903
▁cave	-11.5905
▁blown	-11.5905
▁formula	-11.5907
▁Jalal	-11.5908
▁publish	-11.5909
▁anxious	-11.5911
▁credible	-11.5912
position	-11.5912
▁Kin	-11.5913
▁Bulls	-11.5915
▁Levy	-11.5919
▁hyp	-11.592
anga	-11.5921
▁Nguyen	-11.5921
▁shortfall	-11.5924
lou	-11.5926
▁monument	-11.5926
ox	-11.5927
▁Susan	-11.593
▁upgrade	-11.5932
▁talked	-11.5935
▁chronic	-11.5935
▁bankers	-11.5936
▁collect	-11.5938
▁Song	-11.5939
▁loaded	-11.5942
▁Op	-11.5947
BSE	-11.5948
▁silent	-11.5949
▁Monrovia	-11.5949
AU	-11.595
▁Lufthansa	-11.5954
▁stumps	-11.5954
▁snapped	-11.5955
▁6.7	-11.5959
▁compiled	-11.5959
ender	-11.596
▁Jesus	-11.5964
▁scrum	-11.5964
▁evil	-11.5965
▁organise	-11.5965
lag	-11.5967
▁faithful	-11.5967
▁emphasis	-11.5973
▁angered	-11.5974
▁Ababa	-11.5978
▁prolonged	-11.5983
▁ruble	-11.5983
tric	-11.5983
▁rebounds	-11.5984
Sheikh	-11.5985
▁9:00	-11.5989
▁Strait	-11.599
jur	-11.5992
▁converted	-11.5993
etz	-11.5997
▁drafted	-11.5999
▁propaganda	-11.6002
Iraq	-11.6003
building	-11.6005
▁Ottawa	-11.6007
▁Cher	-11.6016
▁drunk	-11.6016
Now	-11.6019
▁powerhouse	-11.602
▁Gibbs	-11.6021
▁aspects	-11.6023
Man	-11.6023
inda	-11.6023
ICC	-11.6024
▁Warne	-11.6025
▁foiled	-11.6026
▁Eid	-11.6027
gram	-11.6028
▁ourselves	-11.6031
▁purposes	-11.6033
▁Kab	-11.6034
▁Chun	-11.6034
▁UBS	-11.6035
▁indications	-11.6035
vari	-11.6036
▁Sou	-11.6038
▁portray	-11.6047
▁teenagers	-11.6053
▁225	-11.6055
▁Cleveland	-11.6055
▁guidelines	-11.6055
▁Rat	-11.6058
come	-11.6062
▁intensify	-11.6064
▁outright	-11.607
▁Sub	-11.6072
▁Before	-11.6077
jah	-11.6077
▁pointing	-11.6078
▁employed	-11.6081
there	-11.6084
▁connected	-11.6084
▁750	-11.6085
▁Lady	-11.6087
▁hip	-11.609
bli	-11.6091
▁Biden	-11.6091
▁Bihac	-11.6093
▁passports	-11.6096
▁privately	-11.61
▁terr	-11.6102
Po	-11.6105
▁End	-11.6106
▁Safety	-11.6108
▁transportation	-11.6109
▁locations	-11.611
▁Warner	-11.6113
▁merchant	-11.6117
▁ICRC	-11.6119
uro	-11.6119
▁breakdown	-11.6121
clear	-11.6125
▁judgement	-11.6125
▁rifle	-11.6125
onic	-11.6127
▁indigenous	-11.6127
3.0	-11.6128
amba	-11.6128
▁dash	-11.6132
▁regulation	-11.6135
▁Kigali	-11.6137
▁mysterious	-11.6137
▁nightclub	-11.6142
▁invite	-11.6144
▁119	-11.6145
TC	-11.6146
due	-11.6146
▁harbour	-11.6146
▁garner	-11.6146
▁congratulated	-11.6152
stand	-11.6156
▁Murdoch	-11.6156
▁quotas	-11.6158
▁hung	-11.6161
▁Dortmund	-11.6161
▁Stewart	-11.6161
▁legally	-11.6164
▁steroid	-11.6171
▁loyalist	-11.6172
▁Gross	-11.6175
▁resuming	-11.6176
raz	-11.6178
▁contention	-11.6184
wind	-11.6191
▁kidnap	-11.6194
▁seekers	-11.6198
▁Schi	-11.62
▁Spring	-11.62
▁extradited	-11.6201
▁adrift	-11.6205
▁passion	-11.6206
▁Instead	-11.6208
hander	-11.6208
▁relevant	-11.621
▁transparency	-11.621
shima	-11.621
▁slave	-11.6211
tile	-11.6213
▁ear	-11.6215
▁contributions	-11.622
▁overturn	-11.6222
▁Coalition	-11.6224
fan	-11.6225
▁MENA	-11.6229
▁tackling	-11.6229
▁transactions	-11.6229
assa	-11.6232
▁applications	-11.6233
▁stole	-11.6234
▁Troops	-11.6234
▁crops	-11.6236
▁Michelle	-11.6236
▁Anfield	-11.6238
▁axe	-11.6239
▁Political	-11.6239
Prince	-11.6243
▁Barak	-11.6244
▁revolutionary	-11.6251
▁dispatched	-11.6252
▁contraction	-11.6253
▁assassinated	-11.6255
▁fuelled	-11.6255
▁Sanaa	-11.6259
▁rounded	-11.626
▁Unity	-11.6265
economic	-11.6267
▁bastion	-11.6268
▁spinner	-11.627
▁petroleum	-11.6273
▁250,000	-11.6277
▁Crime	-11.6278
▁outspoken	-11.6278
▁looting	-11.6278
▁bishops	-11.6282
▁Kay	-11.6283
▁Bucharest	-11.6283
wick	-11.6283
▁frame	-11.6284
ound	-11.6286
dh	-11.6287
▁Mail	-11.6288
significant	-11.6292
▁wheat	-11.6293
ought	-11.6298
▁spree	-11.6298
▁trainer	-11.63
lick	-11.6304
▁Tomas	-11.6305
▁Phoenix	-11.6308
▁Mecca	-11.6308
▁condemns	-11.6308
▁wishes	-11.6309
▁Tin	-11.6311
▁Intel	-11.6312
▁sacrifice	-11.6313
▁coffin	-11.6313
▁Duc	-11.6316
▁Sheffield	-11.6318
▁Wolfgang	-11.6318
▁pledging	-11.6318
▁Cou	-11.6321
▁Week	-11.6323
▁Third	-11.6323
▁Dutchman	-11.6324
▁Edward	-11.6326
shoot	-11.6327
▁Baath	-11.6328
▁Gen	-11.6331
▁fortunes	-11.6331
▁Reza	-11.6332
▁Murayama	-11.6332
▁bombardment	-11.6332
▁crop	-11.6334
▁abolish	-11.6337
stricken	-11.6342
▁pet	-11.6345
track	-11.6347
▁ensured	-11.635
▁Tong	-11.6353
▁industrialised	-11.6354
▁Constitutional	-11.6355
▁township	-11.6357
▁Tele	-11.6362
▁Tanzanian	-11.6363
▁Perth	-11.6366
spinner	-11.6367
▁charging	-11.6367
▁boxes	-11.6367
rator	-11.6369
▁TOPI	-11.6372
▁opposing	-11.6372
▁mount	-11.6373
evic	-11.6374
▁Mau	-11.6376
▁mild	-11.6377
▁experiment	-11.6383
▁promoted	-11.6386
▁Policy	-11.6392
great	-11.6393
▁placing	-11.6397
▁Luka	-11.6397
▁tend	-11.64
▁ligament	-11.6402
▁Para	-11.6403
▁Rescuers	-11.6403
chin	-11.6406
▁repatriation	-11.6407
rack	-11.6407
▁7.2	-11.6408
▁Hoop	-11.6411
▁Ravalomanana	-11.6412
▁insist	-11.6421
▁respiratory	-11.6422
▁5.9	-11.6426
▁Fan	-11.6428
▁discover	-11.6429
▁Turkmenistan	-11.6432
▁recount	-11.6432
▁churches	-11.6432
▁fees	-11.6436
▁habit	-11.6437
▁Kashmiri	-11.6442
▁respective	-11.6446
-13	-11.6446
▁makeshift	-11.6447
▁Growth	-11.6447
ADB	-11.6449
chem	-11.6449
▁Yar	-11.645
▁Zhu	-11.645
▁arguments	-11.6451
▁casino	-11.6452
▁separately	-11.6453
▁delivering	-11.6453
▁Tbilisi	-11.6457
▁infections	-11.6458
▁Lleyton	-11.6462
▁achieving	-11.6462
won	-11.6464
▁advisory	-11.6464
▁Arthur	-11.6467
▁notes	-11.6468
RS	-11.6469
road	-11.6469
Let	-11.6474
▁motivated	-11.6475
▁Mobutu	-11.6477
amo	-11.6483
▁Nicaragua	-11.6487
▁Malik	-11.6489
▁electrical	-11.6489
▁outlined	-11.649
▁methods	-11.6491
▁Lazio	-11.6492
▁Sahara	-11.6496
BB	-11.6501
cz	-11.651
▁Senegalese	-11.6512
▁Mol	-11.6513
▁realise	-11.6515
▁subprime	-11.6517
▁Izetbegovic	-11.6522
▁prosperity	-11.6527
▁reeling	-11.6527
▁Eve	-11.653
▁ballistic	-11.6533
▁rioting	-11.6536
▁Education	-11.6537
▁hired	-11.6542
▁quota	-11.6545
▁reunification	-11.6547
▁Vel	-11.6548
▁balloon	-11.6548
▁properly	-11.655
▁Stre	-11.6551
▁plight	-11.6552
▁quarantine	-11.6552
▁1974	-11.6554
duction	-11.6555
plan	-11.6555
graph	-11.6555
▁diagnosed	-11.6557
chang	-11.6558
▁Racing	-11.656
leaning	-11.656
▁brigade	-11.6562
iki	-11.6563
▁powered	-11.6563
friendly	-11.6563
▁tune	-11.6563
▁priorities	-11.6563
ffer	-11.6572
▁ibn	-11.6573
Se	-11.6573
▁Moro	-11.6577
▁Sergio	-11.6578
▁Tajik	-11.6578
trade	-11.658
▁obstacles	-11.6582
▁Gau	-11.6583
▁disclose	-11.6585
▁Inacio	-11.6588
▁Web	-11.659
▁ratio	-11.6593
▁courtroom	-11.6594
▁2:00	-11.6595
feld	-11.6595
▁urgently	-11.6596
▁surviving	-11.6598
och	-11.6604
▁reinstate	-11.6604
▁tentative	-11.6614
▁designated	-11.6615
▁Pap	-11.6618
evo	-11.6618
▁Panama	-11.662
▁bottles	-11.6621
▁Opel	-11.6623
▁Danny	-11.6626
▁CEO	-11.6628
▁11:00	-11.6629
▁cartoons	-11.6636
▁Sara	-11.6636
▁transform	-11.6637
▁Revolution	-11.6638
▁Athletics	-11.6638
▁tolerate	-11.6643
▁Darren	-11.6646
▁Novosti	-11.6655
▁corrupt	-11.6657
▁campus	-11.6661
▁provoked	-11.6661
eck	-11.6663
▁branches	-11.6663
▁Leonid	-11.6664
▁Mobile	-11.6666
amine	-11.667
According	-11.667
▁reflects	-11.6673
▁correction	-11.6673
▁dent	-11.6674
▁Uribe	-11.6674
▁finalists	-11.6674
▁keeper	-11.6675
▁Marcus	-11.6679
▁frustration	-11.6679
Kahn	-11.6682
▁justified	-11.6685
▁Slovenian	-11.6686
Japan	-11.6686
▁Solomon	-11.669
▁5:00	-11.669
▁supervisor	-11.669
▁Finn	-11.6692
illo	-11.6692
▁batch	-11.6692
His	-11.6694
▁Malcolm	-11.6695
▁older	-11.6697
▁Latvian	-11.67
▁Ryutaro	-11.67
▁Louisiana	-11.67
▁eating	-11.67
▁Pole	-11.6702
▁Yao	-11.6702
▁stun	-11.6704
▁Mitterrand	-11.6705
▁casualty	-11.6705
▁burnt	-11.6707
▁Millennium	-11.6715
▁denote	-11.6716
▁1976	-11.6718
▁230	-11.6719
Ja	-11.672
▁Sampras	-11.672
▁Faso	-11.6721
▁reinforcements	-11.6721
▁deter	-11.6723
▁wooden	-11.6724
▁Citigroup	-11.6726
▁Naka	-11.6726
gla	-11.6729
▁oath	-11.6731
▁guarded	-11.6731
4)	-11.6733
▁Ok	-11.6734
▁gainers	-11.6736
ential	-11.6737
▁recommendation	-11.674
▁Scho	-11.674
▁leapt	-11.6741
▁Wembley	-11.6741
▁fortnight	-11.6741
▁monarchy	-11.6743
▁8.5	-11.6744
▁escort	-11.6746
strike	-11.6746
▁header	-11.6747
GMT	-11.6748
▁1983	-11.6749
▁Museveni	-11.6751
▁girlfriend	-11.6751
▁introduction	-11.6751
▁Sharm	-11.6752
▁Salvador	-11.6756
▁skills	-11.6757
last	-11.6758
▁willingness	-11.6759
▁zoo	-11.6761
▁liberation	-11.6762
▁hefty	-11.6762
▁weighing	-11.6763
▁1981	-11.6763
▁releasing	-11.6767
▁Andreas	-11.6767
▁Cap	-11.677
▁Hil	-11.6771
▁Ming	-11.6772
▁veil	-11.6773
▁governance	-11.6773
▁bribery	-11.6778
▁Goldman	-11.6781
responsibilities	-11.6782
▁deflation	-11.6782
▁describe	-11.6784
declared	-11.6784
▁spa	-11.6788
▁IT	-11.679
▁Seattle	-11.679
▁photos	-11.6793
▁Universal	-11.6793
▁colonel	-11.6793
▁gambling	-11.6793
▁horror	-11.6793
▁mystery	-11.6793
▁Fahd	-11.6793
▁Nov	-11.6793
team	-11.6793
▁7.6	-11.6794
▁WASHINGTON	-11.6803
▁mill	-11.6804
▁Enron	-11.6805
▁Arabian	-11.6806
▁Whit	-11.6807
▁accompanying	-11.6808
▁exposure	-11.6808
▁Cruz	-11.6808
France	-11.6813
RT	-11.6813
▁barricade	-11.6813
▁chanting	-11.6813
▁jitters	-11.6818
▁Pale	-11.682
▁Lawyers	-11.6824
life	-11.6825
Jung	-11.6827
▁Susilo	-11.6829
▁drastic	-11.6829
▁Geological	-11.6829
▁pill	-11.6831
communist	-11.6831
▁heels	-11.6832
▁Chretien	-11.6834
▁premature	-11.6834
▁Rain	-11.6835
▁Pascal	-11.6835
▁Cast	-11.6835
Croat	-11.6836
deep	-11.6837
▁Chernomyrdin	-11.6839
▁convey	-11.6839
▁feat	-11.6844
▁copies	-11.6844
▁inventories	-11.6844
▁Asif	-11.6845
▁Blanc	-11.6845
▁arson	-11.6846
▁coaches	-11.6848
igan	-11.6848
▁roar	-11.685
Any	-11.6851
▁Salah	-11.6855
▁attacker	-11.6855
▁Lim	-11.6857
▁admit	-11.6858
▁Argentinian	-11.686
▁Gujarat	-11.686
▁slated	-11.686
▁smile	-11.6864
▁124	-11.6865
▁abused	-11.6868
▁Wade	-11.687
▁Zelaya	-11.687
▁facilitate	-11.687
▁Dakar	-11.6873
▁ratification	-11.6876
▁grain	-11.6876
▁destined	-11.6881
▁martyr	-11.6881
▁garden	-11.6881
▁stricken	-11.6882
▁worry	-11.6883
ECOWAS	-11.6886
▁Forest	-11.6888
appropriate	-11.6889
▁Hiro	-11.6889
▁rightwing	-11.689
Death	-11.6893
occupied	-11.6894
complete	-11.6894
etta	-11.6895
▁Marshall	-11.6897
ditch	-11.6898
▁traveling	-11.6901
rbi	-11.6902
▁Gabriel	-11.6902
▁Yusuf	-11.6902
▁meltdown	-11.6907
▁avian	-11.6909
▁(40	-11.691
▁Nippon	-11.6912
▁Wilkinson	-11.6912
▁Gunners	-11.6912
▁Robbie	-11.6918
▁cordon	-11.6918
African	-11.6923
▁Summit	-11.6923
▁classified	-11.6924
▁detective	-11.6924
zzi	-11.6927
▁expatriate	-11.6928
▁prostitute	-11.6928
interrupted	-11.6928
IL	-11.6929
▁bosses	-11.6929
▁Bengal	-11.6931
positive	-11.6931
▁Budapest	-11.6933
▁admits	-11.6933
▁blueprint	-11.6934
▁drum	-11.6935
▁Tourism	-11.6937
▁Base	-11.6937
▁App	-11.6937
▁Orlando	-11.6939
▁Cham	-11.6939
-18	-11.6942
Don	-11.6944
▁enterprises	-11.6948
eem	-11.6953
▁carries	-11.6954
▁bodyguards	-11.6956
▁fortune	-11.6956
nga	-11.6957
akh	-11.6958
▁accomplice	-11.696
▁qualification	-11.696
▁Petr	-11.6961
kova	-11.6962
▁Elena	-11.6962
▁stalemate	-11.6965
▁cook	-11.6969
,900	-11.6969
▁comprising	-11.697
▁squeeze	-11.697
▁Ahern	-11.697
▁coastguard	-11.6971
▁Bag	-11.6971
▁Karbala	-11.6975
▁embarrassing	-11.6975
Be	-11.6975
▁Mut	-11.6976
▁valuable	-11.6981
▁frontline	-11.6981
5.0	-11.6981
▁precious	-11.6983
▁Tendulkar	-11.6986
▁Morning	-11.6988
▁Love	-11.6991
▁Holbrooke	-11.6996
▁swoop	-11.6996
wit	-11.6998
▁Tonga	-11.6998
▁Light	-11.7
NLD	-11.7002
▁loved	-11.7005
▁Hunt	-11.7007
▁Arctic	-11.7009
▁Pak	-11.7012
▁Felix	-11.7012
ecu	-11.7014
▁deteriorating	-11.7018
▁understood	-11.7023
▁Construction	-11.7023
▁Dominican	-11.7026
▁excluding	-11.7028
▁reversed	-11.7029
▁depot	-11.7034
▁6.9	-11.7035
▁Mountain	-11.7039
▁exception	-11.7039
▁presentation	-11.7042
tten	-11.7043
abad	-11.7045
escu	-11.7048
▁pioneer	-11.7049
▁tidal	-11.7049
▁Such	-11.705
▁Walker	-11.7051
▁supporter	-11.7052
▁commemorate	-11.7054
▁Kazakh	-11.7055
▁Massachusetts	-11.7055
▁cyclist	-11.7055
▁flared	-11.7059
▁plagued	-11.706
raj	-11.7064
▁slum	-11.7064
▁Taka	-11.7065
▁subsequent	-11.7067
▁dig	-11.7067
▁wiped	-11.707
▁Wan	-11.707
▁machinery	-11.707
▁(1.3	-11.7071
▁Schalke	-11.7071
BJP	-11.7071
gno	-11.7074
▁rhetoric	-11.7076
▁Antara	-11.7076
▁Herve	-11.7076
▁terrible	-11.7076
▁270	-11.7078
▁sniper	-11.7081
▁secretly	-11.7082
child	-11.7086
▁sprinter	-11.7088
▁Laura	-11.7092
▁revelations	-11.7095
duct	-11.7097
▁footballer	-11.7099
▁pence	-11.7103
▁consolidate	-11.7105
▁Vaughan	-11.7108
▁lacklustre	-11.7108
▁contender	-11.7108
▁spray	-11.7109
▁Marie	-11.7111
▁Maliki	-11.7112
▁Fukuda	-11.7113
▁Peshawar	-11.7113
▁barometer	-11.7113
▁mafia	-11.7113
▁Oka	-11.7116
oil	-11.7119
▁Hayden	-11.712
▁copyright	-11.712
NZ	-11.7121
▁Tadic	-11.7122
▁Neil	-11.7122
just	-11.7122
▁remind	-11.7124
▁ultimately	-11.7125
▁Today	-11.7126
▁Dy	-11.7126
From	-11.7128
▁succession	-11.7131
▁Assad	-11.7131
▁Sat	-11.7137
▁revived	-11.7139
▁forget	-11.7139
▁Also	-11.714
▁patch	-11.7141
▁Ball	-11.7143
LE	-11.7149
▁Bud	-11.7151
▁disorder	-11.7151
▁obstacle	-11.7152
▁endangered	-11.7153
▁confiscated	-11.7153
anti	-11.7153
big	-11.7154
▁Gir	-11.7155
▁apologised	-11.7155
▁Mauresmo	-11.7156
▁mourners	-11.7159
▁Punjab	-11.7162
▁Novak	-11.7163
▁proliferation	-11.7163
▁sugar	-11.7168
▁Raikkonen	-11.7172
▁Germain	-11.7172
▁parked	-11.7177
▁Dani	-11.7177
▁Lara	-11.7179
▁Borders	-11.7179
▁semiconductor	-11.7183
▁taste	-11.7187
▁Brett	-11.7191
▁Atletico	-11.7194
▁definitive	-11.7194
▁fearing	-11.7199
▁Keane	-11.7201
▁operative	-11.7203
▁metre	-11.7203
▁Fair	-11.7203
▁espionage	-11.7205
▁researcher	-11.7205
▁relaunch	-11.7206
▁Speaker	-11.7209
▁Yankees	-11.721
▁observation	-11.721
▁vacation	-11.721
▁Singaporean	-11.7211
▁Cat	-11.7211
▁forged	-11.7212
2)	-11.7213
▁Father	-11.7214
lap	-11.7215
▁Lionel	-11.7215
▁wonder	-11.7216
▁Eddie	-11.7222
Islamic	-11.7222
▁viewed	-11.7225
▁Hope	-11.7225
▁Julie	-11.7232
moto	-11.7235
KCNA	-11.7237
▁drag	-11.7237
▁underlying	-11.7239
▁123	-11.724
▁await	-11.7241
▁indeed	-11.7242
▁thrilling	-11.7242
▁6.6	-11.7243
▁Zone	-11.7243
▁authorized	-11.725
▁Aliyev	-11.725
digit	-11.7251
▁Benin	-11.7252
▁hamstring	-11.7253
▁kroner	-11.7259
▁centrist	-11.7259
Mar	-11.7261
▁Bishop	-11.7264
▁Ould	-11.7264
▁depict	-11.7265
▁rot	-11.7266
UAE	-11.7269
▁presumed	-11.7269
▁McDonald	-11.7269
▁Bertrand	-11.7272
ucci	-11.7275
wat	-11.7276
▁dug	-11.7276
▁considerable	-11.7276
▁Hat	-11.7277
▁radioactive	-11.7277
▁Glenn	-11.728
▁captors	-11.728
▁Interpol	-11.7281
▁thigh	-11.7282
peace	-11.7285
▁maintenance	-11.7286
▁shutdown	-11.7287
▁default	-11.7291
▁embrace	-11.7293
▁Gyanendra	-11.7297
▁Fur	-11.7301
▁Mustafa	-11.7302
▁supplied	-11.7302
▁installations	-11.7303
▁waging	-11.7304
▁wildlife	-11.7308
▁190	-11.7309
▁competitors	-11.731
▁raped	-11.7312
▁couldn	-11.7313
▁1.25	-11.7317
growing	-11.7319
▁bore	-11.7321
▁Sarah	-11.7324
▁Vegas	-11.7324
▁Voters	-11.7325
▁lease	-11.7326
▁Jet	-11.7327
▁insult	-11.733
▁outline	-11.7338
▁bold	-11.7338
▁sack	-11.734
▁documentary	-11.734
▁Lehman	-11.734
▁goodwill	-11.7346
▁Werder	-11.7346
▁revered	-11.7346
▁Eng	-11.7347
League	-11.7351
▁imprisoned	-11.7351
▁intimidation	-11.7351
▁unconditional	-11.7351
▁Bavaria	-11.7352
▁gripped	-11.7352
▁Illinois	-11.7357
▁Pete	-11.736
corruption	-11.7362
▁hatred	-11.7363
▁Vu	-11.7367
▁denial	-11.7368
▁bounced	-11.7369
▁specifically	-11.737
▁Ferrero	-11.7371
▁everybody	-11.7373
▁nightmare	-11.7373
▁argument	-11.7374
▁volcanic	-11.7379
▁angrily	-11.7379
▁ramp	-11.738
▁Richardson	-11.7382
yong	-11.7384
▁finalised	-11.7384
▁reconsider	-11.7386
AUS	-11.7387
▁cautioned	-11.7389
▁rampant	-11.739
▁blog	-11.7392
6.0	-11.7393
▁Bour	-11.7397
LRA	-11.7399
▁culminat	-11.7401
oko	-11.7402
▁Rafsanjani	-11.7406
wel	-11.7406
▁4-2	-11.7407
▁corpses	-11.7411
▁moratorium	-11.7412
▁memories	-11.7412
▁parliamentarian	-11.7415
▁Papandreou	-11.7417
▁rookie	-11.7417
▁flagship	-11.7419
▁shaken	-11.7422
ML	-11.7423
▁predicting	-11.7424
▁Sav	-11.7428
▁Dem	-11.7428
-12	-11.743
now	-11.7433
▁foe	-11.7434
▁stall	-11.7436
▁Bild	-11.744
value	-11.7444
▁guy	-11.7445
▁Pavel	-11.7449
Ex	-11.7451
cum	-11.7453
▁typhoon	-11.7456
▁capability	-11.7457
▁appreciate	-11.7461
▁bulk	-11.7461
▁remainder	-11.7463
▁Pil	-11.7464
▁confidential	-11.7464
▁opera	-11.7464
▁unite	-11.7466
yama	-11.7466
▁element	-11.7466
▁elaborating	-11.7467
▁Eagle	-11.7467
▁CBS	-11.7467
▁CA	-11.7469
▁600,000	-11.7471
▁legacy	-11.7473
▁132	-11.7477
▁fledgling	-11.7478
▁compensate	-11.7478
▁pipe	-11.748
8.0	-11.748
▁excess	-11.7486
▁goalless	-11.7487
▁annul	-11.7489
▁suspending	-11.7493
▁convened	-11.7502
4.0	-11.7504
▁representation	-11.7505
▁abusing	-11.7506
▁Gran	-11.7507
ING	-11.7508
▁outpost	-11.751
▁Youth	-11.7511
▁epic	-11.7514
▁Sham	-11.7515
▁Commander	-11.7515
▁excellent	-11.7517
▁Franz	-11.7521
▁gunshot	-11.7523
▁Imam	-11.7526
▁Citroen	-11.7528
▁Zardari	-11.7528
independence	-11.7529
book	-11.7529
safe	-11.753
▁Bashir	-11.7534
▁featured	-11.7537
▁Chee	-11.7541
▁anywhere	-11.755
▁ruins	-11.755
▁corps	-11.7554
▁premises	-11.7556
SB	-11.7557
▁Jamie	-11.7558
▁inaugurated	-11.7559
pli	-11.7561
▁farming	-11.7564
lac	-11.7566
▁Bryan	-11.7566
▁consolidation	-11.7567
▁Nokia	-11.7567
etti	-11.7568
▁casting	-11.7569
▁voluntary	-11.7569
away	-11.757
1,000	-11.7574
▁Eu	-11.7577
▁heated	-11.7578
▁treating	-11.7582
Of	-11.7584
establish	-11.7585
Taliban	-11.7585
▁separated	-11.7586
▁Caracas	-11.7589
▁Olivier	-11.7589
▁supervision	-11.759
▁jam	-11.759
Pa	-11.759
listed	-11.7595
▁Myung	-11.7596
▁Edinburgh	-11.7599
▁Miliband	-11.7601
khan	-11.7602
May	-11.7604
▁Field	-11.7606
▁transmission	-11.7606
▁afp	-11.7607
uv	-11.7609
▁Malta	-11.7611
▁separation	-11.7612
▁Ronald	-11.7612
▁rear	-11.7615
▁weakening	-11.7615
▁Marxist	-11.7617
▁Hawaii	-11.7617
▁650	-11.762
GCC	-11.7624
▁Celsius	-11.7629
▁skiing	-11.7633
▁Emergency	-11.7634
▁amateur	-11.7634
▁stories	-11.764
▁dissolved	-11.7645
▁Flight	-11.7645
▁elephant	-11.7646
cript	-11.7646
▁Govern	-11.7647
▁cry	-11.7649
▁perpetrators	-11.7651
▁mega	-11.7656
▁lure	-11.766
▁cheered	-11.766
▁Alitalia	-11.7662
▁lieutenant	-11.7662
▁superior	-11.7662
that	-11.7662
inning	-11.7663
wang	-11.7663
▁Live	-11.7667
▁spectators	-11.7668
▁engulfed	-11.7672
▁Sali	-11.7673
▁Guangzhou	-11.7674
▁concentration	-11.7679
▁repression	-11.7679
▁reviewed	-11.7682
▁rehabilitation	-11.7685
Bissau	-11.7685
jun	-11.7686
▁Mwai	-11.7687
▁removing	-11.7691
military	-11.7692
▁Umar	-11.7692
▁negotiation	-11.7693
▁coma	-11.7693
▁equipped	-11.7696
▁hint	-11.7697
Iran	-11.7699
▁Gerrard	-11.7702
▁backdrop	-11.7704
▁boycotted	-11.7704
▁delegate	-11.7704
▁bottle	-11.7705
▁McCurry	-11.7708
▁Stamford	-11.7708
▁umbrella	-11.7708
▁implications	-11.7708
▁Andrea	-11.7712
clad	-11.7712
▁133	-11.7714
▁efficient	-11.7715
ashi	-11.7717
▁populated	-11.772
▁Shalom	-11.7725
▁Reform	-11.7725
▁Chand	-11.7726
▁Ulster	-11.7726
▁virtual	-11.7727
bad	-11.7728
▁Emmanuel	-11.773
▁Zambian	-11.7735
▁umpire	-11.7736
▁corporation	-11.7736
▁Sabah	-11.7737
New	-11.7738
▁laying	-11.774
Korean	-11.774
vote	-11.7741
ibility	-11.7742
group	-11.7742
▁immigrant	-11.7743
▁Jemaa	-11.7743
▁assert	-11.7746
▁Catherine	-11.7747
▁distress	-11.7747
▁Rich	-11.7748
▁Koran	-11.7749
▁Tyson	-11.7749
TE	-11.775
▁Norodom	-11.7753
step	-11.7757
▁plummeted	-11.776
Nations	-11.7762
▁Fleischer	-11.7765
▁Sergeant	-11.7765
▁escorted	-11.7771
▁servicemen	-11.7771
3)	-11.7771
MD	-11.7772
wei	-11.7775
LDP	-11.778
▁Oliver	-11.7782
Kivu	-11.7783
▁dismantle	-11.7785
▁harassment	-11.7787
▁Nan	-11.7788
▁Leonard	-11.7789
▁550	-11.779
horn	-11.7791
▁vigil	-11.7798
▁Mottaki	-11.7799
▁transatlantic	-11.7799
7.0	-11.7804
▁(100	-11.7804
▁Wor	-11.7805
▁eruption	-11.7806
cott	-11.781
Sullivan	-11.781
▁reliable	-11.781
▁Call	-11.7812
▁smart	-11.7816
titution	-11.7818
▁(200	-11.7821
▁react	-11.7821
▁anchor	-11.783
▁Chin	-11.7831
▁Forty	-11.7831
core	-11.7832
▁technique	-11.7833
▁Flintoff	-11.7833
▁dogged	-11.7834
▁Otto	-11.7836
▁retreated	-11.7837
▁Almost	-11.7843
claim	-11.7844
▁afraid	-11.7845
▁Nicole	-11.7847
▁weigh	-11.7848
▁7.1	-11.7848
▁Jamal	-11.7849
▁Bogota	-11.785
▁Volvo	-11.7852
▁Button	-11.7852
▁126	-11.7853
▁Christoph	-11.7854
▁737	-11.7856
▁Graf	-11.7858
▁balanced	-11.7858
▁convene	-11.786
rib	-11.7861
▁bidder	-11.7863
▁Kit	-11.7865
▁Gare	-11.7867
▁primarily	-11.7868
▁marginally	-11.7872
▁Blake	-11.7872
▁barrage	-11.7875
phy	-11.7877
▁Pot	-11.7881
▁220	-11.7881
Proliferation	-11.7885
▁Durban	-11.7885
▁Salman	-11.7885
▁Tae	-11.7886
▁equaliser	-11.7891
▁Rupert	-11.7891
look	-11.7892
▁accelerate	-11.7893
productive	-11.7896
▁variety	-11.7897
▁Bernama	-11.7897
▁waving	-11.7898
▁Woo	-11.79
▁Rand	-11.7902
▁Puerto	-11.7902
▁baton	-11.7907
▁7.3	-11.7907
▁deserve	-11.7909
▁revealing	-11.791
▁ideal	-11.7912
▁Dagestan	-11.7914
▁apologize	-11.7914
▁intervened	-11.7915
▁actively	-11.7916
▁mask	-11.7916
▁exclude	-11.7918
▁Champ	-11.7919
braced	-11.792
▁raping	-11.792
gam	-11.7929
▁desperately	-11.7929
▁capabilities	-11.7931
▁impression	-11.7931
▁revamp	-11.7931
hiro	-11.7933
▁washed	-11.7938
▁generated	-11.7945
▁Karen	-11.7946
dine	-11.7948
OIC	-11.795
▁Fall	-11.7951
gne	-11.7954
▁Jaffna	-11.7955
▁Khodorkovsky	-11.7955
▁Islamiyah	-11.7955
▁0.25	-11.7957
▁Pur	-11.7957
▁Conte	-11.7959
▁screening	-11.796
▁solo	-11.796
▁rip	-11.796
▁duck	-11.796
▁Morales	-11.796
▁Saf	-11.7961
▁proven	-11.7963
▁Phillip	-11.7964
▁compliance	-11.7966
qa	-11.7967
▁farmer	-11.797
▁Lawrence	-11.7972
▁Nathan	-11.7973
▁mail	-11.7974
mid	-11.7974
▁commanding	-11.7976
cross	-11.7981
▁Investigators	-11.7984
▁4:00	-11.7985
▁argue	-11.7988
▁solar	-11.7988
▁scrambled	-11.7989
▁5-0	-11.799
▁thanked	-11.799
▁Tata	-11.7995
▁Leverkusen	-11.7995
▁Heathrow	-11.7996
▁saving	-11.7996
▁Salim	-11.7998
▁7.8	-11.7999
▁Muk	-11.8001
▁Culture	-11.8001
▁KOSPI	-11.8001
▁plain	-11.8001
▁Justine	-11.8003
premier	-11.8004
▁RSS	-11.8005
▁suburban	-11.8006
▁Botswana	-11.8007
▁Indianapolis	-11.8007
▁Hasan	-11.8007
FTA	-11.8007
▁Salam	-11.8008
from	-11.8012
▁slap	-11.8013
▁shrank	-11.8013
▁universities	-11.8013
▁derby	-11.8015
mut	-11.8016
▁Goh	-11.8018
▁invaded	-11.8018
▁demolition	-11.8019
▁Massa	-11.8019
▁commentator	-11.8023
▁heritage	-11.8025
Because	-11.803
▁netted	-11.8032
▁Immigration	-11.8036
▁spokesperson	-11.8036
▁Badawi	-11.8037
deeply	-11.8039
▁Nord	-11.8041
narcotics	-11.8042
▁musical	-11.8042
▁bonuses	-11.8044
▁briefed	-11.8046
▁gene	-11.8047
▁mineral	-11.8047
▁Trinidad	-11.8048
▁arranged	-11.8056
▁Bert	-11.8057
September	-11.8058
▁memo	-11.8059
▁sensational	-11.806
▁spat	-11.8064
▁readiness	-11.8066
▁Mehdi	-11.8066
▁Osman	-11.8066
▁Bau	-11.8066
▁storage	-11.8071
Car	-11.8073
▁leap	-11.8074
▁sample	-11.8077
▁transparent	-11.8077
▁Frei	-11.8077
▁lightning	-11.8078
bot	-11.8079
▁sponsored	-11.808
uang	-11.8082
▁racism	-11.8083
▁palm	-11.8089
TB	-11.809
▁Golan	-11.8092
pit	-11.8097
▁greet	-11.8098
▁assure	-11.81
▁shouting	-11.8107
▁Focus	-11.8107
▁hardest	-11.8109
nell	-11.8112
▁Claude	-11.8113
▁Uighur	-11.8113
▁sunk	-11.8117
▁levelled	-11.8117
▁Patten	-11.8117
▁Thompson	-11.8119
▁Thomson	-11.8119
▁resource	-11.812
▁relation	-11.8124
▁nail	-11.8125
▁extradite	-11.8129
▁Messi	-11.813
▁whistle	-11.8131
▁1,300	-11.8131
▁Kent	-11.8133
▁snatch	-11.8133
Since	-11.8135
▁expire	-11.8135
▁evasion	-11.8136
▁Iyad	-11.8137
▁8.0	-11.8139
▁generate	-11.8141
ICRC	-11.8141
▁Madeleine	-11.8142
▁vow	-11.8143
▁crowned	-11.8144
▁Nancy	-11.8145
▁Officer	-11.8146
▁switched	-11.8147
DE	-11.8147
▁Martyrs	-11.8148
▁Tiananmen	-11.8148
▁brilliant	-11.8148
▁patent	-11.8148
▁peer	-11.815
OS	-11.8154
Pro	-11.8154
▁Fifteen	-11.8154
▁opium	-11.8154
▁stretched	-11.8156
▁precaution	-11.8159
▁requesting	-11.8159
▁provision	-11.8161
▁1978	-11.8163
▁Emil	-11.8165
▁Glo	-11.8166
▁Aeronautic	-11.8166
▁stok	-11.8168
▁distinct	-11.8172
itu	-11.8173
▁granting	-11.8174
▁Rick	-11.8177
▁mainstream	-11.818
▁imm	-11.8181
▁Natal	-11.8184
▁Francais	-11.8184
▁(1.5	-11.8185
▁Rosa	-11.8188
▁treasure	-11.819
▁Indy	-11.819
▁annexed	-11.8192
fighting	-11.8193
view	-11.8197
NPT	-11.8199
▁surgeon	-11.82
▁predominantly	-11.8202
▁Albright	-11.8202
▁accounted	-11.8202
sided	-11.8204
fuel	-11.8204
▁smuggle	-11.8205
▁humiliating	-11.8208
▁powder	-11.8208
▁Appeal	-11.8208
requiring	-11.8208
▁investigator	-11.821
▁tiger	-11.8214
▁climbing	-11.8216
▁mall	-11.8217
Pakistan	-11.8218
▁Wie	-11.8221
▁Wright	-11.8227
▁Truth	-11.8229
▁Suez	-11.8229
▁clause	-11.8232
▁franchise	-11.8232
▁persist	-11.8233
▁kicking	-11.8234
▁deserved	-11.8234
▁Cri	-11.8234
▁procession	-11.8237
▁genuine	-11.8243
▁drilling	-11.8246
▁Chap	-11.8249
▁album	-11.825
▁brushed	-11.8251
▁subsequently	-11.8254
▁Pittsburgh	-11.8255
▁Typhoon	-11.8255
▁Fran	-11.8258
▁stabilize	-11.8267
talling	-11.8268
▁capsized	-11.8269
▁bitterly	-11.827
▁tide	-11.8276
▁halfway	-11.8279
▁Kyrgyz	-11.8279
▁Minnesota	-11.8279
▁Wellington	-11.8279
Dutch	-11.8284
▁7.4	-11.8285
▁worshippers	-11.8286
▁Trent	-11.8287
▁till	-11.8289
▁warfare	-11.8292
▁Hawk	-11.8292
▁Metal	-11.8293
▁defendant	-11.8294
▁Arch	-11.8295
▁Canterbury	-11.8297
▁ordeal	-11.8298
Every	-11.8303
▁reviewing	-11.8308
▁Dor	-11.8309
Given	-11.8311
▁pursued	-11.8312
▁Revenue	-11.8316
▁favorite	-11.8317
▁rank	-11.8319
hunting	-11.832
▁dated	-11.8321
-17	-11.8321
accurate	-11.8322
▁batsmen	-11.8322
▁downgraded	-11.8322
SIA	-11.833
▁masked	-11.8331
▁Larijani	-11.8334
▁Pennsylvania	-11.8334
▁advertisement	-11.8334
▁context	-11.8334
▁Dah	-11.8335
▁7.9	-11.8335
▁cruised	-11.8336
IRA	-11.8337
▁Commercial	-11.834
▁onslaught	-11.834
▁parallel	-11.834
▁Fighting	-11.834
▁brake	-11.834
NB	-11.8342
▁commodities	-11.8346
▁(0500	-11.8346
▁reserved	-11.835
▁Siniora	-11.8352
prop	-11.8354
▁Taro	-11.8356
French	-11.8357
▁Jericho	-11.8358
▁Suzuki	-11.8358
▁celebrity	-11.8358
▁conservation	-11.8358
▁sentencing	-11.8358
▁actual	-11.8359
▁handled	-11.8361
scoring	-11.8363
iel	-11.8363
0.50	-11.8365
wielding	-11.8366
▁recognized	-11.8367
wung	-11.8368
▁Gang	-11.837
flu	-11.837
▁Elysee	-11.837
▁scope	-11.837
▁carded	-11.8372
wise	-11.8373
▁reclaim	-11.8374
▁breached	-11.8375
▁Pearl	-11.8376
▁trademark	-11.8379
official	-11.8385
▁UNICEF	-11.8388
▁favoured	-11.8393
▁airbase	-11.8394
▁Leader	-11.8396
▁Mick	-11.8398
UR	-11.8399
Three	-11.84
▁foresee	-11.8403
▁Nordic	-11.8404
yat	-11.8405
spot	-11.8415
aux	-11.8416
▁Haniya	-11.8416
▁1945	-11.8416
▁Facebook	-11.8419
▁Scandinavian	-11.8419
▁trap	-11.8421
▁undermined	-11.8422
phan	-11.8423
▁Mittal	-11.8425
▁orchestra	-11.8425
▁slipping	-11.8425
▁presenting	-11.8427
▁enjoying	-11.8429
▁Nice	-11.8429
▁pistol	-11.8431
▁Lou	-11.8434
abil	-11.844
▁Bobby	-11.844
▁Safin	-11.844
▁Pablo	-11.8443
▁diesel	-11.8444
▁moon	-11.8449
▁pirate	-11.8451
assam	-11.8454
▁Resolution	-11.8455
▁Yevgeny	-11.8455
pressed	-11.8455
▁Blatter	-11.8456
▁Tsu	-11.8458
UNPROFOR	-11.8461
▁Sumitomo	-11.8461
▁calculated	-11.8461
▁evict	-11.8462
▁Pala	-11.8462
▁128	-11.8462
▁Assam	-11.8463
▁battalion	-11.8467
▁dual	-11.847
▁Michele	-11.8472
▁exceeded	-11.8473
▁Mafia	-11.8473
▁Show	-11.8482
▁Bildt	-11.8486
▁Issa	-11.8488
▁Sachs	-11.8488
▁portion	-11.8493
▁newcomer	-11.8493
▁harder	-11.8496
▁load	-11.8497
▁inflationary	-11.8498
▁Peugeot	-11.8504
▁pattern	-11.8504
▁Initial	-11.8505
▁Garden	-11.8507
▁patrolling	-11.8509
▁observe	-11.8509
▁Jeddah	-11.851
▁Thor	-11.851
▁Watson	-11.8512
▁Loeb	-11.8513
▁Schwarzenegger	-11.8516
▁senate	-11.8516
▁athlete	-11.852
▁abstain	-11.8523
▁Cristiano	-11.8523
▁stemming	-11.8524
▁Thatcher	-11.8524
▁Hampshire	-11.8529
▁nearest	-11.8533
▁Hick	-11.8533
▁unjust	-11.8538
▁Hashemi	-11.8541
▁Hatoyama	-11.8541
▁Maradona	-11.8541
▁portrait	-11.8541
▁rolling	-11.8542
▁obstruct	-11.8542
psy	-11.8543
▁pile	-11.8544
▁widening	-11.8557
▁Visit	-11.8567
▁enact	-11.8568
▁golfer	-11.8571
▁Bangalore	-11.8572
▁devastation	-11.8572
▁outnumbered	-11.8572
▁Brand	-11.8572
▁retiring	-11.8578
▁Disease	-11.8578
▁Mou	-11.858
▁Patriot	-11.8583
▁bounce	-11.8583
▁Hitler	-11.8584
▁Southampton	-11.8584
▁frustrated	-11.8584
▁restoration	-11.8584
▁Naples	-11.8584
▁postponement	-11.8587
▁freight	-11.8588
trans	-11.859
▁expenditure	-11.859
▁Dana	-11.8592
▁Borussia	-11.8597
▁Bha	-11.86
cutting	-11.86
▁Catalan	-11.8603
kilogram	-11.8606
▁abduct	-11.8607
▁midfield	-11.8608
▁mock	-11.8611
▁cyber	-11.8615
▁frequently	-11.8615
▁acute	-11.8616
▁searches	-11.8619
▁lover	-11.8619
▁NTV	-11.8619
▁reviving	-11.8621
▁relieved	-11.8623
▁lucky	-11.8629
vious	-11.863
▁Yama	-11.863
quin	-11.8632
▁hamper	-11.8632
▁Mandelson	-11.8634
▁Timothy	-11.8634
▁2020	-11.8634
▁ISAF	-11.8637
▁circulation	-11.8637
▁pitcher	-11.8641
▁Mostar	-11.8643
▁marry	-11.8644
▁intercept	-11.8645
▁cooperating	-11.8646
▁renounce	-11.8646
▁iconic	-11.8647
▁endanger	-11.8651
▁wrist	-11.8653
▁ranch	-11.8655
▁"(	-11.8655
▁worrying	-11.8656
elo	-11.8659
gur	-11.8661
▁Gru	-11.8661
▁equally	-11.8662
▁scholar	-11.8665
gil	-11.8669
▁Michigan	-11.8671
▁billed	-11.8677
▁jeep	-11.8678
SM	-11.8678
▁indefinite	-11.8681
▁Kingdom	-11.8681
▁Dae	-11.8681
▁turnaround	-11.8684
▁Jerry	-11.8684
▁method	-11.8685
▁derailed	-11.8688
▁rattled	-11.869
▁renegade	-11.869
provocative	-11.8696
▁ISNA	-11.8696
▁Teng	-11.8699
▁targetted	-11.8701
▁throat	-11.8703
rooted	-11.8703
▁inciting	-11.8704
pm	-11.8704
▁minorities	-11.8704
▁Kang	-11.8705
▁Eritrean	-11.8706
▁premium	-11.8709
▁inspiration	-11.8715
▁beauty	-11.8715
▁prostitution	-11.8715
▁selectors	-11.8716
allah	-11.8717
▁Bremer	-11.8717
▁consultation	-11.8719
▁bury	-11.872
▁inevitable	-11.8721
▁transporting	-11.8722
By	-11.8726
▁waved	-11.8727
▁seizing	-11.8729
▁woo	-11.8729
▁Broad	-11.873
▁merely	-11.8731
▁fireworks	-11.8734
▁earning	-11.8738
▁Waugh	-11.8739
▁Davenport	-11.874
▁adventure	-11.874
acy	-11.8741
▁steal	-11.8741
▁Hull	-11.8743
▁1972	-11.8744
▁avalanche	-11.8747
▁Keith	-11.8747
FIN	-11.875
▁owed	-11.8756
▁supplying	-11.8758
▁clamp	-11.8759
▁College	-11.8759
▁Maryland	-11.8762
Nazi	-11.8765
▁crippled	-11.8765
▁occupying	-11.8765
▁roadblock	-11.8765
▁Khalid	-11.8765
▁Choi	-11.8767
▁complaining	-11.8768
▁dire	-11.8769
mini	-11.8775
▁postal	-11.8776
▁thrashed	-11.8776
▁joke	-11.8777
▁dirt	-11.8777
satisfactory	-11.8778
▁electorate	-11.8778
▁structural	-11.8778
▁Larry	-11.8781
▁Echo	-11.8781
nationalist	-11.8784
▁Vieira	-11.8784
▁nobody	-11.8784
▁3:00	-11.8786
KDP	-11.8788
▁captivity	-11.8791
▁treasury	-11.8791
▁Natural	-11.8791
pl	-11.8792
▁ANC	-11.8795
▁cheering	-11.8799
ahead	-11.8799
ghe	-11.8801
▁Studies	-11.8803
Bu	-11.8804
flight	-11.8806
During	-11.8806
▁congratulate	-11.8809
GO	-11.8809
dding	-11.881
▁endorse	-11.8813
▁Peninsula	-11.8816
▁renowned	-11.8816
▁Emile	-11.882
city	-11.8826
▁Yuki	-11.8827
▁serial	-11.8841
▁showcase	-11.8841
▁NEW	-11.8841
▁starring	-11.8842
▁relax	-11.8846
▁settler	-11.8847
▁Parti	-11.8847
▁Planning	-11.8849
▁FARC	-11.8849
▁betting	-11.8851
▁Ellis	-11.8852
▁Commodity	-11.8854
▁Fifty	-11.8854
▁outlets	-11.8856
▁See	-11.8858
▁deadlocked	-11.886
▁Yassin	-11.8861
▁infant	-11.8861
bek	-11.8862
0.05	-11.8866
▁accomplish	-11.8867
▁coveted	-11.8867
▁assassinate	-11.8867
▁Martinez	-11.887
runner	-11.887
▁Vit	-11.887
▁burial	-11.8873
▁dismal	-11.8879
finalist	-11.8879
▁Comm	-11.8883
historic	-11.8888
▁penal	-11.8891
▁Beach	-11.8892
▁delicate	-11.8892
▁smuggled	-11.8894
▁Nou	-11.8894
bury	-11.8895
stage	-11.8898
fli	-11.8898
▁dominance	-11.8899
▁illicit	-11.8899
1.0	-11.8899
▁Giuli	-11.89
▁confusion	-11.8905
▁plutonium	-11.8905
▁Amazon	-11.8905
▁Scores	-11.8905
350	-11.8906
bou	-11.8911
▁patriarch	-11.8911
▁revival	-11.8911
▁Timorese	-11.8912
▁exhibit	-11.8915
▁counterfeit	-11.8918
▁respondents	-11.8918
PUK	-11.8918
generation	-11.892
Bak	-11.8921
▁Soldiers	-11.8924
▁kilogrammes	-11.8924
▁Gamb	-11.8925
▁provocation	-11.8925
▁Shaun	-11.8926
▁villa	-11.8929
▁DaimlerChrysler	-11.8931
▁judgment	-11.8931
▁Pietersen	-11.8931
▁graphic	-11.8931
▁FT	-11.8934
▁policymakers	-11.8941
▁tired	-11.8941
mitted	-11.8941
▁descend	-11.8942
▁flanker	-11.8942
▁halting	-11.8943
▁Zidane	-11.8943
▁barr	-11.8945
▁Ernesto	-11.8947
▁dip	-11.8949
▁Globe	-11.8957
▁devoted	-11.8963
▁sever	-11.8964
▁maybe	-11.8967
certain	-11.8971
▁Cer	-11.8972
▁mere	-11.8974
▁Calderon	-11.8976
▁passes	-11.8981
▁rib	-11.8984
quality	-11.8985
OSCE	-11.8985
RP	-11.8987
▁speculative	-11.8988
▁undermining	-11.8989
▁commemoration	-11.8989
ility	-11.8989
kawa	-11.899
▁chill	-11.8991
▁Ashton	-11.8993
▁commando	-11.8993
▁(0800	-11.8995
▁honest	-11.8995
▁134	-11.8996
Go	-11.8996
World	-11.8998
▁mourn	-11.9
▁denounce	-11.9001
▁plenty	-11.9001
FO	-11.9002
▁regained	-11.9002
▁costly	-11.9007
▁paralysed	-11.9008
chenko	-11.9012
▁hampered	-11.9017
haul	-11.9017
▁addict	-11.9017
▁defying	-11.9021
▁steadily	-11.9027
▁synagogue	-11.9027
▁Prosecutor	-11.9029
▁excluded	-11.9036
▁Raza	-11.9038
▁Tinto	-11.9038
▁hijacking	-11.9041
▁Victory	-11.9041
▁torched	-11.9041
hawk	-11.9045
▁Strategic	-11.9047
▁Lamy	-11.9051
▁notified	-11.9052
Sun	-11.9052
▁Baquba	-11.9053
▁emotion	-11.9053
▁unhappy	-11.9053
▁127	-11.9054
▁Clement	-11.9056
▁cabin	-11.9059
▁checked	-11.9059
▁thrashing	-11.9059
▁Abhisit	-11.906
▁Charlton	-11.906
▁stray	-11.9061
goal	-11.9062
▁Wild	-11.9064
▁conceal	-11.9066
1.50	-11.9072
▁scam	-11.9072
▁wrangling	-11.9073
▁cousin	-11.9073
▁SK	-11.9073
▁fog	-11.9073
▁slaying	-11.9086
ographic	-11.9091
▁Computer	-11.9092
▁jihad	-11.9092
▁uphold	-11.9095
▁Macedonian	-11.9097
▁alerted	-11.9098
▁runoff	-11.9098
▁Vivendi	-11.9099
▁downgrade	-11.9101
▁useful	-11.9102
Iraqi	-11.9104
morning	-11.9104
▁Eto	-11.9104
▁Saeed	-11.9106
▁bias	-11.9111
▁excited	-11.9112
possess	-11.9112
▁Gilbert	-11.9112
opening	-11.9113
June	-11.9113
Or	-11.9115
▁Ciller	-11.9119
▁Alfred	-11.9119
▁descended	-11.912
hip	-11.9121
▁Nico	-11.9124
▁breed	-11.9125
▁Serge	-11.9125
▁210	-11.9128
▁Syed	-11.913
▁Sei	-11.9131
▁avenge	-11.9132
▁Beshir	-11.9133
▁Voting	-11.9136
▁Kimi	-11.9143
▁trawler	-11.9144
▁Janeiro	-11.9151
▁complicated	-11.9151
▁Antarctic	-11.9151
▁settling	-11.9151
▁Orange	-11.9154
▁Sukarnoputri	-11.9164
▁breaching	-11.9173
▁(35	-11.9174
▁assumed	-11.9179
▁studied	-11.9184
▁Alessandro	-11.919
▁Resources	-11.919
▁capturing	-11.9197
GAM	-11.92
▁metro	-11.92
▁chart	-11.9201
▁shun	-11.9202
▁Bhd	-11.9204
▁carnage	-11.921
▁bump	-11.9212
▁fat	-11.9213
attack	-11.9214
▁Christie	-11.9221
▁carpet	-11.9224
catastrophic	-11.923
▁limb	-11.923
▁Daewoo	-11.923
▁endured	-11.923
▁Equatorial	-11.9236
▁flexibility	-11.9236
▁Huang	-11.9239
wall	-11.9243
▁Transportation	-11.9247
▁5-1	-11.9253
▁Thirteen	-11.9256
▁faltering	-11.9256
▁reunite	-11.9257
ICTY	-11.9263
▁credentials	-11.9263
▁mandatory	-11.9263
▁Jaya	-11.9263
VA	-11.9269
▁reasonable	-11.9269
▁beaches	-11.9269
▁ignoring	-11.927
▁Raffarin	-11.927
▁displayed	-11.9273
fought	-11.9276
▁Lille	-11.9277
▁prevention	-11.9277
▁Raja	-11.9279
▁testified	-11.9282
▁contaminated	-11.9283
▁presiding	-11.9283
▁instructions	-11.9283
▁blacklist	-11.9283
▁ignore	-11.9289
▁Zeitung	-11.9289
▁archbishop	-11.9289
▁concept	-11.9291
▁aerial	-11.9291
▁ditch	-11.9296
▁Soccer	-11.9296
▁Experts	-11.9296
dale	-11.93
▁awareness	-11.9305
▁Dili	-11.9307
ello	-11.9307
proliferation	-11.9308
▁BHP	-11.9309
▁Parker	-11.931
▁Yoshi	-11.9311
▁borrow	-11.9319
Shinzo	-11.9322
▁mentioned	-11.9323
▁Fahrenheit	-11.9323
▁Memorial	-11.9323
▁taxpayer	-11.9323
order	-11.9326
▁Kampala	-11.9329
▁supremo	-11.9329
▁jewel	-11.933
▁conversion	-11.9336
▁legitimacy	-11.9336
▁Zionist	-11.9336
▁Vale	-11.9339
▁Yousuf	-11.9343
▁slot	-11.9344
▁brokered	-11.9347
▁dynamic	-11.9349
▁assigned	-11.9349
▁verbal	-11.9349
▁tools	-11.9351
▁Journalists	-11.9351
immediate	-11.9355
▁Reign	-11.9356
▁Humanitarian	-11.9356
▁fraction	-11.9356
▁playmaker	-11.9361
▁Burundian	-11.9361
▁tainted	-11.9362
▁constituencies	-11.9363
▁minibus	-11.9363
▁LONDON	-11.9369
ready	-11.9371
▁sounded	-11.9372
▁random	-11.9373
▁Ratko	-11.9374
1.00	-11.9377
▁acceptance	-11.9377
fight	-11.9378
▁Sang	-11.938
cel	-11.938
▁Phelps	-11.9383
▁dissent	-11.9383
▁SAPA	-11.9384
CPI	-11.9386
▁flowers	-11.9387
▁148	-11.9389
▁Societe	-11.939
▁reprisal	-11.939
▁insider	-11.939
▁quash	-11.9392
▁Paolo	-11.9392
▁Vaclav	-11.9396
▁somewhat	-11.9396
▁Official	-11.94
▁Bujumbura	-11.9403
▁80,000	-11.9405
3.00	-11.9408
▁scream	-11.941
▁epicenter	-11.9416
▁seaside	-11.9418
▁chat	-11.9421
▁nun	-11.9422
▁cruel	-11.9423
Mart	-11.9426
Those	-11.9429
▁midweek	-11.9429
anov	-11.9431
Europe	-11.9432
▁audio	-11.9434
PTI	-11.9435
▁Back	-11.9436
▁consultant	-11.944
▁coastline	-11.9441
operation	-11.9448
▁Pav	-11.9449
▁Mahdi	-11.9456
▁learning	-11.9456
▁blitz	-11.9457
turned	-11.9457
▁morale	-11.946
gawa	-11.9461
▁undertaken	-11.9462
▁Erik	-11.9468
▁herald	-11.947
▁Livni	-11.947
▁Yasuo	-11.947
▁Born	-11.9473
▁Englishman	-11.9476
▁Mindanao	-11.9477
▁entertain	-11.9478
flagged	-11.9479
▁Moi	-11.9489
affected	-11.949
crime	-11.949
▁Barrichello	-11.9491
▁Caspian	-11.9491
▁deterioration	-11.9491
▁Ballack	-11.9491
▁verify	-11.9491
▁2015	-11.9493
▁1973	-11.9494
▁depressed	-11.9495
▁Amro	-11.9495
dumping	-11.9496
▁criticising	-11.9499
stair	-11.9503
aircraft	-11.9504
▁assembled	-11.9504
▁Fleming	-11.9504
▁risky	-11.9508
▁Cesar	-11.9509
▁dignity	-11.9511
▁intifada	-11.9511
MILF	-11.9511
▁Alexei	-11.9513
▁suggestion	-11.9516
politic	-11.9516
▁embezzlement	-11.9518
▁clarify	-11.9518
▁endorsement	-11.952
▁Kru	-11.9522
▁Potter	-11.9524
▁grappl	-11.9525
▁finalist	-11.9525
wife	-11.9529
▁acknowledge	-11.9531
▁painted	-11.9532
▁shaky	-11.9538
▁meal	-11.9542
▁Robertson	-11.9543
▁Brunei	-11.9545
▁visible	-11.9545
▁beheaded	-11.9545
beat	-11.9546
▁Bear	-11.9548
agged	-11.9551
▁Yorkshire	-11.9552
▁trauma	-11.9552
bracing	-11.9554
stock	-11.9558
▁Lindsay	-11.9559
▁interfere	-11.9559
▁packing	-11.9564
iah	-11.9565
▁sensation	-11.9565
▁Junior	-11.9566
▁blunt	-11.9566
▁Fel	-11.9569
▁enrich	-11.957
▁Seko	-11.957
80,000	-11.9571
▁exciting	-11.9572
▁wildfire	-11.9573
ddressing	-11.9574
▁proclaimed	-11.9575
western	-11.9576
▁Once	-11.9577
credible	-11.9579
▁rammed	-11.9579
▁sorry	-11.9579
▁videotape	-11.9579
▁swimmer	-11.958
▁elimination	-11.9586
▁quartet	-11.9586
▁Petra	-11.9588
▁drifted	-11.9588
▁relegated	-11.9593
▁modified	-11.9593
▁Frontier	-11.9599
▁Musab	-11.9599
▁Shak	-11.96
▁scrutiny	-11.96
▁survivor	-11.9601
shirt	-11.9606
▁Book	-11.9611
▁Mam	-11.9613
▁Protocol	-11.9613
▁improvised	-11.9613
▁flurry	-11.9613
avier	-11.9614
▁excuse	-11.9614
▁Habib	-11.9614
▁Observer	-11.962
▁Fay	-11.9621
▁fiery	-11.9621
▁Wolfowitz	-11.9627
▁widened	-11.963
logical	-11.963
▁vying	-11.963
▁comedy	-11.963
▁Bruno	-11.9634
▁renewal	-11.9634
▁filmmaker	-11.9638
▁2014	-11.9638
fired	-11.964
▁Francesco	-11.9644
unconstitutional	-11.9648
unacceptable	-11.9648
▁properties	-11.9648
▁Bow	-11.965
▁marginal	-11.965
registered	-11.9655
▁binding	-11.9655
▁Josh	-11.9659
▁Gene	-11.9662
▁whereabouts	-11.9662
▁color	-11.9667
▁sailing	-11.9668
▁Insurance	-11.9669
▁70,000	-11.9669
▁Tower	-11.9671
▁Najib	-11.9675
ethnic	-11.9676
▁Sung	-11.9678
▁Haj	-11.9681
▁Monde	-11.9681
▁suppress	-11.9682
▁Environmental	-11.9689
▁Sorenstam	-11.9689
▁privilege	-11.9689
▁toilet	-11.969
▁cull	-11.9692
▁Brotherhood	-11.9696
▁interpreter	-11.9696
▁Neu	-11.9698
▁Musa	-11.9699
▁breathing	-11.9701
▁1.47	-11.9701
▁dismiss	-11.9702
acre	-11.9703
▁volatility	-11.9703
▁difficulty	-11.9703
▁subjected	-11.9709
▁equities	-11.971
▁Duncan	-11.9711
owner	-11.9711
▁gala	-11.9714
would	-11.9717
▁purported	-11.9717
▁truly	-11.9717
▁dish	-11.9718
▁confession	-11.9724
▁buffer	-11.9724
▁Nash	-11.9724
confidence	-11.9724
▁Alaska	-11.9724
Cooper	-11.9725
▁Border	-11.9727
Both	-11.973
▁mess	-11.973
▁flotilla	-11.9731
▁magic	-11.9732
▁Organisers	-11.9732
risk	-11.9733
▁Manhattan	-11.9738
▁Yanukovich	-11.9738
▁Samar	-11.9738
▁Valentin	-11.974
▁soften	-11.9741
▁Zhou	-11.9745
▁Lynch	-11.9745
▁weaken	-11.9747
▁donated	-11.9748
▁luck	-11.9752
▁Arcelor	-11.9752
▁Chandrika	-11.9752
▁launches	-11.9752
Hu	-11.9753
▁dismissing	-11.9755
▁cache	-11.9758
▁Muralitharan	-11.9759
▁kidney	-11.9759
▁unseeded	-11.9759
▁conspiring	-11.9759
▁genetic	-11.9766
▁Hasina	-11.9766
▁Ericsson	-11.9766
▁Audi	-11.9767
▁motorway	-11.9767
▁Minsk	-11.9769
▁Rajapakse	-11.9773
▁Scheffer	-11.9773
▁warehouse	-11.9773
▁Jammu	-11.9773
▁Operat	-11.9774
▁Nationalist	-11.9778
▁clearance	-11.9778
▁Sevilla	-11.978
▁Pierce	-11.978
▁NZS	-11.9783
▁systematic	-11.9783
▁Best	-11.9785
▁climax	-11.9786
tang	-11.9789
▁Lunar	-11.9789
▁adjustment	-11.9791
▁revoke	-11.9794
▁Denver	-11.9795
▁robot	-11.9796
full	-11.9797
▁Fuad	-11.9798
▁sympathy	-11.98
▁Thorpe	-11.9801
▁musician	-11.9802
▁privacy	-11.9807
▁deserted	-11.9812
ploy	-11.9817
▁veterinary	-11.9821
▁NFL	-11.9821
SCO	-11.9822
▁260	-11.9822
▁teaching	-11.9829
course	-11.983
▁Rubin	-11.9831
▁hardly	-11.9835
Bar	-11.9835
▁fiercely	-11.9836
▁beneath	-11.9842
BRA	-11.9843
▁floating	-11.9843
delayed	-11.9844
▁CD	-11.9846
ography	-11.9848
▁abstention	-11.985
▁syndicate	-11.985
▁whaling	-11.985
▁1:00	-11.9852
cic	-11.9852
▁chartered	-11.9853
▁Khalifa	-11.9853
▁(1500	-11.9854
▁Baku	-11.9855
▁Spokesman	-11.9857
▁remanded	-11.9857
▁denies	-11.9857
riot	-11.9857
GBR	-11.9864
▁outcry	-11.9864
mouth	-11.9865
▁posing	-11.9867
Sung	-11.9868
▁favourable	-11.9869
MONUC	-11.9871
moral	-11.9873
▁havoc	-11.9878
▁grey	-11.988
▁flagging	-11.988
loo	-11.9881
▁Bolivian	-11.9882
▁Jeremy	-11.9885
▁restructure	-11.9885
0.08	-11.9891
▁cluster	-11.9892
▁Yves	-11.9892
▁buck	-11.9895
▁hate	-11.9895
▁halve	-11.9896
▁blistering	-11.9899
[...]
