<unk>	0
<s>	0
</s>	0
▁the	-3.25688
.	-3.54069
,	-3.60791
s	-3.71158
▁a	-3.7468
▁of	-3.807
▁to	-3.84984
▁in	-3.86267
▁on	-4.20442
-	-4.4075
'	-4.41239
▁and	-4.45288
▁said	-4.49513
▁for	-4.85059
▁	-5.24724
▁with	-5.32011
▁by	-5.3788
▁The	-5.43371
▁US	-5.4428
▁Tuesday	-5.46264
▁Thursday	-5.46614
▁Wednesday	-5.47029
▁at	-5.47484
▁an	-5.49191
▁that	-5.49285
▁as	-5.52717
▁Monday	-5.54045
▁Friday	-5.55715
▁from	-5.60492
▁after	-5.61339
▁was	-5.61442
▁his	-5.66353
ing	-5.7167
▁A	-5.78458
▁has	-5.78998
▁its	-5.81035
▁"	-5.93587
▁here	-5.97645
▁Sunday	-5.97689
▁is	-5.99903
▁it	-6.01681
ed	-6.02119
▁Saturday	-6.04825
▁will	-6.06682
▁were	-6.08392
"	-6.09576
▁over	-6.09987
▁their	-6.10879
▁President	-6.12313
▁be	-6.23934
▁government	-6.23985
▁have	-6.29603
▁against	-6.30728
▁he	-6.30808
▁two	-6.31277
▁percent	-6.33515
▁first	-6.35088
▁Minister	-6.38343
)	-6.38913
▁new	-6.45416
▁United	-6.49028
▁people	-6.49582
▁up	-6.53015
▁officials	-6.53246
▁(	-6.54137
▁country	-6.54555
▁police	-6.5532
▁year	-6.60122
▁who	-6.63197
▁official	-6.63232
▁but	-6.63943
▁killed	-6.67064
▁reported	-6.67931
▁had	-6.68998
▁which	-6.69052
▁European	-6.71604
▁been	-6.74779
▁into	-6.7563
▁are	-6.75903
▁would	-6.76999
▁this	-6.77215
▁out	-6.77629
d	-6.77802
▁state	-6.77804
▁one	-6.77939
▁Iraq	-6.78908
▁dollars	-6.80158
▁World	-6.80502
▁week	-6.80517
▁prices	-6.81375
▁China	-6.81747
▁UN	-6.82487
▁South	-6.82706
▁world	-6.83349
▁three	-6.85325
▁military	-6.86085
▁more	-6.86118
▁not	-6.8698
▁they	-6.87378
▁States	-6.87489
▁French	-6.87579
▁Prime	-6.87637
▁last	-6.88016
▁million	-6.91739
▁British	-6.98042
▁leader	-6.99639
▁talks	-6.99734
▁than	-7.0005
▁announced	-7.0017
e	-7.01207
▁group	-7.02329
▁next	-7.02336
▁Cup	-7.0277
▁when	-7.03558
▁war	-7.03944
▁second	-7.07737
▁between	-7.09728
▁former	-7.10397
▁Israeli	-7.12811
y	-7.13785
▁years	-7.13916
▁billion	-7.1638
▁day	-7.16534
▁dealers	-7.16934
▁top	-7.19093
▁Palestinian	-7.20031
o	-7.2012
er	-7.21242
▁minister	-7.21452
ly	-7.22255
▁oil	-7.22396
▁Japan	-7.22491
▁international	-7.23168
▁security	-7.23259
▁Russian	-7.24296
▁New	-7.25796
▁month	-7.2629
▁off	-7.27008
▁France	-7.28248
▁could	-7.29368
a	-7.29904
▁foreign	-7.30115
▁down	-7.30381
▁four	-7.308
▁nuclear	-7.31061
▁court	-7.31398
▁her	-7.33517
▁share	-7.34311
▁president	-7.34757
▁Korea	-7.35705
▁German	-7.36876
▁about	-7.3691
▁following	-7.39549
▁economic	-7.39979
▁told	-7.40354
▁city	-7.40376
▁closed	-7.40927
▁trade	-7.41259
▁during	-7.41304
▁Israel	-7.42044
▁end	-7.43471
▁chief	-7.4385
year	-7.43996
▁agency	-7.44788
▁capital	-7.44823
▁called	-7.44866
▁news	-7.45115
▁Japanese	-7.46214
▁five	-7.46221
▁set	-7.46309
▁early	-7.46515
▁peace	-7.46619
▁opposition	-7.47438
t	-7.4771
▁southern	-7.48604
n	-7.48612
▁least	-7.48957
▁troops	-7.49239
▁under	-7.49947
▁North	-7.50671
▁African	-7.50846
▁India	-7.51434
▁Russia	-7.52165
▁spokesman	-7.52437
▁market	-7.52579
▁Iraqi	-7.53033
▁ahead	-7.5307
▁Iran	-7.53241
▁Union	-7.53445
▁W	-7.53785
▁time	-7.53801
▁Bank	-7.54538
▁back	-7.54908
▁forces	-7.54917
▁elections	-7.5503
▁crisis	-7.56872
▁An	-7.57207
▁attack	-7.57422
▁Chinese	-7.57466
th	-7.57902
▁leaders	-7.58372
▁report	-7.59386
▁amid	-7.59811
▁final	-7.60011
▁political	-7.60181
▁Britain	-7.60285
▁visit	-7.60479
▁Australian	-7.60519
▁six	-7.62005
▁win	-7.6278
▁ministry	-7.63282
▁Pakistan	-7.64353
▁before	-7.65244
▁being	-7.65465
▁no	-7.65707
▁won	-7.65803
▁dollar	-7.65923
▁authorities	-7.66466
▁Indian	-7.66996
▁Australia	-7.67329
▁team	-7.67695
▁warned	-7.68096
▁party	-7.68395
▁third	-7.68574
▁England	-7.68603
▁left	-7.69475
▁media	-7.69531
▁election	-7.70011
▁AFP	-7.70174
▁global	-7.70477
▁Secretary	-7.70636
▁since	-7.70709
▁all	-7.70971
▁George	-7.71046
▁or	-7.71663
▁major	-7.71923
▁League	-7.7242
▁EU	-7.72566
▁according	-7.73321
▁late	-7.73514
▁economy	-7.73586
▁key	-7.73601
▁death	-7.73637
▁giant	-7.74064
▁high	-7.7443
▁Africa	-7.74671
▁region	-7.74757
▁held	-7.74854
▁meeting	-7.75054
▁months	-7.75754
▁saying	-7.76027
▁despite	-7.7658
▁record	-7.76858
▁Hong	-7.769
▁Kong	-7.77513
▁bid	-7.77671
▁Foreign	-7.78039
▁home	-7.78063
▁head	-7.78201
▁Asian	-7.78314
day	-7.78321
▁take	-7.78477
▁northern	-7.78719
▁other	-7.79045
▁some	-7.79752
▁him	-7.79767
▁national	-7.79975
▁Bush	-7.80016
▁International	-7.80393
in	-7.8073
▁higher	-7.80999
▁near	-7.81228
▁army	-7.81428
▁arrested	-7.81512
▁days	-7.81513
▁Afghanistan	-7.81737
▁Germany	-7.82401
▁central	-7.82509
▁countries	-7.82557
▁company	-7.82682
▁attacks	-7.83646
▁if	-7.83861
▁dead	-7.83971
▁deal	-7.84123
▁presidential	-7.84317
▁West	-7.84875
i	-7.85421
▁Europe	-7.85905
▁local	-7.86157
▁them	-7.86519
▁died	-7.86936
old	-7.87066
▁Nations	-7.87255
▁round	-7.87257
r	-7.87258
▁while	-7.8732
▁bank	-7.87842
▁expected	-7.87994
▁made	-7.88092
▁sources	-7.88508
▁due	-7.88549
▁--	-7.89345
▁man	-7.89446
▁American	-7.90087
▁hit	-7.90108
▁10	-7.90404
▁including	-7.90525
▁weekend	-7.90608
▁victory	-7.9087
▁help	-7.91338
▁de	-7.91575
▁part	-7.91781
▁lower	-7.91971
▁where	-7.92533
▁points	-7.92637
▁plans	-7.92806
▁bomb	-7.92858
al	-7.93033
m	-7.93445
▁anti	-7.93701
▁most	-7.93778
▁match	-7.94051
▁quarter	-7.94344
▁senior	-7.94815
▁financial	-7.9497
▁rebels	-7.95342
▁Korean	-7.95947
▁Italian	-7.96335
▁power	-7.96532
▁parliament	-7.96749
▁London	-7.96765
▁East	-7.97274
▁Al	-7.97436
▁reports	-7.97637
es	-7.97859
▁Gaza	-7.98209
▁accused	-7.98345
▁rights	-7.99174
▁Islamic	-8.00376
▁showed	-8.00398
▁injured	-8.00403
▁public	-8.02227
▁Two	-8.02757
on	-8.03747
an	-8.04143
▁men	-8.043
▁soldiers	-8.04513
▁State	-8.04711
▁main	-8.04773
▁summit	-8.04819
▁re	-8.04822
▁close	-8.04829
▁number	-8.05182
▁stock	-8.05945
▁investors	-8.06018
▁rose	-8.06082
led	-8.07006
▁Street	-8.07125
▁Wall	-8.07424
▁killing	-8.07432
▁may	-8.07774
▁markets	-8.08003
▁through	-8.08223
▁town	-8.08352
▁released	-8.0855
▁Baghdad	-8.08663
▁aid	-8.08846
▁prime	-8.08889
▁there	-8.0892
▁another	-8.09648
▁Open	-8.09816
▁season	-8.09845
▁opened	-8.09912
▁support	-8.10325
▁lead	-8.1043
▁urged	-8.10476
▁House	-8.11139
▁///	-8.11256
▁car	-8.115
▁border	-8.11966
▁seven	-8.12117
▁took	-8.12469
▁coach	-8.12492
en	-8.12638
▁office	-8.12736
▁women	-8.12811
▁general	-8.12852
▁wounded	-8.13374
▁fell	-8.13632
▁National	-8.13713
▁long	-8.14102
▁ago	-8.14174
▁still	-8.14218
▁fire	-8.14293
▁violence	-8.14638
▁force	-8.14839
▁plan	-8.14876
▁found	-8.15011
▁al	-8.15387
▁John	-8.15507
▁Washington	-8.15729
5	-8.15867
▁press	-8.16143
▁agreed	-8.16419
▁biggest	-8.16551
▁suspected	-8.16699
▁profit	-8.16779
▁Spanish	-8.17064
▁shares	-8.17393
▁trial	-8.17393
▁decision	-8.1763
▁newspaper	-8.18357
▁make	-8.18388
▁title	-8.1911
▁island	-8.19453
▁Obama	-8.19487
ers	-8.1964
▁leading	-8.20215
▁Sri	-8.20227
▁television	-8.20307
▁interest	-8.20587
▁trading	-8.20748
▁20	-8.2087
▁start	-8.2095
▁earlier	-8.21278
▁she	-8.21289
▁euros	-8.21292
▁meet	-8.21881
▁Asia	-8.21951
▁strike	-8.21969
▁nation	-8.22356
▁stocks	-8.226
▁ruling	-8.22841
▁Test	-8.23084
▁statement	-8.23157
▁members	-8.23451
▁shot	-8.23585
▁club	-8.23599
▁White	-8.23708
,"	-8.23737
."	-8.24066
▁around	-8.24151
▁Council	-8.24195
▁Olympic	-8.24415
▁charges	-8.25374
▁return	-8.25643
▁face	-8.2576
▁champion	-8.26015
▁Italy	-8.26214
▁Taiwan	-8.26673
up	-8.268
▁General	-8.26997
▁Zealand	-8.27163
▁rate	-8.27227
▁rebel	-8.27321
▁air	-8.27327
▁At	-8.2751
▁human	-8.279
▁Paris	-8.27927
▁just	-8.2804
▁agreement	-8.28358
▁any	-8.28384
7	-8.28457
▁weapons	-8.28611
▁Spain	-8.28962
▁because	-8.29187
▁should	-8.29221
1	-8.29258
▁arrived	-8.29726
▁eight	-8.30235
▁side	-8.30242
▁series	-8.30292
re	-8.30364
▁12	-8.3038
▁11	-8.30488
▁campaign	-8.30661
▁Former	-8.308
▁NATO	-8.311
man	-8.31217
▁Barack	-8.31354
▁largest	-8.31569
▁only	-8.31643
▁Singapore	-8.31798
▁cut	-8.32049
▁strong	-8.32081
▁data	-8.32311
▁militants	-8.32371
▁protest	-8.32546
▁Arab	-8.32593
▁vote	-8.32605
▁eastern	-8.32695
to	-8.32715
▁Security	-8.32915
▁move	-8.33144
▁way	-8.33259
▁S	-8.33681
▁published	-8.33728
▁Middle	-8.33815
▁growth	-8.33916
▁Iranian	-8.33933
▁province	-8.34427
▁aimed	-8.3484
▁across	-8.35094
▁suicide	-8.35149
▁latest	-8.3518
▁15	-8.35309
▁can	-8.35467
8	-8.35545
le	-8.3622
▁began	-8.36423
▁opening	-8.36771
▁work	-8.37254
▁put	-8.37418
▁Bosnian	-8.37438
h	-8.37473
▁deadly	-8.37729
▁launched	-8.37808
▁G	-8.38231
▁recent	-8.38478
l	-8.38534
▁Turkey	-8.38737
0	-8.39217
▁Afghan	-8.39297
▁efforts	-8.3941
▁Muslim	-8.39639
▁thousands	-8.39713
▁Group	-8.40163
▁Turkish	-8.40777
▁signed	-8.4108
▁Beijing	-8.41376
▁gas	-8.41391
▁gains	-8.41508
▁half	-8.41577
▁what	-8.41651
▁star	-8.42138
),	-8.42221
▁further	-8.42261
▁race	-8.4244
▁fears	-8.42577
▁Saudi	-8.42633
▁alleged	-8.42647
▁York	-8.42649
▁health	-8.42735
▁workers	-8.43146
▁confirmed	-8.43154
▁overnight	-8.43593
S	-8.43715
▁football	-8.43727
dollar	-8.43919
▁defence	-8.44053
k	-8.44317
▁100	-8.44398
▁fresh	-8.44949
▁analysts	-8.44974
▁hold	-8.45206
aeda	-8.45348
▁O	-8.45482
▁Lebanon	-8.45569
▁rival	-8.45648
p	-8.46377
▁yen	-8.46417
▁prison	-8.4692
▁controversial	-8.47215
▁Lanka	-8.47265
▁energy	-8.47465
▁Indonesian	-8.47511
▁failed	-8.4764
▁Democratic	-8.47688
▁pressure	-8.47736
▁hopes	-8.47776
▁Moscow	-8.4788
6	-8.48066
▁E	-8.48433
▁led	-8.48669
▁free	-8.49188
▁taking	-8.49343
▁possible	-8.49375
▁Clinton	-8.49662
▁several	-8.49669
▁action	-8.49745
de	-8.49957
▁ADDS	-8.50247
▁gold	-8.50274
▁fourth	-8.5028
▁firm	-8.50472
ri	-8.50673
▁B	-8.51096
▁release	-8.51433
▁Pakistani	-8.51732
A	-8.51806
b	-8.51899
▁hospital	-8.5214
▁children	-8.52494
▁September	-8.5259
▁Strip	-8.52637
▁go	-8.52658
▁run	-8.52722
▁future	-8.52848
▁claimed	-8.52967
▁concerns	-8.53008
▁nearly	-8.53217
▁play	-8.53227
▁14	-8.53262
▁case	-8.53336
▁fighting	-8.53396
u	-8.53649
▁weeks	-8.5392
time	-8.54306
▁Indonesia	-8.54605
▁massive	-8.54962
▁nine	-8.55238
The	-8.55365
▁March	-8.55562
▁ended	-8.56158
▁industry	-8.5632
▁coalition	-8.56415
▁post	-8.56443
▁business	-8.56468
▁un	-8.56661
▁place	-8.56919
2	-8.56988
▁English	-8.57098
▁met	-8.57152
▁armed	-8.57206
▁so	-8.5734
▁30	-8.5761
▁continued	-8.57611
c	-8.57632
▁results	-8.57687
▁ministers	-8.57853
▁Hussein	-8.58252
▁life	-8.58444
▁source	-8.58875
ur	-8.58915
▁murder	-8.59375
▁past	-8.59538
▁Republic	-8.59557
▁western	-8.59569
▁earthquake	-8.59654
▁demand	-8.5978
▁hours	-8.59985
▁body	-8.60001
▁regional	-8.60183
▁others	-8.60501
▁south	-8.60603
▁pro	-8.60652
▁Bosnia	-8.60753
st	-8.6094
▁centre	-8.61015
4	-8.61335
▁fight	-8.61473
▁policy	-8.61499
ic	-8.61635
▁Taliban	-8.61735
▁now	-8.61778
▁morning	-8.61782
▁Ireland	-8.61797
▁net	-8.62141
C	-8.62225
▁mission	-8.62267
▁Thailand	-8.6237
▁charged	-8.62632
f	-8.62641
▁ex	-8.62736
▁June	-8.62789
▁bring	-8.62876
▁Zimbabwe	-8.62901
▁euro	-8.6308
▁become	-8.63257
▁woman	-8.63477
▁cricket	-8.63684
▁index	-8.64025
▁Co	-8.64043
▁16	-8.64288
▁May	-8.64345
▁control	-8.64536
▁right	-8.64659
▁among	-8.65043
▁open	-8.65132
▁planned	-8.65246
▁conference	-8.65268
▁Central	-8.65591
▁airport	-8.65698
▁outside	-8.65855
▁both	-8.65898
▁One	-8.66053
▁flu	-8.66132
▁process	-8.66293
▁19	-8.6641
▁Party	-8.66426
▁missing	-8.66497
▁law	-8.66983
▁sales	-8.66997
▁Three	-8.67169
▁ordered	-8.67205
▁without	-8.67428
▁ban	-8.67546
P	-8.67787
▁Thai	-8.67819
▁II	-8.67919
▁Commission	-8.68053
▁manager	-8.68187
▁crimes	-8.68208
▁vowed	-8.68277
▁battle	-8.6836
▁Canada	-8.68369
▁Games	-8.68564
▁tour	-8.68976
▁boost	-8.69316
▁test	-8.69354
▁rejected	-8.69593
▁champions	-8.6973
▁lost	-8.69944
▁Serb	-8.70146
▁C	-8.70311
▁beat	-8.70355
▁Saddam	-8.70362
▁Michael	-8.70503
▁ties	-8.70554
▁member	-8.70751
▁Gulf	-8.70822
▁must	-8.71043
▁sector	-8.71138
▁later	-8.71267
▁Philippine	-8.71343
▁13	-8.71363
▁step	-8.71385
▁finance	-8.71427
na	-8.71694
▁polls	-8.71795
▁even	-8.71807
▁emergency	-8.72295
▁Nigeria	-8.72335
▁captain	-8.72581
it	-8.72693
▁went	-8.72794
▁Tokyo	-8.72952
or	-8.72972
▁D	-8.73008
T	-8.73166
▁stage	-8.73183
▁figures	-8.73302
▁nations	-8.73391
il	-8.7355
▁Palestinians	-8.73651
▁Champions	-8.73952
▁likely	-8.73969
▁50	-8.7399
▁republic	-8.74175
▁jail	-8.74227
3	-8.7438
▁tournament	-8.74523
▁pay	-8.7479
I	-8.74803
▁again	-8.75185
▁18	-8.75186
el	-8.75208
▁conflict	-8.75216
▁use	-8.7534
▁January	-8.75375
▁threat	-8.75651
▁Dutch	-8.75918
▁Grand	-8.75962
g	-8.76061
▁Egyptian	-8.76195
▁losses	-8.76201
▁Hamas	-8.76273
▁Philippines	-8.76326
un	-8.7638
▁Canadian	-8.76504
▁whether	-8.76522
▁launch	-8.76563
▁rise	-8.76593
▁Tour	-8.7665
▁Corp	-8.76752
▁sanctions	-8.76768
▁protests	-8.76904
▁denied	-8.76976
▁semi	-8.7754
▁budget	-8.77749
z	-8.77783
▁I	-8.77904
▁food	-8.7791
▁far	-8.77955
▁San	-8.78066
▁growing	-8.78148
▁rates	-8.78303
▁annual	-8.78381
▁Department	-8.78411
ar	-8.78433
▁Court	-8.78463
▁toll	-8.78494
▁envoy	-8.7869
▁Greek	-8.78866
▁give	-8.78874
B	-8.78971
▁family	-8.79201
▁until	-8.79333
▁previous	-8.79448
▁many	-8.79658
▁Swiss	-8.80104
▁Egypt	-8.80301
▁discuss	-8.8037
▁reached	-8.80444
▁Paul	-8.80499
▁plane	-8.80545
▁Le	-8.80633
▁joint	-8.8072
▁Jewish	-8.80983
▁north	-8.81031
▁Bill	-8.81373
▁embassy	-8.81513
▁warning	-8.81535
▁special	-8.81884
▁groups	-8.81945
▁do	-8.81971
▁July	-8.82252
te	-8.82328
▁contract	-8.82348
▁Shiite	-8.82435
▁behind	-8.82605
▁system	-8.82629
▁terrorism	-8.82648
▁call	-8.82877
▁parliamentary	-8.82986
9	-8.83007
▁heavy	-8.83139
month	-8.83258
▁also	-8.83306
▁defeat	-8.83541
▁say	-8.83565
▁companies	-8.8359
▁row	-8.83591
▁radio	-8.8404
G	-8.84106
▁programme	-8.84154
▁role	-8.84204
ro	-8.84361
▁War	-8.84452
▁gave	-8.84477
▁full	-8.84581
ra	-8.84612
▁separatist	-8.84631
▁low	-8.8469
▁threatened	-8.84734
▁diplomatic	-8.84743
▁17	-8.84883
▁Premier	-8.84938
▁detained	-8.84985
▁drug	-8.85098
▁forced	-8.851
x	-8.85153
▁Manchester	-8.85179
▁Malaysia	-8.85261
w	-8.855
▁well	-8.85691
▁interview	-8.85702
ne	-8.85786
▁union	-8.85984
▁mass	-8.86041
▁night	-8.86181
▁In	-8.86182
▁line	-8.86265
▁join	-8.86378
▁troubled	-8.86581
▁pre	-8.86746
off	-8.86779
▁poll	-8.86798
la	-8.86897
▁David	-8.86915
▁within	-8.87034
▁keep	-8.87199
▁named	-8.87293
▁blast	-8.87381
▁sent	-8.87452
▁winning	-8.87525
▁Federal	-8.87625
▁clashes	-8.87731
▁whose	-8.87834
▁used	-8.87986
▁away	-8.881
▁Sudan	-8.88206
▁sentenced	-8.88226
▁came	-8.88256
▁order	-8.88371
▁show	-8.88637
▁civil	-8.8869
▁fired	-8.88709
M	-8.88813
▁Robert	-8.88846
/	-8.88852
▁area	-8.88897
▁arms	-8.89112
▁November	-8.89315
▁session	-8.89318
▁own	-8.8932
▁change	-8.89817
▁taken	-8.89862
▁H	-8.89885
▁April	-8.90153
ma	-8.9016
▁cabinet	-8.9047
▁Tehran	-8.90527
▁such	-8.9053
▁rally	-8.90567
▁witnesses	-8.90612
N	-8.90647
▁Association	-8.90672
▁operation	-8.90677
▁Tony	-8.90751
▁regime	-8.9079
▁F	-8.90964
▁Mexico	-8.91016
▁territory	-8.91196
▁relations	-8.91264
▁loss	-8.91327
▁civilians	-8.91345
▁corruption	-8.91352
▁arrest	-8.9148
▁house	-8.91562
▁investment	-8.9178
▁Myanmar	-8.9181
▁Police	-8.91828
▁increase	-8.91867
▁bombing	-8.91882
▁terror	-8.92017
▁production	-8.92039
▁trying	-8.92111
▁hundreds	-8.92286
▁price	-8.92411
▁fuel	-8.92527
li	-8.92538
▁service	-8.92599
▁sign	-8.927
run	-8.92719
▁December	-8.92784
ist	-8.92884
▁City	-8.92916
▁services	-8.93022
▁ambassador	-8.93219
▁game	-8.93291
▁debt	-8.93364
▁expressed	-8.93459
▁get	-8.93563
▁ruled	-8.93743
▁seeking	-8.93858
▁stop	-8.93895
▁reach	-8.94156
▁movement	-8.94412
ion	-8.94479
based	-8.94516
▁approved	-8.94558
▁measures	-8.94624
▁P	-8.94735
▁soldier	-8.94833
▁daily	-8.94859
▁negotiations	-8.94937
▁striker	-8.94964
▁board	-8.95167
▁players	-8.95308
▁October	-8.95413
▁scandal	-8.95493
▁chairman	-8.95593
D	-8.95668
▁rising	-8.9575
▁executive	-8.95812
▁Vietnam	-8.95908
▁ready	-8.95923
▁building	-8.96371
▁level	-8.96555
▁current	-8.96566
▁draw	-8.96758
▁almost	-8.96767
▁25	-8.96781
ha	-8.96849
▁event	-8.9697
▁victims	-8.97
▁caused	-8.97196
▁recovery	-8.97269
▁same	-8.97383
▁domestic	-8.97443
▁militant	-8.97501
▁Congress	-8.97505
▁illegal	-8.97594
▁leave	-8.97608
▁Malaysian	-8.97744
▁decided	-8.97903
F	-8.97952
▁coast	-8.98163
▁allow	-8.98213
▁La	-8.9831
▁holding	-8.9835
▁legal	-8.98525
ul	-8.98538
▁medical	-8.98694
▁camp	-8.987
▁best	-8.98727
▁currency	-8.98797
▁travel	-8.98798
▁condemned	-8.98933
▁America	-8.9895
▁crashed	-8.99025
▁hostage	-8.99135
▁Lebanese	-8.99141
▁Bangladesh	-8.99159
▁experts	-8.99236
▁powerful	-8.99254
▁Red	-8.99264
▁towards	-8.993
▁parties	-8.99313
▁40	-8.99351
▁young	-8.99421
▁premier	-8.99776
lo	-8.99827
at	-8.99861
▁Arafat	-8.99915
▁program	-9.00031
▁squad	-9.00117
final	-9.00177
no	-9.00194
▁Madrid	-9.00223
▁banks	-9.00224
▁ground	-9.00252
▁making	-9.00293
▁given	-9.00314
▁maker	-9.00413
▁rugby	-9.00436
▁Islamist	-9.00537
▁huge	-9.00682
▁base	-9.00976
▁Coast	-9.01207
▁soon	-9.01227
▁dispute	-9.0141
▁1	-9.01457
ke	-9.01503
me	-9.01568
▁offer	-9.01613
us	-9.01623
▁build	-9.01639
▁worst	-9.01799
co	-9.02036
▁appeal	-9.02183
finals	-9.02349
▁Blair	-9.02473
▁remained	-9.02602
▁west	-9.02664
▁K	-9.02683
▁More	-9.02766
▁aircraft	-9.03015
▁history	-9.03094
▁Internet	-9.03193
▁Yasser	-9.03226
▁Reserve	-9.03291
▁Vladimir	-9.0339
▁probe	-9.03512
▁ever	-9.03676
▁much	-9.03676
▁Four	-9.03848
▁communist	-9.03943
▁Kashmir	-9.04211
▁turned	-9.04251
▁private	-9.04255
▁24	-9.04407
▁details	-9.0454
▁2008	-9.04553
▁film	-9.04589
▁inflation	-9.04777
▁Oil	-9.04923
▁Czech	-9.04928
ol	-9.05011
▁asked	-9.05054
ation	-9.0515
▁concern	-9.05188
▁Irish	-9.05207
▁says	-9.05483
▁money	-9.05634
▁injury	-9.05656
▁issue	-9.05682
▁fall	-9.05733
▁seen	-9.05768
▁Six	-9.05991
ter	-9.06029
▁judge	-9.0612
ge	-9.06171
▁King	-9.06258
▁break	-9.0634
▁continue	-9.06351
able	-9.06409
▁terrorist	-9.06419
▁admitted	-9.06457
out	-9.06793
▁how	-9.06804
▁reform	-9.06827
▁carrying	-9.06914
▁operations	-9.07047
▁league	-9.07064
▁clash	-9.0719
▁explosion	-9.07215
▁rivals	-9.07325
▁result	-9.07549
▁resolution	-9.07595
ment	-9.07625
▁short	-9.07734
▁Air	-9.08209
ia	-9.08434
▁cooperation	-9.08539
▁Sa	-9.08568
▁seized	-9.08709
▁Organisation	-9.08747
▁St	-9.08772
▁calling	-9.08942
▁Swedish	-9.08952
▁interior	-9.08953
▁come	-9.08969
▁network	-9.0898
▁Nigerian	-9.09109
▁disputed	-9.09138
▁August	-9.09278
▁ending	-9.09281
▁total	-9.09373
▁Pacific	-9.09384
▁p	-9.09385
▁issued	-9.09808
▁officer	-9.0992
▁already	-9.0996
▁disease	-9.10241
▁Syria	-9.10327
▁Premiership	-9.1048
et	-9.10582
▁Tiger	-9.10646
▁confidence	-9.1066
▁profits	-9.10668
▁Trade	-9.10711
▁industrial	-9.1083
▁term	-9.10846
▁lawyer	-9.10956
▁small	-9.11044
▁anniversary	-9.11056
▁director	-9.11059
▁Jean	-9.11098
ve	-9.11117
▁candidate	-9.11245
▁jobs	-9.11303
▁welcomed	-9.11354
▁Ali	-9.11416
▁attempt	-9.1143
▁rule	-9.11507
▁T	-9.11586
▁space	-9.11627
R	-9.11765
▁banking	-9.1185
▁airline	-9.12218
▁Olympics	-9.12218
▁rescue	-9.12258
▁February	-9.12281
▁buy	-9.12311
▁struck	-9.12542
▁exchange	-9.12543
▁Arabia	-9.12567
▁investigation	-9.12641
▁mark	-9.12687
▁banned	-9.12724
▁see	-9.12801
▁suspended	-9.12808
▁Ukraine	-9.1287
id	-9.12887
▁Tamil	-9.1296
▁received	-9.12996
▁Putin	-9.1319
▁remain	-9.13266
▁Prix	-9.133
billion	-9.13316
▁allegedly	-9.13446
▁proposed	-9.13451
▁tax	-9.13454
▁Brazil	-9.13471
▁deficit	-9.13495
▁jailed	-9.13572
▁21	-9.13632
▁prepared	-9.13702
ive	-9.14029
▁Greece	-9.14273
▁missile	-9.14284
▁Western	-9.14289
im	-9.1429
▁light	-9.1451
▁moved	-9.14553
▁suffered	-9.14826
▁worth	-9.14827
am	-9.14844
▁counterpart	-9.14871
▁Congo	-9.14901
▁Jacques	-9.15047
▁claims	-9.15055
▁east	-9.15182
▁returned	-9.15333
▁M	-9.15515
▁water	-9.15554
▁leg	-9.15647
mo	-9.15889
▁form	-9.15936
di	-9.15982
▁recession	-9.16026
▁Sea	-9.16079
▁seed	-9.16306
is	-9.16362
▁working	-9.16426
▁hand	-9.16444
▁states	-9.16484
▁study	-9.16623
▁ceasefire	-9.17003
▁commander	-9.17076
▁championship	-9.1717
▁pledged	-9.17404
▁Pope	-9.17434
▁train	-9.17435
▁Poland	-9.1746
▁Jose	-9.17672
▁host	-9.17711
torn	-9.1776
▁himself	-9.17801
ity	-9.17883
▁risk	-9.17894
▁earnings	-9.17995
ir	-9.18069
▁community	-9.18104
million	-9.18111
▁sharp	-9.1812
▁disaster	-9.18229
▁leaving	-9.18244
▁send	-9.18254
▁declared	-9.18322
came	-9.18392
▁try	-9.189
▁pounds	-9.19187
▁heart	-9.19196
▁stake	-9.19544
E	-9.19582
▁intelligence	-9.19882
▁Li	-9.19901
▁trip	-9.19912
▁progress	-9.19913
▁station	-9.20067
▁Republican	-9.20137
▁Ivory	-9.2033
be	-9.20343
▁crude	-9.2046
▁referendum	-9.20499
▁200	-9.20605
▁bill	-9.20658
▁Ki	-9.20781
▁Moslem	-9.21161
▁resume	-9.21223
▁Football	-9.2127
▁prevent	-9.21293
ry	-9.21391
▁fifth	-9.21454
ga	-9.21477
▁2004	-9.21595
▁broke	-9.21881
▁Ba	-9.2189
▁wanted	-9.2196
▁sparked	-9.21986
▁straight	-9.22048
▁insisted	-9.22091
▁allegations	-9.22225
▁lawmakers	-9.22309
▁school	-9.22332
ling	-9.2234
▁watchdog	-9.22366
▁sell	-9.22518
▁plant	-9.22554
▁Milan	-9.22611
▁positive	-9.22619
▁problems	-9.22741
▁supporters	-9.2284
▁bus	-9.22873
▁port	-9.22973
▁22	-9.23085
▁tensions	-9.23107
▁co	-9.23179
▁historic	-9.23186
▁once	-9.23299
▁land	-9.23301
▁decades	-9.23348
▁large	-9.23396
▁big	-9.23412
▁Jordan	-9.23436
▁officers	-9.23481
▁coming	-9.23756
as	-9.23787
▁Super	-9.2391
ta	-9.23983
▁did	-9.24095
▁Kurdish	-9.24107
▁activists	-9.24151
▁Defence	-9.24188
ent	-9.2455
▁radical	-9.24595
▁refugees	-9.24611
▁matches	-9.24757
▁drive	-9.24766
▁ethnic	-9.24821
ck	-9.24942
▁60	-9.24981
▁diplomats	-9.24993
▁scored	-9.2507
▁defense	-9.25136
▁credit	-9.25153
▁De	-9.25154
▁Catholic	-9.25221
▁kidnapped	-9.25331
▁career	-9.25504
▁2	-9.25712
▁competition	-9.25824
▁democracy	-9.25989
▁Chancellor	-9.26003
▁point	-9.26079
▁begin	-9.26117
K	-9.26208
▁administration	-9.26278
▁accord	-9.26294
▁wife	-9.26302
▁sharply	-9.26302
▁yet	-9.26625
ate	-9.26678
ka	-9.26737
▁exports	-9.26791
▁son	-9.2691
ine	-9.27096
▁Euro	-9.27199
▁Exchange	-9.27236
▁little	-9.27246
▁Re	-9.2725
ti	-9.27326
▁wants	-9.27398
▁Bo	-9.27579
▁commission	-9.27596
▁Argentina	-9.27641
▁crucial	-9.27669
▁bombings	-9.27671
ba	-9.27719
▁calls	-9.27729
▁job	-9.27833
▁better	-9.27973
▁constitution	-9.27986
▁having	-9.27991
▁stand	-9.28158
▁quoted	-9.28284
▁slightly	-9.28397
▁Kenya	-9.2843
▁Ma	-9.28569
▁child	-9.28604
▁refused	-9.28604
▁need	-9.28634
war	-9.28665
▁those	-9.28682
▁Some	-9.28762
hit	-9.28909
▁virus	-9.28993
▁facing	-9.29121
ton	-9.29229
▁staff	-9.29235
▁Sweden	-9.29398
▁federal	-9.29405
▁blow	-9.29535
▁raised	-9.29545
ian	-9.29556
▁offered	-9.29558
▁zone	-9.29597
▁Times	-9.29729
▁convicted	-9.29766
▁alliance	-9.29776
▁appeared	-9.29846
▁dropped	-9.29966
▁Defense	-9.29991
▁less	-9.30083
▁per	-9.30092
▁Northern	-9.3023
▁offensive	-9.30251
▁raid	-9.30288
▁linked	-9.30399
▁highest	-9.30422
da	-9.30436
▁non	-9.30441
▁Ltd	-9.30465
▁Chechen	-9.30494
est	-9.30687
▁list	-9.30752
▁Darfur	-9.30768
▁consumer	-9.30805
▁journalist	-9.30882
00	-9.30936
▁hope	-9.30951
▁bird	-9.31006
▁drop	-9.31022
▁presidency	-9.31028
▁spokeswoman	-9.31043
▁crash	-9.31052
▁forward	-9.31065
▁deputy	-9.31144
▁response	-9.31188
▁Championship	-9.31232
▁helped	-9.31255
▁ship	-9.31287
20	-9.31537
▁landmark	-9.31538
▁outbreak	-9.31669
▁saw	-9.31692
▁like	-9.3204
▁might	-9.32041
round	-9.32089
▁exploded	-9.32286
▁quotes	-9.32304
▁double	-9.32514
▁along	-9.3252
▁freed	-9.32523
▁damage	-9.32604
the	-9.32659
▁traders	-9.32675
▁majority	-9.32683
H	-9.32692
▁governor	-9.32696
▁reforms	-9.32713
▁brought	-9.32795
▁conditions	-9.32868
▁handed	-9.32911
▁prisoners	-9.32924
▁winner	-9.33036
ch	-9.3305
▁cost	-9.33257
▁Polish	-9.33491
▁road	-9.33521
▁sought	-9.33536
ce	-9.33634
▁tried	-9.33641
▁tough	-9.33817
▁renewed	-9.3388
▁position	-9.33953
vi	-9.33958
▁remains	-9.33966
▁attacked	-9.33979
▁He	-9.34004
▁Brazilian	-9.34231
▁Five	-9.34285
▁situation	-9.3488
▁Nicolas	-9.34941
ni	-9.35007
ant	-9.35044
▁streets	-9.35133
▁voted	-9.3521
▁period	-9.35257
▁Hezbollah	-9.35398
W	-9.35447
▁residents	-9.3547
▁player	-9.35497
▁track	-9.35547
▁carrier	-9.35571
▁wave	-9.3561
▁running	-9.35745
▁Mo	-9.35865
▁Scotland	-9.35878
▁project	-9.35906
▁climate	-9.35969
▁lives	-9.35979
ty	-9.36082
▁performance	-9.36082
▁hailed	-9.36085
▁debate	-9.36275
▁auto	-9.36327
▁few	-9.3637
nation	-9.3649
▁planning	-9.36582
▁championships	-9.36707
▁flight	-9.36747
▁N	-9.36821
▁goal	-9.36908
▁fraud	-9.36978
▁independence	-9.37118
▁guerrillas	-9.37258
▁site	-9.37337
▁posted	-9.37522
▁development	-9.3758
▁violent	-9.3764
▁bloc	-9.37732
▁Thousand	-9.37749
▁clear	-9.37759
▁poor	-9.3781
▁Na	-9.3791
▁unveiled	-9.38018
ko	-9.38066
▁multi	-9.38118
▁minutes	-9.38163
▁funds	-9.3841
▁diplomat	-9.38481
▁mixed	-9.38509
▁crackdown	-9.38527
▁blue	-9.3862
▁upcoming	-9.38685
▁prosecutors	-9.38746
▁Croatia	-9.38817
long	-9.38856
▁village	-9.38906
▁All	-9.38953
▁division	-9.39074
▁dis	-9.3924
O	-9.39448
▁spending	-9.395
▁guilty	-9.39501
▁seek	-9.39517
▁demanded	-9.39532
▁refugee	-9.39539
▁draft	-9.39603
▁output	-9.39655
▁Kim	-9.39666
taking	-9.39676
sh	-9.39685
▁Jerusalem	-9.39688
▁unit	-9.39734
do	-9.39753
▁voters	-9.39863
▁survey	-9.39925
▁Cuba	-9.40013
ated	-9.40097
▁coup	-9.40121
▁forecast	-9.40125
▁tennis	-9.40147
▁fund	-9.40203
▁supply	-9.40258
▁Airlines	-9.40321
▁avoid	-9.40397
L	-9.40463
▁Chirac	-9.40496
▁suspect	-9.40603
▁stay	-9.40674
▁halt	-9.4077
▁weak	-9.40796
▁believed	-9.40846
▁Agency	-9.40847
▁compared	-9.40853
▁bodies	-9.40927
▁Ka	-9.40944
▁revealed	-9.41045
▁Portugal	-9.41119
▁Hu	-9.41124
▁figure	-9.41208
▁information	-9.41456
▁using	-9.41559
▁issues	-9.41613
▁rocket	-9.41733
▁eurozone	-9.41748
▁Soviet	-9.41822
▁charge	-9.42072
▁Switzerland	-9.42084
ci	-9.42137
▁good	-9.42226
▁Abbas	-9.4236
▁person	-9.42458
▁Sarkozy	-9.42469
▁immediate	-9.42488
▁Supreme	-9.42668
wing	-9.42728
▁Nepal	-9.42747
▁Boris	-9.42813
ous	-9.42858
▁buying	-9.42891
▁sentiment	-9.42912
▁cash	-9.43014
▁Serbia	-9.43125
▁prosecutor	-9.43189
▁U	-9.43321
▁push	-9.43407
▁showing	-9.43447
backed	-9.43495
ca	-9.4358
▁El	-9.43664
▁Park	-9.43687
▁front	-9.43729
▁Mahmud	-9.43747
▁powers	-9.43809
▁midfielder	-9.43884
▁Chechnya	-9.43928
▁Chelsea	-9.43994
▁effort	-9.44148
▁provide	-9.44268
▁civilian	-9.44385
ise	-9.44434
▁23	-9.44479
▁J	-9.44507
▁challenge	-9.44601
▁hard	-9.44601
▁increased	-9.44731
▁Ha	-9.44747
▁Real	-9.44752
▁find	-9.44809
▁claim	-9.44822
▁27	-9.44903
▁Belgian	-9.44935
▁field	-9.44946
▁relief	-9.45071
▁century	-9.45108
▁single	-9.45108
▁package	-9.4519
▁wake	-9.45192
ut	-9.45406
▁raise	-9.45442
▁religious	-9.4564
ie	-9.45719
▁Serbian	-9.45733
▁tsunami	-9.45874
▁sex	-9.45938
em	-9.45976
▁28	-9.461
▁faced	-9.46116
▁Somali	-9.4613
▁kept	-9.46143
▁shooting	-9.46154
▁Sudanese	-9.46181
▁serious	-9.46183
▁search	-9.46213
▁Ban	-9.46236
▁Syrian	-9.46311
▁blamed	-9.46459
▁training	-9.46464
▁rain	-9.46568
▁settlement	-9.4657
go	-9.46675
▁Senate	-9.46822
▁takeover	-9.46825
▁criticism	-9.47041
▁journalists	-9.47135
▁played	-9.47477
▁Sharon	-9.47621
▁plunged	-9.47758
▁transport	-9.47831
▁got	-9.47929
▁fans	-9.4807
▁Stock	-9.48197
▁mid	-9.48202
▁scheduled	-9.48307
▁starting	-9.48368
ting	-9.48381
▁Interfax	-9.48391
▁Indies	-9.48495
▁sale	-9.48534
▁26	-9.48615
▁Pyongyang	-9.48771
▁captured	-9.48778
▁cases	-9.48819
▁Major	-9.48893
▁joined	-9.48912
▁assault	-9.48926
less	-9.48951
▁justice	-9.48956
▁failure	-9.49032
▁Georgia	-9.49236
▁sea	-9.49239
▁suspects	-9.49272
▁faces	-9.49375
▁unrest	-9.49485
▁Kuwait	-9.49496
▁medal	-9.49503
▁militia	-9.49588
▁Brown	-9.49639
▁Fund	-9.49699
▁sides	-9.49807
▁GMT	-9.50074
▁citing	-9.50111
rich	-9.50134
▁storm	-9.50267
▁resort	-9.50269
▁started	-9.50331
▁Kosovo	-9.50374
▁homes	-9.50402
▁Top	-9.50409
▁R	-9.5055
▁combat	-9.506
▁seriously	-9.50679
▁organisers	-9.50686
▁Army	-9.5071
▁Croatian	-9.50897
▁leadership	-9.50919
).	-9.51019
▁Ariel	-9.51026
▁tourists	-9.51065
▁elected	-9.51099
▁areas	-9.51104
▁1-0	-9.51221
▁giving	-9.51309
term	-9.51428
▁resolve	-9.5148
▁construction	-9.51524
▁Abdullah	-9.51576
▁chance	-9.51614
j	-9.51705
▁crew	-9.51737
▁humanitarian	-9.51754
▁backed	-9.51763
▁table	-9.51872
▁Abu	-9.52122
▁holiday	-9.52142
land	-9.52185
▁conservative	-9.52246
ted	-9.52262
▁technology	-9.52311
▁atomic	-9.52332
▁headed	-9.52436
▁losing	-9.52685
▁Day	-9.52732
▁carried	-9.52792
▁involved	-9.53053
▁supplies	-9.5308
▁drugs	-9.53183
▁Wales	-9.53274
▁bin	-9.53293
▁protesters	-9.53432
▁passenger	-9.53451
▁Ra	-9.53482
right	-9.53497
v	-9.53586
▁goals	-9.53878
▁secretary	-9.53921
▁firms	-9.53922
▁mobile	-9.54006
▁attend	-9.54012
V	-9.54073
▁Finance	-9.54133
▁2010	-9.542
▁Seven	-9.54222
▁Haiti	-9.5434
▁website	-9.5437
▁insurgents	-9.54406
▁turn	-9.5444
owned	-9.5451
▁flights	-9.5459
▁Eight	-9.5467
▁Hillary	-9.54721
▁district	-9.54792
▁known	-9.54792
▁4	-9.54899
▁Masters	-9.5516
▁secret	-9.55192
▁safety	-9.55405
men	-9.55428
▁e	-9.55487
▁neighbouring	-9.55504
▁Pa	-9.55509
▁closing	-9.55566
ah	-9.55803
▁3	-9.55969
J	-9.56149
",	-9.56229
▁Health	-9.56271
▁Arsenal	-9.56365
▁corporate	-9.56365
▁Hundreds	-9.56383
ies	-9.5648
▁marked	-9.56592
▁helicopter	-9.56622
▁dozens	-9.56695
▁2006	-9.56715
▁Ta	-9.56737
▁fighters	-9.5691
▁resignation	-9.56917
▁Peter	-9.56924
▁connection	-9.56963
▁Austrian	-9.57012
▁29	-9.57131
▁Prince	-9.57146
▁needed	-9.57259
▁request	-9.57285
▁Somalia	-9.57335
▁ceremony	-9.57415
▁surprise	-9.57486
▁old	-9.57493
▁target	-9.57563
▁lack	-9.5761
▁delegation	-9.57641
▁Shanghai	-9.5766
▁stepped	-9.57781
he	-9.57787
▁gathered	-9.57825
▁independent	-9.57876
▁Berlin	-9.57966
▁newspapers	-9.58125
▁prompt	-9.5821
▁paid	-9.58249
▁focus	-9.58367
min	-9.58424
▁committee	-9.58514
▁resigned	-9.58573
▁beating	-9.58654
▁treaty	-9.58665
▁closer	-9.58674
▁UPDATES	-9.58685
▁struggling	-9.58685
▁ounce	-9.58724
▁promised	-9.58793
▁dismissed	-9.58837
▁northwest	-9.58879
▁Athens	-9.58915
▁hotel	-9.5892
▁headquarters	-9.58935
▁deaths	-9.58995
ya	-9.59011
▁deadline	-9.59098
▁unemployment	-9.59125
▁Liverpool	-9.59183
age	-9.59218
ak	-9.59815
▁qualifying	-9.59864
▁31	-9.59898
▁pulled	-9.59924
son	-9.59931
▁each	-9.59976
bo	-9.60118
ever	-9.60153
▁sentence	-9.60204
▁lift	-9.60278
▁self	-9.60294
▁weather	-9.60302
one	-9.60343
▁failing	-9.60481
and	-9.60593
▁looking	-9.60608
▁Z	-9.60608
▁OPEC	-9.60611
▁crime	-9.6067
▁bomber	-9.60684
▁falling	-9.60735
▁Kabul	-9.60749
▁No	-9.60972
▁selling	-9.61049
▁rules	-9.61057
▁Ja	-9.61179
ad	-9.61297
ja	-9.6131
▁rocked	-9.61333
▁impact	-9.61454
▁interim	-9.6152
▁Americans	-9.6159
▁popular	-9.61699
▁Colin	-9.61715
▁Serbs	-9.61721
▁links	-9.61743
▁students	-9.61826
▁Basketball	-9.61827
▁lifted	-9.62192
▁protect	-9.62202
▁Ko	-9.62254
▁agencies	-9.6242
▁Annan	-9.62428
ho	-9.62478
▁slammed	-9.62579
nd	-9.62625
ary	-9.62678
▁evidence	-9.62717
▁35	-9.62738
ov	-9.62739
▁collapse	-9.62743
▁decade	-9.62833
▁Commonwealth	-9.62936
▁Committee	-9.62996
▁Monetary	-9.62996
va	-9.63049
ek	-9.63129
ful	-9.63129
▁property	-9.63196
▁Wimbledon	-9.63295
▁black	-9.63307
▁summer	-9.63336
▁Danish	-9.63359
▁Se	-9.6337
▁2003	-9.63588
▁extended	-9.63611
▁guard	-9.63643
▁Ho	-9.63645
▁Vi	-9.63657
▁operator	-9.63732
au	-9.63747
▁signs	-9.63772
▁Kenyan	-9.63836
▁Nobel	-9.63878
▁Guinea	-9.63881
▁fast	-9.64102
▁rest	-9.6411
▁V	-9.64115
▁age	-9.64116
election	-9.64126
▁Organization	-9.64179
▁judicial	-9.64219
▁cleric	-9.64279
▁passengers	-9.64451
▁detention	-9.64461
▁games	-9.64836
▁1,	-9.64843
▁adding	-9.649
▁Kofi	-9.64932
▁Rice	-9.64978
▁traffic	-9.64984
▁Cambodia	-9.65259
▁defender	-9.65395
▁Los	-9.6544
ver	-9.65457
▁counter	-9.65467
▁abuse	-9.65486
▁staged	-9.65517
▁Ro	-9.65555
▁quit	-9.65761
▁Mugabe	-9.65764
▁commercial	-9.65785
▁boss	-9.65911
▁name	-9.65946
▁course	-9.65961
▁Ben	-9.66025
▁gunmen	-9.66121
▁boat	-9.66135
▁Roman	-9.66158
▁allowed	-9.66159
▁worldwide	-9.6617
▁mine	-9.66194
▁alert	-9.66228
▁Scottish	-9.6628
▁allies	-9.66418
▁massacre	-9.66528
▁Share	-9.66548
VI	-9.66551
der	-9.6659
▁hoping	-9.66651
rs	-9.66661
▁Stadium	-9.66773
▁Gordon	-9.66794
▁casualties	-9.66815
pa	-9.66842
po	-9.66872
▁SARS	-9.66906
▁ease	-9.66973
▁Christian	-9.67031
▁potential	-9.67088
▁spread	-9.67171
▁speech	-9.67209
▁going	-9.67248
▁Di	-9.67251
▁2-1	-9.67384
▁Cyprus	-9.67459
▁toward	-9.67478
▁jet	-9.67502
▁separate	-9.67533
tic	-9.67575
▁cuts	-9.67612
▁Bay	-9.67662
▁Twenty	-9.67688
▁Martin	-9.6772
▁center	-9.67795
▁appealed	-9.6782
0,000	-9.67893
▁delayed	-9.67916
▁loan	-9.67954
▁preparing	-9.6796
▁ousted	-9.67974
▁finally	-9.68082
▁Lankan	-9.68125
▁causing	-9.68212
ang	-9.68213
▁Human	-9.68264
▁swine	-9.68275
▁2001	-9.68279
▁500	-9.68299
▁pace	-9.68322
▁father	-9.68389
▁Hurricane	-9.68464
▁sold	-9.68481
▁electoral	-9.68506
▁girl	-9.68516
▁withdrawal	-9.68684
▁rare	-9.68698
▁treatment	-9.68826
▁Angeles	-9.68901
▁Berlusconi	-9.68907
▁Mark	-9.68931
▁outlook	-9.6903
▁junta	-9.69055
com	-9.69096
ner	-9.69112
▁Austria	-9.69127
wa	-9.69135
ish	-9.69147
▁decide	-9.6926
▁fear	-9.69536
▁citizens	-9.69637
▁1.5	-9.69645
▁success	-9.69658
▁Norwegian	-9.69692
▁drawn	-9.69808
▁improve	-9.69835
▁Powell	-9.69843
▁Formula	-9.69906
▁Labour	-9.69927
▁raising	-9.69927
▁deep	-9.69953
▁imposed	-9.69961
▁want	-9.70009
▁bilateral	-9.70034
ness	-9.70057
▁cross	-9.70079
▁Barcelona	-9.70119
▁veteran	-9.70148
▁Rome	-9.70207
▁comments	-9.70225
▁governing	-9.703
▁fellow	-9.70458
ism	-9.70459
▁Norway	-9.70464
▁Motor	-9.70698
▁video	-9.70738
▁considering	-9.70842
▁proposal	-9.7085
▁delay	-9.7092
▁setting	-9.71125
▁book	-9.71147
ster	-9.71211
▁d	-9.71242
▁70	-9.71385
▁Development	-9.71434
▁Airbus	-9.71455
▁defended	-9.71502
▁access	-9.7155
▁Mar	-9.71575
▁Musharraf	-9.71585
▁Vice	-9.71587
▁products	-9.71599
▁Rwandan	-9.71615
▁telephone	-9.71694
▁embattled	-9.71716
▁tests	-9.71754
▁With	-9.71787
▁hostages	-9.71791
▁threatening	-9.71832
▁passed	-9.71891
▁address	-9.71892
▁phone	-9.71905
▁enough	-9.71977
▁Alexander	-9.72022
▁con	-9.72054
▁boy	-9.72098
▁Lee	-9.7212
▁transfer	-9.72258
▁peacekeeping	-9.72287
▁strikes	-9.72307
▁1,000	-9.72515
▁Charles	-9.72526
▁feared	-9.72532
ig	-9.72569
um	-9.72619
▁Silvio	-9.72633
▁accus	-9.72638
ll	-9.72826
▁pact	-9.72835
▁believes	-9.72864
▁real	-9.72954
▁Portuguese	-9.73051
▁review	-9.73097
▁sending	-9.73141
▁computer	-9.73155
ex	-9.73174
▁devastating	-9.73219
▁Yeltsin	-9.73228
▁suffering	-9.73351
▁Benjamin	-9.7336
▁2009	-9.73476
half	-9.73476
▁Be	-9.73495
▁demands	-9.73533
▁2-0	-9.73604
ot	-9.73662
▁becoming	-9.73689
volving	-9.73715
▁bad	-9.73746
▁accident	-9.73749
▁California	-9.73781
▁committed	-9.73783
▁secure	-9.73811
▁appointed	-9.73811
▁restive	-9.73837
▁expectations	-9.73894
▁9	-9.74022
▁Pervez	-9.7407
▁correspondent	-9.74071
▁living	-9.74115
▁10-	-9.74246
▁bitter	-9.74247
▁levels	-9.7436
▁Condoleezza	-9.74427
▁divided	-9.74437
▁activities	-9.74449
▁Netherlands	-9.74472
▁organisation	-9.74474
▁Cuban	-9.74488
▁threats	-9.74531
▁AIDS	-9.74633
▁sports	-9.74636
▁Championships	-9.74649
▁7	-9.74676
▁Year	-9.74724
▁shut	-9.74731
▁shock	-9.74738
▁truck	-9.74768
▁criminal	-9.74776
vo	-9.74819
▁inside	-9.74885
▁Energy	-9.74942
▁Williams	-9.74977
▁Ca	-9.74981
▁Pentagon	-9.751
▁costs	-9.75117
▁consider	-9.75151
than	-9.75158
▁32	-9.75345
▁northeastern	-9.75531
lu	-9.75662
▁12-	-9.75688
▁News	-9.75747
▁ensure	-9.75777
ial	-9.75851
ons	-9.75867
▁grew	-9.75868
ating	-9.75943
▁act	-9.75967
▁formally	-9.75972
▁Cricket	-9.76094
▁tribunal	-9.76231
▁parts	-9.76249
▁1994	-9.76462
▁too	-9.76585
▁t	-9.76607
▁Lo	-9.76631
▁Ahmadinejad	-9.76641
▁friendly	-9.76809
▁prepare	-9.76819
ru	-9.76857
▁status	-9.76939
▁playing	-9.76973
▁does	-9.76985
▁uranium	-9.77145
ley	-9.77202
▁Ukrainian	-9.77237
▁80	-9.77388
▁red	-9.77548
▁Richard	-9.77575
▁social	-9.77599
▁Munich	-9.77744
▁entered	-9.77766
▁worries	-9.77813
▁Southeast	-9.77844
▁Christmas	-9.77915
▁boosted	-9.77929
all	-9.77949
▁driver	-9.77964
way	-9.78047
que	-9.78077
▁unless	-9.78117
▁research	-9.78175
ac	-9.78234
▁signing	-9.78284
▁voiced	-9.78416
▁300	-9.78448
▁triggered	-9.78523
▁investigating	-9.78672
▁policemen	-9.78705
▁Nikkei	-9.78719
▁council	-9.78742
▁above	-9.78789
▁2002	-9.78863
▁activist	-9.78922
▁vehicle	-9.79018
▁labour	-9.79163
▁Motors	-9.79285
we	-9.79332
▁imports	-9.79355
▁assassination	-9.79422
▁tie	-9.79504
▁brokers	-9.7951
▁ATP	-9.79636
▁ailing	-9.79656
▁tight	-9.7967
▁boycott	-9.7972
▁described	-9.79725
▁cities	-9.79752
▁afternoon	-9.79771
▁tribal	-9.79845
▁resumed	-9.79859
▁hardline	-9.79996
▁Cross	-9.8
▁Inter	-9.80069
▁bloody	-9.80076
ance	-9.80137
▁wounding	-9.80159
ber	-9.80162
▁consecutive	-9.80175
▁finish	-9.80291
▁mounting	-9.80316
▁accept	-9.80393
.3	-9.8047
▁Carlos	-9.80621
om	-9.8063
▁housing	-9.8065
▁millions	-9.8065
▁overseas	-9.80674
▁5	-9.80729
▁Justice	-9.80745
▁High	-9.80754
▁Deputy	-9.80864
▁Mahmoud	-9.80864
▁Rights	-9.80884
▁Rwanda	-9.80927
▁involvement	-9.8096
ueen	-9.8101
▁newly	-9.81014
▁disarmament	-9.81055
▁mosque	-9.81055
▁rebound	-9.81095
op	-9.81152
▁scene	-9.81174
▁visiting	-9.81222
tra	-9.8127
▁Ru	-9.81358
▁live	-9.81633
▁Rugby	-9.81677
▁curb	-9.81758
▁Economic	-9.81798
▁It	-9.81843
▁peacekeepers	-9.8187
hour	-9.81873
under	-9.81918
▁Da	-9.82004
▁g	-9.82004
gu	-9.82012
week	-9.82017
▁postponed	-9.82055
ning	-9.82123
▁Algerian	-9.82209
▁Roger	-9.82309
▁Muslims	-9.82333
▁statistics	-9.82376
▁reduce	-9.82399
▁Force	-9.82616
▁create	-9.82695
▁vice	-9.82707
ag	-9.82817
▁defeated	-9.82908
▁date	-9.82927
▁James	-9.82935
▁genocide	-9.8309
▁themselves	-9.83105
▁sixth	-9.83108
▁Belgium	-9.83251
▁satellite	-9.83251
pp	-9.83261
con	-9.83262
▁fierce	-9.83276
▁direct	-9.83312
▁plot	-9.83322
▁link	-9.83361
▁terms	-9.83363
▁festival	-9.83422
▁developing	-9.83443
▁save	-9.83455
▁announcement	-9.83484
▁demanding	-9.83503
▁tourist	-9.83511
▁cast	-9.83585
▁flat	-9.83657
▁church	-9.83778
▁destruction	-9.8379
▁Church	-9.83814
▁Dubai	-9.83863
▁Netanyahu	-9.83888
▁Me	-9.83919
▁Mohammed	-9.84011
ign	-9.84063
▁backing	-9.84067
▁injuring	-9.84208
ou	-9.84213
▁withdraw	-9.84295
za	-9.84393
▁kill	-9.84425
▁prize	-9.84529
▁completed	-9.84534
▁extra	-9.84541
▁Benedict	-9.84652
▁extend	-9.84675
▁dialogue	-9.84702
gi	-9.84764
bi	-9.84776
les	-9.84859
government	-9.84908
▁mother	-9.84927
▁block	-9.84984
▁filed	-9.85009
▁environmental	-9.8501
atar	-9.85071
▁miles	-9.85166
km	-9.85207
U	-9.85209
▁Basque	-9.85448
▁truce	-9.85548
▁bargain	-9.85572
of	-9.85697
▁population	-9.85697
gg	-9.85738
che	-9.85838
▁33	-9.85858
▁unprecedented	-9.85879
▁6-2	-9.85899
▁never	-9.85949
▁mayor	-9.85967
▁f	-9.85983
▁Brussels	-9.86198
si	-9.86234
▁Libya	-9.86344
▁defending	-9.86385
▁Hamid	-9.86407
▁scale	-9.86469
▁Sarajevo	-9.86475
▁Result	-9.8651
▁added	-9.86513
▁letter	-9.86536
▁hurt	-9.86576
▁continuing	-9.86627
▁hoped	-9.86649
▁breakaway	-9.86704
tt	-9.86712
▁technical	-9.86748
▁Emirates	-9.86829
▁eve	-9.86908
▁officially	-9.86932
▁Karzai	-9.86955
level	-9.87071
▁replace	-9.87113
▁incident	-9.87185
line	-9.87236
par	-9.87257
bu	-9.87305
▁message	-9.87422
▁look	-9.87425
▁Ocean	-9.87446
ki	-9.87463
ard	-9.87526
▁Car	-9.8753
mb	-9.87631
ors	-9.87635
▁inquiry	-9.87667
▁Colombia	-9.87683
▁pull	-9.87742
▁approval	-9.87846
▁occupied	-9.87935
ina	-9.87952
▁volatile	-9.88025
▁problem	-9.88076
▁hands	-9.88111
▁1.2	-9.88139
▁alive	-9.88209
▁Hollywood	-9.88255
▁immigrants	-9.88264
▁surge	-9.88309
▁rallied	-9.88409
▁personal	-9.8844
▁candidates	-9.88461
▁though	-9.88481
mp	-9.8851
▁magazine	-9.88512
▁vehicles	-9.88568
▁sp	-9.88568
▁street	-9.88698
▁voting	-9.8877
▁Yemen	-9.88773
▁cautious	-9.888
back	-9.88804
▁Sydney	-9.88847
▁operating	-9.88875
▁based	-9.88924
ring	-9.88964
hi	-9.88977
▁finals	-9.8905
▁although	-9.89072
▁Guantanamo	-9.89183
▁Pro	-9.89215
very	-9.89222
▁suspicion	-9.89235
▁2005	-9.89326
▁sacked	-9.89333
▁Jo	-9.89338
▁tackle	-9.89417
▁1.3	-9.89417
▁dramatic	-9.89493
for	-9.895
▁blew	-9.89522
▁runs	-9.89525
▁0.1	-9.89535
▁freedom	-9.89538
▁2007	-9.89551
▁en	-9.89645
▁criticised	-9.89646
▁Airways	-9.89677
▁cars	-9.89684
▁L	-9.89702
▁agree	-9.89711
▁unity	-9.89821
▁legislative	-9.89859
▁membership	-9.89894
▁Colombian	-9.89927
▁eased	-9.89975
▁panel	-9.89995
▁surged	-9.9
▁Royal	-9.90036
euro	-9.90052
▁collapsed	-9.9006
ised	-9.90077
▁families	-9.90172
▁retail	-9.90248
▁extremists	-9.90517
▁remote	-9.90592
percent	-9.90621
▁waters	-9.90757
▁announce	-9.9078
▁ongoing	-9.90783
▁surgery	-9.90786
res	-9.90835
▁Vatican	-9.90855
▁custody	-9.90855
ai	-9.91002
▁emerged	-9.91052
born	-9.91056
▁swept	-9.91066
▁together	-9.91118
▁northeast	-9.91331
▁laws	-9.91334
▁affairs	-9.91433
▁initial	-9.91522
▁defend	-9.91525
mi	-9.91527
▁Mexican	-9.91595
▁offering	-9.91615
▁claiming	-9.91642
▁Boeing	-9.91648
▁evening	-9.91763
▁Ga	-9.91808
▁currencies	-9.91834
▁presence	-9.91834
▁changes	-9.91886
▁equipment	-9.91941
▁Alex	-9.92059
▁helping	-9.9207
▁Vietnamese	-9.92159
▁(3	-9.92293
▁To	-9.92302
ked	-9.92304
▁Venezuela	-9.92311
▁demonstrators	-9.9232
▁Sha	-9.92388
ized	-9.92463
▁injuries	-9.92527
▁Burundi	-9.92549
▁Algeria	-9.92552
▁Man	-9.92586
▁Ahmed	-9.92661
▁innings	-9.92692
▁destroyed	-9.92699
▁Ar	-9.92736
▁Denmark	-9.92796
▁insurgency	-9.929
by	-9.92908
▁Cairo	-9.93039
.4	-9.93072
▁music	-9.93094
end	-9.93114
▁producer	-9.93161
▁mainly	-9.9322
▁speculation	-9.93226
▁calm	-9.93308
▁Rafael	-9.93363
▁mining	-9.93365
▁politician	-9.93372
▁background	-9.93374
▁cancelled	-9.93431
30	-9.93473
▁export	-9.9359
▁Mubarak	-9.93604
quarter	-9.93618
▁hearing	-9.93661
.2	-9.93694
▁sport	-9.93736
▁Davis	-9.93744
▁giants	-9.93757
▁caught	-9.93768
▁cancer	-9.93885
expected	-9.93954
▁Kyi	-9.94252
▁kingdom	-9.94366
▁itself	-9.94385
▁Authority	-9.94392
▁present	-9.9441
▁natural	-9.94447
▁great	-9.94456
▁cause	-9.94467
▁Democrats	-9.9451
▁400	-9.94527
▁Laden	-9.94648
▁remarks	-9.94666
pe	-9.94698
ph	-9.94753
ee	-9.94837
▁authority	-9.94838
▁RECASTS	-9.94857
▁Hosni	-9.9494
▁immediately	-9.95008
▁Mi	-9.95033
▁politicians	-9.95056
▁times	-9.95118
▁welcome	-9.95183
▁brief	-9.95196
▁decline	-9.95253
▁telecommunicati	-9.95324
▁Osama	-9.95352
▁penalty	-9.9538
▁recently	-9.95453
shi	-9.95469
▁pipeline	-9.9549
▁stability	-9.95572
▁inter	-9.95594
▁Tom	-9.9563
▁Federation	-9.95655
▁Hindu	-9.95655
US	-9.95693
▁increasingly	-9.95804
ab	-9.95832
▁Suu	-9.95855
▁8	-9.95857
▁survivors	-9.9587
▁allowing	-9.95891
▁nationals	-9.95898
▁1.1	-9.95946
▁student	-9.95961
▁account	-9.96044
▁Aung	-9.96053
▁Inc	-9.96107
▁Zaire	-9.96151
ev	-9.96159
▁jumped	-9.96316
▁Jones	-9.96386
▁finished	-9.96466
▁c	-9.96513
▁aide	-9.96636
▁abroad	-9.96655
▁barrel	-9.96679
▁cargo	-9.96704
▁investor	-9.96717
▁marking	-9.96721
▁Sunni	-9.96794
▁invasion	-9.96795
▁develop	-9.96886
▁0.5	-9.96928
▁Jordanian	-9.96954
▁discovered	-9.96991
▁turmoil	-9.97046
▁favour	-9.9718
▁ally	-9.97222
▁confident	-9.97289
▁hike	-9.97289
.9	-9.97339
▁convoy	-9.97355
▁dictator	-9.974
▁doctors	-9.97452
▁Do	-9.97499
▁Results	-9.97514
per	-9.9755
▁36	-9.97582
▁farm	-9.9766
▁slump	-9.97718
▁steel	-9.97735
▁democratic	-9.97825
▁targets	-9.97835
▁Libyan	-9.9784
▁fled	-9.97857
▁policies	-9.97862
▁gain	-9.9793
▁nationwide	-9.98016
▁surplus	-9.98032
▁Belarus	-9.98145
han	-9.98163
▁Viktor	-9.98173
ator	-9.982
▁naval	-9.9823
▁Kremlin	-9.98267
▁Su	-9.98371
▁teams	-9.98379
▁maintain	-9.98395
▁blood	-9.98413
ize	-9.98426
▁bombs	-9.98441
▁34	-9.98451
▁reporters	-9.98489
▁Jan	-9.98547
▁hopeful	-9.98553
▁daughter	-9.98571
mar	-9.98755
▁Maria	-9.98801
▁doctor	-9.98819
▁shuttle	-9.98874
▁Romania	-9.98902
ical	-9.98984
▁believe	-9.99015
▁goods	-9.99043
▁adopted	-9.99086
▁immigration	-9.9919
▁gun	-9.99209
▁management	-9.99287
▁auction	-9.99307
let	-9.9931
▁Finland	-9.99343
▁constitutional	-9.99381
▁planes	-9.99416
▁condition	-9.99457
ten	-9.99514
▁par	-9.99519
▁clean	-9.99528
▁Nazi	-9.99603
▁strategy	-9.99658
▁opinion	-9.99686
▁steps	-9.9977
▁legend	-9.99806
▁Celtic	-9.99918
▁90	-9.99979
▁Maoist	-10
▁Mu	-10.0002
▁software	-10.0003
▁apparently	-10.0004
sta	-10.0009
▁missiles	-10.0012
dy	-10.0014
▁golf	-10.0015
▁southeastern	-10.0018
▁prospects	-10.0032
▁contest	-10.0043
▁Space	-10.0044
▁carry	-10.0046
side	-10.005
▁Sir	-10.0053
▁easing	-10.0061
▁solution	-10.0064
▁greater	-10.0089
▁arch	-10.0092
▁UEFA	-10.0093
▁safe	-10.0099
▁pushed	-10.0101
▁restore	-10.0102
▁Press	-10.0106
▁Bayern	-10.0107
▁movie	-10.0107
Ehud	-10.0111
▁able	-10.0112
▁quake	-10.0116
▁orders	-10.0118
▁Ri	-10.0121
▁northwester	-10.0124
▁lawyers	-10.013
red	-10.0135
▁After	-10.0141
▁scores	-10.0143
▁asylum	-10.0146
▁crown	-10.0154
▁Donald	-10.0154
▁Andy	-10.0166
▁speed	-10.0167
▁WTA	-10.0171
▁Communist	-10.0177
▁aboard	-10.0178
▁fate	-10.0181
▁debut	-10.0193
ud	-10.0201
▁Iraqis	-10.0202
▁longer	-10.0214
▁placed	-10.0216
ana	-10.0223
▁navy	-10.0225
▁legislation	-10.0231
▁venture	-10.0232
▁heading	-10.0233
▁slow	-10.0237
▁Bali	-10.0268
▁strategic	-10.0271
▁arm	-10.0272
▁stronger	-10.0274
▁aviation	-10.0281
▁sank	-10.0285
▁responsibility	-10.0287
ap	-10.029
▁complete	-10.0294
▁45	-10.0297
▁stadium	-10.0302
▁economies	-10.0305
▁prominent	-10.0311
▁female	-10.0314
▁Timor	-10.0327
▁resign	-10.0339
▁Pi	-10.034
▁luxury	-10.0341
tro	-10.0343
▁march	-10.0344
▁weekly	-10.0354
▁tonnes	-10.0357
▁Niger	-10.0363
mer	-10.0364
▁Lord	-10.0365
▁begun	-10.0375
▁apparent	-10.0387
▁funeral	-10.0389
▁urging	-10.0389
▁standoff	-10.0392
▁tiny	-10.0401
▁super	-10.0413
▁erupted	-10.0419
▁recovered	-10.0421
▁wing	-10.0429
▁events	-10.043
▁Yemeni	-10.0434
ff	-10.0438
▁38	-10.044
▁positions	-10.0447
▁Office	-10.0455
▁needs	-10.0456
▁trafficking	-10.0456
▁unchanged	-10.0461
▁48	-10.0465
ure	-10.0469
▁steady	-10.0479
▁minority	-10.0489
▁assets	-10.0493
▁thanks	-10.0498
mon	-10.0501
▁Jackson	-10.0501
▁continent	-10.0505
tu	-10.0508
▁foreigners	-10.051
▁enter	-10.0514
▁spot	-10.0516
▁v	-10.0518
▁Federer	-10.0528
▁mostly	-10.0533
our	-10.0534
▁holy	-10.0535
▁0.6	-10.0537
▁Angela	-10.0538
▁invest	-10.0539
▁respect	-10.054
▁Treasury	-10.0543
▁online	-10.0546
▁responsible	-10.0548
▁Sheikh	-10.0548
▁Merkel	-10.0555
lin	-10.0558
▁increasing	-10.0559
▁Bar	-10.0562
▁Hugo	-10.0566
▁brand	-10.0568
▁broadcast	-10.0569
▁activity	-10.057
point	-10.0572
▁weaker	-10.0572
▁Financial	-10.0576
▁advance	-10.058
▁Seoul	-10.0586
▁1.0	-10.0589
pro	-10.0599
▁moves	-10.0604
▁dissident	-10.0606
▁Chavez	-10.061
▁qualifier	-10.0612
ier	-10.0612
▁Manuel	-10.0613
▁Latin	-10.062
▁rock	-10.0621
▁channel	-10.0625
▁6	-10.0627
▁Bangkok	-10.0628
▁moderate	-10.0632
▁rail	-10.0634
▁Laurent	-10.0635
held	-10.0638
▁Bulgaria	-10.0638
▁looked	-10.0639
air	-10.0642
▁partner	-10.0642
▁PLO	-10.0644
▁inspectors	-10.0646
▁range	-10.0649
▁Black	-10.065
▁cleared	-10.0652
▁fighter	-10.0656
▁southwest	-10.0657
▁clashed	-10.066
▁Georgian	-10.0663
▁protection	-10.0667
▁traditional	-10.0671
▁royal	-10.0675
▁automaker	-10.0679
ising	-10.0684
▁factory	-10.0686
▁appear	-10.0691
ze	-10.0691
▁string	-10.0692
ite	-10.0695
▁beef	-10.07
▁Club	-10.0709
▁jump	-10.071
▁white	-10.0714
▁scientists	-10.0715
ally	-10.072
▁insurance	-10.0721
▁miss	-10.0726
▁di	-10.0727
▁husband	-10.0727
▁gained	-10.0732
▁dangerous	-10.0735
▁reaching	-10.0738
▁la	-10.0739
ence	-10.0743
▁exit	-10.0744
str	-10.0754
▁0.2	-10.0759
▁Taiwanese	-10.076
▁benchmark	-10.0762
over	-10.0767
▁Steve	-10.0775
▁warming	-10.078
▁struggle	-10.0781
▁TV	-10.0785
▁Delhi	-10.0787
▁chemical	-10.0793
▁spy	-10.0795
▁Jakarta	-10.0799
▁showdown	-10.08
king	-10.0816
moon	-10.0818
Pacific	-10.0818
elect	-10.0828
▁quoting	-10.083
pi	-10.0832
▁IMF	-10.0834
▁joining	-10.0844
▁chips	-10.0854
▁reporter	-10.0854
Several	-10.0856
era	-10.0867
▁overall	-10.0871
▁Cambodian	-10.0873
▁Ne	-10.0877
ned	-10.088
▁department	-10.0887
▁include	-10.0888
▁ill	-10.0895
▁Yugoslavia	-10.0902
▁follow	-10.0903
ker	-10.0904
▁floods	-10.0905
▁estimated	-10.0906
▁celebrated	-10.0914
▁task	-10.0928
lic	-10.0929
▁opponents	-10.093
▁every	-10.093
inhua	-10.0944
▁below	-10.0944
▁fly	-10.095
▁fair	-10.0951
▁patrol	-10.0959
▁37	-10.0959
▁Peace	-10.096
▁dozen	-10.0967
▁Ministry	-10.0969
▁designed	-10.0976
▁strongly	-10.0977
▁employees	-10.0978
▁eye	-10.0985
▁People	-10.0988
▁expects	-10.0996
▁award	-10.1
▁opposed	-10.101
▁river	-10.1011
▁For	-10.1018
ists	-10.1019
▁bail	-10.1022
▁imp	-10.105
▁putting	-10.105
▁very	-10.1057
▁care	-10.1057
▁knee	-10.1059
▁Nelson	-10.1062
▁poverty	-10.108
▁angry	-10.1091
▁wickets	-10.1091
▁Howard	-10.1091
▁Du	-10.1094
ong	-10.1101
▁trapped	-10.1102
▁Omar	-10.1106
▁strain	-10.1109
▁150	-10.1109
▁expand	-10.1121
▁Tibet	-10.1124
▁expansion	-10.1129
▁proposals	-10.1129
▁1.4	-10.113
.1	-10.1139
▁sweeping	-10.1143
▁art	-10.1146
▁landing	-10.1154
▁formal	-10.1158
▁testing	-10.1159
▁southwestern	-10.1159
▁politics	-10.1161
io	-10.1163
▁Saint	-10.1179
▁preliminary	-10.1184
▁fought	-10.1186
▁Beirut	-10.1194
played	-10.1196
▁documents	-10.1204
▁Lu	-10.1205
▁0.8	-10.1218
▁display	-10.122
▁Atlantic	-10.123
▁deployed	-10.1239
▁AC	-10.1243
▁falls	-10.1246
ji	-10.1249
▁reign	-10.1251
▁green	-10.1255
▁van	-10.1257
edged	-10.126
▁vast	-10.1263
▁Daniel	-10.1266
▁Belgrade	-10.1269
▁thought	-10.127
▁Ni	-10.1271
▁policeman	-10.1285
▁shortly	-10.129
▁effect	-10.129
▁denounced	-10.1293
▁hero	-10.1293
▁Te	-10.1297
▁Ten	-10.1304
▁unlikely	-10.1305
▁Finnish	-10.1305
▁65	-10.131
ger	-10.1315
▁brother	-10.1317
40	-10.132
▁separatists	-10.132
chi	-10.132
ung	-10.1321
▁predicted	-10.1328
▁unions	-10.1332
▁Commissioner	-10.1344
ler	-10.1349
▁reportedly	-10.1351
▁fiscal	-10.1355
▁purchase	-10.1361
▁1995	-10.1365
▁grant	-10.1371
zi	-10.1373
▁compromise	-10.1375
▁practice	-10.1376
▁advanced	-10.1385
▁Go	-10.1389
▁capture	-10.1397
▁Mediterranean	-10.1399
▁electricity	-10.1405
▁merger	-10.1407
▁po	-10.1411
▁explosives	-10.1416
▁stalled	-10.1416
▁let	-10.1418
▁Florida	-10.1418
▁demonstration	-10.1427
▁ski	-10.1427
▁Oscar	-10.1433
▁Arroyo	-10.1434
▁PGA	-10.1434
▁southeast	-10.1435
▁offices	-10.1437
▁Islands	-10.1444
▁blocked	-10.1448
▁hour	-10.1453
▁Classic	-10.1454
ran	-10.1457
▁partners	-10.1459
▁futures	-10.1465
▁ripped	-10.1471
du	-10.1475
▁finding	-10.148
▁leftist	-10.148
▁tourism	-10.1484
▁tens	-10.1484
▁escaped	-10.1486
▁Gloria	-10.1488
▁1996	-10.1493
▁important	-10.1498
▁negotiator	-10.1499
▁15-	-10.1505
▁stopped	-10.1509
▁Olmert	-10.1511
▁flew	-10.1522
▁soaring	-10.1523
▁Chris	-10.1525
▁accusations	-10.1528
▁Bulgarian	-10.1531
▁speaker	-10.1534
▁accepted	-10.1536
▁getting	-10.1537
▁airliner	-10.154
▁Morocco	-10.1542
ng	-10.155
▁So	-10.155
▁federation	-10.1558
▁common	-10.156
▁severe	-10.1569
▁Uganda	-10.157
▁peaceful	-10.1596
▁raids	-10.1597
▁Newcastle	-10.1599
ill	-10.1601
▁differences	-10.1603
▁serving	-10.1603
▁rather	-10.1606
▁Argentine	-10.1609
▁triumph	-10.1612
▁slipped	-10.1613
▁Fidel	-10.1616
▁currently	-10.1616
▁investigators	-10.1618
▁Po	-10.1622
▁successful	-10.1627
▁42	-10.1631
▁10,000	-10.1631
▁provincial	-10.1633
▁Mohammad	-10.1633
▁we	-10.1635
▁remaining	-10.1637
▁Tri	-10.1639
und	-10.1645
▁stormed	-10.1646
▁FTSE	-10.1646
▁famous	-10.1648
▁bar	-10.1648
▁foot	-10.1649
▁flag	-10.1651
▁average	-10.1657
ub	-10.1657
▁returning	-10.1667
▁Baltic	-10.1671
▁cycling	-10.1687
▁enclave	-10.1698
▁ran	-10.1705
▁Albanian	-10.1708
▁teenager	-10.171
▁Medvedev	-10.1711
▁Pe	-10.1724
▁Hungary	-10.1739
▁granted	-10.175
▁Gu	-10.1755
▁Sam	-10.1757
▁Interior	-10.1763
▁soared	-10.1763
▁spent	-10.1768
wi	-10.177
▁deployment	-10.177
▁heard	-10.1773
▁agent	-10.1774
ick	-10.1779
▁Islam	-10.1789
▁Winter	-10.18
terrorist	-10.1806
su	-10.181
▁FIFA	-10.1811
▁era	-10.1815
▁stars	-10.1824
▁riot	-10.1825
▁spill	-10.1826
▁beginning	-10.183
▁factions	-10.1837
▁pick	-10.1838
▁1-1	-10.1843
▁Leading	-10.1849
ven	-10.1855
▁ice	-10.1857
▁pleaded	-10.1857
▁extremist	-10.1858
▁talk	-10.1861
▁Mohamed	-10.1867
▁victim	-10.187
▁Mandela	-10.187
▁Gerhard	-10.187
▁driving	-10.1873
▁prospect	-10.1877
▁Bernard	-10.1877
▁Romanian	-10.1878
▁territories	-10.1884
▁comment	-10.1888
▁heads	-10.1891
▁pop	-10.1895
ther	-10.1896
▁metres	-10.1898
▁gang	-10.1899
fe	-10.1901
▁slumped	-10.1904
▁expert	-10.1913
▁guards	-10.1914
▁standings	-10.1919
▁agents	-10.192
▁plotting	-10.1934
▁Woods	-10.1944
▁university	-10.195
▁businessman	-10.1953
▁danger	-10.1953
▁yuan	-10.1954
qua	-10.196
▁Yugoslav	-10.1961
▁protested	-10.1967
▁Board	-10.1969
▁widespread	-10.1972
▁stations	-10.1974
▁revive	-10.1974
▁Caribbean	-10.1975
▁broken	-10.1986
▁boosting	-10.2005
▁blasts	-10.2011
▁3-0	-10.2014
▁moving	-10.2023
▁ring	-10.2027
▁Post	-10.2032
▁poised	-10.2032
▁largely	-10.2036
▁r	-10.204
▁concerned	-10.2044
▁Frank	-10.2045
▁Dan	-10.2045
▁reserves	-10.2046
ual	-10.2048
▁coal	-10.2049
▁instead	-10.2051
▁heavily	-10.2053
▁About	-10.2056
▁kidnapping	-10.2067
▁Prize	-10.2074
▁improved	-10.2075
▁Slam	-10.2075
qui	-10.2081
q	-10.2084
▁Ethiopian	-10.2097
▁fishing	-10.2099
▁ten	-10.2101
▁controversy	-10.2102
▁hunt	-10.2106
▁amount	-10.2108
▁2,000	-10.2112
▁stronghold	-10.2113
▁Dmitr	-10.2113
▁mountain	-10.2115
▁cartel	-10.2118
▁Fa	-10.212
▁killer	-10.2124
▁farmers	-10.2124
▁breaking	-10.2127
▁tear	-10.213
▁observers	-10.2131
▁view	-10.2133
▁singles	-10.2139
DRC	-10.2141
▁Chile	-10.2142
▁Kuwaiti	-10.2142
ging	-10.2145
▁rape	-10.2146
▁cutting	-10.2152
▁illegally	-10.2152
ham	-10.2157
▁awarded	-10.2158
▁electronics	-10.2178
▁conduct	-10.2183
▁anger	-10.2184
▁critical	-10.2194
▁doubt	-10.2195
▁ITAR	-10.2195
▁da	-10.2199
▁0.4	-10.22
▁Rangers	-10.2203
▁underway	-10.2204
▁resources	-10.2211
▁Sch	-10.2216
▁Singh	-10.2225
▁Jack	-10.2226
▁Alan	-10.2226
tor	-10.2227
▁Liberia	-10.2233
TASS	-10.2235
▁Hungarian	-10.2242
▁Representatives	-10.2242
▁slowdown	-10.2243
▁Anatolia	-10.2246
▁basis	-10.2249
▁winter	-10.2251
▁Schroeder	-10.2253
▁neighbours	-10.2257
▁author	-10.2258
▁limit	-10.2268
▁crowd	-10.2268
▁mis	-10.2276
member	-10.2277
▁loans	-10.228
▁Aceh	-10.2289
▁0.7	-10.2289
▁quickly	-10.2296
▁kilometres	-10.2298
▁Lama	-10.2304
ect	-10.2317
▁limited	-10.2321
▁recover	-10.2323
▁absence	-10.2326
▁similar	-10.2326
▁entry	-10.2329
▁widely	-10.2335
▁prove	-10.2341
▁monetary	-10.2347
▁strength	-10.2347
▁Ethiopia	-10.2349
vis	-10.2351
▁hunting	-10.2352
▁Cypriot	-10.2355
▁elect	-10.2361
▁chances	-10.2366
▁product	-10.2371
▁suspension	-10.2373
▁ways	-10.2381
den	-10.2383
▁tension	-10.2388
sen	-10.2388
▁Luis	-10.2392
terrorism	-10.2394
▁battling	-10.2395
▁railway	-10.2396
▁Juan	-10.2399
▁sub	-10.2401
▁First	-10.2406
▁Mumbai	-10.2406
▁then	-10.2406
▁Bi	-10.2408
▁embargo	-10.241
▁NASA	-10.2417
▁buried	-10.2421
▁grow	-10.2421
▁warm	-10.2432
▁locked	-10.2439
▁funding	-10.2442
▁rich	-10.2443
▁Cooperation	-10.2447
lan	-10.2447
▁represent	-10.245
tre	-10.2452
▁projects	-10.2455
▁freeze	-10.2455
fa	-10.2456
▁potentially	-10.2471
▁changed	-10.2472
▁split	-10.2473
▁0.3	-10.2475
▁votes	-10.2476
▁doping	-10.2478
▁exile	-10.2495
▁chain	-10.25
ice	-10.2509
▁king	-10.2512
▁Richter	-10.2513
▁Peru	-10.2515
10	-10.2516
party	-10.2519
▁crack	-10.2522
▁suspend	-10.2523
▁restrictions	-10.2532
▁gay	-10.2532
▁park	-10.2534
▁bankruptcy	-10.2535
▁hunger	-10.2538
▁praised	-10.254
▁lawmaker	-10.2546
ny	-10.2549
▁worker	-10.2551
▁Milosevic	-10.2554
▁dominated	-10.2561
▁receive	-10.2563
▁creation	-10.2573
▁question	-10.2575
▁pledge	-10.2587
▁produce	-10.2598
▁seat	-10.2603
ey	-10.2604
▁Rio	-10.2608
▁warnings	-10.261
▁Venezuelan	-10.261
▁influence	-10.2617
▁Kevin	-10.2621
▁pair	-10.2623
▁revised	-10.2627
▁Thaksin	-10.2632
strong	-10.2633
▁seventh	-10.2635
▁Series	-10.2636
bb	-10.2639
▁hockey	-10.2644
▁ferry	-10.2644
▁7-6	-10.2644
▁Si	-10.2647
▁forcing	-10.2649
▁Chi	-10.265
▁couple	-10.2657
▁Frankfurt	-10.2663
▁Per	-10.2677
▁6-3,	-10.268
▁Fiji	-10.2682
▁compensation	-10.2693
▁tanker	-10.2693
ef	-10.2698
▁Chicago	-10.2704
▁assembly	-10.2706
▁Sierra	-10.2708
▁Andre	-10.2712
▁troop	-10.2718
▁threw	-10.2723
▁tycoon	-10.2738
▁bolster	-10.2744
▁commitment	-10.275
▁(4	-10.2751
▁39	-10.2753
▁twice	-10.2753
▁Bhutto	-10.2761
▁score	-10.2764
▁arrival	-10.2765
▁lowest	-10.2769
▁attempted	-10.2774
▁presented	-10.278
▁Leone	-10.2783
▁Shinawatra	-10.2784
▁tense	-10.2787
▁Slobod	-10.2803
▁crunch	-10.2807
▁agenda	-10.2807
▁Hi	-10.2807
▁critics	-10.2814
▁stimulus	-10.2818
▁personnel	-10.283
▁Zimbabwean	-10.2831
▁Con	-10.2839
▁heavyweight	-10.284
▁grave	-10.2842
▁labor	-10.2845
▁dream	-10.2847
▁Microsoft	-10.2849
▁cover	-10.2852
har	-10.2862
low	-10.2869
▁turning	-10.2872
▁command	-10.2873
▁brutal	-10.2876
car	-10.2877
jo	-10.2879
▁41	-10.2879
▁ma	-10.288
measuring	-10.2883
▁promote	-10.2886
▁Damascus	-10.2886
▁appearance	-10.2888
▁abducted	-10.2891
▁Toyota	-10.2899
▁representative	-10.2902
▁visited	-10.2903
▁reaction	-10.2905
▁kick	-10.2908
▁flying	-10.291
▁fully	-10.291
▁Amnesty	-10.2918
▁bailout	-10.292
▁trouble	-10.292
▁demonstrations	-10.2923
▁Bob	-10.2923
▁Jintao	-10.293
▁Fernando	-10.2937
▁Christopher	-10.2943
sion	-10.295
▁Andrew	-10.2951
sk	-10.296
▁cow	-10.2961
not	-10.2962
▁determined	-10.2964
ow	-10.2975
▁Castro	-10.2976
▁subsidiary	-10.2976
▁picked	-10.298
state	-10.298
isation	-10.299
▁Far	-10.2993
▁Old	-10.2998
▁establish	-10.3006
▁certain	-10.3008
▁Khan	-10.3011
ik	-10.3012
▁offset	-10.3014
▁pressed	-10.3018
▁Ibrahim	-10.3031
▁ETA	-10.3032
▁Ankara	-10.3035
▁elite	-10.3035
▁fine	-10.304
▁mainland	-10.3042
▁attempts	-10.3045
▁extending	-10.3048
▁pilot	-10.3061
tin	-10.3073
▁Morgan	-10.3074
tax	-10.3075
▁manufacturer	-10.3078
▁bowler	-10.3079
▁lay	-10.308
▁Ku	-10.3082
▁owner	-10.3083
▁Dalai	-10.309
▁dealing	-10.3096
▁Socialist	-10.3099
▁William	-10.3103
▁3-1	-10.3104
tan	-10.3108
▁Thomas	-10.3113
▁desert	-10.3117
▁deadlock	-10.3118
▁Chad	-10.3123
▁Han	-10.3124
▁sexual	-10.3126
90	-10.3133
▁camps	-10.3142
od	-10.3146
▁actor	-10.3149
hu	-10.316
▁aside	-10.3166
▁aged	-10.3166
▁strengthen	-10.3166
▁murdered	-10.3169
▁questioned	-10.3178
▁deliver	-10.3185
▁executed	-10.3186
▁palace	-10.3192
▁initiative	-10.3196
▁Ashes	-10.3198
▁nationalist	-10.3198
▁HIV	-10.3208
▁education	-10.3208
▁modest	-10.3217
▁arrive	-10.322
▁75	-10.322
▁serve	-10.3221
▁vessel	-10.3223
▁keeping	-10.3224
▁difficult	-10.3226
▁Haitian	-10.3227
▁snow	-10.3228
▁44	-10.3232
▁supreme	-10.3232
▁comeback	-10.3238
▁43	-10.3239
▁Tibetan	-10.3244
▁fugitive	-10.3244
▁mandate	-10.3249
▁solid	-10.3251
▁Senator	-10.3256
▁previously	-10.3258
▁2.5	-10.3264
aw	-10.3268
▁relatives	-10.3269
ay	-10.3269
match	-10.327
▁twin	-10.3276
▁warplanes	-10.328
▁pass	-10.3284
pping	-10.3288
▁compound	-10.3288
▁intervention	-10.3292
▁sparking	-10.3294
▁Ferguson	-10.33
▁Front	-10.33
▁torture	-10.3305
▁Deutsche	-10.3308
▁Benazi	-10.3308
ping	-10.3312
▁lifting	-10.3316
▁celebrations	-10.3322
▁invited	-10.3327
▁climbed	-10.333
▁Defend	-10.3332
▁broad	-10.3334
▁mounted	-10.3341
▁normal	-10.3342
▁created	-10.3344
▁supported	-10.3348
▁sites	-10.335
▁value	-10.3351
▁consortium	-10.3352
▁quick	-10.3353
sec	-10.3354
▁impose	-10.3357
▁declaration	-10.3358
▁CIA	-10.3364
▁retirement	-10.3365
▁Dow	-10.3377
▁avert	-10.3378
▁Chen	-10.3387
▁baby	-10.3389
her	-10.3392
▁targeting	-10.3395
▁sensitive	-10.3398
▁risks	-10.3404
▁smuggling	-10.3413
▁edition	-10.3417
▁survived	-10.3418
▁investigate	-10.3418
▁islands	-10.3422
▁2000	-10.3431
ren	-10.3436
▁narrow	-10.3438
style	-10.3446
▁built	-10.345
▁provided	-10.3457
▁fragile	-10.3458
▁riots	-10.3462
cy	-10.3463
▁urgent	-10.3466
▁Peres	-10.3471
▁Serie	-10.3472
▁battled	-10.3473
▁route	-10.3474
▁suit	-10.3476
▁1.6	-10.3486
▁Parliament	-10.3486
ip	-10.349
▁Global	-10.349
▁awaited	-10.3494
▁stable	-10.3496
▁uncertainty	-10.3499
fi	-10.3507
▁emerging	-10.3511
▁francs	-10.3513
▁peninsula	-10.3515
chip	-10.3516
▁reconstruction	-10.3519
▁Geneva	-10.3519
▁(1	-10.3527
▁BP	-10.3529
▁1990	-10.3529
▁icon	-10.353
▁exercise	-10.353
▁cannot	-10.3534
▁birthday	-10.3535
▁forum	-10.3536
▁Social	-10.3538
▁expect	-10.3539
▁Istanbul	-10.3544
▁highly	-10.3544
▁bat	-10.3546
▁rains	-10.3552
▁moment	-10.3554
▁Mike	-10.3554
▁successor	-10.3556
ju	-10.3559
▁guerrilla	-10.356
▁evacuated	-10.3562
▁Stephen	-10.3569
▁optimism	-10.3573
▁considered	-10.3576
▁Food	-10.3577
ue	-10.3577
▁(2	-10.3579
▁hot	-10.3579
▁founder	-10.3584
▁Islamabad	-10.3585
▁w	-10.3591
American	-10.3594
▁crossing	-10.3595
▁check	-10.361
▁6-4,	-10.3615
▁notorious	-10.3622
▁Ugandan	-10.3625
▁downturn	-10.3628
▁possibility	-10.3639
▁Javier	-10.3639
▁measure	-10.364
▁Ya	-10.3642
▁environment	-10.3646
▁Moroccan	-10.3647
▁spiritual	-10.3652
▁execution	-10.3657
▁Shimon	-10.3668
▁hundred	-10.367
▁Za	-10.3671
ible	-10.3672
▁think	-10.3675
tter	-10.3686
▁watch	-10.3687
▁contact	-10.3692
▁Movement	-10.3697
▁Great	-10.3701
▁struggled	-10.3704
▁Brian	-10.3704
▁lawsuit	-10.3706
▁Telecom	-10.371
▁goalkeeper	-10.3714
▁minute	-10.3715
▁protestors	-10.3718
▁imminent	-10.3722
head	-10.3722
▁skipper	-10.3722
▁verdict	-10.3735
range	-10.3735
▁nomination	-10.3736
▁fashion	-10.3741
▁contain	-10.3747
▁closure	-10.3747
▁outgoing	-10.3748
▁ask	-10.3748
▁kicked	-10.3749
▁Vienna	-10.3756
▁lunch	-10.3756
▁Khartoum	-10.3764
▁damaged	-10.3769
▁superstar	-10.3773
▁Smith	-10.3777
▁bought	-10.3777
▁Khmer	-10.379
▁BBC	-10.3791
▁landed	-10.3794
▁restructuring	-10.3802
▁abuses	-10.3803
▁stood	-10.3806
▁Hariri	-10.3811
▁Zairean	-10.3811
▁bridge	-10.3813
▁drew	-10.3815
pt	-10.3815
▁epidemic	-10.3819
making	-10.3823
ell	-10.3823
▁1.8	-10.3829
▁appeals	-10.3833
▁0.9	-10.3834
tri	-10.3835
▁Bu	-10.3841
▁trillion	-10.3844
▁handling	-10.3848
▁chiefs	-10.3848
ped	-10.3851
▁matter	-10.3854
cl	-10.3855
▁enrichment	-10.3857
▁suggested	-10.3858
▁FA	-10.3862
▁1999	-10.3862
▁phase	-10.3866
▁o	-10.3866
▁quiet	-10.3875
van	-10.3876
▁Rouge	-10.3878
▁bombers	-10.3879
▁upset	-10.3885
▁cold	-10.3889
▁firing	-10.3891
▁permanent	-10.3893
▁rescued	-10.3895
▁Bangladeshi	-10.3898
▁Assembly	-10.39
▁vital	-10.39
▁grand	-10.3904
ade	-10.3919
▁Cameroon	-10.3921
▁lashed	-10.3921
▁55	-10.3922
▁1.7	-10.3922
▁schools	-10.3923
▁paper	-10.3926
▁modern	-10.3926
▁Mir	-10.3932
controlled	-10.3933
▁devastated	-10.3934
ravaged	-10.3937
▁compatriot	-10.3938
▁Tim	-10.3945
▁Gates	-10.3947
▁hitting	-10.3951
▁tribute	-10.3955
▁concert	-10.3959
▁extradition	-10.3977
▁challenger	-10.3978
nt	-10.3982
▁rein	-10.3993
▁warrant	-10.3993
▁occupation	-10.3994
▁Kerry	-10.3994
▁2012	-10.3999
form	-10.4001
▁Antonio	-10.4003
▁active	-10.4004
ach	-10.4006
▁association	-10.4007
▁Oval	-10.4009
▁Liberian	-10.4022
▁targeted	-10.4023
▁faction	-10.4032
▁belonging	-10.4033
▁Boutros	-10.4037
▁succeed	-10.4039
▁Rumsfeld	-10.4046
▁reconciliation	-10.4046
▁bond	-10.4049
▁reiterat	-10.405
port	-10.4053
▁Alberto	-10.4054
▁battered	-10.4054
▁Texas	-10.4054
▁Nine	-10.4055
▁businesses	-10.4056
uthorities	-10.4056
set	-10.4058
related	-10.4058
▁reduced	-10.4058
▁strife	-10.4059
▁trigger	-10.406
▁import	-10.4071
▁terrorists	-10.408
▁abandon	-10.4086
yo	-10.4091
▁Abdul	-10.4094
gar	-10.4106
▁exiled	-10.4107
▁surrounding	-10.4111
▁wait	-10.4116
▁mo	-10.4118
▁Gold	-10.4119
▁chaos	-10.4119
▁Marc	-10.412
▁tumbled	-10.4121
▁whom	-10.4121
▁winds	-10.4122
▁jets	-10.4125
▁sworn	-10.4128
▁breakthrough	-10.4128
▁questions	-10.4129
▁edge	-10.4132
▁tested	-10.4133
nes	-10.4143
▁Cor	-10.4144
▁Commerce	-10.415
▁manufacturing	-10.415
▁Bahrain	-10.4153
▁shook	-10.4159
▁celebrate	-10.416
▁flow	-10.4165
▁pension	-10.4168
-3	-10.4179
▁66	-10.4179
▁Port	-10.4191
ble	-10.4193
maker	-10.4197
▁Angola	-10.4197
▁setback	-10.4199
democracy	-10.4202
▁Ham	-10.4211
minute	-10.4212
▁baseball	-10.4216
▁image	-10.4218
▁Daily	-10.4222
▁miners	-10.4224
▁grip	-10.4225
▁Statistics	-10.4238
▁internal	-10.4238
▁customs	-10.4239
▁escape	-10.4244
▁Azerbaijan	-10.4246
▁Sergei	-10.4252
ving	-10.4256
▁rating	-10.4263
▁wide	-10.4264
▁impoverished	-10.4264
cc	-10.4265
▁sidelines	-10.4278
▁3,000	-10.4278
▁grenade	-10.4282
▁birth	-10.4282
▁gathering	-10.4282
▁produced	-10.4282
▁6-4	-10.429
mit	-10.4291
▁Hutu	-10.4292
▁opener	-10.4301
▁highs	-10.4306
president	-10.4314
▁Hans	-10.4319
▁launching	-10.4323
▁teenage	-10.4324
▁Koizumi	-10.4326
▁rockets	-10.4327
▁cloud	-10.4329
▁hosts	-10.4336
▁helicopters	-10.4336
▁Min	-10.434
▁scheme	-10.4344
wo	-10.4345
▁marks	-10.4358
▁preparations	-10.4358
▁choice	-10.4362
▁monitoring	-10.4364
▁parents	-10.4368
▁(7	-10.4369
▁room	-10.4369
▁Tel	-10.4371
▁fined	-10.4371
▁Nadal	-10.4371
▁seats	-10.4377
▁Fatah	-10.438
▁Kazakhstan	-10.4384
▁retain	-10.4389
▁declined	-10.4389
▁Conference	-10.4393
ory	-10.4398
▁Wen	-10.4399
▁spying	-10.4409
▁recorded	-10.4416
ture	-10.4425
▁deals	-10.4425
▁Juventus	-10.4429
▁Blue	-10.4429
▁cap	-10.443
▁el	-10.4437
▁commissioner	-10.4438
▁Taylor	-10.4438
▁Michel	-10.4439
▁soft	-10.4443
▁chip	-10.4444
▁liberal	-10.4447
nk	-10.4447
iv	-10.4453
med	-10.4475
▁Baseball	-10.4479
▁Hockey	-10.4483
▁spend	-10.4484
▁pushing	-10.4484
ft	-10.4484
▁cooperate	-10.4488
profile	-10.4489
▁buildings	-10.449
▁winners	-10.4492
▁nothing	-10.4498
▁laid	-10.4498
▁contracts	-10.4503
▁Junichiro	-10.451
▁forest	-10.4534
▁beaten	-10.4536
▁Elizabeth	-10.4537
▁complex	-10.4537
▁stunning	-10.4538
▁affect	-10.4541
▁lose	-10.4543
▁unknown	-10.4548
▁pound	-10.4555
▁Hebron	-10.4569
▁stem	-10.4578
▁Pan	-10.4579
▁know	-10.4581
▁Bundesliga	-10.4583
▁affected	-10.4593
▁marriage	-10.4601
▁Costa	-10.4602
▁46	-10.4602
▁Democrat	-10.4602
well	-10.4607
tal	-10.4609
ec	-10.4612
▁throughout	-10.4614
5,000	-10.4614
qu	-10.4615
-225	-10.4615
▁facilities	-10.462
▁refusing	-10.462
▁Kyrgyzstan	-10.462
▁Anglo	-10.4621
▁Warren	-10.4621
▁partnership	-10.4625
▁marched	-10.4625
▁Ghana	-10.4628
made	-10.4634
▁gross	-10.4652
▁prisoner	-10.4654
▁youth	-10.4656
▁Treaty	-10.4656
gen	-10.466
▁swimming	-10.4661
ku	-10.4667
linked	-10.4669
▁Yitzhak	-10.467
ious	-10.4671
▁fl	-10.4672
▁Louis	-10.468
▁sprint	-10.4681
▁marathon	-10.4684
▁Here	-10.4684
▁charity	-10.4698
▁resumption	-10.4698
▁fit	-10.4707
▁units	-10.4708
▁landslide	-10.4708
50	-10.4711
▁risen	-10.4718
▁express	-10.4728
▁medics	-10.4729
▁flood	-10.473
▁1998	-10.4731
▁Johnson	-10.4733
▁witness	-10.4735
▁Ti	-10.4736
▁b	-10.4741
▁warlord	-10.4744
ye	-10.4749
mate	-10.4753
▁Filipino	-10.4753
▁recovering	-10.4754
▁1997	-10.4756
▁Tottenham	-10.4763
▁agriculture	-10.4763
▁Mogadishu	-10.4767
ship	-10.477
▁questioning	-10.4771
▁regain	-10.4772
▁abandoned	-10.4775
nu	-10.4776
▁negative	-10.4786
▁settle	-10.4787
▁approach	-10.4795
az	-10.4799
▁scrap	-10.4799
▁pirates	-10.4811
▁Ke	-10.4816
▁ball	-10.4818
▁loyal	-10.4818
▁facility	-10.4818
▁52	-10.4819
▁followed	-10.4822
winning	-10.4823
▁entering	-10.4827
▁probably	-10.4827
▁Jews	-10.4842
gan	-10.4844
▁heat	-10.4845
▁tea	-10.4845
▁Aziz	-10.4847
▁negotiators	-10.4854
▁(6	-10.4865
je	-10.4868
▁interests	-10.4869
awaited	-10.4869
▁card	-10.487
▁Jong	-10.4875
▁singer	-10.4884
▁cell	-10.4888
▁resistance	-10.4889
▁blockade	-10.489
▁Che	-10.4894
▁murdering	-10.4896
▁institutions	-10.4903
▁additional	-10.4904
▁drivers	-10.4907
▁unbeaten	-10.4912
owing	-10.4919
▁creating	-10.4922
▁driven	-10.4923
▁Rabin	-10.4928
▁blame	-10.4929
▁1991	-10.4931
▁Ex	-10.4934
▁2,	-10.4937
▁drought	-10.4945
▁violations	-10.4951
▁gone	-10.4952
down	-10.4955
▁pursue	-10.4972
▁gear	-10.4974
▁Rally	-10.4975
▁roadside	-10.4975
▁5,000	-10.4981
▁packed	-10.4982
▁Confederation	-10.4988
▁artillery	-10.5002
▁Roma	-10.5003
tech	-10.501
▁approve	-10.501
▁Villa	-10.5017
▁weakness	-10.5019
▁balance	-10.502
▁mortar	-10.5026
▁pole	-10.5027
atory	-10.5036
▁reflect	-10.5036
▁providing	-10.5036
▁appears	-10.504
▁announcing	-10.5041
▁adopt	-10.5043
▁smashed	-10.5045
▁assistance	-10.5046
art	-10.505
ron	-10.5052
▁indicated	-10.5052
rule	-10.506
▁detainees	-10.5061
▁Franco	-10.5063
▁wrong	-10.5063
▁Lithuania	-10.5064
▁There	-10.5064
▁Solana	-10.5065
▁editor	-10.5069
▁thrown	-10.5073
▁University	-10.5074
▁Y	-10.5078
▁favourite	-10.5085
▁outcome	-10.5091
▁(5	-10.51
▁indicted	-10.5103
▁64	-10.5105
▁Google	-10.5108
▁improving	-10.5108
▁residence	-10.5112
▁IRNA	-10.5117
if	-10.5127
▁forecasts	-10.5129
▁ca	-10.513
ified	-10.513
▁adviser	-10.5132
▁demonstrated	-10.5135
▁travelling	-10.5136
▁j	-10.5138
▁pitch	-10.5142
▁traded	-10.5142
▁Mikhail	-10.5146
▁Cha	-10.5154
▁idea	-10.5159
▁compete	-10.5164
▁wild	-10.5165
▁sa	-10.517
▁overcome	-10.5171
▁WTO	-10.5174
▁ambush	-10.518
▁Young	-10.5181
row	-10.5184
BC	-10.5187
▁generation	-10.5194
pri	-10.5195
log	-10.5198
▁24-	-10.5198
▁sectarian	-10.5204
▁successive	-10.5207
▁individual	-10.5209
▁disarm	-10.5214
▁Nearly	-10.5229
▁secured	-10.5231
▁fastest	-10.5236
▁takes	-10.5245
▁underground	-10.5246
▁800	-10.5248
▁institute	-10.5248
▁72	-10.5248
▁47	-10.5249
▁cr	-10.5253
▁Va	-10.5254
▁gap	-10.5254
▁discussed	-10.5257
▁Manila	-10.5268
▁Star	-10.5272
▁Katrina	-10.5272
▁closely	-10.5276
rd	-10.5279
▁Iceland	-10.5281
▁Melbourne	-10.5282
Soviet	-10.5283
▁retired	-10.5285
wan	-10.5285
ming	-10.5286
▁Ge	-10.5308
▁expelled	-10.5319
▁Electric	-10.5326
▁Aviv	-10.5327
▁suburb	-10.533
▁airlines	-10.5331
▁shopping	-10.5332
▁explosive	-10.5334
dra	-10.5334
▁playoff	-10.5334
▁eighth	-10.5338
▁professional	-10.5339
free	-10.5343
▁Chief	-10.5347
▁collided	-10.5349
ani	-10.5349
▁Ford	-10.5349
cre	-10.5354
▁Hill	-10.5369
af	-10.5369
▁2011	-10.5372
▁plea	-10.5386
▁successfully	-10.5386
▁100,000	-10.5389
▁reacted	-10.5393
▁prosecution	-10.5395
▁sustained	-10.5404
ved	-10.5414
▁municipal	-10.5415
▁shadow	-10.5415
▁prob	-10.5418
▁tanks	-10.5418
▁We	-10.542
▁Sp	-10.542
▁4,	-10.5425
▁Joseph	-10.5427
▁explosions	-10.5431
▁7-5	-10.5435
ending	-10.5438
▁Nuri	-10.5441
▁badly	-10.5441
▁attention	-10.5445
▁fact	-10.5449
▁looks	-10.5454
▁gaining	-10.5458
▁Fi	-10.5459
▁Senior	-10.546
kin	-10.546
▁overhaul	-10.5466
▁die	-10.547
Assad	-10.5472
▁developed	-10.5474
▁sovereignty	-10.5475
rate	-10.5479
▁version	-10.548
▁answer	-10.548
▁Sun	-10.5485
Maliki	-10.5487
▁entire	-10.5488
25	-10.5489
▁Eastern	-10.549
ez	-10.5492
▁67	-10.5494
▁monthly	-10.5495
▁delivered	-10.5495
▁attended	-10.5501
▁fatal	-10.5503
▁recall	-10.5503
ew	-10.5505
▁text	-10.551
▁Center	-10.551
▁rapid	-10.5513
▁standards	-10.5522
uc	-10.5527
dor	-10.5529
bal	-10.5532
▁700	-10.5532
▁fleeing	-10.5538
▁aides	-10.554
▁Hassan	-10.555
▁Joe	-10.5553
▁executives	-10.5555
like	-10.556
▁Mc	-10.5562
▁remove	-10.5564
▁scare	-10.5575
ries	-10.5584
▁ambitions	-10.559
▁beyond	-10.5595
▁veto	-10.5595
running	-10.5596
▁advisor	-10.5598
▁maintained	-10.5598
▁looming	-10.5598
▁shrine	-10.5605
▁Ju	-10.5613
Israeli	-10.5617
▁Shares	-10.5626
▁halted	-10.5632
▁Tan	-10.5634
ban	-10.5644
▁material	-10.5646
▁Criminal	-10.5646
▁settlers	-10.5651
▁wa	-10.5652
tar	-10.5654
▁Liberation	-10.5656
▁wrapped	-10.5656
▁Henry	-10.5661
▁shift	-10.5668
▁displaced	-10.5673
▁villages	-10.5674
val	-10.5677
▁shareholders	-10.5678
▁2.2	-10.5678
▁Frenchman	-10.5678
▁store	-10.5682
▁nearby	-10.5684
ants	-10.569
▁Tens	-10.5693
ep	-10.5694
▁rebuild	-10.5695
▁Trophy	-10.5697
▁refusal	-10.5697
▁negotiating	-10.5702
▁congratulat	-10.5707
▁box	-10.5711
▁outrage	-10.5711
▁jury	-10.5712
fire	-10.5721
▁minor	-10.5721
▁Dick	-10.5728
▁Green	-10.5728
▁MPs	-10.5728
bound	-10.5729
▁producers	-10.5731
ration	-10.5741
▁vi	-10.5746
▁actress	-10.5748
sharing	-10.5763
called	-10.5766
▁band	-10.5772
house	-10.5776
▁waiting	-10.5778
▁Nick	-10.5782
▁Marseille	-10.5784
▁wind	-10.5789
▁Heavy	-10.5789
▁Karadzic	-10.5789
▁Angel	-10.5797
▁Beckham	-10.5799
len	-10.5799
▁protesting	-10.5804
hy	-10.5808
▁1.9	-10.5812
▁Radovan	-10.5815
ruled	-10.5818
▁Slovakia	-10.582
▁Copenhagen	-10.5825
▁Harry	-10.5831
▁houses	-10.5833
Y	-10.5834
▁friend	-10.5835
▁significant	-10.5835
▁Lyon	-10.5837
▁gunman	-10.584
▁51	-10.5848
▁raided	-10.585
ino	-10.5857
ug	-10.5859
▁Com	-10.5861
▁path	-10.5862
▁20-	-10.5863
▁owners	-10.5867
▁ships	-10.5867
▁Lisbon	-10.5867
▁11,	-10.5867
▁disappointing	-10.5869
▁reasons	-10.5877
▁Sadr	-10.5877
▁shore	-10.588
▁Mas	-10.5881
tur	-10.5888
▁waste	-10.589
win	-10.5893
▁stance	-10.5893
▁Mor	-10.5893
gh	-10.5895
▁acting	-10.5907
▁rider	-10.5909
▁snap	-10.5911
▁cyclone	-10.5919
▁barrels	-10.592
▁Women	-10.594
▁dawn	-10.594
▁apartment	-10.5941
▁representatives	-10.5946
water	-10.5947
▁goes	-10.5948
ets	-10.5955
▁respond	-10.5957
▁advantage	-10.596
▁53	-10.5961
▁contested	-10.5969
▁supporting	-10.5971
▁striking	-10.5981
▁class	-10.5986
▁54	-10.5992
▁rebounded	-10.5993
hor	-10.5994
▁aiming	-10.5995
▁briefly	-10.5995
▁writer	-10.5997
▁1993	-10.5998
▁16-	-10.6007
▁vowing	-10.6008
▁Labor	-10.6008
▁removed	-10.6009
▁Ahmad	-10.6015
▁defeating	-10.6016
▁doubts	-10.6017
▁incumbent	-10.6018
▁trend	-10.6018
▁slash	-10.602
▁sweep	-10.6022
▁lender	-10.6023
ob	-10.603
▁Schumacher	-10.6045
▁slain	-10.6045
▁250	-10.605
high	-10.6052
▁formed	-10.6053
mu	-10.6058
▁withdrew	-10.606
▁insisting	-10.6064
ct	-10.6072
ire	-10.6075
▁museum	-10.6082
ces	-10.6082
▁Van	-10.6082
▁panic	-10.6086
▁receiving	-10.6087
rie	-10.6093
lon	-10.6094
▁Carl	-10.6095
▁Governor	-10.6099
can	-10.6102
field	-10.6104
ities	-10.6106
▁Suspect	-10.6114
▁ambitious	-10.6124
Il	-10.6125
▁fallen	-10.6133
▁Mbeki	-10.6135
▁racing	-10.6135
ei	-10.6136
▁Himalayan	-10.614
▁drawing	-10.614
▁priest	-10.6147
▁Fallujah	-10.6151
▁Hague	-10.6157
▁McCain	-10.6162
▁600	-10.6162
▁illness	-10.6163
▁6-3	-10.6163
uff	-10.6164
▁conglomerate	-10.6172
▁plunge	-10.6177
▁barrier	-10.618
▁humanity	-10.6183
▁quarterly	-10.6187
▁telecom	-10.6192
▁artist	-10.6193
▁wage	-10.6193
▁stranded	-10.6194
▁schedule	-10.6198
▁homeland	-10.6201
▁2.0	-10.6214
▁owned	-10.6216
largest	-10.6216
▁Ecuador	-10.6217
ney	-10.6218
▁gunfire	-10.6221
▁thin	-10.6222
▁doing	-10.6227
▁partial	-10.6227
▁Gi	-10.6231
▁referee	-10.6231
▁carmaker	-10.6235
ain	-10.624
▁cocaine	-10.6242
▁escalating	-10.6247
▁Wayne	-10.6247
▁denote	-10.6247
▁Tor	-10.6248
▁Guard	-10.6253
▁pilgrims	-10.6253
▁emissions	-10.6253
▁hat	-10.626
▁intention	-10.6265
▁document	-10.6268
nch	-10.6269
▁56	-10.6271
▁honour	-10.6272
▁cope	-10.6273
▁incursion	-10.6274
▁Roh	-10.6275
ied	-10.6276
gue	-10.6288
▁rush	-10.6288
▁49	-10.63
▁ballot	-10.6302
▁3-2	-10.6303
left	-10.6303
▁model	-10.6307
▁battles	-10.6313
serious	-10.6314
▁flooding	-10.6318
▁River	-10.6318
▁percentage	-10.6319
▁sentences	-10.6321
▁motor	-10.6323
▁blaze	-10.6329
▁Ian	-10.6329
▁visa	-10.633
▁repair	-10.6334
▁Station	-10.6336
▁peak	-10.6338
▁intense	-10.6339
lor	-10.6343
▁Papua	-10.6345
▁relay	-10.6346
bian	-10.6348
▁Madagascar	-10.635
▁uprising	-10.6355
▁Service	-10.6363
▁surrender	-10.6364
▁Boxing	-10.6367
din	-10.6375
▁57	-10.6382
▁identified	-10.6383
▁bound	-10.6385
fer	-10.6388
kh	-10.639
▁Pre	-10.6396
uk	-10.6397
▁pour	-10.6399
▁Islamists	-10.64
▁style	-10.6405
▁Rafiq	-10.6405
▁Tsvangirai	-10.6405
▁Del	-10.6406
▁Gunmen	-10.6411
▁parade	-10.6411
▁appointment	-10.6411
▁Francois	-10.6416
▁Leaders	-10.6417
▁soil	-10.6418
▁signal	-10.6421
▁Earth	-10.6421
▁Am	-10.6429
▁clinched	-10.6433
bra	-10.6434
ara	-10.6441
▁necessary	-10.6442
▁worried	-10.6443
▁stolen	-10.6446
▁done	-10.6446
▁cancel	-10.6447
▁NBA	-10.645
▁Ground	-10.6452
▁batsman	-10.6454
ath	-10.6455
▁Princess	-10.6455
▁possibly	-10.646
▁telecoms	-10.6462
▁screen	-10.6464
▁numbers	-10.6465
▁Boston	-10.6465
ative	-10.6469
▁conviction	-10.6472
▁Ed	-10.6472
▁ratings	-10.6472
▁consumers	-10.6474
▁stressed	-10.6476
▁publication	-10.648
▁Sal	-10.6481
▁benefit	-10.6487
▁Dominique	-10.6487
▁paramilitary	-10.6487
▁stroke	-10.6488
▁68	-10.649
▁Bureau	-10.6493
▁infected	-10.6497
tion	-10.65
▁ancient	-10.6504
▁Delta	-10.651
▁MP	-10.6518
▁girls	-10.6519
▁ho	-10.6523
▁3.5	-10.6524
▁relationship	-10.6526
▁temporary	-10.6529
▁ballots	-10.6531
▁focused	-10.6536
▁Estonia	-10.6537
lit	-10.6539
▁donors	-10.6542
▁Ferrari	-10.6543
press	-10.655
▁selected	-10.6554
▁multinational	-10.6554
▁strict	-10.6559
▁spectacular	-10.6562
▁Up	-10.6562
▁Caucasus	-10.6565
▁Anti	-10.657
▁improvement	-10.657
elected	-10.657
▁lending	-10.6574
▁coastal	-10.6579
▁regular	-10.658
▁ultra	-10.6582
▁Atlanta	-10.6582
cute	-10.6587
▁tunnel	-10.6593
▁hub	-10.6593
▁longest	-10.6593
▁reactor	-10.6595
▁regulators	-10.6595
▁brain	-10.6598
▁income	-10.6601
▁Dr	-10.6606
▁continues	-10.661
▁killings	-10.6611
▁Everton	-10.6615
▁incidents	-10.662
▁retailer	-10.6622
ari	-10.6631
nce	-10.664
▁Journal	-10.6648
▁Albania	-10.6649
▁expanded	-10.6663
▁Standard	-10.6666
▁often	-10.6666
▁attorney	-10.6671
▁hostile	-10.6675
int	-10.6692
▁reject	-10.6693
▁brink	-10.6694
▁congressional	-10.6694
▁cool	-10.67
▁aims	-10.6701
▁standing	-10.6702
▁winger	-10.6702
▁5,	-10.6703
▁slalom	-10.6705
▁Scott	-10.6715
▁bl	-10.6722
▁62	-10.6725
eg	-10.6732
▁replaced	-10.6743
▁means	-10.6749
▁researchers	-10.6749
▁temporarily	-10.675
eng	-10.6751
▁oldest	-10.6753
▁capacity	-10.6756
▁marred	-10.6756
▁ride	-10.6756
▁shows	-10.6757
▁benefits	-10.6762
ions	-10.6763
▁different	-10.6766
▁Simon	-10.6766
▁Balkan	-10.6768
ash	-10.677
▁affair	-10.6777
▁Or	-10.6778
▁Gra	-10.6778
▁Spaniard	-10.6779
▁voice	-10.6779
▁booming	-10.6784
Z	-10.6786
▁pullout	-10.6787
▁Veteran	-10.679
▁Leeds	-10.68
15	-10.6807
▁Phil	-10.6807
▁wall	-10.6812
▁invitation	-10.6818
▁venue	-10.6824
▁upbeat	-10.6829
▁spate	-10.6832
▁Ze	-10.6838
▁acquire	-10.6841
▁renew	-10.6844
▁delegates	-10.6847
▁meetings	-10.6848
▁Moqtada	-10.6853
cher	-10.6853
▁branch	-10.6855
▁pharmaceutical	-10.6855
▁you	-10.6866
▁En	-10.6868
scale	-10.6869
▁Senegal	-10.6875
▁When	-10.6884
dis	-10.6884
ple	-10.6886
▁Tanzania	-10.6893
▁machine	-10.6898
▁Holocaust	-10.6899
▁Kadhafi	-10.6899
▁bloodshed	-10.6899
▁exchanges	-10.69
▁love	-10.69
▁organization	-10.6903
cent	-10.692
ken	-10.6923
Palestinian	-10.6927
▁subsidies	-10.6933
tel	-10.6935
▁culture	-10.6939
▁sealed	-10.6945
▁crippling	-10.6945
In	-10.6945
av	-10.6949
▁But	-10.696
▁Buddhist	-10.6962
▁our	-10.6967
▁intend	-10.6969
▁neighbour	-10.6975
▁85	-10.6979
▁Silva	-10.6985
ight	-10.6988
▁desperate	-10.699
▁14-	-10.699
▁Most	-10.6996
▁resolving	-10.6997
▁Israelis	-10.6999
▁counterparts	-10.7
ward	-10.7
▁clinch	-10.7002
▁Abdel	-10.7007
▁narrowly	-10.7007
▁estate	-10.701
▁negotiate	-10.7015
▁flee	-10.702
▁Company	-10.702
▁harm	-10.7021
▁Tu	-10.7021
▁Mal	-10.7027
▁prestigious	-10.7032
▁thousand	-10.7033
▁shoot	-10.7033
pre	-10.7034
We	-10.7035
ese	-10.7042
▁Affairs	-10.7044
▁earned	-10.7045
new	-10.7052
▁clubs	-10.7056
▁weighed	-10.7058
▁inmates	-10.7059
▁wins	-10.706
▁seal	-10.7062
bre	-10.7067
▁villagers	-10.707
▁woes	-10.7073
▁urge	-10.7073
terror	-10.7073
▁airports	-10.7076
▁metal	-10.7076
▁2.4	-10.7078
▁Luiz	-10.7085
▁Yu	-10.7086
▁photographer	-10.7089
▁highway	-10.709
▁Thab	-10.7092
-20	-10.7093
ched	-10.7097
▁Gal	-10.7101
▁tank	-10.7104
▁13-	-10.7106
law	-10.7106
▁Ver	-10.7106
zer	-10.7107
▁Miami	-10.7108
▁Pat	-10.711
▁reformist	-10.7111
▁file	-10.7111
▁18-	-10.7112
▁damaging	-10.7114
▁colleagues	-10.7114
▁principle	-10.712
▁Jiang	-10.712
▁confirm	-10.712
ok	-10.7121
▁Ce	-10.7125
▁barred	-10.713
▁pilots	-10.7132
▁richest	-10.7133
▁mastermind	-10.7136
▁extension	-10.7137
▁Gbagbo	-10.7143
▁63	-10.715
▁suffer	-10.7157
▁hijacked	-10.7158
▁proved	-10.7158
▁homeless	-10.7164
▁complaint	-10.7166
▁acknowledged	-10.7169
▁Conservative	-10.7171
bar	-10.7175
▁bottom	-10.7182
▁shield	-10.7185
▁patients	-10.7189
▁Corporation	-10.719
▁Rodriguez	-10.719
///	-10.7191
▁related	-10.7201
berg	-10.7202
▁leak	-10.7205
sco	-10.7207
▁provisional	-10.7208
▁visitors	-10.7209
unt	-10.7218
▁yacht	-10.722
▁door	-10.7229
▁regard	-10.7231
▁pulling	-10.7231
▁predecessor	-10.7232
▁Serena	-10.7232
▁worked	-10.7236
izing	-10.7237
▁missed	-10.7238
▁fundamentalist	-10.7239
light	-10.7239
ear	-10.724
▁Credit	-10.7244
▁animal	-10.7244
ika	-10.7254
▁Grozny	-10.7256
▁monitor	-10.7259
▁memory	-10.7274
▁estimate	-10.7282
cha	-10.7284
▁catch	-10.7288
▁2.1	-10.7289
▁para	-10.729
▁polling	-10.7294
▁Fed	-10.7297
tomic	-10.7299
mad	-10.7303
▁On	-10.7309
▁window	-10.731
▁30-	-10.7311
▁unable	-10.7314
▁Workers	-10.7317
ria	-10.7317
▁managed	-10.7329
▁Cla	-10.7337
hr	-10.7339
▁Shui	-10.7343
uri	-10.7356
▁plants	-10.7359
▁engine	-10.736
▁58	-10.736
wide	-10.7363
nic	-10.7364
▁Felipe	-10.7364
▁begins	-10.7367
▁streak	-10.737
▁Peruvian	-10.7376
BA	-10.7379
▁waves	-10.7379
▁elderly	-10.7386
▁stress	-10.739
ini	-10.739
▁lock	-10.7396
Claude	-10.7402
▁trans	-10.7403
▁Uzbekistan	-10.7418
▁shake	-10.7419
▁attempting	-10.7422
▁Yukos	-10.7424
▁departure	-10.7424
▁Lake	-10.7431
ide	-10.7434
▁broadcaster	-10.7434
▁shown	-10.7436
▁burst	-10.7436
mm	-10.7438
▁note	-10.7442
▁infrastructure	-10.7448
▁effects	-10.7456
▁offshore	-10.7457
▁subject	-10.7461
▁engineering	-10.747
use	-10.7472
▁haul	-10.7473
▁jobless	-10.7476
oc	-10.7476
▁25-	-10.7479
45	-10.7483
Hercegovina	-10.7485
Beshir	-10.7485
▁youths	-10.7485
ero	-10.7488
my	-10.7499
▁2.3	-10.7499
▁billionaire	-10.7509
▁Slovenia	-10.751
▁momentum	-10.751
bro	-10.7512
▁Un	-10.7512
▁false	-10.7515
▁sister	-10.7516
▁Can	-10.7521
▁equal	-10.7522
▁runner	-10.7533
EU	-10.7537
▁taxes	-10.754
-6	-10.7541
▁reporting	-10.7542
▁Alain	-10.7544
▁Mary	-10.7544
▁Steel	-10.7546
▁Armed	-10.7547
▁Francisco	-10.7553
ovic	-10.7556
▁Dar	-10.7557
▁Ramos	-10.7559
▁scoring	-10.756
▁inspections	-10.7564
▁Blacks	-10.7571
▁stayed	-10.7572
▁grounds	-10.7576
ization	-10.7576
35	-10.7577
▁weakened	-10.7584
▁delivery	-10.7585
▁financing	-10.7589
▁Watch	-10.759
▁autonomy	-10.7595
▁spell	-10.7596
dr	-10.7599
▁Trafford	-10.7608
▁1980	-10.7609
▁surging	-10.7614
▁declare	-10.7615
▁Channel	-10.7619
▁Burma	-10.7621
▁citizen	-10.7623
▁withdrawn	-10.7624
▁lines	-10.7625
▁Chilean	-10.7626
▁settlements	-10.7626
▁siege	-10.7626
▁Cold	-10.7627
▁Erdogan	-10.7632
▁evacuation	-10.7632
▁tries	-10.7636
metre	-10.7638
▁drama	-10.7638
WHO	-10.7639
▁mistake	-10.7639
▁alarm	-10.764
▁steep	-10.7645
▁emirate	-10.7645
▁Diego	-10.7651
yard	-10.7656
▁rubber	-10.7663
▁Lance	-10.7672
▁Shell	-10.7687
▁Film	-10.7688
▁Sony	-10.7692
▁Romano	-10.7692
▁concluded	-10.7693
▁0	-10.7699
▁pav	-10.77
▁Prodi	-10.7703
▁Petroleum	-10.7707
▁roads	-10.7709
▁tougher	-10.7713
▁spirit	-10.7719
▁read	-10.772
▁bombed	-10.7723
▁delays	-10.7725
▁Square	-10.7726
▁Mosul	-10.7726
▁Holdings	-10.7729
bl	-10.7733
▁threatens	-10.7735
▁disrupt	-10.7741
kov	-10.7742
▁fo	-10.7743
vent	-10.7743
▁Apple	-10.7745
▁bear	-10.775
▁athletics	-10.7751
▁greatest	-10.7753
hal	-10.7753
▁120	-10.7755
▁direction	-10.7756
▁revolution	-10.7756
▁Bridge	-10.7758
▁names	-10.7761
▁combined	-10.7762
▁athletes	-10.7765
▁heroin	-10.7769
▁Under	-10.777
▁discussions	-10.7773
load	-10.7773
ane	-10.7773
▁maritime	-10.7776
▁militiamen	-10.7778
▁fail	-10.7784
▁payments	-10.7793
▁restaurant	-10.7796
▁Monaco	-10.7807
▁Em	-10.7811
▁reshuffle	-10.7814
▁via	-10.7815
▁20,000	-10.7816
▁crowded	-10.7818
▁suggesting	-10.782
▁Golf	-10.782
▁cruise	-10.7821
pac	-10.7826
rum	-10.7826
▁assured	-10.7826
▁cultural	-10.7826
▁leads	-10.7829
star	-10.783
▁unanimously	-10.783
▁Moamer	-10.7833
▁expulsion	-10.7833
UAE	-10.7833
leg	-10.7836
▁Algiers	-10.7839
▁repeat	-10.784
▁shed	-10.7841
▁Shah	-10.7849
▁cable	-10.7855
▁pollution	-10.7859
▁influential	-10.7864
▁middle	-10.7865
▁origin	-10.7873
▁privatisation	-10.7877
lt	-10.7879
▁firmer	-10.788
▁rushed	-10.788
▁included	-10.7881
▁favourites	-10.7882
tz	-10.7887
▁language	-10.7903
iz	-10.7905
▁iron	-10.7909
▁blocking	-10.7912
▁deepening	-10.7914
▁Gazprom	-10.7915
▁select	-10.7915
sex	-10.7919
▁Lewis	-10.7921
rn	-10.7922
▁caution	-10.7923
▁Recep	-10.7923
ati	-10.7924
▁criticized	-10.7934
▁Mon	-10.7946
▁words	-10.7948
food	-10.7952
▁books	-10.7958
▁junior	-10.796
▁rec	-10.7961
▁shipping	-10.7961
▁honor	-10.7963
▁judges	-10.7963
▁submarine	-10.7963
▁silence	-10.7972
▁guarantee	-10.7974
▁Mali	-10.798
▁Pu	-10.7987
▁Vo	-10.7987
▁LPGA	-10.7992
▁choose	-10.7992
▁3,	-10.7994
▁Jiabao	-10.7998
▁Briton	-10.8
▁shrugged	-10.8004
ery	-10.8004
▁assess	-10.8004
▁symbol	-10.8004
▁territorial	-10.8004
▁ch	-10.8012
▁collision	-10.8017
▁Basra	-10.8018
▁Har	-10.8021
▁sit	-10.8027
▁deploy	-10.803
ability	-10.8031
▁classic	-10.8035
ES	-10.8035
▁banning	-10.8041
95	-10.8043
▁mortgage	-10.8043
work	-10.8044
▁friends	-10.8044
shot	-10.8047
▁memorial	-10.805
▁Mount	-10.805
▁collection	-10.8051
▁registered	-10.8056
▁assist	-10.8059
-19	-10.8059
▁Tayyi	-10.8062
▁skating	-10.8062
▁feet	-10.8066
▁Volkswagen	-10.8069
▁2008,	-10.8075
▁slide	-10.8075
▁emotional	-10.8081
▁Ivan	-10.8081
▁starts	-10.8083
▁Zambia	-10.8089
▁bars	-10.809
▁frozen	-10.809
▁senator	-10.8091
ations	-10.8092
▁Mozambique	-10.8095
▁kilometers	-10.8095
▁bases	-10.8106
▁bo	-10.8106
▁2003,	-10.8107
▁introduce	-10.8108
▁Jihad	-10.8108
▁Trust	-10.8109
▁spreading	-10.8113
▁Il	-10.8116
▁introduced	-10.812
▁rubble	-10.8121
▁toss	-10.8123
,500	-10.8123
▁marine	-10.8125
▁69	-10.8136
▁Prophet	-10.814
▁ninth	-10.814
▁employment	-10.8141
▁Navy	-10.8141
▁busy	-10.8147
▁curfew	-10.8147
▁Latvia	-10.8148
▁optimistic	-10.8152
▁2004,	-10.8153
▁wedding	-10.8154
▁Malawi	-10.8157
▁favor	-10.8158
▁slapp	-10.8159
▁threaten	-10.8166
▁regret	-10.8168
▁gather	-10.8168
▁treated	-10.8172
ita	-10.8174
▁determine	-10.8175
zo	-10.8176
▁seize	-10.8178
▁chosen	-10.8182
biggest	-10.8186
▁61	-10.8189
▁Dozens	-10.8199
▁shelter	-10.8199
ala	-10.8201
▁comes	-10.8203
▁Cannes	-10.8206
▁economists	-10.8208
ral	-10.8208
mir	-10.8211
▁terminal	-10.8212
▁implement	-10.8213
▁effective	-10.8224
▁deposed	-10.8225
▁rallies	-10.8225
▁unidentified	-10.8225
▁impressive	-10.8226
▁crushed	-10.8228
▁Greenpeace	-10.8232
▁Greg	-10.8234
▁organisations	-10.8238
▁swap	-10.8239
▁Southern	-10.824
▁Straw	-10.8245
▁Yushchenko	-10.8252
▁opportunity	-10.8252
▁Free	-10.8256
▁hear	-10.8259
▁slowing	-10.8259
▁spoke	-10.8259
▁Ji	-10.826
▁Kiev	-10.8261
hand	-10.8264
▁Institute	-10.8265
▁encounter	-10.8265
▁walk	-10.8266
▁insurgent	-10.8267
▁oust	-10.827
▁Mitsubishi	-10.8271
▁Radio	-10.8272
▁watched	-10.8277
▁Sen	-10.8277
05	-10.8278
▁tragedy	-10.8278
▁discovery	-10.8278
▁Stalinist	-10.8278
eh	-10.8282
▁breach	-10.8287
▁11-	-10.8295
▁Bolton	-10.8299
▁crushing	-10.83
▁particularly	-10.8301
▁torch	-10.831
▁wearing	-10.8311
▁revers	-10.8313
▁graft	-10.8314
▁fleet	-10.8314
▁comp	-10.8315
▁Cape	-10.8316
▁available	-10.8318
▁square	-10.8318
FA	-10.8319
▁rift	-10.8331
▁searching	-10.8334
▁shattered	-10.8337
▁subway	-10.8339
▁guns	-10.8342
▁Mac	-10.8345
▁trust	-10.8349
rt	-10.835
▁Golden	-10.8351
▁Ram	-10.8353
▁Renault	-10.8355
▁slashed	-10.8355
ile	-10.8357
▁Nairobi	-10.8358
cle	-10.8361
▁explain	-10.8364
▁advertising	-10.8364
▁exhibition	-10.8365
▁me	-10.8366
▁Pen	-10.837
▁ministerial	-10.8373
Jazeera	-10.8378
▁Riyadh	-10.8378
take	-10.8385
▁volcano	-10.8389
▁OECD	-10.8392
▁orbit	-10.8395
▁buoyed	-10.8398
▁intended	-10.8399
▁parent	-10.8404
▁Resistance	-10.8404
▁oppose	-10.8406
▁l	-10.8411
▁Kohl	-10.8411
▁Is	-10.8412
▁Montenegro	-10.8413
▁aim	-10.8414
▁stick	-10.8418
▁attending	-10.8418
▁expanding	-10.8419
▁forming	-10.8419
▁Steven	-10.8424
▁Luxembourg	-10.8424
▁defiant	-10.8424
▁lucrative	-10.8424
▁reduction	-10.8425
▁slowed	-10.8432
▁reputation	-10.8438
▁robust	-10.8438
▁Ronaldo	-10.844
▁stepping	-10.8441
▁revenge	-10.8444
▁sets	-10.8447
▁organised	-10.8449
WTO	-10.8452
fold	-10.8454
▁pan	-10.8454
breaking	-10.8457
▁Festival	-10.8458
▁drove	-10.8458
▁Lithuanian	-10.8459
▁colony	-10.846
grabbed	-10.8464
▁Mer	-10.8464
▁checkpoint	-10.8465
tti	-10.8468
far	-10.8469
Marie	-10.8471
▁captive	-10.8471
▁Croat	-10.8474
▁Fe	-10.8476
▁persuade	-10.8477
▁recalled	-10.8481
▁Orthodox	-10.8485
▁boom	-10.8486
▁rejection	-10.8487
ement	-10.8488
▁76	-10.8488
▁triple	-10.849
magnitude	-10.8493
▁rejecting	-10.8497
▁written	-10.8504
▁summoned	-10.8512
cru	-10.8516
▁arrests	-10.852
▁Bra	-10.8525
▁revolt	-10.8525
▁solve	-10.8526
▁isolated	-10.8528
▁pose	-10.853
▁aerospace	-10.8532
▁hiding	-10.8532
▁Ph	-10.8535
▁worsening	-10.8538
▁drowned	-10.8539
▁obtained	-10.8546
80	-10.8547
▁participation	-10.8552
▁Orleans	-10.8559
▁seeks	-10.8562
▁du	-10.8566
▁4.5	-10.8568
▁ranks	-10.8573
▁Patrick	-10.8574
mat	-10.8579
▁poultry	-10.858
istic	-10.858
▁laureate	-10.8593
▁Karachi	-10.8593
▁toxic	-10.8594
ord	-10.8594
▁beach	-10.8594
nom	-10.8595
fu	-10.86
▁holds	-10.8601
▁Wenger	-10.8601
ama	-10.8601
rin	-10.8604
▁heightened	-10.8606
▁59	-10.8606
▁attacking	-10.8611
▁turnout	-10.8611
▁cult	-10.8613
cu	-10.8613
70	-10.8617
▁deadliest	-10.8621
▁nerve	-10.8621
▁abortion	-10.8622
▁hurricane	-10.8627
▁rural	-10.8627
▁6-1	-10.8632
▁promising	-10.8634
▁sun	-10.8638
▁defuse	-10.8639
▁deputies	-10.8641
▁exercises	-10.865
▁insists	-10.8651
▁virtually	-10.8651
vin	-10.8654
▁Industrial	-10.8655
▁warn	-10.8657
▁shortages	-10.8658
▁why	-10.8662
▁revenue	-10.8665
▁primary	-10.8675
▁native	-10.8675
▁Armenian	-10.868
yatollah	-10.8682
▁Obasanjo	-10.8682
▁Sol	-10.8684
▁programs	-10.8689
▁bidding	-10.869
▁jointly	-10.8691
▁amnesty	-10.8696
▁Talks	-10.8696
▁trail	-10.8698
▁Arsene	-10.8703
▁Detroit	-10.871
▁duty	-10.8711
coming	-10.8717
▁belt	-10.8718
▁am	-10.8719
▁Chan	-10.8721
▁Zagreb	-10.8724
▁either	-10.8724
cer	-10.8725
▁Togo	-10.8726
▁device	-10.873
▁mediator	-10.873
▁handover	-10.874
ack	-10.875
▁teammate	-10.8752
▁shoulder	-10.8754
▁dissidents	-10.8754
▁Anna	-10.8756
▁tighten	-10.8759
▁achieve	-10.8765
▁mountains	-10.8773
▁migrants	-10.8775
▁Bundesbank	-10.8779
og	-10.8785
▁analyst	-10.8792
Hyun	-10.88
▁challenges	-10.8805
▁transition	-10.8806
▁wine	-10.8809
▁sidelined	-10.8814
▁posed	-10.882
▁smaller	-10.8822
▁74	-10.8826
▁promise	-10.8831
▁awaiting	-10.8831
▁piece	-10.8831
▁airspace	-10.8835
▁especially	-10.8835
▁surface	-10.8835
▁wartime	-10.8835
▁Airport	-10.8837
plo	-10.8853
▁regions	-10.8854
22	-10.8856
▁Blackburn	-10.8856
▁decree	-10.8857
▁accounts	-10.8861
▁Kurdistan	-10.8863
▁hole	-10.8863
fin	-10.8869
▁application	-10.887
▁equity	-10.887
▁sound	-10.8872
▁decisive	-10.8872
▁master	-10.8875
ore	-10.8878
▁deported	-10.8881
▁Lin	-10.8884
▁Jacob	-10.8884
▁Prague	-10.8884
▁2005,	-10.8888
gr	-10.8888
▁96	-10.8892
▁3.6	-10.8899
▁Oluseg	-10.8905
▁motion	-10.8912
▁weight	-10.8913
▁pain	-10.8916
▁Key	-10.8918
▁acquisition	-10.8919
▁Tennis	-10.8919
▁rice	-10.892
▁Hall	-10.8921
two	-10.8929
▁confront	-10.8932
▁diplomacy	-10.8933
▁bourse	-10.8936
▁sect	-10.8937
cing	-10.8939
dom	-10.8939
rk	-10.8946
▁secur	-10.8947
▁downhill	-10.8949
▁sinking	-10.895
▁picture	-10.8951
▁doubled	-10.8952
▁priority	-10.8955
75	-10.8955
▁apart	-10.8956
▁sectors	-10.8957
cal	-10.8958
▁Harare	-10.8968
board	-10.8971
ense	-10.8972
▁Roy	-10.8974
▁tropical	-10.8975
▁hall	-10.8978
trust	-10.8979
▁ash	-10.8981
▁highlight	-10.8982
▁describ	-10.8984
▁Matt	-10.8984
▁Zemin	-10.8985
200	-10.8986
▁convention	-10.8988
▁listed	-10.8988
▁ruler	-10.8988
ova	-10.8988
▁fishermen	-10.8989
▁shootout	-10.8991
▁overthrow	-10.8994
▁FBI	-10.8997
▁defy	-10.8997
▁core	-10.8997
▁Government	-10.8998
▁alongside	-10.8999
▁neighbor	-10.8999
zu	-10.9002
▁sole	-10.9004
▁tobacco	-10.9004
▁rampage	-10.9009
▁violating	-10.9011
▁rapidly	-10.9014
tain	-10.9017
▁brac	-10.9018
▁ankle	-10.9018
▁flashpoint	-10.9025
▁raging	-10.9025
▁reopen	-10.9027
▁insurer	-10.9032
▁Men	-10.9035
▁pending	-10.9041
▁Barroso	-10.9046
▁beleaguered	-10.9046
fall	-10.9053
24	-10.9054
▁Island	-10.9055
wracked	-10.9057
▁nervous	-10.9061
▁nominee	-10.9061
▁destroy	-10.9067
Russian	-10.9068
sponsored	-10.9069
▁2009,	-10.9069
GDP	-10.9073
▁Pierre	-10.9074
▁Helmut	-10.9075
ski	-10.9076
▁controlled	-10.9079
▁trains	-10.9079
act	-10.9082
▁firefighters	-10.9084
▁2007,	-10.9084
▁roll	-10.9089
▁consequences	-10.9093
sch	-10.9097
▁mourning	-10.9098
▁poorest	-10.9101
ball	-10.9102
▁outfit	-10.9102
▁outskirts	-10.9104
▁enlargement	-10.9104
▁consulate	-10.9104
▁walked	-10.9108
▁served	-10.911
▁chemicals	-10.9118
▁overshadowed	-10.9118
▁Bashar	-10.9118
▁Macedonia	-10.9119
▁Tunisia	-10.9123
▁quest	-10.9124
▁riding	-10.9129
stone	-10.9136
face	-10.9137
▁Hewitt	-10.9139
▁Don	-10.914
xi	-10.9142
▁Yo	-10.9142
▁upheld	-10.9145
▁commit	-10.9145
▁makers	-10.9147
▁Shi	-10.9155
▁71	-10.9159
▁conducted	-10.9159
▁unveil	-10.9162
ase	-10.9162
▁pave	-10.9166
▁count	-10.9169
▁towns	-10.9172
▁undergo	-10.9172
▁don	-10.9173
▁born	-10.9173
administered	-10.9176
▁inaugural	-10.9176
▁sluggish	-10.9176
▁blam	-10.9176
▁firmly	-10.9177
▁mad	-10.9178
▁Val	-10.9178
▁hammer	-10.918
▁77	-10.9182
▁Moo	-10.9183
▁mind	-10.9185
▁Je	-10.9186
60	-10.9196
most	-10.9197
▁Economy	-10.9204
▁Stockholm	-10.9204
▁Bowl	-10.9205
▁midnight	-10.9205
▁punishment	-10.9206
▁Aston	-10.9208
▁reward	-10.9208
▁sure	-10.9219
▁disrupted	-10.9222
▁bigger	-10.9228
▁Moslems	-10.9229
mis	-10.9229
▁acts	-10.9231
▁harsh	-10.9233
▁fi	-10.9237
▁agreeing	-10.9238
▁prop	-10.9242
▁complaints	-10.9243
NA	-10.9244
▁whole	-10.9246
rat	-10.926
went	-10.9263
▁perfect	-10.9264
cho	-10.9267
▁Poor	-10.9269
▁dealt	-10.927
die	-10.9273
▁73	-10.9274
▁monitors	-10.9276
▁lows	-10.9277
▁m	-10.9279
▁warring	-10.9281
ano	-10.9282
▁Lech	-10.9283
▁Venus	-10.9285
▁sharing	-10.9286
▁mini	-10.9287
▁stamp	-10.9289
▁Twickenham	-10.9292
pl	-10.9292
▁informed	-10.9293
▁stone	-10.9297
▁story	-10.9299
▁knocked	-10.93
▁paying	-10.9306
▁Toronto	-10.9306
▁unexpectedly	-10.9313
▁steer	-10.9314
▁sailors	-10.9318
▁Industries	-10.9319
▁broker	-10.9327
▁male	-10.9329
▁Roland	-10.9331
▁warship	-10.9333
▁1992	-10.9337
▁boxing	-10.9346
▁Ken	-10.935
▁Oman	-10.9351
▁seeing	-10.9352
iya	-10.9354
▁commanders	-10.9357
▁shop	-10.9357
▁retained	-10.9361
slav	-10.9362
gn	-10.9363
ira	-10.9363
ugh	-10.9371
▁jersey	-10.9372
▁silver	-10.9372
ale	-10.9373
▁Mohamad	-10.938
▁add	-10.9384
▁platform	-10.9387
▁Gar	-10.9388
400	-10.9391
▁overwhelmingly	-10.9392
▁Kurds	-10.9393
▁feel	-10.9394
▁worse	-10.9395
▁greenback	-10.9396
some	-10.9407
lam	-10.9408
▁Klaus	-10.9409
▁3.0	-10.9411
▁dropping	-10.9411
▁basketball	-10.9417
▁businessmen	-10.9417
▁spark	-10.9418
▁prevented	-10.942
dar	-10.9421
▁society	-10.9424
ien	-10.943
▁petrol	-10.9431
▁abduction	-10.9433
▁(8	-10.9434
card	-10.9439
▁condemnation	-10.944
▁bonds	-10.9441
▁hinted	-10.9446
▁vaccine	-10.9446
▁Palace	-10.9447
▁willing	-10.9447
▁Ol	-10.9448
season	-10.9453
▁Britons	-10.9454
▁Mussa	-10.9457
▁damages	-10.9457
▁Honda	-10.946
dal	-10.9472
▁rescuers	-10.9474
▁disappeared	-10.9475
▁attract	-10.9476
ich	-10.9476
border	-10.9477
▁Carter	-10.948
▁tightened	-10.948
▁congress	-10.9489
▁shared	-10.9489
rad	-10.9489
▁austerity	-10.9491
ridden	-10.9491
▁reopened	-10.9494
▁Carlo	-10.9498
▁Liberal	-10.9498
▁retire	-10.9501
▁Warsaw	-10.9506
▁1,500	-10.9506
▁refuse	-10.951
▁Ber	-10.9511
▁stretch	-10.9512
SA	-10.9518
bel	-10.9518
▁chair	-10.952
37	-10.9523
▁Roberto	-10.9527
▁Non	-10.9529
ose	-10.9533
ib	-10.9534
▁fr	-10.9536
▁kidnappers	-10.9536
▁2.6	-10.9537
▁Republicans	-10.9539
▁Stade	-10.954
▁intensified	-10.9543
▁pandemic	-10.9543
▁Par	-10.9544
▁Mahathir	-10.9551
▁medals	-10.9556
▁torrent	-10.9558
▁Her	-10.9559
▁qualify	-10.957
▁Lleyt	-10.9574
▁earn	-10.9574
▁Tra	-10.958
▁diamond	-10.9581
▁emerge	-10.9584
ica	-10.9585
▁Kan	-10.9588
▁cement	-10.9589
▁submitted	-10.9589
▁Eritrea	-10.959
ena	-10.9593
▁Char	-10.9595
▁Portsmouth	-10.9596
▁kind	-10.9596
ranking	-10.96
▁racial	-10.9603
▁publisher	-10.9605
oon	-10.9607
▁Miguel	-10.9611
▁Horn	-10.9613
▁repeated	-10.9618
▁arriving	-10.9619
▁sporting	-10.962
▁options	-10.9621
▁dog	-10.9623
▁electronic	-10.9624
▁Ye	-10.9625
▁Birmingham	-10.9634
▁Christians	-10.9637
▁touch	-10.9637
▁Programme	-10.9642
▁horse	-10.9643
▁crossed	-10.9644
▁resolved	-10.9644
▁reverse	-10.9646
▁Bolivia	-10.9649
▁strongman	-10.9653
IC	-10.9658
▁jitters	-10.9664
▁Crown	-10.9664
▁Bel	-10.9664
espite	-10.9671
▁burned	-10.9671
▁distribution	-10.9672
▁organizers	-10.9672
▁temperatures	-10.9672
▁specialist	-10.9673
▁borders	-10.9674
▁2.7	-10.9677
▁violation	-10.9678
▁78	-10.9679
▁tipped	-10.9679
▁Eleven	-10.968
▁encourage	-10.9683
▁6-1,	-10.9684
▁knock	-10.9684
seeded	-10.9685
▁Najaf	-10.9687
▁alcohol	-10.9694
▁medallist	-10.9695
▁inspired	-10.9699
▁relegation	-10.9702
▁species	-10.9702
▁2-2	-10.9703
▁2006,	-10.9703
night	-10.9705
▁wounds	-10.9707
▁extreme	-10.9709
▁foiled	-10.971
▁permission	-10.971
▁article	-10.9717
▁united	-10.9719
▁95	-10.9719
eological	-10.9722
▁politically	-10.9723
▁customers	-10.9723
rri	-10.9723
▁medicine	-10.9725
▁Cheney	-10.9726
▁Ter	-10.9729
▁correct	-10.9733
▁rumours	-10.9734
▁publicly	-10.9734
▁alone	-10.9737
▁murders	-10.9739
▁socialist	-10.9745
▁6-0	-10.9748
security	-10.9749
▁ability	-10.9749
▁legendary	-10.975
▁controls	-10.9755
▁fake	-10.9757
▁tariffs	-10.977
▁promises	-10.977
▁disappointment	-10.9771
▁resist	-10.9772
non	-10.9772
▁experience	-10.9775
▁(10	-10.9776
▁communities	-10.9778
▁supplier	-10.9778
▁Sven	-10.9784
▁declaring	-10.9786
06	-10.9786
▁Armstrong	-10.9794
▁greenhouse	-10.9794
mor	-10.98
▁Pop	-10.9801
top	-10.9801
▁sight	-10.9803
▁revenues	-10.9813
▁Power	-10.9817
100	-10.9818
▁employee	-10.982
▁signalled	-10.9821
ld	-10.9827
vian	-10.9828
ert	-10.983
▁campaigning	-10.9832
▁weapon	-10.9834
▁institutional	-10.9843
▁aggressive	-10.9847
▁Cal	-10.9848
trick	-10.9848
▁complained	-10.9853
▁Roddick	-10.9855
▁lawless	-10.9855
▁duties	-10.9855
▁textile	-10.9856
▁regulator	-10.9856
cker	-10.9857
Ba	-10.9861
▁EADS	-10.9863
▁ANSA	-10.9863
▁defied	-10.9863
▁staging	-10.9863
roll	-10.9867
▁upper	-10.9873
▁cat	-10.9876
▁strip	-10.9879
▁dragged	-10.9879
▁agricultural	-10.988
23	-10.9881
▁If	-10.9885
▁rebellion	-10.9886
▁users	-10.9887
▁gunned	-10.9888
▁She	-10.989
▁84	-10.9894
▁strengthening	-10.9897
ray	-10.9902
▁size	-10.9902
▁upward	-10.9906
▁fixed	-10.9909
▁defiance	-10.991
▁foes	-10.9916
▁section	-10.9921
▁boats	-10.9937
▁Ci	-10.9937
awa	-10.9943
▁code	-10.9946
-16	-10.9948
▁covering	-10.995
▁my	-10.9956
▁Chrysler	-10.9956
gro	-10.9959
▁Gul	-10.996
▁Home	-10.9962
sel	-10.9963
▁telling	-10.9963
▁1989	-10.9965
AS	-10.9966
▁mob	-10.9967
▁pump	-10.997
▁containing	-10.9971
▁Wi	-10.9972
▁lethal	-10.9973
▁Ismail	-10.998
fic	-10.9982
mber	-10.9983
▁producing	-10.9987
▁elsewhere	-10.9988
▁fever	-10.999
▁freestyle	-10.9992
bank	-10.9993
▁holders	-10.9994
▁Strait	-10.9996
▁tri	-10.9996
lar	-10.9997
dd	-10.9998
▁(12	-10.9998
▁overturned	-10.9998
shock	-11.0014
▁Kobe	-11.0014
▁mysterious	-11.0019
▁communications	-11.0021
cap	-11.0024
▁expel	-11.0025
▁3.2	-11.0025
▁bit	-11.0027
▁Ramallah	-11.0027
▁publishing	-11.0027
-2	-11.0027
▁distance	-11.003
▁investments	-11.0031
lia	-11.0032
▁shocked	-11.0033
del	-11.004
44	-11.0041
los	-11.0042
strapped	-11.0044
▁reduc	-11.0044
▁passing	-11.0044
▁exporters	-11.0045
stricken	-11.0045
▁spring	-11.0052
▁cents	-11.0054
room	-11.006
▁teachers	-11.0063
ram	-11.0064
▁engaged	-11.0064
▁divisions	-11.0067
▁hanged	-11.0069
▁quell	-11.0074
▁ASEAN	-11.008
▁atrocities	-11.0082
▁contribution	-11.0082
▁participate	-11.0082
▁6,	-11.0085
jan	-11.0085
▁headline	-11.0089
▁17-	-11.009
▁Industry	-11.009
▁stunned	-11.009
▁gets	-11.0092
ctor	-11.0093
▁Thirty	-11.0098
pol	-11.0102
▁raged	-11.0102
ification	-11.0104
▁slid	-11.0105
▁yellow	-11.0106
▁spotlight	-11.0106
emi	-11.0116
▁smoke	-11.0121
▁Jim	-11.0123
▁carbon	-11.0124
ett	-11.0129
▁Srebrenica	-11.013
▁engulf	-11.013
▁Akbar	-11.013
more	-11.013
▁IRA	-11.0132
wood	-11.0134
▁unexpected	-11.0136
▁watching	-11.0137
▁besieged	-11.0138
▁soccer	-11.0138
▁Manmoha	-11.0138
▁detected	-11.0143
▁tracking	-11.0144
▁Protestant	-11.0146
▁cinema	-11.0146
▁confrontation	-11.0147
▁Balkans	-11.0153
▁Eric	-11.0155
▁rand	-11.016
▁qualifiers	-11.0165
28	-11.0165
▁fill	-11.0167
▁agreements	-11.0167
▁Ch	-11.0177
▁acquitted	-11.0178
▁bi	-11.0184
▁cigarette	-11.0185
bit	-11.0186
▁employers	-11.0191
▁accounting	-11.0192
Zarqawi	-11.0193
▁gasoline	-11.0193
▁convert	-11.0194
eer	-11.0197
▁animals	-11.0201
▁110	-11.0202
-10	-11.0207
▁ordering	-11.0208
▁dumped	-11.0208
▁throw	-11.0211
▁Fiat	-11.0211
▁Yasu	-11.0212
▁Uruguay	-11.0214
▁Kaczynski	-11.0217
▁globe	-11.0225
▁88	-11.0229
▁Wa	-11.0229
▁Aristide	-11.0234
▁Dublin	-11.0234
▁effectively	-11.0234
▁barely	-11.0236
ction	-11.0238
▁piracy	-11.0239
Ma	-11.0239
▁shape	-11.0242
▁prayers	-11.0242
▁systems	-11.0243
▁astronauts	-11.0248
gy	-11.0248
▁0-0	-11.025
▁grab	-11.0251
▁Lula	-11.0253
▁incoming	-11.0264
▁Albert	-11.027
▁Samoa	-11.0276
▁apartheid	-11.0282
▁capable	-11.0284
▁booked	-11.0292
▁works	-11.0292
ola	-11.0292
lov	-11.0294
▁Severe	-11.0295
▁Pra	-11.0296
▁meant	-11.0297
▁word	-11.0297
▁Valencia	-11.0298
▁manufacturers	-11.0299
▁Java	-11.0306
▁se	-11.0306
▁le	-11.0313
▁Honduras	-11.0314
▁clock	-11.0315
▁Tutsi	-11.0322
▁Samsung	-11.0322
▁obtain	-11.0322
▁Mont	-11.0342
▁reserve	-11.0343
▁Shane	-11.0349
29	-11.035
▁flash	-11.0353
▁Hanoi	-11.0355
▁scientist	-11.0355
▁autonomous	-11.036
mann	-11.0362
antas	-11.0363
▁Greenspan	-11.0363
▁Forum	-11.0365
▁Hashimoto	-11.0371
▁criminals	-11.0376
rag	-11.0379
▁Discovery	-11.0387
▁felt	-11.0387
38	-11.0387
▁holed	-11.0389
shed	-11.0391
▁Murray	-11.0395
▁Jimmy	-11.0396
▁tied	-11.0404
▁popularity	-11.0408
▁Inacio	-11.0412
▁50,000	-11.0414
▁spur	-11.0416
▁condemn	-11.0419
▁Armenia	-11.0423
42	-11.0424
▁Agriculture	-11.0428
▁pilgrimage	-11.0428
▁preventing	-11.0429
hood	-11.043
▁22-	-11.0435
▁Division	-11.0437
▁Der	-11.0439
▁rolled	-11.044
▁undergoing	-11.0441
▁Athletics	-11.0442
▁consolidated	-11.0443
rated	-11.0444
▁lingering	-11.0444
▁places	-11.0448
gun	-11.0449
▁Bal	-11.0451
▁uncertain	-11.0452
▁Nablus	-11.0453
▁established	-11.0455
▁faith	-11.0456
09	-11.0467
▁Pla	-11.0469
▁CNN	-11.0469
▁fa	-11.0474
▁4,000	-11.0478
▁opens	-11.0479
▁map	-11.0481
▁swing	-11.0484
burg	-11.0487
27	-11.049
▁asking	-11.0493
▁Didier	-11.0502
▁Syndrome	-11.0502
▁designer	-11.0506
▁disruption	-11.0508
▁fallout	-11.0511
▁gr	-11.0511
action	-11.0513
▁fields	-11.0514
▁handing	-11.0521
▁Ricky	-11.0522
▁confirming	-11.0523
▁corner	-11.0526
▁aftermath	-11.0527
▁dismiss	-11.0532
▁reaffirmed	-11.0534
▁switch	-11.0536
▁Fein	-11.0537
▁82	-11.0545
▁Amr	-11.0548
▁trucks	-11.0548
▁recommended	-11.0548
▁undermine	-11.0557
speed	-11.0559
▁ElBaradei	-11.056
ition	-11.0561
▁witnessed	-11.0562
▁merge	-11.0563
▁cyclist	-11.0568
▁digital	-11.0568
▁guide	-11.057
▁Angolan	-11.057
lock	-11.0573
League	-11.0574
▁Long	-11.0574
▁Fo	-11.0576
▁Ryutar	-11.0577
▁Sinn	-11.0577
aries	-11.0577
▁topped	-11.0579
▁Mah	-11.0579
▁2.8	-11.0584
▁survival	-11.0585
▁basic	-11.0585
▁returns	-11.0585
08	-11.0587
are	-11.0588
96	-11.059
armed	-11.0591
▁option	-11.0592
▁Mauritania	-11.0596
▁Sc	-11.0597
eva	-11.0601
▁ringgit	-11.0602
▁Challenge	-11.061
▁farewell	-11.061
▁concrete	-11.061
▁waited	-11.0615
bil	-11.0618
▁deeply	-11.0619
IMF	-11.0624
▁pressing	-11.0633
▁Twelve	-11.0635
▁detail	-11.0635
mark	-11.0641
▁Houston	-11.0643
▁outlawed	-11.0646
▁Road	-11.0646
▁Petersburg	-11.0652
▁steam	-11.0652
▁celebrating	-11.066
▁consumption	-11.066
▁pursuit	-11.066
▁rulers	-11.066
▁Rescuers	-11.0661
▁fix	-11.0663
dan	-11.0664
mobil	-11.0666
▁Fu	-11.0667
gui	-11.0668
▁victories	-11.0668
▁persistent	-11.0669
▁Bond	-11.0674
▁temple	-11.0677
▁topple	-11.0677
▁treat	-11.0677
▁derail	-11.0678
▁hill	-11.0679
▁Tha	-11.0682
▁reason	-11.0689
▁possession	-11.0694
UN	-11.0696
hui	-11.0696
ili	-11.0698
▁Lagos	-11.0702
▁sick	-11.0705
ged	-11.071
▁fish	-11.0713
▁marginally	-11.0713
yu	-11.0716
▁sleep	-11.0719
▁Burmese	-11.0719
▁Bro	-11.0719
▁competitive	-11.0724
▁Taipei	-11.0727
▁Hamburg	-11.0728
▁operate	-11.073
65	-11.0733
▁entertainment	-11.0736
▁Electronics	-11.0742
Syrian	-11.0742
▁poisoning	-11.0744
▁enjoyed	-11.0745
▁stages	-11.0752
▁liquidity	-11.0753
▁doors	-11.0759
▁Johannesburg	-11.0761
cul	-11.0764
▁30,000	-11.0764
▁Nepalese	-11.0771
bed	-11.0773
▁gunbattle	-11.0778
▁4-1	-11.0791
cost	-11.0793
▁Hun	-11.0797
▁salvage	-11.0803
AIDS	-11.081
▁Amsterdam	-11.0812
▁Villepin	-11.0812
▁partly	-11.0814
ata	-11.0814
43	-11.0816
▁Voters	-11.0821
ave	-11.0825
▁makes	-11.0826
▁92	-11.0828
▁Columbia	-11.0829
▁berth	-11.0829
AT	-11.0829
▁holidays	-11.083
▁pounded	-11.0832
▁evacuate	-11.0835
century	-11.0836
▁stabbed	-11.0838
Ghali	-11.0838
with	-11.0839
▁Bre	-11.084
▁slight	-11.0841
▁feature	-11.0842
▁required	-11.0844
▁throwing	-11.0848
▁transferred	-11.0848
47	-11.0848
▁Kha	-11.0848
nal	-11.085
▁opponent	-11.085
▁anticipated	-11.0851
▁tell	-11.0852
▁appoint	-11.0854
▁Tripoli	-11.0855
▁pneumonia	-11.0855
tte	-11.0857
▁Art	-11.0861
General	-11.0862
▁Tajikistan	-11.0863
▁Arnold	-11.0863
PA	-11.0867
▁Gary	-11.0869
▁Player	-11.0869
▁faster	-11.0869
▁integration	-11.0871
▁Owen	-11.0872
▁lobby	-11.0874
hn	-11.0874
▁cartoons	-11.0876
▁endorsed	-11.0877
ua	-11.088
▁tender	-11.0882
▁disc	-11.0884
▁SA	-11.0886
380	-11.0886
36	-11.0887
▁Mag	-11.0887
▁4-0	-11.0889
▁restrict	-11.089
▁Pool	-11.0892
TA	-11.0897
▁Lukashenko	-11.0897
▁judiciary	-11.0897
keeper	-11.0898
▁dark	-11.0898
▁apologised	-11.0902
▁Kabila	-11.0906
▁condemning	-11.0906
▁Moody	-11.0907
▁shortage	-11.0908
▁restart	-11.091
ium	-11.091
rav	-11.0915
▁Deng	-11.0917
▁alleg	-11.0918
wal	-11.0921
▁Business	-11.0923
▁dipped	-11.0924
▁ticket	-11.0929
▁Wallabies	-11.0932
aging	-11.0932
table	-11.0939
▁Mourinho	-11.094
▁apology	-11.094
▁maiden	-11.0942
▁lit	-11.095
▁managing	-11.0961
ada	-11.0962
▁Wang	-11.0963
▁sexually	-11.0974
▁require	-11.0974
stroke	-11.0976
ditch	-11.0979
▁alternative	-11.0984
▁existing	-11.0986
▁Pri	-11.0987
▁pictures	-11.0988
▁strained	-11.0989
▁testimony	-11.0992
▁Kar	-11.0993
cr	-11.0997
oni	-11.0998
▁trials	-11.1008
▁divorce	-11.101
European	-11.101
▁83	-11.1018
▁Agassi	-11.1018
▁recruit	-11.1019
cor	-11.1019
▁fan	-11.102
▁selection	-11.1026
▁mystery	-11.1027
▁Igor	-11.1028
▁praise	-11.1033
▁landmine	-11.1036
▁verge	-11.1036
▁pool	-11.1039
gli	-11.1039
▁burning	-11.1042
real	-11.1044
▁Fischer	-11.1044
▁forthcoming	-11.1044
▁objections	-11.1045
▁root	-11.1045
test	-11.1046
▁ravaged	-11.1047
▁Lavrov	-11.1053
▁Bombay	-11.1053
▁Zuma	-11.1053
39	-11.1054
yer	-11.1054
▁Media	-11.1057
ush	-11.1058
▁bow	-11.1059
▁accords	-11.1062
▁wages	-11.1069
▁cholera	-11.107
▁Kennedy	-11.1071
▁nominated	-11.1071
ended	-11.1075
▁Disney	-11.1079
▁punish	-11.1082
ink	-11.1087
pic	-11.1087
wicket	-11.1088
country	-11.1088
▁Prosecutors	-11.1088
▁smoking	-11.109
rit	-11.1094
▁23-	-11.1095
▁pledg	-11.1095
▁Mario	-11.1096
▁easy	-11.1097
▁substantial	-11.1097
▁comm	-11.1097
elli	-11.1098
▁scandals	-11.11
▁withdrawing	-11.11
▁sum	-11.1104
▁knife	-11.1105
▁flock	-11.1106
▁81	-11.1108
▁deeper	-11.1109
▁saved	-11.1111
▁Respir	-11.1114
▁journey	-11.1114
▁awards	-11.1118
▁Jenin	-11.1123
ville	-11.1123
▁securities	-11.1123
yn	-11.113
▁Suharto	-11.1132
▁Vancouver	-11.1132
▁FC	-11.1133
▁recognise	-11.1134
▁Ivanov	-11.1134
▁grim	-11.1134
▁identity	-11.1141
▁urban	-11.1141
▁permit	-11.1148
▁Marine	-11.1149
lla	-11.115
▁clearing	-11.1152
▁Ron	-11.1152
▁bag	-11.1153
▁diver	-11.1156
▁Bernanke	-11.1158
▁Rooney	-11.1158
hunting	-11.1159
▁famed	-11.1163
▁disputes	-11.1164
▁intervene	-11.1164
▁roof	-11.1167
▁Rain	-11.1168
▁actions	-11.1168
▁86	-11.117
bur	-11.117
ric	-11.1173
▁dominant	-11.1176
▁error	-11.1176
▁teacher	-11.118
▁Final	-11.1181
lip	-11.1182
live	-11.1182
▁fu	-11.1182
▁skiing	-11.1184
▁posts	-11.1184
▁Paraguay	-11.1185
▁Dennis	-11.1185
▁transit	-11.1186
▁bout	-11.1188
▁denying	-11.119
▁replacing	-11.1202
hile	-11.1209
▁Musa	-11.1209
ching	-11.121
▁utility	-11.1211
▁ransom	-11.1211
▁unilateral	-11.1213
▁confirmation	-11.1213
▁plunging	-11.122
▁proceedings	-11.1221
▁neck	-11.1222
▁Th	-11.1223
▁Cu	-11.1227
▁household	-11.123
▁refuge	-11.1231
ern	-11.1242
▁boys	-11.1243
dle	-11.1243
▁Miller	-11.1245
▁inventories	-11.1247
▁retaliation	-11.1247
▁shelling	-11.1249
▁sees	-11.1253
48	-11.1259
▁rebuilding	-11.1262
▁estimates	-11.1263
▁expense	-11.1264
▁Henin	-11.1264
ea	-11.1267
▁sky	-11.1271
▁Opposition	-11.1273
▁Ramadan	-11.1273
Pierre	-11.1274
92	-11.1278
▁commuter	-11.1282
▁Town	-11.1283
▁disastrous	-11.1287
▁destroying	-11.1288
pped	-11.1298
▁margin	-11.1298
▁finishing	-11.1299
▁posting	-11.1299
▁Revolutionary	-11.13
▁Wal	-11.1301
99	-11.1303
lly	-11.1312
tting	-11.1313
▁searched	-11.1321
▁Hamilton	-11.1327
▁severely	-11.1328
▁refinery	-11.1329
▁dam	-11.1332
▁su	-11.1335
▁yield	-11.1336
▁2010,	-11.1336
▁pm	-11.1337
▁exporter	-11.134
▁2002,	-11.134
▁tightening	-11.1341
▁extraordinary	-11.1344
2,000	-11.1345
▁Rafah	-11.1346
▁200,000	-11.1348
Nations	-11.1348
▁Zapatero	-11.1354
▁dubbed	-11.1354
lies	-11.1356
▁Officials	-11.1356
▁limits	-11.1356
▁song	-11.1357
play	-11.1359
▁Sar	-11.1361
▁haven	-11.1362
▁HSBC	-11.1363
▁hanging	-11.1365
▁Reign	-11.1366
▁lot	-11.1367
▁ignored	-11.1368
▁exposed	-11.1374
▁prior	-11.138
▁bishop	-11.138
▁contingent	-11.1381
pin	-11.1382
▁networks	-11.1382
▁drinking	-11.1382
▁87	-11.1383
▁forge	-11.1388
▁sponsor	-11.1388
▁Kirkuk	-11.139
▁volcan	-11.1392
▁testify	-11.1394
ON	-11.1396
▁learn	-11.1396
▁Big	-11.1398
▁whale	-11.1399
▁Members	-11.1401
▁Team	-11.1402
laden	-11.1402
▁page	-11.1402
▁2.9	-11.1406
gra	-11.1408
▁Rock	-11.1411
97	-11.1417
▁administrator	-11.1417
41	-11.1417
▁inject	-11.142
▁cheer	-11.1421
▁feeling	-11.1422
▁Sharapova	-11.1426
don	-11.1428
ssa	-11.1429
▁Adam	-11.143
▁spike	-11.1436
▁downtown	-11.1438
yan	-11.1443
▁Philadelphia	-11.1444
▁Edward	-11.1444
found	-11.1446
▁theatre	-11.1446
▁adjourned	-11.1447
▁heir	-11.1448
▁youngest	-11.1452
▁Ryder	-11.1453
▁assistant	-11.1456
▁marines	-11.1457
til	-11.1458
▁charter	-11.146
▁married	-11.1462
▁tidal	-11.1462
▁keen	-11.1462
▁implementation	-11.1464
▁notice	-11.1465
32	-11.1467
▁Slovak	-11.1469
▁regulations	-11.147
known	-11.1471
▁Ossetia	-11.1471
▁Trichet	-11.1471
▁Command	-11.1471
▁seizure	-11.1472
▁Diana	-11.1473
▁(9	-11.1474
▁Middlesbrough	-11.148
gal	-11.1482
▁Gas	-11.1484
▁reality	-11.1485
▁extremism	-11.1489
▁painting	-11.1493
nie	-11.1493
▁wish	-11.1497
▁Welsh	-11.1499
▁Terry	-11.15
▁swift	-11.15
▁inspector	-11.1502
▁televised	-11.1508
▁sudden	-11.1509
▁developments	-11.1511
▁engineer	-11.1525
▁Democracy	-11.1535
▁kilograms	-11.1536
▁Cho	-11.1541
▁Anders	-11.1543
▁architect	-11.1544
▁petition	-11.1544
▁Wigan	-11.1545
▁Vajpayee	-11.1553
▁imposing	-11.1553
▁Ser	-11.156
▁descend	-11.1563
ene	-11.1564
▁admits	-11.1567
▁Bur	-11.1569
▁Sheffield	-11.1572
▁strengthened	-11.1573
▁wealth	-11.1573
Dutch	-11.1574
▁breath	-11.1575
ency	-11.1581
▁Fulham	-11.1581
▁hail	-11.1585
▁timetable	-11.1587
▁Second	-11.159
▁Rudd	-11.1591
▁Mel	-11.1592
▁toppled	-11.1594
eb	-11.1598
▁Over	-11.16
▁Oslo	-11.16
bri	-11.1601
▁rig	-11.1603
33	-11.1605
game	-11.161
▁seeded	-11.1612
▁pack	-11.1616
arm	-11.1618
▁cancellation	-11.1618
ace	-11.1621
▁3.1	-11.1625
▁welfare	-11.1627
mel	-11.1628
▁Sao	-11.1628
wed	-11.163
rc	-11.1632
▁bonus	-11.1633
07	-11.1635
▁scrapped	-11.1637
▁finances	-11.1645
▁formation	-11.1647
▁sovereign	-11.1654
▁Ur	-11.1654
▁acquired	-11.1654
▁serial	-11.1655
▁talent	-11.1655
▁eyes	-11.1656
▁Amman	-11.166
▁accession	-11.166
▁speak	-11.1662
▁Justine	-11.1662
▁conspiracy	-11.1673
▁county	-11.1674
▁Sumatra	-11.1682
▁Graham	-11.1683
general	-11.1685
▁handle	-11.1687
17	-11.1687
▁circuit	-11.1692
▁bright	-11.1693
▁flown	-11.1694
34	-11.1699
▁promoting	-11.1701
▁licence	-11.1701
▁Abe	-11.1703
▁Sur	-11.1704
▁lacklustre	-11.171
▁materials	-11.171
▁films	-11.1714
▁shareholder	-11.1714
west	-11.1716
▁qualified	-11.172
▁stripped	-11.172
▁8,	-11.1727
▁Scoreboard	-11.1729
braced	-11.1743
stan	-11.1744
▁Estonian	-11.1748
▁supermarket	-11.1748
py	-11.1749
▁debts	-11.1751
▁indefinitely	-11.1753
▁Lions	-11.1753
ably	-11.1754
▁tortured	-11.1755
▁notably	-11.1758
▁hikes	-11.1765
▁Shin	-11.1766
▁archipelago	-11.1766
▁Bri	-11.1769
▁uncovered	-11.1772
▁angrily	-11.1776
▁happy	-11.1776
▁gate	-11.1777
▁upon	-11.1777
uz	-11.178
▁Forces	-11.178
▁treason	-11.1781
▁footballer	-11.1783
▁rises	-11.1783
▁operators	-11.1787
▁Fabio	-11.1794
▁Gabon	-11.1795
▁Tommy	-11.1795
▁workforce	-11.1796
▁surrendered	-11.1799
lli	-11.1799
▁Zambian	-11.1803
▁trophy	-11.1804
▁pray	-11.1804
▁Grae	-11.1806
▁critic	-11.1808
▁Germain	-11.1809
▁Dallas	-11.1813
▁symbolic	-11.1814
▁bullet	-11.1815
▁maximum	-11.1819
▁500,000	-11.182
▁Atal	-11.1823
▁academic	-11.1823
▁hemisphere	-11.1823
9,000	-11.1823
▁Stanley	-11.1823
had	-11.183
▁Laos	-11.1834
▁irregularities	-11.1836
▁violated	-11.1839
▁27-	-11.1841
▁Benitez	-11.1841
▁Typhoon	-11.1841
▁recognition	-11.1841
▁mar	-11.1841
brokered	-11.1845
sky	-11.1847
▁birdie	-11.185
▁Sho	-11.1851
▁89	-11.1859
▁Securities	-11.186
▁automatic	-11.1861
▁assessment	-11.1863
▁requested	-11.1869
PC	-11.1879
Thierry	-11.1879
▁comply	-11.188
▁herself	-11.1881
▁mediators	-11.1882
▁k	-11.1887
▁directly	-11.1889
▁Lakers	-11.189
▁declines	-11.1893
▁concessions	-11.1894
cur	-11.1895
▁Tigers	-11.1896
▁helm	-11.1899
▁Andrei	-11.1899
cial	-11.19
▁destination	-11.1908
AR	-11.1909
▁Perry	-11.191
▁91	-11.1918
▁inauguration	-11.1927
▁restraint	-11.1927
▁mood	-11.1927
▁Miss	-11.1929
▁pledges	-11.1932
▁Ross	-11.1936
mmer	-11.1941
▁powerhouse	-11.1943
▁Alvaro	-11.1946
▁extradited	-11.1947
▁impasse	-11.1955
direct	-11.196
▁survive	-11.1963
▁Eriksson	-11.1965
▁Fri	-11.1971
bon	-11.1973
▁payment	-11.1973
▁Liu	-11.1978
appointed	-11.1978
▁convince	-11.1982
▁surveillance	-11.1984
Sabah	-11.1985
▁batting	-11.1986
▁Nor	-11.1986
▁climb	-11.1992
▁Kandahar	-11.1994
▁Dhaka	-11.2003
▁disciplinar	-11.2003
▁substance	-11.2003
nan	-11.2005
▁critically	-11.2013
▁volumes	-11.2014
oe	-11.2014
▁Ve	-11.2021
▁Attorney	-11.2022
▁cited	-11.2022
▁Land	-11.2023
▁3.4	-11.2025
▁pin	-11.203
▁franc	-11.2032
▁floor	-11.2032
▁Juppe	-11.2041
▁flames	-11.2043
▁spin	-11.2053
▁laundering	-11.2057
▁Nasdaq	-11.2061
▁bureau	-11.2061
▁computers	-11.2064
▁programmes	-11.2069
▁Er	-11.2074
▁bankrupt	-11.2076
13	-11.2077
▁hospitalised	-11.2078
▁magistrate	-11.208
▁milk	-11.208
▁Abkhazia	-11.2088
▁jungle	-11.209
▁coverage	-11.2091
▁provinces	-11.2096
▁Mat	-11.2098
ICC	-11.2103
▁sacking	-11.2103
▁bribery	-11.211
▁exploration	-11.2119
▁bottle	-11.2119
kar	-11.2119
▁hotels	-11.212
▁flooded	-11.2121
zone	-11.2122
try	-11.2123
▁(15	-11.2124
▁(11	-11.2124
▁Sebasti	-11.2124
▁4.0	-11.2125
▁extradite	-11.2127
▁comprehensive	-11.2129
pon	-11.2129
▁Sahara	-11.213
▁anyone	-11.2132
▁highlighted	-11.2133
▁Storm	-11.2134
▁79	-11.2135
▁wider	-11.2146
▁Nissan	-11.2148
▁shops	-11.2149
▁Doha	-11.2153
▁magnitude	-11.2156
rou	-11.2157
▁enemy	-11.2158
03	-11.2158
▁neo	-11.2162
▁replacement	-11.2164
▁provider	-11.2165
▁Sports	-11.2165
▁3.7	-11.2166
▁exclusive	-11.2167
▁Philip	-11.2169
▁featur	-11.2173
▁legislators	-11.2174
▁dance	-11.2181
55	-11.2184
▁tactics	-11.2184
▁encouraging	-11.2185
▁disappearance	-11.2187
hir	-11.219
cus	-11.2192
SARS	-11.2203
amp	-11.2204
▁disperse	-11.2207
▁hijack	-11.2208
▁meat	-11.2208
▁rioting	-11.2211
▁contracted	-11.2218
▁cheap	-11.2219
▁enable	-11.2221
▁pregnant	-11.2226
▁ratify	-11.2226
tta	-11.2227
aki	-11.2229
wear	-11.223
▁3.3	-11.2233
▁sprinter	-11.2234
lle	-11.2234
▁wealthy	-11.2234
▁Transport	-11.2235
▁Telekom	-11.2236
▁structure	-11.2236
▁Index	-11.2236
▁drone	-11.2236
▁challenged	-11.2244
▁hosting	-11.2245
▁depend	-11.2246
▁wag	-11.2247
bomb	-11.2248
rant	-11.2248
▁ranking	-11.2249
class	-11.2252
▁glory	-11.2255
▁mouth	-11.2259
▁BMW	-11.2265
▁Bethlehem	-11.2265
▁Moldova	-11.2265
▁Victoria	-11.2265
firm	-11.2269
▁fledgling	-11.2275
▁dramatically	-11.2277
▁Visit	-11.2285
68	-11.2289
bert	-11.2294
46	-11.2295
▁Survey	-11.2295
▁commodity	-11.2295
▁surrounded	-11.2295
▁Valley	-11.2296
▁vessels	-11.2296
▁5.5	-11.2299
▁mean	-11.2301
Bissau	-11.2305
▁1995,	-11.2308
zy	-11.2308
▁contractor	-11.2309
▁wound	-11.231
fixing	-11.2311
85	-11.2314
mba	-11.2318
▁midday	-11.2319
▁encouraged	-11.2319
▁Easter	-11.2322
▁Anwar	-11.2331
world	-11.2332
▁Refugees	-11.2334
▁reply	-11.2334
▁racist	-11.2342
93	-11.2343
rounder	-11.2343
▁Toulouse	-11.2344
▁consensus	-11.2344
▁Follow	-11.2344
▁admitting	-11.2345
▁seekers	-11.2349
▁God	-11.235
▁Im	-11.235
▁relax	-11.2354
▁establishment	-11.2358
▁counting	-11.236
▁stores	-11.2362
▁exploit	-11.2363
▁stealing	-11.2364
▁audience	-11.2364
▁Novak	-11.2365
▁deportation	-11.2365
▁powered	-11.2366
▁scrambled	-11.2367
▁Behari	-11.2374
▁abusing	-11.2374
izz	-11.2375
▁Bor	-11.2375
▁thrilling	-11.238
▁shell	-11.2384
▁twist	-11.2384
▁conclusion	-11.2384
▁injection	-11.2388
▁examine	-11.2394
injiang	-11.2394
▁furious	-11.2394
▁crush	-11.2397
▁clinic	-11.2397
▁gesture	-11.2404
▁Auto	-11.2406
setting	-11.2407
▁3.8	-11.2408
▁contenders	-11.2413
▁Siemens	-11.2414
▁stiff	-11.2414
▁freezing	-11.2414
key	-11.2416
▁frontier	-11.2417
▁disappointed	-11.2419
▁priests	-11.2421
▁secular	-11.2424
▁spree	-11.2424
iaoping	-11.2424
uch	-11.2426
ime	-11.2429
▁Centre	-11.2434
▁Helen	-11.2437
transitional	-11.2437
wung	-11.2439
hai	-11.244
▁convincing	-11.2444
▁Academy	-11.2444
▁multiple	-11.2445
▁Leonid	-11.2446
▁shots	-11.2446
▁economist	-11.2451
Western	-11.2451
▁kidnap	-11.2453
▁Margaret	-11.2454
▁capsized	-11.2454
▁unfair	-11.2455
ford	-11.2463
▁unpopular	-11.2464
▁fundamental	-11.2471
hel	-11.2471
▁Bremen	-11.2475
power	-11.2478
▁storms	-11.2481
foot	-11.2482
▁directors	-11.2485
▁Luc	-11.2487
ky	-11.2489
iff	-11.2498
▁Information	-11.2504
▁bronze	-11.2504
▁greeted	-11.2505
▁torn	-11.2507
list	-11.2512
▁stands	-11.2512
▁Lufthansa	-11.2514
▁Military	-11.2514
▁Norodom	-11.2514
▁Palestine	-11.2514
iti	-11.2515
▁views	-11.2516
holder	-11.2516
▁conceded	-11.2517
▁bed	-11.2519
▁settled	-11.2519
SE	-11.252
nar	-11.252
▁1996,	-11.2522
▁martial	-11.2523
ali	-11.2524
▁contacts	-11.2528
vol	-11.2531
▁tip	-11.2531
▁staying	-11.2531
▁130	-11.2534
▁widow	-11.2534
▁pen	-11.2535
makers	-11.2535
five	-11.2537
▁gripp	-11.2541
▁USA	-11.2542
▁colonial	-11.2543
▁doubles	-11.2549
rick	-11.2551
▁stricken	-11.2552
▁defensive	-11.2555
▁robbery	-11.2555
▁complet	-11.2556
▁commitments	-11.2556
▁amend	-11.2564
▁Kinshasa	-11.2565
▁competing	-11.2565
tat	-11.2565
▁centuries	-11.2565
▁Sto	-11.2566
26	-11.2568
market	-11.2569
ICRC	-11.2575
▁empire	-11.2575
▁assassinated	-11.2576
▁Good	-11.2576
▁140	-11.2584
▁McLaren	-11.2585
▁bet	-11.2585
▁factories	-11.2586
▁reveal	-11.2589
char	-11.2594
▁bowling	-11.2598
▁planet	-11.2598
▁fortunes	-11.2601
▁larger	-11.2604
ula	-11.2605
▁wicket	-11.2605
▁Springbok	-11.2605
lev	-11.2606
national	-11.2609
▁Sil	-11.261
open	-11.2616
CO	-11.2618
break	-11.2621
▁quotas	-11.2622
gor	-11.2627
▁endangered	-11.263
ologist	-11.2632
▁Saleh	-11.2637
rov	-11.2639
▁titles	-11.2646
ret	-11.2651
▁imported	-11.2652
▁Gay	-11.2653
bat	-11.2655
▁digest	-11.2657
▁passage	-11.2658
12	-11.2659
pat	-11.2663
▁Bru	-11.2663
▁Fujimori	-11.2667
▁ultimatum	-11.2667
▁firmed	-11.2671
▁Craig	-11.2677
▁babies	-11.2677
▁Belfast	-11.2677
▁hang	-11.2679
▁items	-11.2681
▁golden	-11.2683
04	-11.2689
nia	-11.2693
▁5.2	-11.2695
▁automakers	-11.2697
▁Alliance	-11.2697
▁consult	-11.2698
▁capped	-11.2699
raz	-11.2701
▁lodged	-11.2701
▁highlights	-11.2702
▁confessed	-11.2704
▁taxi	-11.2704
▁lived	-11.2705
▁Rao	-11.2707
▁Simpson	-11.2708
▁muscle	-11.2708
▁Plan	-11.2711
▁commerce	-11.2718
▁merchant	-11.2718
▁Macau	-11.2719
uit	-11.272
▁hurdle	-11.2721
court	-11.2726
▁Sino	-11.2737
▁Fifteen	-11.2739
▁drink	-11.2741
zan	-11.2741
▁pig	-11.2747
▁arsenal	-11.2749
▁beheaded	-11.2749
▁submit	-11.2749
▁naming	-11.2749
▁counted	-11.2753
▁everything	-11.2756
▁exceed	-11.2759
▁savings	-11.2759
▁residential	-11.276
▁guarantees	-11.276
powered	-11.2762
▁overwhelming	-11.2768
▁nationalists	-11.2768
mut	-11.2768
British	-11.2769
▁surviving	-11.277
▁raft	-11.277
▁travellers	-11.277
▁300,000	-11.2779
▁raping	-11.278
▁rankings	-11.278
▁Karl	-11.2783
▁Sou	-11.2784
▁Saakashvili	-11.279
aclav	-11.2791
language	-11.28
▁hidden	-11.2801
▁respirator	-11.2801
▁traffickers	-11.2801
▁healthy	-11.2804
dia	-11.2805
extremely	-11.281
▁Aden	-11.2811
▁Bordeaux	-11.2811
▁Opel	-11.2812
fra	-11.2816
▁smuggle	-11.282
premier	-11.2821
▁scientific	-11.2821
▁ambushed	-11.2822
sson	-11.2822
▁peso	-11.2822
▁copyright	-11.2822
▁wreckage	-11.2822
▁bell	-11.2823
▁Cro	-11.2824
▁elder	-11.2826
woman	-11.2827
▁profile	-11.2828
▁trader	-11.283
▁ceremonies	-11.2832
▁stuck	-11.2832
ambang	-11.2833
▁followers	-11.2842
▁Cameron	-11.2842
▁captors	-11.2842
▁cheat	-11.2845
ily	-11.2845
98	-11.2848
▁container	-11.2848
▁accidents	-11.2849
▁Okinawa	-11.2853
▁copper	-11.2854
▁bull	-11.2861
▁Congolese	-11.2863
▁imprisonment	-11.2863
▁Bayer	-11.2867
▁99	-11.2867
▁Michelle	-11.2869
▁hi	-11.2872
zar	-11.2873
▁records	-11.2874
▁Mill	-11.2876
▁21-	-11.2876
▁rout	-11.2877
▁Life	-11.2877
3,000	-11.2883
▁mafia	-11.2884
▁amendment	-11.2888
▁condolences	-11.2891
▁(13	-11.2893
49	-11.2893
▁minimum	-11.2895
▁religion	-11.2895
▁reeling	-11.2895
governmental	-11.29
ix	-11.2902
▁Public	-11.2905
▁reviving	-11.2905
▁asset	-11.2906
start	-11.2907
14	-11.2908
DP	-11.2909
▁foundation	-11.291
▁Dhabi	-11.2916
▁leaked	-11.2916
wer	-11.2919
▁grouping	-11.2924
▁mediation	-11.2924
▁espionage	-11.2926
▁promotion	-11.2926
▁design	-11.2927
▁epic	-11.2927
▁Chadian	-11.2929
▁achieved	-11.2933
disgraced	-11.2935
▁proceed	-11.2936
empt	-11.2938
▁teenagers	-11.294
tation	-11.2947
▁deflation	-11.2947
▁neighbors	-11.2955
▁mines	-11.2955
▁arguing	-11.2958
▁tower	-11.2961
▁Sab	-11.2962
gate	-11.2967
7.8	-11.2967
▁expecting	-11.2968
▁Patriot	-11.2968
▁Awards	-11.297
▁fuelled	-11.297
2.5	-11.2971
▁coordinated	-11.2971
▁controlling	-11.2972
▁bribes	-11.2975
▁fails	-11.2976
▁Dole	-11.2977
▁Representative	-11.2978
▁infection	-11.2978
positive	-11.2979
▁Tunisian	-11.2982
▁protecting	-11.2986
▁Slovenian	-11.2988
▁Khamenei	-11.2989
▁Likud	-11.2989
▁implicated	-11.299
▁print	-11.299
▁revived	-11.2992
▁Khatami	-11.3
▁faltering	-11.3
▁Volvo	-11.3
▁Truth	-11.3003
▁Lawyers	-11.301
▁deciding	-11.301
▁stalemate	-11.301
▁isolation	-11.3011
▁Nur	-11.3011
▁Tal	-11.3015
▁brush	-11.3019
▁bastion	-11.3021
▁triangular	-11.3021
▁safeguard	-11.3021
▁proof	-11.3029
Sam	-11.3029
▁automobile	-11.3032
▁restored	-11.3033
ution	-11.3035
▁object	-11.3041
▁pioneer	-11.3042
▁Latvian	-11.3051
▁Bou	-11.3057
▁Robin	-11.3059
▁sights	-11.306
tank	-11.3061
▁Tanzanian	-11.3063
▁Computer	-11.3064
▁Equatoria	-11.3064
▁challenging	-11.3064
▁penalties	-11.3064
shing	-11.3064
▁veterans	-11.3071
▁perform	-11.3072
▁advancing	-11.3074
▁mutual	-11.3074
▁physical	-11.3074
▁stole	-11.3079
▁holder	-11.3084
▁Cleveland	-11.3085
▁Mecca	-11.3085
▁Ryan	-11.3085
▁finger	-11.3086
▁Export	-11.3086
▁dismissal	-11.309
▁eventually	-11.3091
▁Time	-11.3092
▁Bertrand	-11.3092
▁install	-11.3093
standing	-11.3094
▁offences	-11.3095
▁comfortable	-11.3096
▁pride	-11.3096
▁Jorge	-11.3096
▁various	-11.3096
corruption	-11.3096
avi	-11.31
▁900	-11.3101
▁AS	-11.3107
▁Jamaica	-11.3111
ami	-11.3114
bin	-11.3114
▁slaughter	-11.3114
▁Mur	-11.3115
▁Stuttgart	-11.3117
▁calendar	-11.3117
▁patient	-11.312
▁Hyundai	-11.3128
▁Rasmussen	-11.3128
▁leaves	-11.3129
▁voter	-11.313
stop	-11.313
▁images	-11.3132
▁lake	-11.3132
▁bourses	-11.3134
oli	-11.3137
ueensland	-11.3139
uebec	-11.3139
llo	-11.3142
▁Ponting	-11.3149
▁Nu	-11.315
▁1970	-11.3152
▁restor	-11.3155
7.7	-11.3157
▁reassure	-11.3159
▁assassinate	-11.316
▁160	-11.3161
▁batch	-11.3165
▁broader	-11.3169
▁Colombo	-11.3171
dic	-11.3171
EA	-11.3178
▁Arctic	-11.3182
dominated	-11.3183
majority	-11.3183
▁unleashed	-11.3185
▁Countries	-11.3192
▁smooth	-11.3192
▁wholesale	-11.3192
▁Robbie	-11.3193
three	-11.3194
chu	-11.3196
ander	-11.3202
▁innocent	-11.3203
▁crises	-11.3203
▁subprime	-11.3203
▁Havana	-11.3203
▁mud	-11.3204
AN	-11.3206
rating	-11.3206
▁interested	-11.3208
▁Sharif	-11.321
▁strongest	-11.3211
▁trick	-11.3212
▁15,000	-11.3214
▁Investment	-11.3214
94	-11.3214
▁causes	-11.3216
▁sat	-11.322
▁93	-11.3224
▁horror	-11.3225
▁quality	-11.3225
agon	-11.3226
▁HAMAS	-11.3227
lay	-11.3234
▁wrap	-11.3235
▁Anthony	-11.3236
▁rampant	-11.3236
▁bounced	-11.3245
▁4.4	-11.3245
▁Children	-11.3246
▁pocket	-11.3246
▁Alonso	-11.3246
▁gift	-11.3246
▁hosted	-11.3248
▁informal	-11.3248
illa	-11.3249
▁crashing	-11.3254
18	-11.3254
▁cards	-11.3255
▁science	-11.3257
▁stabilise	-11.3257
▁sweet	-11.3257
place	-11.3261
hard	-11.3263
▁secretly	-11.3268
▁shrank	-11.3268
ments	-11.3271
good	-11.3272
16	-11.3273
▁Yahoo	-11.3279
▁monarch	-11.3282
▁OSCE	-11.3285
how	-11.3287
▁listing	-11.3288
▁Alitalia	-11.329
▁embassies	-11.329
aka	-11.3292
▁derailed	-11.33
▁indication	-11.3301
▁enforcement	-11.3302
▁crowds	-11.3304
▁reading	-11.3304
Le	-11.3307
rea	-11.3311
▁discrimination	-11.3317
▁deem	-11.3317
▁monopoly	-11.3318
▁wrote	-11.3323
▁aired	-11.3331
▁cruised	-11.3331
▁transform	-11.3332
gent	-11.3332
▁Citigroup	-11.3334
▁motorcycle	-11.3334
▁ports	-11.3335
▁postpone	-11.3346
▁What	-11.335
▁developer	-11.335
PS	-11.3352
▁Raul	-11.3352
Bak	-11.3352
pur	-11.3353
pound	-11.3354
▁medium	-11.3356
▁apply	-11.3356
▁Marco	-11.3361
▁grid	-11.3362
pan	-11.3365
▁recognize	-11.3366
▁tackling	-11.3366
▁Nicaragua	-11.3367
▁ramp	-11.3369
▁true	-11.3369
▁Bat	-11.337
▁6,000	-11.3374
▁Bihac	-11.3377
▁Kibaki	-11.3377
uted	-11.3384
▁reactors	-11.3385
mile	-11.3386
▁Virgin	-11.3386
▁Turkmenistan	-11.3388
▁Ash	-11.3389
▁Pedro	-11.3389
▁Philippe	-11.3392
▁offers	-11.3393
▁Pin	-11.3394
tch	-11.3394
borne	-11.3395
▁19-	-11.3396
▁catastrophe	-11.3397
▁Millennium	-11.34
▁credibility	-11.34
lat	-11.3401
▁widening	-11.3402
African	-11.3404
ux	-11.3408
▁hospitalized	-11.3408
▁Holland	-11.3411
▁UBS	-11.3411
▁consultations	-11.3422
▁Lar	-11.3426
▁Jason	-11.3426
race	-11.3428
▁suggestions	-11.3429
hin	-11.3431
▁hideout	-11.3433
▁Cre	-11.3437
▁preparation	-11.3442
▁rattled	-11.3444
▁blind	-11.3444
▁campaigners	-11.3448
▁Eve	-11.3448
bor	-11.3454
▁earth	-11.3459
▁Mid	-11.3463
▁pope	-11.3464
▁Will	-11.3465
▁Lloyd	-11.3466
▁radioactive	-11.3467
▁Nordic	-11.3467
orei	-11.3468
▁Rossi	-11.3474
▁cells	-11.3475
▁Abd	-11.3477
▁Djokovic	-11.3477
▁Sanchez	-11.3477
▁snapped	-11.3478
eau	-11.3479
8.7	-11.3487
gged	-11.3487
▁Intelligence	-11.3488
▁intellectual	-11.3488
▁resuming	-11.3488
▁solidarity	-11.3488
▁Tar	-11.3492
▁Bla	-11.3492
▁suggest	-11.3496
▁facto	-11.3496
▁raced	-11.3498
▁hefty	-11.3499
▁papers	-11.35
▁Nat	-11.3501
▁lone	-11.3501
▁Ker	-11.3505
▁50-	-11.3506
▁abolish	-11.351
▁sabotage	-11.351
▁transatlantic	-11.351
▁drill	-11.3511
▁mountainous	-11.3513
vel	-11.3518
▁Strauss	-11.3521
Aqsa	-11.3521
▁Bryant	-11.3524
▁donor	-11.3527
▁Barry	-11.353
tional	-11.3531
▁changing	-11.3533
▁overturn	-11.3538
▁revamp	-11.3544
▁Leicester	-11.3544
▁Rupert	-11.3544
▁Solomon	-11.3544
▁biological	-11.3544
▁nightclub	-11.3544
▁nightmare	-11.3544
▁tentative	-11.3544
▁deepened	-11.3548
▁Kashmiri	-11.355
atari	-11.3551
▁monarchy	-11.3552
▁investigated	-11.3553
▁Werder	-11.3555
▁comparison	-11.3555
▁peacefully	-11.3562
ere	-11.3564
▁3-6	-11.3568
▁knockout	-11.3568
▁fence	-11.3568
▁footage	-11.3568
▁5.0	-11.3574
▁statue	-11.3577
▁350	-11.3577
▁meltdown	-11.3577
▁vow	-11.3578
▁From	-11.3579
▁lengthy	-11.3581
▁hammered	-11.3581
▁tradition	-11.3585
ground	-11.3586
ope	-11.3589
▁Mwai	-11.3589
▁character	-11.3589
6,000	-11.3591
German	-11.3592
ically	-11.3595
▁mount	-11.3596
▁spat	-11.3598
▁Jersey	-11.36
▁industries	-11.36
▁Tajik	-11.36
▁discount	-11.3601
▁94	-11.3601
▁7.5	-11.3601
▁intercepted	-11.3601
▁tech	-11.3601
delayed	-11.3603
▁practices	-11.3606
matic	-11.3607
trade	-11.3609
▁dealer	-11.361
▁identify	-11.3611
▁Vol	-11.3615
storm	-11.3617
vor	-11.3619
▁trace	-11.3623
eu	-11.3626
▁thing	-11.3626
11	-11.3627
▁Eduardo	-11.3628
▁Mad	-11.3631
▁pit	-11.3633
▁behaviour	-11.3634
▁charging	-11.3634
▁deliveries	-11.3636
rival	-11.3637
▁4.2	-11.3639
▁Rica	-11.3641
▁location	-11.3645
▁schoolgirl	-11.3645
▁unofficial	-11.3646
▁associate	-11.3648
▁Ferdinand	-11.3656
▁Investors	-11.3656
▁Senegalese	-11.3657
▁Kenne	-11.3658
weight	-11.3658
▁Arabian	-11.366
Nazi	-11.366
▁(14	-11.3662
▁suburbs	-11.3662
▁emb	-11.3665
▁retreat	-11.3666
▁Walter	-11.3671
▁sail	-11.3671
▁degree	-11.3679
▁desire	-11.3679
▁Allen	-11.3681
▁hung	-11.3682
▁maintaining	-11.3686
▁rob	-11.3686
It	-11.3686
▁Stuart	-11.369
▁empty	-11.369
hur	-11.369
▁downward	-11.3692
pers	-11.3694
▁painful	-11.3695
▁cycle	-11.3702
▁crowned	-11.3704
▁write	-11.3707
▁Lady	-11.3707
▁kilo	-11.3708
▁monks	-11.3708
▁Shan	-11.3709
▁Susilo	-11.3713
▁Yudhoyono	-11.3713
▁sniper	-11.3713
▁stockpiles	-11.3714
19	-11.3717
▁Stocks	-11.3718
DA	-11.372
9.5	-11.3722
▁visits	-11.3722
deeply	-11.3723
▁conservatives	-11.3723
four	-11.3723
▁Col	-11.3724
▁wear	-11.3725
▁attitude	-11.3725
▁Tinto	-11.3726
▁6.5	-11.3727
▁pitcher	-11.3728
mates	-11.3729
▁bankers	-11.3729
▁performances	-11.3731
▁Murdoch	-11.3736
▁Mil	-11.3737
▁Seko	-11.3741
▁Namibia	-11.3741
▁initially	-11.3744
▁Brothers	-11.3747
▁dying	-11.3748
▁Monte	-11.3749
▁bosses	-11.3756
▁Kh	-11.3756
▁enforce	-11.3758
▁crippled	-11.3761
ison	-11.3763
▁Monrovia	-11.377
▁ouster	-11.3772
▁novel	-11.3773
▁feed	-11.3778
▁allied	-11.3781
▁boot	-11.379
▁widened	-11.3792
▁slip	-11.3794
last	-11.3798
▁arresting	-11.3801
selling	-11.3802
▁seas	-11.3802
01	-11.3802
▁Fire	-11.3804
▁Embattled	-11.3804
▁Rubber	-11.3804
▁Sunderland	-11.3804
▁easily	-11.3804
▁Popular	-11.3804
▁neighborhood	-11.3805
▁skies	-11.3805
▁ranging	-11.381
▁deter	-11.3811
lea	-11.3813
▁caretaker	-11.3816
▁Robinson	-11.3817
▁oversee	-11.3817
▁shipment	-11.3822
▁Brad	-11.3827
▁Singaporean	-11.3827
UNHCR	-11.3827
▁rifle	-11.3827
▁tickets	-11.3831
▁ECB	-11.3835
02	-11.3835
gas	-11.3835
▁fines	-11.3838
▁spearhead	-11.3839
▁immunity	-11.3839
▁derby	-11.3839
▁chamber	-11.3839
▁struggles	-11.3839
▁Total	-11.384
▁Sh	-11.3842
▁envoys	-11.3844
▁casting	-11.3844
▁Burkina	-11.385
▁contribute	-11.385
▁Eddie	-11.3851
▁Clark	-11.3853
CA	-11.3854
▁slowly	-11.3856
▁Iya	-11.3856
▁buses	-11.3859
▁visas	-11.386
▁Mitchell	-11.3862
▁instability	-11.3862
▁Gonzalez	-11.3862
▁fitness	-11.3863
▁Turin	-11.3864
Woo	-11.3866
▁Rose	-11.3871
▁clamp	-11.3873
▁flagging	-11.3875
▁feud	-11.3875
▁plight	-11.3876
▁fixtures	-11.3884
▁Communications	-11.3885
▁Enron	-11.3885
▁odds	-11.3886
▁semiconductor	-11.3886
▁9,	-11.3887
▁adjusted	-11.3888
▁senators	-11.3892
▁electric	-11.3892
▁inspect	-11.3893
▁Abidjan	-11.3897
▁difficulties	-11.3899
▁Intel	-11.39
▁Stone	-11.3902
8.8	-11.3904
▁Yevgen	-11.3908
▁ceiling	-11.3908
▁easier	-11.3908
▁method	-11.3908
▁theft	-11.3911
▁assailants	-11.3915
▁incentives	-11.3918
▁ownership	-11.3921
▁partially	-11.3924
Taliban	-11.3925
▁Ir	-11.3928
▁solo	-11.393
ular	-11.393
▁upgrade	-11.3931
▁Thirteen	-11.3931
▁gambling	-11.3931
▁Cristiano	-11.3931
▁wildlife	-11.3932
▁Dakar	-11.3932
▁4-6	-11.3933
▁deadlocked	-11.3933
▁Fer	-11.3935
Goran	-11.3937
▁Indy	-11.3937
▁rounds	-11.3939
▁Kon	-11.3939
▁Clijsters	-11.3943
▁Consumer	-11.3943
▁Megawati	-11.3943
▁Zelaya	-11.3943
host	-11.3943
▁Carolina	-11.3943
▁enjoy	-11.3944
hat	-11.3948
▁these	-11.395
▁debris	-11.3955
rang	-11.3957
▁Garros	-11.3966
pot	-11.3967
Ha	-11.3967
▁rightwing	-11.3967
wit	-11.3969
▁buyers	-11.3971
PL	-11.3976
▁determination	-11.3978
▁Mladic	-11.3978
Shinzo	-11.3978
▁Lima	-11.3984
▁militias	-11.3984
nuclear	-11.3984
▁Ray	-11.3985
▁speaking	-11.3987
▁fundamentalists	-11.3989
▁Nippon	-11.399
▁engineers	-11.3992
▁spare	-11.3993
▁adoption	-11.3995
lf	-11.3996
▁racism	-11.3998
meter	-11.3999
▁Victor	-11.4002
▁Tonga	-11.4005
▁sensational	-11.401
▁fee	-11.4012
▁expensive	-11.4013
▁Another	-11.4013
▁Derby	-11.4014
var	-11.4014
▁sunk	-11.4017
will	-11.4018
▁Pete	-11.4019
ullah	-11.402
▁suspending	-11.4023
▁Marines	-11.4026
ette	-11.4026
designate	-11.4031
▁fruit	-11.4037
▁McC	-11.404
discover	-11.4041
▁barriers	-11.4042
▁firefight	-11.4043
ito	-11.4046
▁captivity	-11.4048
86	-11.405
ED	-11.405
EC	-11.4051
unacceptable	-11.4054
▁cur	-11.4057
▁secrets	-11.4059
▁Allawi	-11.406
▁arrives	-11.4062
▁Ratk	-11.4065
▁Kuchma	-11.4072
▁Uzbek	-11.4072
▁ocean	-11.4072
▁paralysed	-11.4072
▁organ	-11.4072
▁commemorate	-11.4075
▁This	-11.408
▁tape	-11.4084
▁Scandinavian	-11.4084
▁indoor	-11.4085
▁bearing	-11.4087
▁del	-11.4088
rio	-11.4088
▁Zi	-11.4089
neighboring	-11.4094
mil	-11.4095
▁occurred	-11.4096
▁neighbourhood	-11.4096
▁coastguard	-11.4096
ort	-11.4103
▁birds	-11.4103
▁Madeleine	-11.4107
▁intensive	-11.4107
▁paedophile	-11.4107
▁framework	-11.4107
▁shipments	-11.4111
▁attackers	-11.4113
plague	-11.4113
▁gangs	-11.4115
org	-11.4116
▁cyber	-11.4119
▁propose	-11.4121
▁Fra	-11.4121
▁sense	-11.4122
AU	-11.4122
▁stampede	-11.4124
lene	-11.4127
▁escalation	-11.4131
▁plastic	-11.4131
▁8,000	-11.4133
itz	-11.4134
53	-11.4139
▁98	-11.4141
▁shaken	-11.4142
▁inaugurated	-11.4143
▁dominate	-11.4143
▁slim	-11.4144
▁autumn	-11.4155
▁lady	-11.4156
▁dress	-11.4158
▁7,	-11.4159
▁unusual	-11.4159
ute	-11.416
but	-11.4162
▁Sy	-11.4163
▁landslides	-11.4163
▁lover	-11.4165
▁respected	-11.4166
ident	-11.4166
▁college	-11.4166
▁legislature	-11.4166
▁casino	-11.4166
▁queen	-11.4167
▁Doctors	-11.4167
▁prolonged	-11.4167
▁Cole	-11.4169
cast	-11.4171
▁experienced	-11.4172
▁Almost	-11.4172
▁brave	-11.4174
▁mental	-11.418
▁conflicts	-11.418
▁embarrassing	-11.418
▁Mideast	-11.4181
▁vision	-11.4188
pu	-11.4189
▁Residents	-11.419
▁Sukarnoputri	-11.419
▁armoured	-11.419
▁sensation	-11.4194
▁attributed	-11.4202
▁throne	-11.4202
▁mega	-11.4205
▁Cam	-11.4209
▁your	-11.4211
▁plague	-11.4212
▁preserve	-11.4214
▁180	-11.422
▁flared	-11.4221
cutting	-11.4222
fought	-11.4222
▁except	-11.4225
track	-11.423
ique	-11.4231
▁shells	-11.4232
zza	-11.4234
▁downgraded	-11.4235
▁Win	-11.4237
pen	-11.4243
ranging	-11.4246
▁Justin	-11.4246
▁runway	-11.4248
▁Gre	-11.4257
▁journal	-11.4257
ties	-11.4262
▁seasonally	-11.4262
▁uniform	-11.4262
▁Adelaide	-11.4262
▁psychological	-11.4262
▁Sport	-11.4263
▁weakening	-11.427
87	-11.427
▁models	-11.4273
▁Glasgow	-11.4274
▁Matthew	-11.4274
▁scam	-11.4274
▁Santa	-11.4283
▁reunification	-11.4286
▁radar	-11.4286
▁holes	-11.4286
▁original	-11.4298
▁coffee	-11.4298
2.7	-11.4302
ify	-11.4303
▁Gyanendra	-11.431
▁demolition	-11.431
▁something	-11.4311
▁26-	-11.4319
ui	-11.4319
uba	-11.432
▁Bollywood	-11.4322
▁Yonhap	-11.4322
▁clients	-11.4323
▁pet	-11.4325
evil	-11.4327
▁carriers	-11.4327
▁Sebastian	-11.4327
▁Paulo	-11.4329
▁Swede	-11.4329
IAEA	-11.433
great	-11.433
▁Faso	-11.4331
▁bullets	-11.4334
▁Campbell	-11.4334
▁dictatorship	-11.4336
net	-11.4337
put	-11.4338
▁foe	-11.4339
▁commandos	-11.4341
▁predicting	-11.4342
▁Mafia	-11.4343
▁Rescue	-11.4346
legitimate	-11.4347
▁Mobutu	-11.4347
▁flotilla	-11.4347
▁Leon	-11.4347
▁picking	-11.4353
▁homosexual	-11.4358
▁intensify	-11.4359
▁multilateral	-11.4359
▁relaunch	-11.436
▁lure	-11.4365
▁relatively	-11.4365
▁infant	-11.4366
▁hurled	-11.437
▁Protection	-11.4371
▁balloon	-11.4371
▁understanding	-11.4372
▁avoided	-11.4374
TV	-11.4377
▁colleague	-11.4382
▁Jonathan	-11.4383
▁reax	-11.4383
▁sue	-11.4387
▁lesson	-11.439
8,000	-11.439
▁4.7	-11.4393
rey	-11.4394
▁forged	-11.4394
uf	-11.4395
▁girlfriend	-11.4395
▁passport	-11.4396
▁committing	-11.4396
▁hardliners	-11.44
▁burn	-11.44
▁institution	-11.4402
▁golfer	-11.4407
▁Rod	-11.4407
▁Director	-11.4407
▁Tbilisi	-11.4407
▁vulnerable	-11.4407
▁shutdown	-11.4409
iko	-11.4409
▁Johan	-11.4409
hwa	-11.4413
isa	-11.4415
▁wreck	-11.4417
▁Badawi	-11.4419
▁revered	-11.442
▁Independent	-11.442
▁Chandr	-11.4421
▁flagship	-11.4421
▁Mayor	-11.4422
▁Hope	-11.4424
▁Sta	-11.4425
▁4.1	-11.4429
▁Clarke	-11.4429
▁100-	-11.4433
▁tap	-11.4435
56	-11.4437
▁Govern	-11.444
▁dock	-11.4441
▁closest	-11.4441
▁indigenous	-11.4444
▁Ernesto	-11.4446
▁dateline	-11.4447
iro	-11.4455
▁spurr	-11.446
▁completely	-11.4462
▁Seng	-11.4465
▁Peng	-11.4466
▁chapter	-11.4468
▁opera	-11.4471
▁beer	-11.4472
trial	-11.4472
▁Scores	-11.4477
China	-11.4478
▁County	-11.4481
▁squeeze	-11.4481
▁type	-11.4481
9.7	-11.4483
▁inspection	-11.4484
▁ne	-11.4486
▁seemed	-11.4489
▁Wei	-11.4495
▁contender	-11.4497
▁servants	-11.4497
▁Line	-11.4499
▁Canberra	-11.4505
▁Civil	-11.4505
▁Malcolm	-11.4505
▁importance	-11.4507
reg	-11.4508
▁sons	-11.451
▁Taro	-11.4515
▁Masa	-11.4517
▁Indianapolis	-11.4518
▁Phoenix	-11.4518
▁Adams	-11.4518
lashes	-11.4518
▁hint	-11.4519
▁Yangon	-11.4521
▁Yi	-11.4523
kan	-11.4525
▁Rene	-11.4527
▁routes	-11.453
▁evasion	-11.453
▁humiliating	-11.453
▁cattle	-11.453
▁Mars	-11.4534
significant	-11.4539
▁Wood	-11.4539
▁Macedonian	-11.454
▁Schwarzenegger	-11.4542
▁valley	-11.4542
▁zoo	-11.4542
▁excessive	-11.4543
▁Kal	-11.4548
▁Christ	-11.4549
communist	-11.4551
▁brothers	-11.4555
▁dust	-11.4556
▁Guy	-11.4558
▁bitterly	-11.4558
SC	-11.456
▁investigations	-11.4561
AL	-11.4561
▁bust	-11.4563
shares	-11.4567
▁Myung	-11.4567
▁lowered	-11.4568
▁chill	-11.457
▁Gian	-11.4576
▁Aso	-11.4577
An	-11.4578
▁advised	-11.4579
▁bombardment	-11.4579
▁Fourteen	-11.458
▁Levy	-11.4581
Star	-11.4582
just	-11.4586
▁collect	-11.4589
▁behalf	-11.459
▁cemetery	-11.4592
▁Bhd	-11.4592
too	-11.4602
▁Bell	-11.4603
▁ammunition	-11.4604
▁airplane	-11.4604
▁Biden	-11.4605
▁Koreans	-11.4606
▁warships	-11.4608
▁97	-11.4609
▁Bolivian	-11.4616
▁Dagestan	-11.4617
▁salaries	-11.4617
▁Jalal	-11.4617
read	-11.4618
52	-11.4619
serving	-11.4622
▁slower	-11.4623
▁My	-11.4624
▁increases	-11.4625
7,000	-11.4625
▁plagu	-11.4625
▁Forty	-11.4626
▁Act	-11.4628
▁Ambassador	-11.4629
▁petroleum	-11.4629
▁renegade	-11.4629
▁dinner	-11.4629
▁punch	-11.4629
▁manage	-11.4635
lie	-11.4638
▁movements	-11.4639
▁Camp	-11.4643
▁runoff	-11.4643
▁lie	-11.4646
▁40-	-11.4649
▁rough	-11.465
▁Universal	-11.4654
▁Nokia	-11.4654
▁Capello	-11.4654
▁Suez	-11.4655
▁mourners	-11.4655
iichi	-11.4656
IRA	-11.4656
rbitration	-11.466
▁chose	-11.4661
▁specific	-11.4663
even	-11.4664
▁chronic	-11.4667
▁They	-11.4667
▁cafe	-11.4668
▁policymakers	-11.4669
▁Bull	-11.4675
▁reclaim	-11.4676
▁125	-11.4678
▁populous	-11.4679
▁6-7	-11.4679
▁Panama	-11.468
▁Mak	-11.468
▁woo	-11.4689
▁scorers	-11.4689
AC	-11.4691
▁Blix	-11.4692
▁Sultan	-11.4692
▁declining	-11.4692
ura	-11.4697
▁abused	-11.4698
▁celebration	-11.4699
speaking	-11.4702
▁Sese	-11.4703
▁couples	-11.4703
▁Lindsay	-11.4704
▁burden	-11.4704
▁Telegraph	-11.4704
▁audit	-11.4706
▁chase	-11.4708
▁Law	-11.4708
worth	-11.4715
▁Argentinian	-11.4717
▁Museum	-11.4717
▁Bern	-11.4717
▁Ana	-11.472
Mo	-11.4724
uction	-11.4728
▁Rebels	-11.4729
▁Karbala	-11.4729
▁clothing	-11.4729
▁zero	-11.4729
3.6	-11.473
▁filmmaker	-11.4731
▁Mother	-11.4732
▁iconic	-11.4735
▁seiz	-11.474
▁bio	-11.4741
▁Narasim	-11.4742
▁Med	-11.4742
▁heal	-11.4746
▁trained	-11.4746
▁Holy	-11.475
63	-11.4752
▁immigrant	-11.4752
▁Tiananmen	-11.4755
▁operative	-11.4755
▁Dean	-11.4758
8.6	-11.4763
▁Khodorkovsky	-11.4767
▁applied	-11.4767
▁steroid	-11.4767
▁ballistic	-11.4768
▁Juli	-11.4768
▁Just	-11.4776
▁wrest	-11.4779
▁Commodit	-11.478
▁typhoon	-11.478
▁nominat	-11.478
▁mild	-11.478
pper	-11.478
▁bishops	-11.4781
▁drag	-11.4781
▁goalless	-11.4786
▁filled	-11.4789
cut	-11.4789
▁4.3	-11.4791
▁(16	-11.4792
growing	-11.4792
▁hamper	-11.4794
IL	-11.4797
▁dating	-11.4799
▁4.6	-11.48
▁factors	-11.4801
IS	-11.4803
▁loud	-11.4806
▁defect	-11.4806
▁DNA	-11.4808
▁Sky	-11.4808
83	-11.4814
▁avalanche	-11.4818
▁routine	-11.4819
▁rounded	-11.4822
▁dedicated	-11.4822
▁cheered	-11.4826
▁Cardiff	-11.4831
▁thwart	-11.4832
▁deny	-11.4836
lum	-11.4837
▁predict	-11.4838
fully	-11.4838
▁deficits	-11.484
orussia	-11.4843
▁bury	-11.4843
▁web	-11.4844
▁significantly	-11.4848
▁Jemaa	-11.4857
▁4.8	-11.486
▁organizations	-11.486
DF	-11.4863
4,000	-11.4866
hole	-11.4866
▁volume	-11.4867
▁WikiLeaks	-11.4869
▁Yankees	-11.4869
▁drifted	-11.4869
capturing	-11.4869
▁citizenship	-11.4869
▁laboratory	-11.487
▁2000,	-11.487
▁revolutionary	-11.487
▁insider	-11.4873
▁Guatemala	-11.4876
own	-11.4881
▁example	-11.4882
▁Timorese	-11.4882
▁Yuki	-11.4883
▁plummeted	-11.4883
hara	-11.4888
▁1988	-11.4894
▁Amazon	-11.4894
▁issuing	-11.4895
▁repatriation	-11.4895
▁hair	-11.4895
▁hometown	-11.4897
▁fewer	-11.4905
▁Garcia	-11.4907
AFP	-11.4909
▁liquid	-11.4917
67	-11.4918
▁Hashemi	-11.4918
▁Benin	-11.4919
▁CHANGE	-11.492
▁Kouchner	-11.492
▁badminton	-11.492
▁ruble	-11.492
▁Harper	-11.4921
▁6.0	-11.4922
2.6	-11.4923
▁seeding	-11.4925
▁churches	-11.4926
▁dreams	-11.4926
oz	-11.4926
ject	-11.4927
organising	-11.4929
▁2005.	-11.4929
▁brace	-11.4929
▁Amelie	-11.4933
▁Alfred	-11.4933
▁Racing	-11.4934
▁eliminate	-11.4934
▁mix	-11.4934
▁PM	-11.4942
mac	-11.4945
Sung	-11.4947
▁convinced	-11.4948
▁crop	-11.495
▁photograph	-11.4951
▁saving	-11.4952
▁Chang	-11.4953
▁1997,	-11.4954
independence	-11.4957
▁legacy	-11.4958
▁ordeal	-11.4959
▁divide	-11.4959
▁Ger	-11.4964
▁snatched	-11.4966
▁Yang	-11.4967
▁hurdles	-11.4967
▁Pascal	-11.4969
▁lying	-11.4971
lecommunications	-11.4971
▁Islamiyah	-11.4972
ADB	-11.4973
▁Valentino	-11.4973
▁solar	-11.4974
▁banker	-11.4976
▁generally	-11.4976
▁Bourse	-11.4984
▁bone	-11.4987
▁devices	-11.4988
▁Warne	-11.4992
CC	-11.4995
▁3.9	-11.4996
▁settler	-11.4997
▁Lang	-11.5007
▁Kazakh	-11.501
▁staunch	-11.501
▁Lehman	-11.5018
▁swiftly	-11.502
▁slum	-11.5022
▁grappl	-11.5023
▁Lahore	-11.5023
▁speculative	-11.5023
▁dates	-11.5024
▁Fox	-11.5025
dawn	-11.5035
▁quarantine	-11.5036
▁Lionel	-11.5036
▁sample	-11.5036
▁Rival	-11.5037
▁engagement	-11.5038
▁cautiously	-11.5047
▁stumps	-11.5048
▁values	-11.5055
▁wonder	-11.5055
yman	-11.5057
foe	-11.5059
▁accepting	-11.506
political	-11.5061
▁hospitals	-11.5062
▁swoop	-11.5062
▁Santos	-11.5063
▁Hotel	-11.5064
▁seems	-11.5067
▁Bulls	-11.5069
Russia	-11.5069
▁MENA	-11.5075
▁looting	-11.5075
▁outspoken	-11.5075
▁Samuel	-11.5075
▁Troubl	-11.5075
▁loyalist	-11.5076
▁Virginia	-11.5078
▁broadcasting	-11.5085
tsu	-11.5087
▁projected	-11.5087
▁Gujarat	-11.5088
▁Dominican	-11.5089
▁Hang	-11.5091
▁phones	-11.5097
▁dump	-11.5097
▁podium	-11.5101
▁turbulent	-11.5101
BS	-11.5101
▁interrogation	-11.5104
▁dogs	-11.5105
▁105	-11.5111
Jung	-11.5112
▁sand	-11.5112
human	-11.5114
▁Mauresmo	-11.5114
▁Nov	-11.5114
▁always	-11.5128
▁rid	-11.5128
ifying	-11.5129
▁pe	-11.5132
▁advocate	-11.5134
▁Kyoto	-11.514
▁Fighting	-11.514
▁glass	-11.514
▁unanimous	-11.5146
▁heated	-11.515
▁openly	-11.515
▁noon	-11.515
▁Poll	-11.515
hop	-11.5151
gin	-11.5153
▁Kat	-11.5153
▁DaimlerChrysler	-11.5154
IFOR	-11.5154
▁joy	-11.5154
▁Cypriots	-11.5163
▁height	-11.5165
▁opposing	-11.5167
▁salary	-11.5167
▁Zia	-11.5169
▁movies	-11.517
Neill	-11.5173
esh	-11.5174
▁Petro	-11.5176
▁Gandhi	-11.518
▁McDonald	-11.518
▁advice	-11.518
▁consolidate	-11.5182
▁Lebed	-11.5182
▁Roll	-11.5183
▁Abuja	-11.5185
yi	-11.5187
58	-11.5188
boat	-11.5188
▁Nazis	-11.5191
▁Pole	-11.5193
▁imprisoned	-11.5193
▁onslaught	-11.5193
built	-11.5193
▁Aviation	-11.5193
▁mutiny	-11.5197
▁170	-11.5198
▁scar	-11.5201
▁resource	-11.5201
▁pirate	-11.5202
▁opted	-11.5203
▁Warner	-11.5206
▁Lumpur	-11.5206
▁Soccer	-11.5206
▁foul	-11.5209
▁participants	-11.521
▁safely	-11.5213
▁negotiated	-11.5219
▁Wanderers	-11.5219
▁supremo	-11.5219
▁Marcos	-11.5222
▁recount	-11.5222
▁Web	-11.5223
plan	-11.5224
▁creditors	-11.5224
▁Play	-11.5228
▁defector	-11.5229
▁contained	-11.523
▁travelled	-11.5233
▁CORRECTS	-11.5233
▁Sales	-11.5235
iano	-11.5238
▁(17	-11.5238
▁Sher	-11.5242
▁prostitution	-11.5246
▁Community	-11.5246
▁Conservatives	-11.5249
IT	-11.5249
▁undermined	-11.5251
▁Wu	-11.5253
ado	-11.5256
▁2007.	-11.5256
yl	-11.5256
▁sued	-11.5258
▁suspicious	-11.5259
▁criticising	-11.526
▁Fresh	-11.526
▁sustain	-11.526
▁Indoor	-11.5261
▁arson	-11.5262
▁cha	-11.5268
▁tonne	-11.5269
▁planted	-11.5271
▁Change	-11.5272
▁implementing	-11.5273
▁duo	-11.5274
▁DA	-11.5274
fit	-11.5275
▁barracks	-11.5286
57	-11.5286
historic	-11.5286
▁equivalent	-11.5299
▁Nuclear	-11.5299
▁blitz	-11.5299
lim	-11.5302
▁Murayama	-11.5312
▁havoc	-11.5312
INA	-11.5313
funded	-11.5314
▁6.2	-11.5315
oun	-11.5315
▁Fac	-11.5324
▁Honduran	-11.5326
get	-11.5326
▁anything	-11.5326
friendly	-11.5329
▁Scientists	-11.5329
▁Raj	-11.5331
▁assurances	-11.5334
▁cave	-11.5336
▁Anfield	-11.5339
▁Special	-11.5339
▁Max	-11.5341
br	-11.5343
▁Palm	-11.5344
▁organized	-11.5345
▁tent	-11.5348
▁Ky	-11.535
▁compensate	-11.5352
▁patriarch	-11.5352
▁slaying	-11.5352
▁Strik	-11.5354
imi	-11.5357
▁tainted	-11.5361
▁5.6	-11.5361
▁Douglas	-11.5366
▁deliberately	-11.5369
ima	-11.5377
▁patch	-11.5379
presumed	-11.5379
▁Aznar	-11.5379
▁Freedom	-11.538
▁chasing	-11.538
▁exchanged	-11.5385
propelled	-11.5386
body	-11.5387
▁Salvador	-11.5393
▁happen	-11.5395
▁Burundian	-11.5395
▁backlash	-11.5396
▁Hor	-11.5397
Ch	-11.5398
▁borrowing	-11.5398
▁Country	-11.5406
▁harvest	-11.5406
▁Rashid	-11.5406
▁eruption	-11.5407
mission	-11.5408
turn	-11.5408
▁Berg	-11.5408
▁protected	-11.541
▁Geoff	-11.541
▁IT	-11.5412
89	-11.5417
▁Borders	-11.5418
▁Lockerbie	-11.542
▁Wembley	-11.542
▁stabilize	-11.542
▁Fahd	-11.542
▁drum	-11.5421
generation	-11.5422
oil	-11.5427
▁400,000	-11.5428
▁justify	-11.5428
ella	-11.5431
▁Kyrgyz	-11.5433
▁Atlantis	-11.5433
▁communique	-11.5433
▁Kelly	-11.5434
▁wary	-11.544
▁flags	-11.544
▁angered	-11.5444
▁nose	-11.5446
▁Porto	-11.5446
▁blanket	-11.5448
Kahn	-11.5449
▁revelations	-11.5451
▁eating	-11.5454
▁drinks	-11.5455
▁unite	-11.5456
▁Ericsson	-11.546
▁postal	-11.5463
ahead	-11.5464
▁scan	-11.5464
▁playoffs	-11.5468
▁Raymond	-11.5474
▁Trent	-11.5474
▁Minh	-11.5475
▁documentary	-11.5475
▁CAC	-11.5476
▁Zone	-11.5479
▁craft	-11.5479
▁Oscars	-11.5481
▁Cardinal	-11.5487
▁entrance	-11.5487
▁Saad	-11.5488
▁Tropica	-11.5488
▁Asif	-11.549
OM	-11.5493
▁observer	-11.5495
▁accuse	-11.5499
▁Ak	-11.55
▁expatriate	-11.5501
▁Tyson	-11.5501
7.5	-11.5501
▁Elena	-11.5502
▁thriller	-11.5504
▁studying	-11.5504
9.6	-11.5508
▁Franz	-11.5509
▁bench	-11.551
▁Chairman	-11.5515
▁trawler	-11.5515
▁breakdown	-11.5518
assi	-11.5522
▁Sofia	-11.5528
▁inciting	-11.5528
▁bounce	-11.553
▁govern	-11.5531
▁steelmaker	-11.5535
▁Atletico	-11.5542
▁principal	-11.5542
▁silent	-11.5542
▁blueprint	-11.5542
▁maid	-11.5543
▁Bahraini	-11.5545
fr	-11.5546
▁bonuses	-11.5547
▁Arabic	-11.5547
DU	-11.5549
▁signals	-11.5549
▁Den	-11.555
4.5	-11.5555
▁Marxist	-11.5555
▁sack	-11.5558
▁turnover	-11.5559
▁Lau	-11.5562
▁campaigner	-11.5565
▁Reg	-11.5566
▁Budapest	-11.5569
▁dismal	-11.5569
▁Trading	-11.5569
▁outstanding	-11.557
21	-11.5572
road	-11.5574
▁tribesmen	-11.5583
▁Stefan	-11.5583
▁tyre	-11.5583
sea	-11.5584
hab	-11.5587
▁urgently	-11.5594
▁treating	-11.5596
▁prayer	-11.5597
▁Auckland	-11.5597
▁portfolio	-11.5597
▁shaky	-11.5597
▁Stephan	-11.5597
▁admission	-11.5597
▁knew	-11.5597
▁prefer	-11.5599
▁selective	-11.5599
▁5.3	-11.5605
▁Mobile	-11.5607
▁blacklist	-11.5609
▁studio	-11.561
▁surprised	-11.561
▁barrage	-11.5611
▁correction	-11.5614
▁located	-11.5615
▁40,000	-11.5615
▁Teng	-11.5616
▁gloom	-11.5616
▁Mul	-11.5623
▁Rafsanjani	-11.5624
▁Talabani	-11.5624
▁professor	-11.5624
▁rookie	-11.5624
▁indictment	-11.5624
▁honours	-11.5626
▁covered	-11.5627
▁operated	-11.563
▁reconsider	-11.5638
▁clampdown	-11.5638
▁Order	-11.564
▁Hoop	-11.5642
▁bold	-11.565
▁Out	-11.5651
▁undisclosed	-11.5652
▁clay	-11.5652
Italia	-11.5653
▁plus	-11.5653
▁depot	-11.5656
▁Mari	-11.5657
▁5.7	-11.5657
▁Gore	-11.5658
▁essential	-11.5663
building	-11.5665
▁Maradona	-11.5665
1,000	-11.5674
▁harassment	-11.5679
▁Crude	-11.5679
▁copy	-11.568
▁monitored	-11.568
▁stream	-11.5685
▁quote	-11.5688
▁discipline	-11.569
▁hotly	-11.569
▁eventual	-11.5691
▁Pretoria	-11.5693
▁Sumitomo	-11.5693
▁elephant	-11.5693
▁removal	-11.5693
▁reversed	-11.5695
▁opt	-11.5698
▁ICC	-11.5701
hen	-11.5703
▁Canterbury	-11.5707
▁Dortmund	-11.5707
chan	-11.5707
▁stopping	-11.5712
▁raped	-11.5716
look	-11.5717
▁airstrike	-11.5721
releasing	-11.5721
▁Darren	-11.5722
▁Stan	-11.5723
▁breast	-11.5723
▁indefinite	-11.5728
▁troubles	-11.573
▁escort	-11.5735
▁remarkable	-11.5735
▁undermining	-11.5735
▁Adrian	-11.5735
▁spiralling	-11.5736
▁marry	-11.5736
▁Pavel	-11.5736
▁wildfires	-11.5744
una	-11.5745
grad	-11.5748
▁Lazio	-11.5749
▁simmering	-11.5749
▁Comp	-11.575
▁remember	-11.5751
▁talking	-11.5755
ora	-11.5757
Na	-11.5762
▁strugglers	-11.5766
pr	-11.5767
▁frontline	-11.5767
▁founding	-11.5769
,700	-11.5772
▁Services	-11.5772
runner	-11.5774
▁Chretien	-11.5777
▁Kumaratunga	-11.5777
imp	-11.5786
▁skin	-11.5786
▁finalists	-11.5788
▁Uribe	-11.5791
▁treasure	-11.5791
▁scrapping	-11.5792
▁raw	-11.5792
▁tribe	-11.5792
82	-11.5796
▁detect	-11.5798
▁interference	-11.5799
▁ruins	-11.5799
▁wiped	-11.5801
door	-11.5803
▁license	-11.5805
▁enhance	-11.5805
iyah	-11.5808
▁dispatch	-11.5808
▁Mercedes	-11.5813
▁neutral	-11.5819
▁Bin	-11.5819
▁stoppage	-11.582
▁Malta	-11.5821
dro	-11.5824
▁103	-11.5825
▁reluctant	-11.5833
▁Bucharest	-11.5833
▁Ottawa	-11.5833
▁destined	-11.5833
▁disagreement	-11.5833
▁indicating	-11.5833
▁grenades	-11.5833
▁milestone	-11.5833
▁Montreal	-11.5833
▁swimmer	-11.5833
▁herald	-11.5833
rist	-11.584
▁executions	-11.584
▁float	-11.5842
▁0.25	-11.5846
▁synagogue	-11.5847
▁otherwise	-11.5847
▁warfare	-11.5847
▁seismologists	-11.5847
▁stemming	-11.5848
▁Herve	-11.585
▁jolted	-11.5855
▁(18	-11.5856
scarred	-11.5858
aba	-11.5859
3.5	-11.5859
▁narrowed	-11.586
▁Nawaz	-11.5861
▁devastation	-11.5861
mus	-11.5864
settling	-11.5866
▁Societ	-11.5867
uni	-11.5869
▁halting	-11.587
▁Archbishop	-11.5875
▁Mitterrand	-11.5875
▁Election	-11.5875
▁coma	-11.5876
oschka	-11.5876
adi	-11.5876
▁Luca	-11.5878
78	-11.5879
western	-11.588
▁Eduard	-11.5882
cio	-11.5883
fired	-11.5883
count	-11.5885
▁counts	-11.5887
▁atmosphere	-11.5889
▁brawl	-11.5889
▁pursuing	-11.5889
KLM	-11.5889
vision	-11.5889
▁fixing	-11.5893
▁messages	-11.5898
▁detonated	-11.59
▁checks	-11.5901
▁Ravalomanana	-11.5903
▁Uighur	-11.5903
▁nature	-11.5903
▁taste	-11.5905
▁exist	-11.5906
▁relative	-11.5908
▁Dec	-11.5915
▁Miliband	-11.5917
▁purpose	-11.5917
▁Aum	-11.5921
precious	-11.5929
▁weighing	-11.5931
▁hearings	-11.5931
▁Administration	-11.5932
PKK	-11.5932
sultan	-11.5932
▁hijacking	-11.5937
▁Market	-11.5937
▁4-2	-11.5938
▁reelection	-11.594
▁(20	-11.5945
▁Struggl	-11.5946
▁elements	-11.5946
▁Ahern	-11.5946
▁cent	-11.5947
▁infections	-11.5947
▁servicemen	-11.5952
rdic	-11.5953
deep	-11.5953
▁Uni	-11.5955
vir	-11.5958
▁Ivorian	-11.596
▁revival	-11.596
▁Average	-11.596
▁amateur	-11.596
▁Bobby	-11.5962
fighting	-11.5962
▁metals	-11.5971
▁Kigali	-11.5974
▁Vivendi	-11.5974
▁frustration	-11.5974
▁kronor	-11.5974
84	-11.5974
2.8	-11.5977
kg	-11.5984
▁crops	-11.5988
▁Wolfgang	-11.5989
▁deteriorating	-11.5989
▁AT	-11.5989
▁internationally	-11.5989
▁smuggled	-11.599
▁Az	-11.5994
▁Yan	-11.5998
Korean	-11.6002
▁obstacle	-11.6002
▁celebrity	-11.6003
▁register	-11.6003
▁rupiah	-11.6003
▁thrashing	-11.6008
▁Jar	-11.601
▁dissolved	-11.6011
▁Jelena	-11.6017
▁hostilities	-11.6017
▁queue	-11.6017
courage	-11.602
APEC	-11.6022
▁recognised	-11.6022
▁hip	-11.6024
▁procedures	-11.6025
▁micro	-11.6026
▁Water	-11.6031
▁younger	-11.6031
▁RIA	-11.6031
▁Ernie	-11.6032
▁Bruce	-11.6033
▁resulted	-11.6034
six	-11.6036
▁betting	-11.6036
Al	-11.6036
▁dug	-11.6038
wife	-11.6038
ock	-11.6038
▁content	-11.6044
▁biathlon	-11.6046
▁fuelling	-11.6046
▁farmer	-11.6047
▁Voting	-11.6048
▁killers	-11.6052
RT	-11.6052
▁Francis	-11.606
▁refrain	-11.606
▁Arizona	-11.606
▁beauty	-11.606
▁depressed	-11.606
▁selectors	-11.6061
▁Sharm	-11.6063
▁Turn	-11.6065
▁commanding	-11.6068
▁dominance	-11.6075
▁ignoring	-11.6075
▁ratified	-11.6075
▁stones	-11.6075
▁heating	-11.6076
▁graphic	-11.6076
▁Golan	-11.6076
▁dismantle	-11.6078
▁BHP	-11.6089
▁Aid	-11.6089
▁Millions	-11.6089
▁Snow	-11.6091
▁Alps	-11.6091
fo	-11.6092
▁musical	-11.6097
▁donations	-11.6104
▁outpost	-11.6114
▁600,000	-11.6124
▁particular	-11.6125
▁virtual	-11.6125
-13	-11.6126
▁peer	-11.6126
eight	-11.6132
▁Pittsburgh	-11.6132
▁Bueno	-11.6132
▁Schalke	-11.6132
▁grain	-11.6133
▁retreated	-11.6134
part	-11.6136
▁5.1	-11.6138
pet	-11.6138
▁superb	-11.6144
3.7	-11.6147
▁famine	-11.6147
▁machinery	-11.6149
▁Even	-11.6152
▁propaganda	-11.6154
-12	-11.616
▁thrashed	-11.6161
▁Museveni	-11.6161
▁circumstances	-11.6161
▁makeshift	-11.6161
▁insulting	-11.6161
shore	-11.6164
needed	-11.6168
▁formerly	-11.6169
▁heavyweights	-11.6169
▁101	-11.617
▁originally	-11.6171
▁axe	-11.6175
▁collected	-11.6175
▁Orlando	-11.6176
▁monument	-11.6176
-21	-11.6178
media	-11.6182
rooted	-11.6189
▁blown	-11.6189
▁Minnesota	-11.619
▁Marat	-11.6191
seven	-11.6193
▁Sarah	-11.6193
▁Cle	-11.6197
constructive	-11.62
69	-11.6203
▁Sampras	-11.6205
▁Wilkinson	-11.6205
WFP	-11.6205
tainted	-11.6206
▁Gerard	-11.6206
▁titan	-11.6207
▁Systems	-11.621
life	-11.6212
pha	-11.6214
thirds	-11.6215
▁relat	-11.6217
▁FARC	-11.622
▁embezzlement	-11.622
▁2,500	-11.6222
▁Aires	-11.6224
oweri	-11.623
▁coveted	-11.6234
▁reinforcements	-11.6234
▁absolute	-11.6234
▁clan	-11.6236
▁mend	-11.6238
▁leap	-11.6244
ller	-11.6245
utgoing	-11.6247
MA	-11.6247
▁Ghraib	-11.6249
vy	-11.6256
▁Cook	-11.6257
▁responded	-11.6258
▁deport	-11.6264
▁metro	-11.6266
▁trainer	-11.6269
clear	-11.6271
ER	-11.6273
▁proud	-11.6273
▁downgrade	-11.6273
▁mere	-11.6274
▁5.4	-11.6276
▁AG	-11.6277
▁Capital	-11.6278
▁Chernomyrdin	-11.6278
▁slipping	-11.6279
▁frontrunner	-11.6279
▁fulfill	-11.6281
▁desperately	-11.6282
eta	-11.6282
54	-11.6282
▁gene	-11.6288
▁reception	-11.6293
▁genetically	-11.6293
PR	-11.6294
▁nor	-11.6297
▁us	-11.6297
6.6	-11.6298
▁embark	-11.6298
kha	-11.6299
▁Environment	-11.63
mic	-11.6301
▁Safin	-11.6303
▁freighter	-11.6307
▁cease	-11.6307
▁external	-11.6308
▁108	-11.6309
▁slap	-11.631
▁whi	-11.6313
▁fortune	-11.6315
▁Brit	-11.6315
▁Felix	-11.6318
rom	-11.6322
▁guidelines	-11.6322
▁Keane	-11.6323
▁portray	-11.6324
▁trees	-11.6324
▁Yao	-11.6328
▁cri	-11.633
DI	-11.6332
▁standard	-11.6335
▁mulling	-11.6337
▁rogue	-11.6337
▁miner	-11.6339
▁moral	-11.6339
▁touched	-11.6341
NZ	-11.6345
▁Martina	-11.6345
▁Rah	-11.6345
arian	-11.6347
▁revealing	-11.6355
▁boycotted	-11.6356
▁prince	-11.6361
▁stationed	-11.6362
▁fees	-11.6364
▁overseeing	-11.6365
▁halfway	-11.6366
▁Facebook	-11.6367
▁blistering	-11.6367
▁brewer	-11.6367
▁Evans	-11.6367
▁4.9	-11.6368
mail	-11.6368
NP	-11.6372
▁Ski	-11.6373
▁dampened	-11.6374
nationalist	-11.6374
▁roadmap	-11.6379
aught	-11.6379
▁opportunities	-11.6382
▁GM	-11.6382
▁Tong	-11.6385
▁reinforce	-11.6385
Islam	-11.6387
▁photo	-11.6387
ela	-11.6387
▁leapt	-11.6387
▁Eid	-11.6402
▁bolstered	-11.6402
▁Salman	-11.6403
PF	-11.6406
▁things	-11.6406
▁harbour	-11.6411
▁Sergio	-11.6411
▁habit	-11.6411
ING	-11.6412
LD	-11.6412
▁newcomer	-11.6412
▁filing	-11.6414
▁industrialis	-11.6414
▁6.1	-11.6415
▁avenge	-11.6416
▁achievement	-11.6418
dict	-11.642
▁lies	-11.6423
▁Holbrooke	-11.6426
▁qualification	-11.6426
▁Timoth	-11.6426
▁exactly	-11.643
▁escalated	-11.6433
▁Socialists	-11.6441
▁Lunar	-11.6442
▁Express	-11.6442
▁slashing	-11.6445
▁pill	-11.6446
▁Helsinki	-11.6456
▁Third	-11.6456
▁embrace	-11.6458
▁engines	-11.6463
▁photographs	-11.647
▁Lieutenant	-11.6471
▁delivering	-11.6476
▁snatch	-11.6477
confidence	-11.6478
▁pointed	-11.648
▁Mostar	-11.6481
▁eat	-11.6485
▁credentials	-11.6486
▁misery	-11.6487
▁shortfall	-11.6488
▁await	-11.6489
cat	-11.6492
▁electrical	-11.6496
▁enemies	-11.6499
etta	-11.65
▁You	-11.65
▁Grant	-11.6505
▁Kual	-11.6508
▁expression	-11.651
▁Tata	-11.651
▁recommend	-11.6516
▁5-0	-11.6516
▁fiery	-11.6517
▁tide	-11.6518
placed	-11.6522
piece	-11.6523
▁arrangements	-11.6524
▁deposit	-11.6527
▁Ven	-11.6528
where	-11.6529
▁upgraded	-11.6531
▁wheat	-11.6531
▁nail	-11.6531
▁Now	-11.6532
▁detective	-11.6532
▁cache	-11.6533
▁runaway	-11.6533
▁sitting	-11.6533
▁Teams	-11.6534
▁default	-11.6546
▁Brigades	-11.6546
ech	-11.6553
▁fault	-11.6553
occupied	-11.6554
▁mock	-11.6554
ssociated	-11.6557
▁tree	-11.656
▁Nicole	-11.6561
▁chancellor	-11.6561
▁depict	-11.6562
▁addressed	-11.6563
▁clues	-11.6563
LRA	-11.6566
eni	-11.6568
▁Cel	-11.6569
▁barr	-11.6577
▁Jeff	-11.6577
stand	-11.6578
▁spinner	-11.6579
Sa	-11.658
▁Comoros	-11.658
▁extract	-11.6581
▁ear	-11.6582
mitted	-11.6584
▁Swimming	-11.6592
▁blockbuster	-11.6592
▁writing	-11.6592
▁tiger	-11.6592
▁lung	-11.6593
▁washed	-11.6595
▁mediate	-11.6597
aud	-11.6607
▁Kathmandu	-11.6607
▁Convention	-11.6607
▁alpine	-11.6607
▁brake	-11.6607
PP	-11.6612
AF	-11.6615
▁label	-11.662
▁Goma	-11.6623
handed	-11.6624
▁provoked	-11.6627
▁Tru	-11.6635
▁repression	-11.6637
▁separation	-11.6637
▁frett	-11.6638
▁wheel	-11.6641
▁Gun	-11.6642
▁Match	-11.6643
seat	-11.6645
▁colour	-11.665
▁Fifty	-11.6652
comfort	-11.6653
▁dissent	-11.6653
▁tire	-11.6655
▁Marcel	-11.6657
▁Last	-11.6659
▁simultaneous	-11.6668
▁Brotherhood	-11.6668
▁MotoGP	-11.6668
▁equities	-11.6668
▁impossible	-11.6668
▁bloodiest	-11.6668
▁Newly	-11.6668
▁Fame	-11.6669
▁underlined	-11.6669
▁dogged	-11.667
▁Harri	-11.6671
▁revision	-11.6671
ology	-11.6671
▁bias	-11.6671
▁lined	-11.6672
▁proliferation	-11.6675
▁Penh	-11.6676
nam	-11.6679
▁punished	-11.668
OC	-11.668
lou	-11.6681
▁costly	-11.6682
▁Glenn	-11.6683
▁Svetlan	-11.6683
▁counterfeit	-11.6683
▁denial	-11.6683
dirty	-11.6683
▁Brett	-11.6684
▁ditch	-11.6686
▁104	-11.6688
▁dry	-11.6691
▁stormy	-11.6691
immediate	-11.6692
▁duel	-11.6695
▁powder	-11.6698
▁whaling	-11.6704
▁enrich	-11.6708
flat	-11.671
▁cup	-11.6713
▁Tendulkar	-11.6714
▁Morales	-11.6714
▁outcry	-11.6714
▁passports	-11.6714
▁coordinator	-11.6714
gel	-11.6721
▁corrupt	-11.6728
▁stall	-11.6728
▁Izetbegovic	-11.6729
▁Papandreou	-11.6729
▁protocol	-11.6729
▁(19	-11.6729
▁edging	-11.673
pec	-11.673
▁deploying	-11.6731
3.8	-11.6736
▁hunted	-11.6741
▁repeatedly	-11.6744
▁Factfile	-11.6744
▁Mikheil	-11.6744
▁Mittal	-11.6744
▁administrative	-11.6744
▁thorny	-11.6744
▁patent	-11.6744
RA	-11.6746
▁accelerate	-11.6746
▁shedding	-11.6747
aged	-11.6752
▁pharmaceuticals	-11.6753
Sadr	-11.6754
▁Amir	-11.6758
post	-11.6759
▁frequent	-11.676
▁Colorado	-11.676
▁Guangdong	-11.676
▁embroiled	-11.676
▁petrochemical	-11.676
▁Tadic	-11.6761
▁explore	-11.6766
▁skier	-11.6771
▁(1.2	-11.6773
vat	-11.6776
▁risky	-11.6779
ij	-11.678
▁prostitutes	-11.6784
▁Colonel	-11.6791
▁Seattle	-11.6791
▁neither	-11.6791
▁Andreas	-11.6791
▁fireworks	-11.6791
▁forex	-11.6796
▁Riot	-11.6796
▁donated	-11.6802
▁interrogat	-11.6803
▁Sid	-11.6806
▁Jurgen	-11.6806
▁Pradesh	-11.6806
▁exodus	-11.6806
▁occasion	-11.6806
▁memories	-11.6806
▁removing	-11.6808
▁violate	-11.681
want	-11.6816
▁Hamad	-11.6818
▁Chee	-11.6821
▁moon	-11.6821
▁Kyodo	-11.6822
▁rhetoric	-11.6822
▁universities	-11.6822
9.8	-11.6822
▁Croats	-11.6826
▁mall	-11.6826
Bo	-11.683
▁camera	-11.6832
▁Jay	-11.6833
▁restaurants	-11.6833
yne	-11.6834
▁gall	-11.6836
▁pornography	-11.6837
▁ratification	-11.6837
▁Oliver	-11.6837
▁Osaka	-11.6837
▁Hart	-11.6837
▁obstacles	-11.6838
storey	-11.6842
decade	-11.6847
South	-11.6847
▁Jun	-11.685
ranked	-11.6852
▁Arcelor	-11.6853
▁Caracas	-11.6853
▁Semiconductor	-11.6853
▁stray	-11.6853
▁campus	-11.6855
▁approached	-11.6856
BO	-11.6858
say	-11.6859
▁Downer	-11.6861
▁Edgbaston	-11.6868
▁reference	-11.6869
▁Interpol	-11.6869
▁hide	-11.687
▁Potter	-11.6871
▁climber	-11.6871
▁lightning	-11.6875
French	-11.6878
▁Mauritanian	-11.6879
▁Insurgents	-11.6884
▁Ohio	-11.6884
▁Rovers	-11.6885
▁Half	-11.6885
▁7,000	-11.6888
ablo	-11.689
▁Generale	-11.6893
▁Marcus	-11.6893
cept	-11.6893
▁scholar	-11.69
▁stave	-11.6901
▁firebrand	-11.6901
▁truth	-11.6904
▁quitting	-11.6906
▁expires	-11.6909
▁Assistance	-11.6915
▁Shield	-11.6915
▁wrangling	-11.6915
aya	-11.6916
▁freight	-11.6916
▁Bertie	-11.6916
▁tee	-11.6919
▁launches	-11.6921
vic	-11.6922
▁shoes	-11.6925
▁Zurich	-11.6931
▁introduction	-11.6931
▁dip	-11.6932
▁Mun	-11.6933
▁5.8	-11.6943
▁suing	-11.6943
▁Ricardo	-11.6947
▁Thatcher	-11.6947
▁opium	-11.6947
▁videotape	-11.6947
▁Heights	-11.6947
▁Claudi	-11.6947
81	-11.695
roliferation	-11.6959
▁Construction	-11.6962
▁Hughes	-11.6962
▁meteorological	-11.6963
▁leaking	-11.6971
Islamic	-11.6975
▁Ming	-11.6977
▁concentrate	-11.6978
▁resurgent	-11.6978
▁divert	-11.6981
▁signalling	-11.6981
▁Sali	-11.6984
▁admit	-11.6986
▁Boy	-11.6987
rell	-11.6987
nger	-11.6993
book	-11.6994
▁Tomas	-11.6996
▁Bonn	-11.6997
▁102	-11.7002
rise	-11.7004
▁discussing	-11.7005
▁pressured	-11.7009
ender	-11.701
▁breaching	-11.701
▁Tribunal	-11.701
▁unemployed	-11.701
▁lap	-11.7011
▁wire	-11.7011
▁Christie	-11.7012
▁Icelandic	-11.7016
▁recommendation	-11.7016
▁usual	-11.7019
▁cautioned	-11.7022
mura	-11.7024
efficient	-11.7025
▁contaminated	-11.7025
▁magnate	-11.7025
▁Auschwitz	-11.7025
▁afford	-11.7026
▁Drug	-11.7026
▁Guardian	-11.7028
▁Dayton	-11.7034
▁6.3	-11.7036
▁Tro	-11.7037
eller	-11.704
insult	-11.704
▁Flintoff	-11.7041
▁Hossein	-11.7041
▁commodities	-11.7041
▁Louisiana	-11.7041
▁casualty	-11.7042
ida	-11.7044
▁deposits	-11.7044
▁hired	-11.7048
▁APEC	-11.7052
▁slumping	-11.7052
▁enterprise	-11.7057
▁controllers	-11.7057
▁millionaire	-11.7057
▁rebuke	-11.7057
▁apologized	-11.7061
▁Gro	-11.7066
▁premature	-11.7067
▁System	-11.7068
▁guest	-11.7068
▁climax	-11.7073
▁monsoon	-11.7073
attered	-11.7079
▁sham	-11.708
▁107	-11.7083
▁handful	-11.7086
▁influenza	-11.7089
▁scrum	-11.7089
▁haunt	-11.7089
mini	-11.709
▁Graf	-11.7091
▁Kumar	-11.7091
▁wipe	-11.7094
▁Sean	-11.7097
▁unacceptable	-11.7097
▁motivated	-11.7099
declared	-11.71
▁Anglican	-11.7105
▁Trinidad	-11.7105
▁Naples	-11.7105
▁fog	-11.7113
▁appearing	-11.7115
▁nurses	-11.7115
▁teen	-11.712
▁wreak	-11.7121
▁REPETITION	-11.7121
▁Sanaa	-11.7121
▁Gerrard	-11.7121
▁tighter	-11.7123
▁fend	-11.7127
▁Barak	-11.7127
enko	-11.7129
▁liberation	-11.7137
▁usher	-11.7137
▁Constitution	-11.7138
▁collective	-11.7138
fish	-11.714
▁1960	-11.7141
continental	-11.7141
▁2014	-11.7141
wielding	-11.7143
6.5	-11.7149
▁detainee	-11.715
▁Anne	-11.7151
▁dividend	-11.7154
▁lease	-11.7155
▁dismantling	-11.7169
▁construct	-11.717
▁discussion	-11.7174
hum	-11.7174
▁Downing	-11.7177
▁succession	-11.7179
▁installed	-11.7184
▁minnows	-11.7185
▁extent	-11.7185
▁publish	-11.7189
▁conclude	-11.719
▁Siberia	-11.7196
grade	-11.7197
▁Bad	-11.7198
▁Hafez	-11.7201
▁botched	-11.7201
▁murderer	-11.7202
Mart	-11.7202
▁Lara	-11.7202
chin	-11.7202
▁magic	-11.7202
▁ageing	-11.7204
▁outright	-11.7206
▁inflationary	-11.7211
▁cricketers	-11.7217
▁Phelps	-11.7217
▁signature	-11.7217
▁Hitler	-11.7217
▁Corsica	-11.7217
▁persist	-11.7217
▁Filipina	-11.7218
▁coordinate	-11.7218
▁McG	-11.7218
▁25,000	-11.7221
olo	-11.7221
▁Serge	-11.7221
▁Gerr	-11.7222
▁obligations	-11.7224
▁laying	-11.7224
▁flurr	-11.7228
▁Head	-11.7228
▁INCORPORAT	-11.7233
▁ISNA	-11.7233
▁supposed	-11.7233
▁Haniya	-11.7234
▁Minsk	-11.7235
▁Supporters	-11.7235
▁contention	-11.7235
gla	-11.7238
▁comedy	-11.724
bad	-11.7244
▁hum	-11.7244
utter	-11.7248
▁Investigators	-11.725
▁Vaughan	-11.725
▁ensuring	-11.725
▁tabloid	-11.725
▁Sixteen	-11.7251
▁hardcourt	-11.7251
▁Week	-11.7252
▁Tung	-11.7256
▁poison	-11.7258
▁Henri	-11.7264
▁Cycling	-11.7266
▁estrange	-11.7266
▁Venice	-11.7266
▁Medical	-11.7266
▁minorities	-11.7267
▁Chamber	-11.7267
pitting	-11.7268
▁Dae	-11.7268
▁sufficient	-11.7268
▁cracked	-11.7275
▁Charlton	-11.7282
▁component	-11.7282
▁belief	-11.7282
▁Belarussian	-11.7282
▁sometimes	-11.7285
▁gripping	-11.7288
▁Khaleda	-11.7289
▁Botswana	-11.7298
▁1,200	-11.73
▁Rebel	-11.7301
nor	-11.7302
▁Anton	-11.731
▁Everest	-11.7315
▁sugar	-11.7315
▁sliding	-11.7317
▁cook	-11.7319
complete	-11.7327
nine	-11.7331
▁Davenport	-11.7331
▁looted	-11.7331
▁Aliyev	-11.7331
det	-11.7331
▁Augusto	-11.7334
▁commemorat	-11.7337
▁dampen	-11.734
▁Leverkusen	-11.7347
▁Shevardnadze	-11.7347
▁guarded	-11.7349
▁Ruud	-11.735
0.50	-11.7359
provocative	-11.7364
▁Broadcasting	-11.7364
▁Puerto	-11.7364
▁remanded	-11.7364
▁renowned	-11.7364
▁Jonny	-11.7364
8.5	-11.7365
▁Carla	-11.7366
▁requir	-11.7368
▁Had	-11.7371
▁assembl	-11.7372
▁feuding	-11.7378
▁contrast	-11.738
▁Aegean	-11.738
▁Brisbane	-11.738
▁clothes	-11.738
▁engage	-11.7383
▁Sepp	-11.7385
▁Ul	-11.7385
▁imm	-11.7386
▁Said	-11.7389
▁palm	-11.739
▁Ball	-11.7391
▁dire	-11.7395
▁Alessandro	-11.7396
▁Peshawar	-11.7396
▁Sayyaf	-11.7396
▁Wolfowitz	-11.7396
▁circle	-11.7396
▁explanation	-11.7396
▁modified	-11.7396
ncies	-11.7397
▁6.4	-11.7398
▁Danny	-11.7398
▁Fin	-11.7401
any	-11.7402
▁Sox	-11.7403
▁Die	-11.7408
IOC	-11.7411
nidentified	-11.7413
▁dressed	-11.7414
▁slick	-11.7414
▁projections	-11.7416
▁Kam	-11.742
▁Dam	-11.7422
tran	-11.7426
59	-11.7428
▁examining	-11.7429
▁vacation	-11.7429
iu	-11.7432
▁survivor	-11.7433
cht	-11.7439
▁Messi	-11.744
▁alter	-11.7444
▁Pinochet	-11.7446
▁mudslide	-11.7446
▁exposure	-11.7446
▁astronaut	-11.745
▁investigator	-11.745
rivals	-11.7451
▁experiment	-11.7456
▁Wade	-11.7456
▁mulled	-11.7458
▁hunters	-11.746
▁detailed	-11.7461
▁Khaled	-11.7462
▁Inflation	-11.7462
▁Janeiro	-11.7462
▁manhunt	-11.7462
▁sword	-11.7462
▁Growth	-11.7462
▁installations	-11.7463
▁ore	-11.7463
▁Tre	-11.7464
▁satisfied	-11.7465
corp	-11.7466
▁jam	-11.747
▁burnt	-11.747
▁Flor	-11.7471
▁Many	-11.7474
▁rent	-11.7478
▁Southampton	-11.7479
▁rallying	-11.748
▁Fred	-11.7481
▁Cy	-11.7481
best	-11.7481
▁completion	-11.7481
▁Only	-11.7483
▁legislator	-11.7484
east	-11.7485
▁tune	-11.7485
▁pursued	-11.7485
3.00	-11.7486
▁pardon	-11.7489
▁Laura	-11.7491
▁Research	-11.7493
▁aggression	-11.7505
brushed	-11.7516
Bron	-11.7517
▁nurse	-11.7518
ISS	-11.7518
▁Chun	-11.7525
▁spa	-11.7527
1.8	-11.7528
▁drilling	-11.7528
▁Joachim	-11.7529
▁pontiff	-11.7529
▁Jesus	-11.7529
▁loaded	-11.7529
▁didn	-11.7531
▁authorised	-11.7531
▁Price	-11.754
FI	-11.7542
beat	-11.7543
▁Eurotunnel	-11.7545
▁steadied	-11.7545
▁buck	-11.7546
9.4	-11.7546
▁hatred	-11.7547
4.6	-11.7551
▁harder	-11.7553
▁pile	-11.7554
▁quota	-11.7554
▁employer	-11.7557
▁domination	-11.7562
▁moratorium	-11.7562
▁reprisal	-11.7562
▁studies	-11.7562
▁upsurge	-11.7562
▁Trans	-11.7562
▁shrink	-11.7563
4.7	-11.7565
▁IAEA	-11.7568
▁Novosti	-11.757
▁Fog	-11.7575
4.00	-11.7578
▁elusive	-11.7579
▁lavish	-11.7579
▁Yar	-11.7583
▁transparency	-11.7596
▁Troops	-11.7596
▁Heathrow	-11.7596
▁Vegas	-11.7596
▁Sachs	-11.7596
▁Turks	-11.7597
▁Shoai	-11.7598
▁Wild	-11.7598
▁Evo	-11.7602
iev	-11.7606
sufficient	-11.761
▁mail	-11.7612
▁Rob	-11.7613
issa	-11.7617
▁intent	-11.7628
mont	-11.7629
▁category	-11.7629
▁exhaust	-11.7629
▁perhaps	-11.7629
▁Globe	-11.7629
▁tragic	-11.7629
▁skills	-11.7629
print	-11.763
▁brokerage	-11.7631
▁heroes	-11.7632
uma	-11.7633
▁climbing	-11.7637
▁kicking	-11.7638
79	-11.7643
▁Raffarin	-11.7646
▁animated	-11.7646
▁Blatter	-11.7647
▁steal	-11.7647
▁stern	-11.7647
▁Bengal	-11.7648
▁cartoon	-11.7655
▁Polls	-11.7656
▁Karen	-11.7657
pie	-11.7663
▁registration	-11.7663
▁stomach	-11.7663
▁Murrayfield	-11.7663
▁Fuji	-11.7664
▁1979	-11.7665
▁gloomy	-11.7673
▁Doo	-11.7674
▁Oracle	-11.768
▁conversation	-11.768
▁rammed	-11.768
▁function	-11.768
,300	-11.7684
▁Duty	-11.7684
▁accidentally	-11.7687
▁purported	-11.7697
▁Pearl	-11.7697
▁candidacy	-11.7697
▁placing	-11.7697
▁transplant	-11.7697
▁rejoin	-11.7697
▁factional	-11.7697
▁rap	-11.7698
▁weigh	-11.7699
▁Gare	-11.7702
▁disclosed	-11.7702
▁demonstrate	-11.7702
▁dig	-11.7703
ister	-11.7706
spinner	-11.7712
▁Santiago	-11.7714
▁restructure	-11.7714
▁Spurs	-11.7714
▁Rad	-11.7718
▁migrant	-11.7725
▁Mongolia	-11.7725
▁react	-11.7727
-18	-11.7727
▁Fort	-11.7728
BB	-11.773
▁pause	-11.7731
▁mention	-11.7741
▁Taka	-11.7747
▁Moussaoui	-11.7748
▁adapt	-11.7748
▁curtain	-11.7748
▁promoted	-11.7749
▁diving	-11.7749
▁airlift	-11.775
▁Jet	-11.7751
▁Nam	-11.7751
▁2016	-11.7752
▁guests	-11.7753
▁denounc	-11.7754
▁seem	-11.7758
▁outlined	-11.7758
▁adopting	-11.7763
▁Scheffer	-11.7765
▁Toshiba	-11.7765
▁illicit	-11.7765
grave	-11.7767
▁Mut	-11.7767
▁parliamentarian	-11.7769
▁denounce	-11.7774
▁Eritrean	-11.7777
▁2020	-11.778
▁Yassin	-11.7782
▁coaches	-11.7786
▁performed	-11.7786
tric	-11.7789
▁Wells	-11.7792
▁Lopez	-11.7799
▁Ghanaian	-11.7802
▁stretched	-11.7803
amine	-11.7803
▁Addi	-11.7805
▁commemoration	-11.7805
▁Jamaican	-11.7808
▁Main	-11.7808
▁Pol	-11.781
▁corpses	-11.781
▁mourned	-11.7814
▁Oklahoma	-11.7816
▁Science	-11.7816
▁subdued	-11.7816
▁senate	-11.7816
full	-11.7819
anti	-11.7821
▁testified	-11.7822
▁Ferrero	-11.7822
▁concerning	-11.7823
crime	-11.7832
▁contradict	-11.7833
▁UNITA	-11.7833
▁numerous	-11.7833
▁guru	-11.7833
▁thick	-11.7833
▁Patten	-11.7835
▁devot	-11.7835
320	-11.7835
vet	-11.7836
▁NO	-11.7838
▁Mann	-11.7839
▁coastline	-11.7842
interrupted	-11.785
▁Jennifer	-11.785
▁Mandelson	-11.785
▁contentious	-11.7851
▁Shu	-11.7852
▁bowled	-11.7854
▁volunteers	-11.7858
▁poisoned	-11.7859
He	-11.7861
▁chart	-11.7861
▁torched	-11.7862
▁Gnassingbe	-11.7868
▁boast	-11.7868
▁blunt	-11.7868
▁holies	-11.7869
▁Fat	-11.7879
▁learned	-11.7879
▁ordinary	-11.7885
▁tumbling	-11.7885
▁worshippers	-11.7885
▁unique	-11.7888
▁tame	-11.7895
▁Ren	-11.7897
fly	-11.79
4.8	-11.7901
▁flame	-11.7901
▁ritual	-11.7902
▁compar	-11.7902
▁Nancy	-11.7903
▁Canary	-11.7904
▁Spring	-11.7904
▁sounded	-11.791
▁Nation	-11.7914
▁loved	-11.7919
▁inspiration	-11.7919
▁tremor	-11.7919
▁unconditional	-11.7919
doping	-11.7923
▁Brand	-11.7923
bla	-11.7927
▁Tension	-11.7927
▁authorized	-11.7928
▁tally	-11.7928
CTION	-11.7937
▁Management	-11.7937
▁volleyball	-11.7937
▁jewel	-11.7937
▁aerial	-11.7938
▁Fre	-11.7941
-17	-11.7942
▁worsened	-11.7943
▁heels	-11.7946
▁(1.3	-11.7948
▁pointing	-11.7953
▁client	-11.7953
▁Zacarias	-11.7954
▁backdrop	-11.7954
▁provisions	-11.7954
▁condom	-11.7956
▁150,000	-11.7956
▁surgeon	-11.7956
▁eager	-11.7964
▁Shaun	-11.7967
▁Endeavour	-11.7971
▁Floyd	-11.7971
▁Vieira	-11.7971
▁archbishop	-11.7971
▁chaotic	-11.7971
▁intimidation	-11.7971
▁reclusive	-11.7971
▁unnamed	-11.7971
▁colonel	-11.7973
▁infamous	-11.7976
-15	-11.798
Natal	-11.7981
▁repay	-11.7986
▁switched	-11.7988
▁Sulawesi	-11.7989
▁burial	-11.7989
▁claw	-11.799
▁deepen	-11.799
1.7	-11.7991
rel	-11.7992
▁beaches	-11.7998
▁5.9	-11.8001
Re	-11.8001
▁grounded	-11.8002
▁Tareq	-11.8007
▁unclear	-11.8009
stair	-11.8009
▁Gil	-11.8009
▁convene	-11.8012
▁shelled	-11.8014
inate	-11.8021
▁Ny	-11.8024
▁Geithner	-11.8024
▁veterinar	-11.8024
▁Billiton	-11.8024
▁carnage	-11.8024
▁rupees	-11.8026
▁bore	-11.8031
▁forget	-11.8031
▁cameras	-11.8037
6.7	-11.8039
▁arrange	-11.8041
▁Admiral	-11.8041
▁cooperating	-11.8041
▁Television	-11.8041
opening	-11.8043
▁invite	-11.8048
▁terr	-11.805
▁guided	-11.8058
▁(7/5)	-11.8059
▁Casablanca	-11.8059
▁gruelling	-11.8059
▁sacrifice	-11.8059
▁underlying	-11.8061
digit	-11.8061
front	-11.8062
oud	-11.8069
▁suddenly	-11.8073
▁walking	-11.8076
7.6	-11.8076
▁financier	-11.8076
▁faded	-11.8077
▁AIG	-11.8077
▁Jon	-11.8077
▁posing	-11.8081
chen	-11.8087
▁endanger	-11.8087
▁shutt	-11.8089
leaning	-11.8089
▁assert	-11.8093
ICE	-11.8094
▁authoritarian	-11.8094
▁horrific	-11.8094
▁swathe	-11.8094
▁Arthur	-11.8094
▁04	-11.8102
▁Koran	-11.8103
rest	-11.8105
▁450	-11.8106
▁disarming	-11.8108
▁reforming	-11.8111
▁Gonzal	-11.8111
▁unspecified	-11.8112
▁Casey	-11.8112
▁valuable	-11.8112
▁plug	-11.8112
▁approaching	-11.8113
▁favorite	-11.8113
▁disposal	-11.8114
▁Baath	-11.8115
about	-11.8119
▁Emile	-11.8122
▁Walt	-11.8127
▁Work	-11.8127
bid	-11.8128
▁Gaz	-11.8129
▁Madonna	-11.8129
▁mogul	-11.8129
attack	-11.813
▁Assam	-11.813
▁abort	-11.8132
away	-11.8133
fair	-11.8138
proving	-11.8141
▁indicators	-11.8143
▁Jericho	-11.8147
▁Strasbourg	-11.8147
▁Zoran	-11.8147
▁scathing	-11.8147
▁stabbing	-11.8147
▁farming	-11.8147
▁Burns	-11.8147
Croat	-11.8147
producing	-11.8147
▁hostility	-11.8148
▁personally	-11.8149
▁Eurozone	-11.8149
▁Kurd	-11.8152
DS	-11.8155
▁Kra	-11.816
OL	-11.8164
▁Bogota	-11.8165
▁ministries	-11.8165
▁psychiatri	-11.8165
▁brisk	-11.8165
▁Moshe	-11.8166
▁Luka	-11.8166
▁fet	-11.8169
▁triumphant	-11.8169
▁Hay	-11.8169
▁scrutiny	-11.8183
▁minibus	-11.8183
▁Ciller	-11.8183
▁loose	-11.8183
bust	-11.8185
▁morale	-11.8193
▁Gui	-11.8194
5.00	-11.8195
▁Lusa	-11.8196
▁restricted	-11.8197
▁defected	-11.8199
▁7.0	-11.82
▁knowledge	-11.82
▁shark	-11.82
▁Annika	-11.82
appropriate	-11.8201
guard	-11.8201
▁Vel	-11.8203
USA	-11.8204
▁Nice	-11.8209
▁Denis	-11.821
6.00	-11.8215
luc	-11.8216
kovic	-11.8216
▁Ingushetia	-11.8218
▁Nikolay	-11.8218
▁Technology	-11.8218
▁Zardari	-11.8218
▁annexed	-11.8218
▁Eurostat	-11.8218
Arab	-11.8218
Faisal	-11.8219
▁Staff	-11.8219
▁Coca	-11.822
▁Fears	-11.822
SIA	-11.822
battered	-11.8221
▁arguments	-11.8223
▁(2.2	-11.8224
▁renounce	-11.8225
▁toughest	-11.8229
▁playmaker	-11.823
▁authoriz	-11.823
lier	-11.823
yong	-11.8233
trac	-11.8236
▁Zidane	-11.8236
▁audio	-11.8236
ethnic	-11.8237
▁toughen	-11.8237
glo	-11.8239
▁attracted	-11.8241
▁adult	-11.8242
▁photos	-11.8243
teen	-11.8244
▁hyp	-11.8246
fast	-11.8247
▁thwarted	-11.8252
▁Field	-11.8254
▁Loeb	-11.8255
▁Frederick	-11.8255
bia	-11.8262
▁sprawling	-11.8272
▁depriv	-11.8272
▁standstill	-11.8273
-11	-11.8274
▁1986	-11.8274
▁sailor	-11.8282
▁piled	-11.8284
boy	-11.8288
▁Tanjug	-11.829
▁iPhone	-11.829
▁retiring	-11.829
▁grass	-11.829
▁Relations	-11.829
▁Jerem	-11.829
▁slave	-11.829
▁conspiring	-11.829
▁nun	-11.8291
▁Morris	-11.8291
listed	-11.8291
▁Giants	-11.8291
▁Ashton	-11.8291
▁motorway	-11.8292
▁Bai	-11.8294
▁tons	-11.8294
▁sort	-11.8298
▁8.5	-11.83
▁succeeded	-11.8301
▁unleash	-11.8301
▁breached	-11.8302
▁Neil	-11.8302
▁quarterback	-11.8308
▁Catherine	-11.8308
▁clergy	-11.8308
▁diagnosed	-11.8308
▁Tae	-11.8309
▁spiral	-11.8325
▁cabin	-11.8325
ccompanied	-11.8326
▁Gibraltar	-11.8326
▁Newlands	-11.8328
▁Metal	-11.833
▁Barr	-11.8336
dding	-11.8338
▁guaranteed	-11.834
▁factor	-11.8341
▁banner	-11.8341
▁Sorenstam	-11.8344
▁consolidation	-11.8344
▁jockey	-11.8344
▁marijuana	-11.8344
▁obstruct	-11.8344
▁sentencing	-11.8344
▁syndicate	-11.8344
▁libel	-11.8344
▁Brent	-11.8345
conscious	-11.8345
▁commando	-11.8346
▁60,000	-11.8348
gur	-11.8349
▁bodyguards	-11.835
▁clouded	-11.8352
haul	-11.8353
▁screening	-11.8362
▁delicate	-11.8362
▁Militant	-11.8362
▁NEW	-11.8362
▁transactions	-11.8362
ibility	-11.8362
▁Unity	-11.8366
▁surprisingly	-11.8367
▁mineral	-11.8368
▁Siberian	-11.8368
▁Susan	-11.8376
▁conquer	-11.8376
▁Baquba	-11.838
▁acquiring	-11.838
▁choppy	-11.838
▁plutonium	-11.838
5.5	-11.8381
▁endorse	-11.8385
▁accelerated	-11.8396
▁Bab	-11.8396
▁hampered	-11.8397
▁Caspian	-11.8398
▁Citroen	-11.8398
▁Investigation	-11.8398
▁Rangoon	-11.8398
▁protracted	-11.8398
▁Bavaria	-11.8398
▁Mutti	-11.84
▁speeding	-11.8403
▁Reporter	-11.8403
force	-11.8405
value	-11.8413
330	-11.8413
▁Goldman	-11.8414
▁Gabriel	-11.8416
▁Marathon	-11.8416
▁Sihanouk	-11.8416
▁Seventeen	-11.8417
ctic	-11.8422
▁adults	-11.8428
path	-11.8432
▁uproar	-11.8435
▁IBM	-11.8436
▁cull	-11.8439
▁spies	-11.844
▁chickens	-11.8443
▁Kimi	-11.8445
▁bowed	-11.8449
tier	-11.8452
▁Fukuda	-11.8453
▁Political	-11.8453
▁skidded	-11.8453
typical	-11.8453
▁exporting	-11.8456
Ho	-11.8457
▁unveiling	-11.8463
edge	-11.8464
▁reopening	-11.8468
▁Barclays	-11.8471
▁Muralitharan	-11.8471
▁surpass	-11.8471
▁simple	-11.8471
▁doomed	-11.8471
voicing	-11.8471
Prince	-11.8473
isgraced	-11.8474
▁Blake	-11.8474
▁Julia	-11.8481
▁wood	-11.8481
▁Goran	-11.8483
▁forging	-11.8487
▁Dutchman	-11.8488
▁UNESCO	-11.8489
▁Controversial	-11.8489
▁ligament	-11.8489
▁Ballack	-11.849
▁Lamy	-11.8493
▁mill	-11.8494
▁advisory	-11.85
aj	-11.8502
▁Bear	-11.8504
▁tru	-11.8505
▁mammoth	-11.8508
▁participating	-11.8508
peace	-11.8509
▁enact	-11.8509
,600	-11.8518
▁enjoying	-11.8523
▁formula	-11.8523
▁Henman	-11.8526
▁Abdallah	-11.8526
zen	-11.8526
▁Barings	-11.8531
▁meters	-11.8533
▁faithful	-11.8537
▁Kris	-11.8538
studded	-11.8545
▁Peugeot	-11.8545
▁Sevilla	-11.8545
▁Ousted	-11.8545
▁Sinai	-11.8545
▁goodwill	-11.8546
drug	-11.8548
▁protectionism	-11.8548
Test	-11.8549
▁Cesar	-11.855
dependent	-11.8553
big	-11.8556
child	-11.8557
CN	-11.8557
▁Claude	-11.8558
▁Idriss	-11.8563
▁Mottaki	-11.8563
▁superjumbo	-11.8563
▁Amid	-11.8569
Alija	-11.8571
▁trauma	-11.8581
▁reliable	-11.8582
▁By	-11.8582
▁historical	-11.8591
▁Chemical	-11.8596
They	-11.8597
▁sailing	-11.8598
▁Chernobyl	-11.86
▁bleak	-11.86
▁bask	-11.86
nik	-11.8601
affected	-11.8603
missile	-11.8603
▁carpet	-11.8604
▁Hull	-11.8607
owner	-11.8607
▁swamp	-11.861
umi	-11.8612
gotten	-11.8612
▁resident	-11.8616
▁Muhammad	-11.8619
▁turbulence	-11.8619
▁spoil	-11.8619
▁12,000	-11.8621
page	-11.8624
▁really	-11.8625
▁Conte	-11.8627
band	-11.8628
▁dumping	-11.8631
▁repatriated	-11.8635
▁Action	-11.8636
hia	-11.8636
▁Mickelson	-11.8637
▁volatility	-11.8637
▁heritage	-11.8637
active	-11.8641
hot	-11.8642
▁SPA	-11.8643
▁Ou	-11.8645
▁justified	-11.8647
6.8	-11.8648
▁contraction	-11.865
▁normally	-11.8652
▁reunify	-11.8656
▁Alaska	-11.8656
▁Zined	-11.8657
roadmap	-11.8659
taker	-11.8664
▁Sachi	-11.8665
▁boxer	-11.8665
▁Ecuadoran	-11.8667
▁SK	-11.867
▁storming	-11.867
▁dismantled	-11.867
▁Bett	-11.867
▁tail	-11.8672
Sullivan	-11.8674
▁Abdelaziz	-11.8674
▁Jiji	-11.8676
▁Ice	-11.8681
▁acted	-11.869
61	-11.8691
▁stimulate	-11.8693
▁Angry	-11.8693
▁Hasina	-11.8693
rising	-11.8695
▁gradually	-11.8698
▁affiliate	-11.8699
5.7	-11.8705
▁rebounding	-11.8708
Aleksander	-11.8712
▁Alejandro	-11.8712
▁Fiorentina	-11.8712
▁Marshall	-11.8712
▁Sicily	-11.8712
▁ensured	-11.8712
▁relentless	-11.8712
▁treasury	-11.8712
▁vault	-11.8712
▁dairy	-11.8712
▁Sel	-11.8712
▁chess	-11.8712
▁Voji	-11.8713
▁competitors	-11.8714
NC	-11.8716
▁worry	-11.8716
▁occupying	-11.8722
▁Shimbun	-11.8731
▁confusion	-11.8731
▁simply	-11.8731
▁Albright	-11.8731
▁turnaround	-11.8731
▁Daewoo	-11.8731
▁genetic	-11.8731
▁Yulia	-11.8731
FTA	-11.8731
essential	-11.8734
▁Parma	-11.8736
▁Finn	-11.8736
▁expos	-11.8737
▁Indiana	-11.8737
flight	-11.874
looking	-11.8741
▁eliminated	-11.8747
▁newest	-11.8748
▁outline	-11.8748
▁bypass	-11.8749
▁Djibouti	-11.8749
▁cannabis	-11.8749
▁Ababa	-11.8749
▁113	-11.875
▁disorder	-11.875
▁Aslan	-11.8753
▁everyone	-11.8753
stein	-11.8754
5.6	-11.8756
▁drafted	-11.8756
▁convened	-11.8762
vit	-11.8763
▁(1.4	-11.8764
▁directed	-11.8767
▁Jens	-11.8768
▁fiercely	-11.8768
▁Kwasniewski	-11.8768
▁malaria	-11.8768
▁slew	-11.8768
finding	-11.8772
ID	-11.8775
▁Ly	-11.8775
▁Beit	-11.8779
▁rot	-11.878
▁worsen	-11.8782
▁observe	-11.8783
come	-11.8787
▁Larijani	-11.8787
▁Reliance	-11.8787
▁trio	-11.8787
▁existence	-11.8788
▁Ying	-11.8789
imposed	-11.8791
▁Cap	-11.8791
▁bidder	-11.8792
▁reap	-11.8794
▁Ronald	-11.8799
▁drunk	-11.8803
▁doomsday	-11.8806
▁elimination	-11.8806
▁readiness	-11.8806
▁Lynch	-11.8806
▁mainstream	-11.8808
▁regulation	-11.8808
urgent	-11.8809
▁Full	-11.8809
ME	-11.8815
talling	-11.8815
,800	-11.8818
▁Farm	-11.8821
▁Son	-11.8822
▁swim	-11.8824
▁Kuznetsova	-11.8825
▁Stewart	-11.8825
▁airbase	-11.8825
▁Alpine	-11.8825
weary	-11.8835
ulation	-11.8837
▁outlaw	-11.8839
▁Maurice	-11.8844
▁Shalom	-11.8844
▁resounding	-11.8844
▁Nasser	-11.8844
▁shipyard	-11.8847
▁intervened	-11.8849
▁Kamal	-11.885
▁Siro	-11.885
pel	-11.885
▁flare	-11.8852
▁convict	-11.8855
▁dispatched	-11.8858
▁Fernandez	-11.8863
turned	-11.8864
▁echo	-11.8865
▁defendants	-11.8865
India	-11.8871
▁suburban	-11.8875
▁Blanc	-11.8877
▁hydro	-11.8882
Hardenne	-11.8882
▁Captain	-11.8882
▁sheet	-11.8887
▁supporter	-11.8896
▁Edouard	-11.8901
▁cosmetic	-11.8901
▁mechanism	-11.8901
▁6.7	-11.8902
▁Walker	-11.8902
▁thigh	-11.8903
still	-11.8904
ridge	-11.8907
▁ignore	-11.8909
cord	-11.8909
MP	-11.891
▁rivalry	-11.8912
▁Moore	-11.8913
▁demolished	-11.8915
▁feat	-11.8919
Horta	-11.892
▁concentration	-11.892
▁Jerry	-11.892
▁ablaze	-11.892
▁eradicate	-11.892
▁naked	-11.892
▁showcase	-11.892
▁requirements	-11.8921
▁duck	-11.8923
▁smile	-11.8924
important	-11.8925
Iranian	-11.8925
▁Book	-11.8926
▁musician	-11.8927
▁insist	-11.8927
▁none	-11.8934
▁Francais	-11.8939
▁equaliser	-11.8939
▁sterling	-11.8939
OR	-11.8939
▁censorship	-11.894
▁Rockets	-11.894
▁Denver	-11.894
▁115	-11.8941
major	-11.8943
▁Athletic	-11.8945
▁respectively	-11.8946
▁Pale	-11.8949
▁proclaimed	-11.8956
▁docked	-11.8958
▁advertisement	-11.8959
▁7.2	-11.8961
military	-11.8963
▁Josef	-11.8966
▁donate	-11.8969
lag	-11.897
▁Crime	-11.8978
▁Paolo	-11.8979
gram	-11.8979
▁fann	-11.898
Cypriot	-11.8983
Sheikh	-11.8983
▁separated	-11.8986
▁recalling	-11.8989
▁jumping	-11.899
▁clearly	-11.8991
▁Marion	-11.8994
▁fun	-11.8994
▁credible	-11.8995
▁111	-11.8996
▁Assistant	-11.8997
▁Independence	-11.8997
▁Sichuan	-11.8997
▁Telkom	-11.8997
▁orchestra	-11.8997
▁privatization	-11.8997
▁unmanned	-11.8997
▁extinction	-11.8997
▁diesel	-11.8998
▁owed	-11.8998
▁Button	-11.9
2.50	-11.9
▁usually	-11.9006
2.00	-11.9008
La	-11.9014
step	-11.9016
▁Livni	-11.9016
▁Stamford	-11.9016
▁analysis	-11.9016
▁Yves	-11.9016
▁resigning	-11.9017
▁Bremer	-11.9017
▁ruin	-11.9018
1.00	-11.9018
▁chest	-11.9019
-14	-11.9021
▁1975	-11.9021
▁Chu	-11.9022
▁mile	-11.9024
▁Michele	-11.9032
▁Bert	-11.9034
▁disabled	-11.9036
▁wrist	-11.9036
▁robot	-11.9038
town	-11.9038
GMT	-11.9042
▁hungry	-11.9046
▁Dev	-11.9046
▁slogans	-11.9047
▁reviewing	-11.9054
▁Bujumbura	-11.9055
▁influx	-11.9055
UTH	-11.9055
▁Kirchner	-11.9056
▁Fuad	-11.9057
▁Joint	-11.9057
4.50	-11.906
hong	-11.906
aircraft	-11.9061
▁IOC	-11.9061
▁prosecute	-11.9063
letting	-11.9064
▁represented	-11.9066
▁Wie	-11.9068
kilogram	-11.9069
▁veil	-11.907
▁researcher	-11.9085
▁106	-11.9087
▁Music	-11.909
▁Manoucheh	-11.9094
▁Montgomerie	-11.9094
▁Nicholas	-11.9094
▁Shenzhen	-11.9094
▁Thomson	-11.9094
▁motorcycling	-11.9094
▁Teresa	-11.9094
mond	-11.9098
▁Richardson	-11.91
▁conditional	-11.9103
▁bizarre	-11.9113
▁clandestine	-11.9113
▁doubling	-11.9113
▁frustrated	-11.9113
▁lottery	-11.9113
▁stories	-11.9113
▁Pierce	-11.9113
▁Lyonnais	-11.9113
▁gases	-11.9117
▁Forest	-11.912
▁chicken	-11.9123
urg	-11.9124
▁embarked	-11.9126
▁Turk	-11.913
▁garden	-11.9133
▁Bashir	-11.9133
▁endorsement	-11.9135
▁Banda	-11.9137
▁slice	-11.9137
▁WOR	-11.9138
▁dose	-11.914
▁Tele	-11.9141
▁Cat	-11.9142
1.50	-11.9146
kel	-11.9146
▁dent	-11.915
▁...	-11.9152
EPRO	-11.9153
ORIZ	-11.9153
▁Protocol	-11.9153
▁SERV	-11.9153
▁Vincent	-11.9153
▁corporation	-11.9153
▁umpire	-11.9153
▁secessionist	-11.9153
▁cluster	-11.9153
▁toilet	-11.9157
inda	-11.9158
▁registering	-11.9158
▁Hop	-11.916
▁mighty	-11.9161
▁Fast	-11.9161
▁backers	-11.9168
▁Flood	-11.9172
▁Daimler	-11.9172
▁Radical	-11.9173
▁Perez	-11.9174
▁Bildt	-11.9177
chem	-11.9179
▁(1.1	-11.918
▁drastic	-11.9191
▁Frontieres	-11.9192
▁Siniora	-11.9192
▁Speaker	-11.9192
▁integrate	-11.9192
▁breed	-11.9192
▁friendship	-11.9193
▁Draw	-11.9193
▁Christin	-11.9197
▁Low	-11.9198
ASEAN	-11.9198
ECB	-11.9201
▁Environmental	-11.9202
▁Automobile	-11.9211
▁YouTube	-11.9211
▁kilogrammes	-11.9211
▁Tzip	-11.9212
▁postponement	-11.9214
▁scaled	-11.9221
moral	-11.9226
▁storage	-11.9231
▁AFC	-11.9231
▁thaw	-11.9231
▁tolerate	-11.9234
▁dissolve	-11.924
▁Love	-11.9241
mired	-11.9245
▁notched	-11.9245
▁Santander	-11.9251
▁Guiller	-11.9251
▁coordination	-11.9252
▁legally	-11.9257
▁argued	-11.9257
holding	-11.9261
Cola	-11.9263
▁1,0	-11.9263
▁athlete	-11.9265
▁109	-11.9268
▁cooling	-11.9268
flagged	-11.9271
▁baht	-11.9271
▁censure	-11.9271
▁extensive	-11.9271
▁Herald	-11.9271
▁earning	-11.9271
connect	-11.9272
▁joke	-11.9276
▁Var	-11.9286
▁Martyrs	-11.9291
▁stinging	-11.9291
▁busiest	-11.9292
bpd	-11.9292
▁liberalisation	-11.9292
▁(30	-11.9293
▁emphatic	-11.9294
installed	-11.9297
globalisation	-11.9298
chief	-11.9301
share	-11.9304
▁recruiting	-11.9306
RU	-11.9307
▁Moi	-11.9308
▁(7/4)	-11.931
▁Steffi	-11.931
▁Vodafone	-11.931
▁Summer	-11.9311
▁unpaid	-11.9312
▁grown	-11.9312
▁UNA	-11.9313
filled	-11.932
▁poet	-11.9325
▁Tourism	-11.9325
▁thinking	-11.933
▁Calderon	-11.933
▁Litvinenko	-11.933
▁Mozambican	-11.933
▁Scolari	-11.933
▁landscape	-11.933
▁Scot	-11.9335
5.8	-11.9336
▁Ivo	-11.9338
▁lifestyle	-11.934
PTI	-11.9343
▁complaining	-11.9349
▁Maskhadov	-11.935
▁Scorecard	-11.935
▁Alinghi	-11.935
Regional	-11.9351
▁governance	-11.9351
▁Journalists	-11.9352
Bertrand	-11.9358
▁mate	-11.9359
▁114	-11.9362
▁designated	-11.9362
▁conf	-11.9362
▁Ansa	-11.9364
▁Reid	-11.9366
▁depart	-11.937
▁Race	-11.937
▁Catalan	-11.937
▁anonymous	-11.937
▁pivotal	-11.937
▁disband	-11.9371
▁Rauf	-11.9372
▁flanker	-11.9373
▁organise	-11.9376
iest	-11.9378
▁(1.5	-11.9386
titude	-11.9387
equipped	-11.939
▁brewing	-11.939
▁Pietersen	-11.9391
▁Depos	-11.9391
▁Jankovic	-11.9391
▁paceman	-11.9394
▁exempt	-11.9394
CAR	-11.9398
▁tumble	-11.9405
Anbar	-11.9406
▁Ronaldinho	-11.941
▁Summit	-11.941
▁privacy	-11.941
▁throat	-11.941
unconstitutional	-11.9411
▁supervisor	-11.9411
▁slug	-11.9411
▁Tower	-11.9411
▁Heat	-11.9429
▁achieving	-11.9431
▁lorry	-11.9431
▁Eighteen	-11.9431
▁Juncker	-11.9431
illegal	-11.9438
▁Swat	-11.9438
covering	-11.9443
NGO	-11.9449
▁baton	-11.945
▁Nasrallah	-11.9451
▁Utah	-11.9451
▁gunships	-11.9451
▁endured	-11.9451
▁stride	-11.9451
▁email	-11.9452
▁Jenson	-11.9454
mong	-11.9455
▁happened	-11.9467
▁Jamie	-11.9471
▁salut	-11.9472
▁regretted	-11.9473
▁Award	-11.9474
tang	-11.9478
▁lucky	-11.9479
▁update	-11.948
▁mat	-11.9481
▁(22	-11.9481
▁weaken	-11.9483
cz	-11.9483
▁anxious	-11.9484
▁stok	-11.949
▁absent	-11.949
▁Pot	-11.949
▁Davydenko	-11.9491
▁Porsche	-11.9491
▁aluminium	-11.9491
▁dominating	-11.9491
▁Jonas	-11.9493
▁recruitment	-11.9494
▁Julian	-11.9497
▁enriched	-11.9503
lead	-11.9507
▁shifted	-11.9507
prone	-11.9509
▁ousting	-11.9511
penultimate	-11.9511
▁symptoms	-11.9511
▁distress	-11.9512
▁perpetrators	-11.9512
▁uncertainties	-11.9512
▁beheading	-11.9512
▁Monica	-11.9512
▁Ryanair	-11.9512
▁classified	-11.9513
▁listen	-11.9514
▁wooden	-11.9515
▁Norman	-11.9517
▁allay	-11.952
▁Kai	-11.952
etti	-11.9522
▁boxes	-11.9526
▁lion	-11.9527
ancy	-11.9527
▁confiscated	-11.9528
▁excess	-11.9531
▁slated	-11.9532
▁fortnight	-11.9532
▁2018	-11.9537
▁2015	-11.9542
▁packing	-11.9544
▁hinder	-11.9552
▁vacant	-11.9552
▁Wallaby	-11.9552
▁entity	-11.9552
▁Triple	-11.9554
▁Havel	-11.9556
▁Rahman	-11.9556
▁5-1	-11.9557
▁masse	-11.9565
▁rolling	-11.9565
▁transportation	-11.9566
▁Cathay	-11.9573
▁Headingley	-11.9573
▁Klinsmann	-11.9573
▁Swaziland	-11.9573
▁mercenaries	-11.9573
▁verbal	-11.9573
▁axed	-11.9581
seekers	-11.9581
course	-11.9581
▁reinstate	-11.9583
reaching	-11.9584
▁Tur	-11.959
lash	-11.9591
▁album	-11.9593
▁Shirt	-11.9594
▁shall	-11.9595
▁Goh	-11.9595
▁fury	-11.9595
▁loomed	-11.9596
▁Death	-11.9597
ANA	-11.9599
arch	-11.96
▁Georg	-11.9601
▁boil	-11.9603
▁annually	-11.9604
▁erect	-11.9604
▁breathing	-11.9605
▁Deportivo	-11.9614
▁inevitable	-11.9614
▁Kinkel	-11.9614
▁Waugh	-11.9614
▁emir	-11.9615
JI	-11.9617
West	-11.9621
hl	-11.9622
▁assume	-11.9623
▁massacred	-11.9623
▁upturn	-11.963
Moon	-11.963
▁miracle	-11.9631
▁Relatives	-11.9634
▁tarnish	-11.9634
▁countdown	-11.9635
PO	-11.9636
▁Marwan	-11.9637
▁Flight	-11.9639
▁midweek	-11.9641
▁Harb	-11.9641
▁defused	-11.9644
▁Fall	-11.9646
▁Live	-11.9654
▁Jeddah	-11.9655
▁manslaughter	-11.9655
▁Vicente	-11.9655
▁rabbi	-11.9655
praising	-11.9655
▁Rick	-11.9655
▁experimental	-11.9663
goal	-11.9666
▁fame	-11.9667
▁dived	-11.9668
▁Antarctic	-11.9668
▁(23	-11.9669
cious	-11.9671
▁valued	-11.9671
▁Network	-11.9675
▁doesn	-11.9677
▁tale	-11.9679
hiko	-11.9684
position	-11.9687
▁inflicted	-11.9687
▁understand	-11.9691
▁Suzuki	-11.9696
▁Twitter	-11.9696
▁barricad	-11.9696
▁depth	-11.9696
▁Gilbert	-11.9696
▁kingpin	-11.9697
▁dashed	-11.9697
▁Mol	-11.9699
idi	-11.97
▁indicator	-11.97
▁fat	-11.9706
▁trim	-11.9707
▁luck	-11.9709
▁AU	-11.9712
▁Walesa	-11.9712
▁Kozyrev	-11.9717
▁Wellington	-11.9717
▁transmission	-11.9717
▁vy	-11.9718
Hwan	-11.9719
▁Buckingham	-11.9737
▁Executive	-11.9737
▁Villarreal	-11.9737
▁hectares	-11.9737
▁Cruz	-11.9737
now	-11.9738
1.5	-11.9738
▁gala	-11.9739
▁Ailing	-11.974
▁stoked	-11.9741
▁loom	-11.9743
IPO	-11.9744
risk	-11.9749
▁heartland	-11.9749
Mar	-11.9753
▁Raikkonen	-11.9758
▁pumping	-11.9763
▁spotted	-11.9763
▁Frei	-11.9763
▁Deby	-11.9766
wel	-11.9767
▁Parker	-11.9769
mag	-11.977
▁112	-11.9771
▁branding	-11.9774
▁exceptional	-11.9775
osa	-11.9775
▁wrecked	-11.9779
▁Show	-11.9779
▁Giovanni	-11.9779
▁lesbian	-11.9779
▁Iberia	-11.9779
▁bite	-11.9783
▁probable	-11.9784
Australian	-11.9791
▁observed	-11.9792
▁homage	-11.98
▁patience	-11.98
▁unauthorised	-11.98
▁Wajed	-11.98
▁Dura	-11.9804
▁knowing	-11.9804
▁Youth	-11.9807
▁Anderson	-11.9807
OSCE	-11.981
▁sheep	-11.9811
minister	-11.9812
▁privately	-11.9812
▁Baku	-11.9812
cott	-11.9813
▁lend	-11.9813
▁legality	-11.982
ichi	-11.9821
▁Commercial	-11.9821
▁negligence	-11.9821
▁Brunei	-11.9821
▁painted	-11.9821
▁restoration	-11.9823
▁procession	-11.9824
▁Arena	-11.9824
Sha	-11.9825
▁sealing	-11.9825
▁evil	-11.9829
▁Karim	-11.983
EM	-11.983
7.00	-11.984
▁jihad	-11.9842
▁Mickey	-11.9842
▁parcel	-11.9842
▁snowfall	-11.9843
▁Record	-11.9843
▁spray	-11.9843
▁Sonia	-11.9844
▁sever	-11.9847
snapping	-11.9852
▁Eto	-11.986
▁Continental	-11.9863
▁Emperor	-11.9863
▁Hotspur	-11.9863
▁Judge	-11.9863
▁batsmen	-11.9863
▁Hawk	-11.9863
▁Madoff	-11.9865
▁catastrophic	-11.9866
▁cry	-11.9868
▁scorer	-11.9871
▁rebuffed	-11.9873
▁Mick	-11.9877
▁Sani	-11.9878
NS	-11.988
▁Jaffna	-11.9884
▁buffer	-11.9884
▁column	-11.9884
▁hybrid	-11.9884
▁Thorpe	-11.9884
▁Sikh	-11.9887
▁finalised	-11.9893
▁procedure	-11.9893
▁bribe	-11.9897
▁attraction	-11.9898
stakes	-11.9898
▁speedy	-11.9899
▁dive	-11.9904
▁Akhtar	-11.9905
▁Rifkind	-11.9905
▁Tymoshenko	-11.9905
▁secrecy	-11.9905
▁copies	-11.9905
▁centrist	-11.9905
▁NEC	-11.9907
▁Duc	-11.9909
▁brokered	-11.991
▁Who	-11.9918
BSE	-11.9922
▁forecasters	-11.9923
▁eligible	-11.9926
▁summary	-11.9926
▁Control	-11.9926
▁implications	-11.9926
▁Slovakian	-11.993
▁proper	-11.9932
▁Champ	-11.9932
▁expired	-11.9934
▁replay	-11.9939
▁Hawaii	-11.9947
▁Nottingham	-11.9947
▁dividing	-11.9947
▁prosperity	-11.9947
▁punitive	-11.9947
▁coffin	-11.9947
▁Zhang	-11.9948
▁Than	-11.9951
▁abruptly	-11.9952
▁voluntary	-11.9961
▁(25	-11.9962
▁fightback	-11.9962
loc	-11.9962
▁Palme	-11.9965
▁Sara	-11.9968
▁Hussain	-11.9968
▁Lawrence	-11.9968
▁familiar	-11.9968
▁substitute	-11.9968
▁Kagame	-11.997
▁rode	-11.9971
jeou	-11.9971
▁Erik	-11.9972
▁Bakar	-11.9972
Benz	-11.9972
▁eagerly	-11.9977
▁Petr	-11.9984
▁delighted	-11.9986
OIC	-11.9988
▁Insurance	-11.999
▁Separatist	-11.999
▁Congressional	-11.999
▁Junior	-11.999
▁dismay	-11.999
▁Ulster	-11.9991
▁fatalities	-11.9991
▁temper	-11.9995
▁Hunt	-12.0004
▁Sixty	-12.0006
▁Padr	-12.0006
▁Illinois	-12.0011
▁Steinmeier	-12.0011
▁masked	-12.0012
▁manned	-12.0016
▁PT	-12.0023
1.6	-12.0025
ook	-12.0029
▁plummet	-12.003
▁Spiegel	-12.0032
strait	-12.0033
▁predictions	-12.0033
▁supervision	-12.0033
▁breathe	-12.0033
▁spacecraft	-12.0034
▁willingness	-12.0035
graft	-12.0045
hang	-12.0046
MDC	-12.0048
▁courtroom	-12.0051
▁Milo	-12.0053
bou	-12.0053
▁Diamond	-12.0054
▁Edinburgh	-12.0054
▁radiation	-12.0054
▁Ferenc	-12.0056
NPT	-12.0056
▁1982	-12.0057
▁floating	-12.0061
ought	-12.0066
▁blackout	-12.0066
shortened	-12.0071
▁addition	-12.0071
▁ANC	-12.0072
▁premiere	-12.0074
▁Betancourt	-12.0075
▁Drogba	-12.0075
▁Ingrid	-12.0075
▁literature	-12.0075
▁shaking	-12.0075
▁torpedo	-12.0075
Khalifa	-12.0075
▁savage	-12.0075
▁alarming	-12.0082
condition	-12.0087
New	-12.0093
cell	-12.0096
▁Tikrit	-12.0097
▁gamble	-12.0097
▁oath	-12.0098
▁Dj	-12.0099
▁Azerbaijani	-12.01
▁aware	-12.01
fight	-12.0101
▁invade	-12.0105
▁Nou	-12.0106
▁renewal	-12.011
▁intercept	-12.0116
▁sneak	-12.0118
▁populist	-12.0118
igh	-12.0125
▁buildup	-12.0127
▁roared	-12.0136
▁Tin	-12.0137
▁plough	-12.014
▁Hospital	-12.014
▁actually	-12.014
▁relegated	-12.014
▁chalk	-12.014
▁Mountain	-12.0141
▁Becker	-12.0142
▁pleased	-12.0143
▁Allied	-12.0144
▁reserved	-12.0149
▁masterminding	-12.0153
▁250,000	-12.0153
saving	-12.0156
▁7.6	-12.0157
▁Hav	-12.0158
▁Bakiyev	-12.0162
▁Duncan	-12.0162
▁Tobago	-12.0162
▁appetite	-12.0162
▁brilliant	-12.0162
▁thumb	-12.0162
▁robbed	-12.0162
▁Mai	-12.0163
▁else	-12.0164
▁slam	-12.0164
▁6.6	-12.0166
▁relieved	-12.0169
▁traditionally	-12.017
▁List	-12.017
iang	-12.0171
World	-12.0174
▁Massa	-12.0176
amba	-12.0178
▁difference	-12.0178
▁Mousavi	-12.0183
▁flexible	-12.0183
▁rehabilitation	-12.0183
▁toddler	-12.0183
▁5-7	-12.0184
▁Orange	-12.0194
Japanese	-12.0196
▁lifeline	-12.0199
▁worrying	-12.02
fil	-12.02
▁communication	-12.0201
▁rotating	-12.0206
▁sustainable	-12.0207
feld	-12.0208
▁drunken	-12.0209
▁Emil	-12.021
▁fractured	-12.0212
▁Thur	-12.0213
▁Game	-12.0214
Walter	-12.0218
fro	-12.022
▁trademark	-12.0221
▁Marino	-12.0227
▁exclusion	-12.0227
▁inhabitants	-12.0227
▁Lawmakers	-12.0227
▁foster	-12.0229
▁confidential	-12.0231
▁6.9	-12.0231
IB	-12.0234
▁Sego	-12.0235
official	-12.0238
anticipated	-12.024
▁mentally	-12.024
▁uphold	-12.0242
▁ambulance	-12.0249
▁distributing	-12.0249
▁Zulu	-12.0249
▁Coruna	-12.0249
▁Alexei	-12.0251
▁Para	-12.0252
▁Tome	-12.0259
▁7.1	-12.0259
▁underscor	-12.027
circulation	-12.0271
▁predominantly	-12.0271
▁blessing	-12.0271
▁defamation	-12.0271
▁latter	-12.0273
▁plead	-12.0275
▁Perth	-12.0279
craft	-12.028
gie	-12.0282
▁township	-12.0285
▁rage	-12.0286
▁hate	-12.0289
▁Roche	-12.0292
▁Denktash	-12.0292
▁distributor	-12.0292
▁cousin	-12.0292
▁diary	-12.0297
▁Kun	-12.0299
▁Raza	-12.0299
▁patrolling	-12.0299
▁erase	-12.0302
3.50	-12.0307
▁scour	-12.0308
▁Chok	-12.0308
proliferation	-12.0309
▁Marin	-12.0309
▁Robertson	-12.031
phone	-12.0312
▁villa	-12.0312
▁Polanski	-12.0314
▁glimpse	-12.0314
▁fading	-12.0315
▁wrapping	-12.0315
▁retaliat	-12.0315
▁Local	-12.0316
Arabiya	-12.0326
flying	-12.0326
▁shirt	-12.0326
heart	-12.0333
▁prohibit	-12.0336
▁Hampshire	-12.0336
▁Maldives	-12.0336
enhancing	-12.0336
▁bulk	-12.0336
Neal	-12.0349
concern	-12.035
grown	-12.035
▁Europa	-12.0355
▁Paulson	-12.0355
▁Allan	-12.0358
▁Domenech	-12.0359
▁Tudjman	-12.0359
▁anticipation	-12.0359
▁acquittal	-12.0359
umanitarian	-12.0359
▁Valer	-12.0367
▁introduc	-12.0367
▁6.8	-12.0373
▁evict	-12.0378
▁mirror	-12.0381
▁Coalition	-12.0381
▁hamstring	-12.0381
▁Ajax	-12.0381
▁priorities	-12.0381
▁Pala	-12.0385
▁unseeded	-12.0386
▁737	-12.0394
mouth	-12.0395
▁learning	-12.0395
▁Bomb	-12.0397
▁Anatoly	-12.0403
▁Mombasa	-12.0403
▁barometer	-12.0403
▁portrait	-12.0403
▁scrambling	-12.0403
▁supplied	-12.0403
▁spared	-12.0403
▁1,300	-12.0404
▁Rico	-12.0412
▁4-3	-12.0414
▁shrinking	-12.0424
▁Ganguly	-12.0425
▁Kurmanb	-12.0425
▁Medecin	-12.0425
▁bruising	-12.0425
▁burgeoning	-12.0425
▁dwindling	-12.0425
▁roadblock	-12.0425
▁stark	-12.0426
▁capping	-12.0428
▁deserted	-12.0429
▁creditor	-12.043
conductor	-12.0436
Doping	-12.0439
generat	-12.0439
▁Kin	-12.044
ucci	-12.044
▁Fair	-12.0442
father	-12.0442
DC	-12.0445
8.00	-12.0447
▁Polynesia	-12.0447
▁adequate	-12.0447
▁chorus	-12.0447
dynamic	-12.0447
▁fortified	-12.0448
▁Ramadi	-12.0448
▁teargas	-12.0448
▁fixture	-12.045
▁Beach	-12.0451
▁Silvan	-12.0452
stage	-12.0454
▁Francesco	-12.0454
blood	-12.0462
▁Dai	-12.0463
▁Thor	-12.0465
pinning	-12.0466
▁Petra	-12.0469
▁racket	-12.047
▁succumb	-12.047
▁mandatory	-12.047
▁revising	-12.047
▁undersea	-12.047
▁awareness	-12.047
▁Hardline	-12.047
▁DR	-12.0471
▁seaside	-12.0476
▁comic	-12.0477
▁pub	-12.0477
▁135	-12.0482
kilometre	-12.0484
gendary	-12.0492
▁Ebola	-12.0492
▁entrepreneur	-12.0492
▁integrity	-12.0492
▁polio	-12.0492
▁Malian	-12.0493
▁Ellis	-12.0494
▁invaded	-12.0504
▁feeding	-12.0512
▁Heath	-12.0513
▁Delegate	-12.0514
▁Riviera	-12.0514
▁forcibly	-12.0514
▁unearthed	-12.0514
▁beneath	-12.0514
▁carefully	-12.0515
▁gunshot	-12.0516
Man	-12.0519
▁san	-12.0522
▁1950	-12.0523
▁Safina	-12.0525
▁Kentucky	-12.0537
▁gruesome	-12.0537
▁swearing	-12.0537
▁blunder	-12.0539
▁Nabil	-12.0539
▁underlin	-12.0544
▁involve	-12.0548
▁Herman	-12.0551
Muslim	-12.0552
▁froze	-12.0554
▁punishing	-12.0554
▁regulate	-12.0558
Haq	-12.0558
▁End	-12.0558
▁swirl	-12.0559
▁counsel	-12.056
▁Canal	-12.0563
hill	-12.0563
▁1.25	-12.0565
▁Amro	-12.0566
amadou	-12.0569
▁honoured	-12.0571
flu	-12.0579
▁Revolution	-12.0581
▁Dudayev	-12.0582
▁Nazarbayev	-12.0582
▁opposite	-12.0582
▁shoppers	-12.0582
▁Nicol	-12.0582
▁dragging	-12.0583
▁designate	-12.0584
riot	-12.0585
▁IAAF	-12.0598
▁dual	-12.0598
▁Cali	-12.0601
write	-12.0604
▁festivities	-12.0605
▁kroner	-12.0605
▁stubborn	-12.0605
▁older	-12.0605
▁respective	-12.0605
▁prolong	-12.0607
▁smashing	-12.0611
▁pastor	-12.0614
third	-12.0626
▁Abhis	-12.0627
▁Dinara	-12.0627
▁contrary	-12.0627
▁Faruq	-12.0627
▁Franj	-12.0628
▁Franck	-12.0628
▁Todd	-12.063
▁hover	-12.063
escu	-12.0632
▁230	-12.0633
▁penal	-12.0635
▁8.0	-12.0641
eastern	-12.0642
▁reminder	-12.0644
▁Foundation	-12.065
▁Nalbandian	-12.065
▁kidney	-12.065
▁Lindh	-12.065
▁Wilson	-12.065
▁tolerance	-12.065
▁Giuli	-12.0651
▁Phillip	-12.0651
▁pipe	-12.0652
▁saga	-12.0655
Adua	-12.0658
▁hedge	-12.0659
(	-12.0666
▁Adolf	-12.0667
vice	-12.0669
▁Emmanuel	-12.0673
▁divisive	-12.0673
▁molestation	-12.0673
▁reservations	-12.0673
▁darkness	-12.0674
▁accomplice	-12.0676
▁emotion	-12.0677
bli	-12.0684
▁meaning	-12.0684
▁performing	-12.0689
▁Alcatel	-12.0696
▁Olivier	-12.0696
▁persecution	-12.0696
▁spacewalk	-12.0696
tabilisation	-12.0696
▁Charette	-12.0696
▁preferred	-12.0696
▁mask	-12.0698
▁750	-12.0701
▁Rising	-12.0708
▁precaution	-12.0711
▁cheaper	-12.0713
gne	-12.0717
▁Tobacco	-12.0719
▁chocolate	-12.0719
▁munitions	-12.0719
▁voyage	-12.0719
▁heap	-12.0723
▁ranked	-12.0728
▁bare	-12.0729
regulatory	-12.073
▁remainder	-12.0731
registered	-12.0735
▁quietly	-12.0735
▁trailing	-12.0737
heim	-12.0737
▁Elector	-12.0741
▁Hiddink	-12.0741
▁Mwanawasa	-12.0741
▁Violence	-12.0741
▁innocence	-12.0741
▁narcotics	-12.0741
▁bogey	-12.0742
▁gauge	-12.0742
▁Beslan	-12.0742
▁Ould	-12.0742
rebel	-12.0743
Li	-12.0747
▁Saab	-12.0751
▁broaden	-12.0759
▁colon	-12.0759
▁quashed	-12.0761
▁proposing	-12.0764
▁Hayden	-12.0765
enberg	-12.0765
▁healthcare	-12.0767
▁BNP	-12.0768
ivity	-12.077
▁cannon	-12.0772
▁Wim	-12.0773
▁Pais	-12.0779
▁exhibit	-12.0786
aig	-12.0786
▁Hatoyama	-12.0788
▁seemingly	-12.0788
▁2-6,	-12.0788
▁manufacture	-12.0795
▁finalist	-12.0796
Heinz	-12.08
▁bike	-12.0802
▁LG	-12.0804
ichen	-12.0804
▁paralyzed	-12.0811
▁smugglers	-12.0812
▁Clement	-12.0813
▁Mission	-12.0814
▁Broad	-12.0817
▁Kara	-12.0818
▁Wat	-12.0822
lick	-12.0822
▁bath	-12.0825
gricultural	-12.0829
▁populated	-12.0832
mplementation	-12.0834
▁compliance	-12.0834
▁statistical	-12.0834
Semitic	-12.0834
▁relocate	-12.0834
▁timing	-12.0834
▁snubbed	-12.0834
▁connected	-12.0834
▁refineries	-12.0834
▁pageant	-12.0837
▁Mahind	-12.0839
▁longstanding	-12.084
▁heatwave	-12.0857
▁outsourcing	-12.0857
▁warehouse	-12.0857
▁rigged	-12.0857
clad	-12.0862
▁(1.6	-12.0863
▁soar	-12.0865
▁conservation	-12.0867
▁arrangement	-12.087
▁Andrea	-12.0871
Karabakh	-12.088
▁Matsushita	-12.088
▁Redknapp	-12.088
▁gymnastics	-12.088
▁reunion	-12.088
▁headache	-12.088
▁Homeland	-12.0882
▁define	-12.0891
▁finalise	-12.0893
▁Gambia	-12.0898
▁ranch	-12.09
▁observ	-12.0901
▁shun	-12.0901
▁Micro	-12.0902
▁cure	-12.0902
▁Firefighters	-12.0904
▁lieutenant	-12.0904
▁maintenance	-12.0904
▁provocation	-12.0904
▁Rogge	-12.0904
▁valid	-12.0904
▁Antara	-12.0904
▁gaming	-12.0904
▁Trevor	-12.0904
▁offenders	-12.0904
▁plantation	-12.0906
▁Joaquin	-12.091
▁apologise	-12.0916
▁branches	-12.0918
boosting	-12.0921
▁Balladur	-12.0927
▁Lagarde	-12.0927
▁Gustav	-12.0927
▁Lambert	-12.0928
uartet	-12.0929
RI	-12.093
▁Guus	-12.0935
central	-12.0945
▁greet	-12.095
▁Culture	-12.095
▁Exchequer	-12.095
▁Punjab	-12.095
▁torturing	-12.095
▁weightlifting	-12.095
▁corn	-12.0957
▁tag	-12.096
watch	-12.0962
dangerous	-12.0968
▁reinforced	-12.0968
▁contributed	-12.0973
▁demonstrating	-12.0974
▁Lille	-12.0976
▁Multi	-12.0977
care	-12.098
▁Twin	-12.0982
▁layoff	-12.0982
▁Coach	-12.0984
▁rocker	-12.0986
▁Bulen	-12.0986
▁borrow	-12.0988
▁length	-12.0989
EL	-12.0991
inspired	-12.0992
▁implicat	-12.0997
▁Ancelotti	-12.0997
▁Togolese	-12.0997
▁1992-95	-12.0997
▁Strong	-12.0997
▁console	-12.0997
▁boyfriend	-12.0998
▁tuna	-12.0998
train	-12.1006
pass	-12.1018
▁Nile	-12.1019
▁Dementieva	-12.1021
▁Experts	-12.1021
▁Falkland	-12.1021
▁Lesotho	-12.1021
▁expiry	-12.1021
▁wrongdoing	-12.1021
▁proportion	-12.1021
▁approving	-12.1021
▁Boerse	-12.1025
▁unarmed	-12.1026
▁Gen	-12.1029
▁promoter	-12.103
▁pleading	-12.1033
▁receiver	-12.1035
critical	-12.1039
▁Johnny	-12.1039
▁impress	-12.1042
Semitism	-12.1045
▁Benfica	-12.1045
▁Haifa	-12.1045
▁Vejjajiva	-12.1045
▁attached	-12.1045
▁whistle	-12.1045
▁Warrior	-12.1045
▁kilometre	-12.1045
▁instant	-12.1046
▁chef	-12.1046
▁frame	-12.1047
▁rigging	-12.1049
▁hooker	-12.1051
▁Echo	-12.1051
Or	-12.1055
▁Both	-12.1056
cro	-12.1056
lift	-12.1059
▁Down	-12.106
▁implemented	-12.1061
▁Zhu	-12.1061
people	-12.1063
▁lineup	-12.1063
▁erupt	-12.1066
▁appropriate	-12.1067
▁Crusaders	-12.1068
▁Djindjic	-12.1068
▁imbalance	-12.1068
▁stirring	-12.1069
▁wireless	-12.1069
▁panda	-12.1072
▁slaughtered	-12.1075
odd	-12.1079
GM	-12.1082
▁democrat	-12.1086
establish	-12.1087
communic	-12.1088
rough	-12.1091
▁Crystal	-12.1092
▁Lindsey	-12.1092
▁Natural	-12.1092
▁Negotiation	-12.1092
▁Reconstruction	-12.1092
▁Wolfsburg	-12.1092
▁examination	-12.1092
▁legitimacy	-12.1092
▁squash	-12.1092
▁Skating	-12.1092
▁Pirates	-12.1092
▁Gennad	-12.1092
▁entertain	-12.1092
▁Aaron	-12.1092
▁confession	-12.1095
▁7.3	-12.1096
▁balanced	-12.1101
▁How	-12.1103
▁Kano	-12.1105
▁wet	-12.1108
▁theater	-12.111
▁sink	-12.111
criminal	-12.1111
▁assassin	-12.1112
ferr	-12.1114
▁prevail	-12.1116
▁Merrill	-12.1116
▁Michigan	-12.1116
▁academy	-12.1116
▁plenty	-12.1116
▁ponder	-12.1116
▁Bongo	-12.1116
▁lull	-12.1116
▁rib	-12.1116
▁cue	-12.1119
elle	-12.1129
▁soul	-12.1135
▁Kor	-12.1136
▁Hard	-12.1137
▁clarify	-12.114
▁dancing	-12.114
▁memorandum	-12.114
▁scoop	-12.114
▁ABN	-12.114
▁Tampa	-12.114
▁1,400	-12.1142
▁diva	-12.1145
▁charm	-12.1148
▁Raf	-12.115
scoring	-12.1152
▁elde	-12.1156
350	-12.1157
▁outdoor	-12.1159
▁Best	-12.1162
▁Catalonia	-12.1164
▁Mehdi	-12.1164
▁Umaru	-12.1164
▁Vijay	-12.1164
▁(21	-12.1164
▁1967	-12.1167
9.00	-12.1172
▁UK	-12.1178
-31	-12.1179
militaris	-12.1188
▁Paribas	-12.1188
▁fraudulent	-12.1188
▁thorough	-12.1188
▁lamented	-12.1188
▁Hingis	-12.1188
▁sweat	-12.1188
ISAF	-12.1188
▁observation	-12.1189
▁Kate	-12.1189
Dream	-12.1189
▁judgement	-12.1195
▁Holl	-12.1197
▁meal	-12.1201
▁Society	-12.1201
▁subversion	-12.1205
▁smallest	-12.1206
Iraq	-12.1209
▁Fran	-12.1209
spiring	-12.1211
▁drift	-12.1211
▁Mofaz	-12.1212
▁flexibility	-12.1212
▁Abacha	-12.1212
▁slamm	-12.1212
▁objective	-12.1214
▁2013	-12.1218
▁reunited	-12.122
kick	-12.1232
▁handset	-12.1234
▁overshadow	-12.1236
▁artificial	-12.1236
▁constant	-12.1236
▁Akihito	-12.1236
▁bureaucrat	-12.1236
▁resurgence	-12.1236
▁Filip	-12.1236
▁labelled	-12.1241
5.50	-12.1241
▁operational	-12.1241
team	-12.1245
▁UNICEF	-12.1249
▁(7/3)	-12.126
▁Cyclone	-12.126
▁Elysee	-12.126
▁communism	-12.126
▁unharmed	-12.126
▁franchise	-12.126
ANC	-12.1261
▁mode	-12.1261
▁blackmail	-12.1261
▁NTV	-12.1262
Asia	-12.1263
▁refer	-12.1263
▁Ivanovic	-12.1266
tief	-12.1266
▁Nathan	-12.127
▁frontman	-12.1272
▁reaches	-12.1275
▁Sporting	-12.1278
Japan	-12.128
disputed	-12.128
▁Deve	-12.128
▁surf	-12.1284
▁Bhutan	-12.1284
▁Chiluba	-12.1284
▁hajj	-12.1284
▁improper	-12.1284
▁clutch	-12.1284
▁Sim	-12.1286
▁SANA	-12.1287
ibn	-12.1289
▁Opera	-12.1295
▁reinstated	-12.1298
▁Otto	-12.1307
▁choosing	-12.1308
▁heaviest	-12.1308
▁technique	-12.1308
hooligan	-12.1308
▁spew	-12.1312
6.50	-12.133
▁Aeronautic	-12.1333
▁Dutroux	-12.1333
▁Technologies	-12.1333
▁Yanukovich	-12.1333
▁criteria	-12.1333
▁overcrowded	-12.1333
▁colourful	-12.1336
▁teeth	-12.1341
▁revise	-12.1346
box	-12.1347
trained	-12.1352
▁Thi	-12.1353
▁certainly	-12.1354
▁Gru	-12.1354
bru	-12.1355
Zawahiri	-12.1357
▁forensic	-12.1357
▁Caroline	-12.1358
▁midst	-12.1361
▁nationality	-12.1362
▁defection	-12.1364
▁Guatemalan	-12.1368
workers	-12.1379
Saharan	-12.1381
▁Alexandre	-12.1382
▁victorious	-12.1382
Packard	-12.1382
▁verify	-12.1382
series	-12.1389
▁pardoned	-12.1393
order	-12.1404
▁Kampala	-12.1406
▁liquefied	-12.1406
[...]
