<unk>	0
<s>	0
</s>	0
、	-2.97751
。	-3.30054
の	-3.53948
は	-3.96253
)	-4.01351
が	-4.14138
▁	-4.14599
(	-4.40055
を	-4.41144
に	-4.53446
で	-4.53686
」	-4.70469
「	-4.82497
と	-4.93559
1	-4.96614
・	-5.01352
日	-5.13979
2	-5.15138
了	-5.23656
3	-5.31356
した	-5.42782
や	-5.54077
し	-5.62341
4	-5.66539
も	-5.66998
する	-5.67798
▁(	-5.76415
5	-5.78158
から	-5.8401
年	-5.87808
月	-6.0223
6	-6.04199
た	-6.08313
など	-6.08772
7	-6.14251
。(	-6.15046
8	-6.22659
9	-6.25638
10	-6.30987
円	-6.32796
】	-6.3599
▁【	-6.40389
人	-6.48079
る	-6.51302
約	-6.53423
、「	-6.53441
同	-6.56647
では	-6.6061
として	-6.61052
12	-6.70937
11	-6.7224
て	-6.7476
大	-6.74827
している	-6.77415
=	-6.80459
という	-6.81937
について	-6.84025
だ	-6.86383
万	-6.88155
だった	-6.88421
された	-6.89943
20	-6.89971
日に	-6.92691
な	-6.93777
への	-6.94262
ら	-6.95832
い	-6.97455
中	-6.99533
市	-7.02657
ス	-7.03739
り	-7.03745
して	-7.04828
米	-7.05171
15	-7.05373
には	-7.06002
ている	-7.08439
第	-7.09246
時	-7.11018
によると	-7.11275
銭	-7.12977
−	-7.15542
19	-7.16575
13	-7.1708
14	-7.18155
30	-7.18421
か	-7.19221
による	-7.1958
位	-7.19856
日本	-7.22757
ドル	-7.25393
16	-7.26052
高	-7.27527
となった	-7.27685
していた	-7.28241
分	-7.28815
月に	-7.29438
中国	-7.30595
18	-7.33423
などの	-7.33948
元	-7.34737
時事	-7.35205
東京	-7.36918
回	-7.36931
田	-7.37249
一	-7.37803
17	-7.38497
ため	-7.40999
億	-7.41325
後	-7.4726
前	-7.49522
さん	-7.49713
25	-7.49875
く	-7.5168
となる	-7.53434
月の	-7.5357
国	-7.53717
氏は	-7.53719
新	-7.53948
ト	-7.54276
24	-7.54499
山	-7.55311
ル	-7.56352
人が	-7.56806
った	-7.5743
万円	-7.58092
億円	-7.58626
日の	-7.59195
戦	-7.59772
との	-7.59968
勝	-7.60594
ア	-7.60844
まで	-7.61963
,	-7.6198
」(	-7.63001
上	-7.63103
本	-7.63818
22	-7.64149
23	-7.64303
み	-7.64576
き	-7.64585
ク	-7.65488
日午前	-7.65559
年に	-7.66139
27	-7.67097
川	-7.67355
21	-7.67518
金	-7.68312
26	-7.68972
28	-7.6976
ラ	-7.70089
ない	-7.70652
子	-7.70988
される	-7.71776
点	-7.72278
ていた	-7.72893
手	-7.7491
と述べた	-7.75065
問題	-7.76025
的な	-7.77124
町	-7.77189
29	-7.78956
お	-7.7912
部	-7.79319
昨年	-7.79838
がある	-7.80011
ド	-7.80088
日午後	-7.80093
韓国	-7.80467
年の	-7.80961
50	-7.81201
と述べ	-7.8137
▁一方	-7.81768
長	-7.82047
とみられる	-7.82498
増	-7.82574
氏	-7.83276
島	-7.83726
会	-7.84123
化	-7.84387
水	-7.84484
時間	-7.84903
下	-7.85305
にも	-7.85562
メートル	-7.86062
米国	-7.86316
100	-7.87128
リ	-7.87276
内	-7.87592
などで	-7.88204
され	-7.88515
す	-7.88757
カ	-7.88768
調査	-7.88949
東	-7.89016
者	-7.90412
世界	-7.90723
全	-7.91483
野	-7.92499
地	-7.92715
出	-7.92984
見	-7.93121
計	-7.93416
40	-7.9383
ナ	-7.94032
この	-7.9444
さ	-7.94709
ま	-7.95605
ロ	-7.95641
原	-7.95838
を受け	-7.95901
また	-7.9596
数	-7.95961
小	-7.9598
両	-7.96093
う	-7.96192
マ	-7.96288
A	-7.96937
イ	-7.97464
ム	-7.97985
経済	-7.98288
性	-7.98544
支援	-7.99043
になる	-7.99356
安	-7.99985
0	-8.00628
的	-8.00703
台	-8.01006
でも	-8.01262
力	-8.01983
と発表した	-8.04329
コ	-8.05113
こ	-8.05268
ロシア	-8.05429
対策	-8.05673
ことが	-8.05951
いた	-8.06151
できる	-8.0652
ただ	-8.06908
行	-8.07115
西	-8.07146
法	-8.0744
などを	-8.07699
国際	-8.07859
事件	-8.08079
代表	-8.0841
人の	-8.08539
に対し	-8.08616
ズ	-8.09081
関係	-8.0994
午後	-8.09959
割	-8.10601
党	-8.10673
容疑者	-8.10722
生	-8.10987
度	-8.11435
▁1	-8.11791
〜	-8.11917
ており	-8.11971
村	-8.12105
こと	-8.12426
計画	-8.12658
があった	-8.12744
と語った	-8.12976
安打	-8.14249
試合	-8.14256
物	-8.14906
を目指す	-8.14916
タ	-8.15493
政府	-8.16138
より	-8.16148
正	-8.16362
しており	-8.16495
道	-8.165
区	-8.1678
交渉	-8.17009
ン	-8.17318
事故	-8.17441
外	-8.17796
情報	-8.18303
に比べ	-8.18608
地域	-8.18712
発	-8.18794
に対する	-8.1898
フ	-8.19013
原発	-8.19569
活動	-8.19746
三	-8.20152
キロ	-8.20206
会社	-8.20374
機	-8.20381
減	-8.20504
軍	-8.20673
とした	-8.20802
に関する	-8.20997
協議	-8.21041
たい	-8.21087
銭と	-8.21266
バ	-8.21295
優勝	-8.21674
C	-8.21847
用	-8.21864
ー	-8.22688
企業	-8.22798
一方	-8.22865
31	-8.22958
敗	-8.23022
と指摘	-8.23298
目	-8.23422
事業	-8.23454
ブ	-8.23604
大阪	-8.23646
販売	-8.24189
▁▽	-8.247
今年	-8.24826
女性	-8.24943
位の	-8.24959
通算	-8.25036
的に	-8.2505
南	-8.25097
60	-8.25552
つ	-8.25909
社	-8.26073
へ	-8.26098
シ	-8.26163
北	-8.26321
名	-8.27052
レ	-8.27189
▁また	-8.27241
前日	-8.27596
不	-8.27625
70	-8.27626
ニューヨーク時事	-8.27769
午前	-8.27901
日から	-8.27945
J	-8.29229
日本の	-8.29574
海	-8.29917
県	-8.29947
平	-8.29962
80	-8.30114
英	-8.30249
美	-8.31071
サ	-8.31251
については	-8.31424
って	-8.31666
女子	-8.31688
W	-8.31859
案	-8.31916
されている	-8.32627
▽	-8.32878
エ	-8.33007
車	-8.33075
体	-8.33395
となり	-8.33519
のため	-8.33611
先	-8.33991
政策	-8.3409
代	-8.34263
状況	-8.34364
組	-8.35114
としている	-8.35486
を受けた	-8.35663
え	-8.35857
兆	-8.36215
初	-8.36602
歳	-8.36614
木	-8.36927
北海道	-8.36931
られた	-8.36979
pre	-8.37255
とする	-8.3768
時現在	-8.38016
B	-8.38027
対応	-8.38064
今	-8.38126
井	-8.38468
ず	-8.38533
杯	-8.38544
谷	-8.38653
S	-8.3871
さらに	-8.38743
なかった	-8.38754
首相	-8.39069
オ	-8.39277
分ごろ	-8.39366
北朝鮮	-8.39414
立	-8.39479
拡大	-8.3949
リー	-8.39713
国内	-8.39716
>	-8.39853
G	-8.39974
よう	-8.40043
中の	-8.40344
ニ	-8.40789
選手	-8.40987
件	-8.41159
ミ	-8.41247
ッ	-8.41328
その	-8.41385
日の東京外国為替市場の円相場は	-8.41769
にある	-8.42087
連勝	-8.4219
場	-8.42199
め	-8.42202
口	-8.4245
間	-8.42645
制度	-8.42746
分かった	-8.42896
大手	-8.43022
明	-8.43095
銀行	-8.43643
重	-8.43775
各	-8.43802
したい	-8.4384
方針	-8.44148
わ	-8.44216
再	-8.44317
ほか	-8.44782
とし	-8.44822
学	-8.4486
出場	-8.45429
キ	-8.4591
方	-8.46076
施設	-8.46186
になった	-8.46202
会長	-8.46309
200	-8.46528
首相は	-8.46535
男子	-8.47338
さんは	-8.47407
市の	-8.47441
年間	-8.47493
線	-8.47537
M	-8.47555
大会	-8.47683
セ	-8.47763
などが	-8.4785
被害	-8.4794
グ	-8.48157
ことを	-8.48358
っている	-8.48672
対	-8.48779
欧州	-8.48843
F	-8.49098
店	-8.49157
ドイツ	-8.49282
考え	-8.49319
勝目	-8.49413
合	-8.4972
増の	-8.49753
政権	-8.51031
万人	-8.51035
局	-8.51225
人は	-8.51954
生産	-8.52027
とも	-8.52033
協力	-8.52128
▁2	-8.52174
パ	-8.52241
合意	-8.52436
しかし	-8.52482
所	-8.52542
捜査	-8.52872
強化	-8.52911
である	-8.53027
州	-8.53066
ノ	-8.53085
と話した	-8.53222
和	-8.53359
会議	-8.53363
真	-8.53379
団体	-8.53699
ウ	-8.53733
強	-8.54394
があり	-8.54501
により	-8.54536
調整	-8.54735
新たな	-8.54866
じ	-8.55012
開催	-8.55234
ば	-8.55243
▁0	-8.55308
E	-8.55321
文	-8.55545
を含む	-8.55639
男性	-8.55828
中に	-8.55978
気	-8.56048
に向けた	-8.56177
EU	-8.56179
大統領	-8.56186
ハ	-8.56512
を行う	-8.56542
期	-8.56713
のうち	-8.56733
全国	-8.56792
船	-8.56904
成	-8.56943
んだ	-8.56993
無	-8.576
▁3	-8.57629
決定	-8.57757
次	-8.58135
今後	-8.58298
海外	-8.58373
しない	-8.58526
カ月	-8.58585
ん	-8.58694
チーム	-8.58767
ダ	-8.5879
入	-8.58905
岡	-8.59296
からの	-8.59315
いる	-8.59366
投資	-8.59411
関連	-8.59469
選挙	-8.59615
後に	-8.59679
室	-8.59828
量	-8.59864
とともに	-8.60116
秒	-8.60126
万株	-8.60137
当時	-8.60147
グループ	-8.6019
させる	-8.60214
サービス	-8.60439
処分	-8.60507
カ国	-8.60748
二	-8.60764
死	-8.60859
T	-8.60869
取引	-8.6097
運転	-8.61063
90	-8.61176
500	-8.61287
夫	-8.61546
上昇	-8.61634
費	-8.61712
自動車	-8.6184
男	-8.61858
35	-8.61939
比	-8.61946
結果	-8.6209
に向け	-8.62125
復興	-8.6214
リーグ	-8.62219
通	-8.62243
れ	-8.62318
開発	-8.62638
アジア	-8.62694
▁同	-8.63108
年度	-8.63312
できない	-8.63381
株	-8.63768
と強調した	-8.63896
今季	-8.64202
回復	-8.64318
賞	-8.64887
総	-8.65128
都	-8.65274
停止	-8.65296
面	-8.65328
ワシントン時事	-8.65328
知	-8.6548
予定	-8.65585
環境	-8.65596
心	-8.6564
家	-8.65659
議員	-8.65746
ビ	-8.6595
説明	-8.66
イン	-8.6611
契約	-8.66165
安全	-8.66217
と強調	-8.66365
見通し	-8.6697
着	-8.67104
県警	-8.6715
有	-8.6717
作業	-8.6722
日までに	-8.67342
光	-8.67382
連	-8.67482
宮	-8.67641
別	-8.67904
ともに	-8.68085
の円安	-8.68254
確認	-8.68478
管理	-8.68611
ジ	-8.68627
初めて	-8.68631
国民	-8.68855
I	-8.69065
チ	-8.6908
』	-8.69102
トップ	-8.69189
公	-8.69217
だが	-8.69217
石	-8.69265
大学	-8.69295
む	-8.6934
シリア	-8.69382
一時	-8.69394
スト	-8.69466
委員会	-8.69544
広島	-8.7028
信	-8.70294
1000	-8.70457
懸念	-8.70494
中央	-8.70669
容疑者は	-8.70681
メ	-8.7093
実施	-8.70955
ネ	-8.71107
をめぐる	-8.71213
技術	-8.71226
れば	-8.71328
すること	-8.71386
来年	-8.71453
目標	-8.71481
市場	-8.71509
パー	-8.71833
テ	-8.719
報告	-8.72066
戦で	-8.72184
議論	-8.722
価格	-8.72239
措置	-8.72251
書	-8.72302
を求める	-8.72344
入り	-8.72479
はない	-8.72885
検討	-8.73138
ット	-8.73192
P	-8.73333
式	-8.73389
建設	-8.73435
分の	-8.73527
以上	-8.73546
その後	-8.73653
改革	-8.7374
あ	-8.73985
開始	-8.73999
型	-8.74038
森	-8.74176
ック	-8.74259
2000	-8.74261
場合	-8.74263
ツ	-8.7433
民主党	-8.74331
プ	-8.74415
いずれも	-8.74428
地方	-8.74436
可能性がある	-8.74489
策	-8.74492
モ	-8.7461
土	-8.74871
沢	-8.74982
ぶ	-8.75195
最大	-8.75288
最高	-8.75326
急	-8.75593
頭	-8.75664
紙	-8.75672
白	-8.75809
▁4	-8.75858
規制	-8.75867
実	-8.75899
センチ	-8.75956
号	-8.7624
政府は	-8.76309
同県	-8.76338
内容	-8.76415
させ	-8.76463
野党	-8.76492
特別	-8.76637
を中心に	-8.76797
らが	-8.7709
番	-8.77286
輸出	-8.77309
候補	-8.77314
使用	-8.77331
を決めた	-8.77374
テレビ	-8.77425
通信	-8.7753
400	-8.77561
組織	-8.77594
生活	-8.77621
号機	-8.77814
作	-8.77882
松	-8.77897
五輪	-8.78052
額	-8.78056
45	-8.78238
したが	-8.78409
攻撃	-8.78485
一部	-8.78519
ところ	-8.7852
300	-8.78537
知事	-8.78735
法案	-8.78802
直	-8.78957
デ	-8.79035
政治	-8.79693
検査	-8.79769
すると発表した	-8.79823
初の	-8.79891
程度	-8.79974
最	-8.80057
は昨年	-8.80259
ケ	-8.80299
大きな	-8.80544
などに	-8.8059
監督	-8.80591
利	-8.80594
テロ	-8.80725
幹部	-8.80753
社長	-8.80907
銭の円高	-8.80912
これ	-8.81089
日夜	-8.81232
投手	-8.81276
N	-8.81401
月から	-8.81401
機関	-8.81497
税	-8.81501
改善	-8.81528
基準	-8.81656
前に	-8.81727
っていた	-8.81788
雄	-8.81814
問題で	-8.81858
ながら	-8.81872
記録	-8.81961
感	-8.81986
再開	-8.82235
状態	-8.82258
5000	-8.82275
それぞれ	-8.82592
内の	-8.82675
不正	-8.8279
経営	-8.82805
事件で	-8.82915
中国の	-8.82999
00	-8.83051
け	-8.83093
発生	-8.83167
内で	-8.83499
沖縄	-8.83813
姿勢	-8.83842
派	-8.83883
られる	-8.8406
日発表した	-8.84334
トン	-8.8436
すれば	-8.84648
強い	-8.84702
久	-8.84739
を受けて	-8.84881
を示した	-8.85081
警察	-8.8517
『	-8.85268
ていない	-8.85398
今回の	-8.85643
近く	-8.85666
空	-8.85668
っ	-8.8568
権	-8.8572
フランス	-8.85751
などと	-8.85854
省	-8.8592
対象	-8.86037
戸	-8.86112
役	-8.86242
駅	-8.86355
天	-8.8638
とされる	-8.86424
別の	-8.86611
業	-8.86655
チームは	-8.86963
負担	-8.87151
議会	-8.87355
を発表した	-8.87646
のほか	-8.87683
時期	-8.87775
民	-8.87875
社会	-8.88177
していない	-8.88268
客	-8.88313
研究	-8.88387
関係者	-8.88409
避難	-8.88422
以来	-8.88466
ガ	-8.88471
品	-8.88519
▁6	-8.88542
に関し	-8.8874
で行われ	-8.88857
王	-8.89046
評価	-8.8905
来	-8.89205
だけ	-8.89309
住宅	-8.89328
ボ	-8.89465
訓練	-8.89577
ベ	-8.89844
他の	-8.89949
共同	-8.90151
勝ち点	-8.90173
予想	-8.90233
火	-8.90331
されていた	-8.90389
D	-8.90444
▁▲	-8.90499
ティ	-8.90501
国家	-8.90564
参加	-8.90992
戦に	-8.91304
産	-8.9136
年ぶり	-8.91411
江	-8.91462
上で	-8.9152
もある	-8.91617
日本人	-8.91643
自治体	-8.91652
住民	-8.91714
福島県	-8.92005
馬	-8.92047
東北	-8.92127
売り	-8.92203
後の	-8.92206
相	-8.92319
々	-8.92522
スペイン	-8.92587
氏が	-8.92696
被告	-8.92843
バー	-8.92886
率	-8.92915
倍	-8.92916
流	-8.93061
東京都	-8.93113
タイ	-8.93179
治	-8.93196
福島	-8.93216
系	-8.93231
身	-8.93233
総合	-8.93393
利用	-8.93459
英国	-8.93498
TPP	-8.93512
反対	-8.93525
ラン	-8.93656
09	-8.9373
申請	-8.93836
▁5	-8.93984
は約	-8.94157
会談	-8.9421
成立	-8.9422
▁7	-8.94295
金融	-8.94304
うち	-8.94354
与党	-8.94402
団	-8.94787
するなど	-8.94809
ご	-8.9483
買い	-8.94846
警視庁	-8.9491
電力	-8.94997
反	-8.95267
横浜	-8.95324
提出	-8.95452
個人	-8.95469
投票	-8.95471
処理	-8.9548
システム	-8.95526
今月	-8.95538
氏の	-8.95753
レー	-8.95856
風	-8.96003
出身	-8.96134
いい	-8.96149
を進める	-8.96262
理	-8.96375
▁9	-8.96504
選	-8.96549
体制	-8.96598
報道	-8.96627
既に	-8.97019
員	-8.9707
校	-8.97172
容疑で	-8.97177
ユーロ	-8.97264
なく	-8.97496
動き	-8.97576
資金	-8.976
自	-8.97635
会合	-8.9769
向け	-8.97694
を示す	-8.97911
O	-8.97981
を行った	-8.98
緊急	-8.98019
ことで	-8.98037
財政	-8.98075
課題	-8.98093
訪問	-8.98248
と説明	-8.98261
取	-8.98261
発表	-8.98403
人を	-8.98462
支持	-8.98482
崎	-8.98608
志	-8.98628
審査	-8.98676
ち	-8.98687
効果	-8.98702
マン	-8.98914
声	-8.99059
国会	-8.99094
歳の	-8.99392
衆院	-8.9941
位だった	-8.99438
官	-8.99466
死亡	-8.99535
行動	-8.99673
に向けて	-8.99831
場所	-8.99843
てきた	-8.9989
担当	-9.00196
08	-9.00297
▁政府は	-9.00398
減の	-9.00453
をめぐり	-9.00537
アン	-9.00555
48	-9.00621
社長は	-9.00945
で敗れた	-9.00955
K	-9.01014
良	-9.01122
超	-9.01171
足	-9.01294
判決	-9.01339
よりき	-9.01369
渡	-9.01492
ある	-9.01512
家族	-9.01579
北朝鮮の	-9.01653
そ	-9.01744
回戦	-9.01752
ラー	-9.01833
以降	-9.02007
65	-9.02085
禁止	-9.02124
春	-9.02126
城	-9.02356
バス	-9.02632
電	-9.02742
庁	-9.02806
自民党	-9.02886
防衛	-9.02928
日本は	-9.02991
ソン	-9.02997
核	-9.03153
してきた	-9.03293
を通じて	-9.03362
ぎ	-9.03425
記者団に	-9.03541
広	-9.03608
前回	-9.03655
センター	-9.03859
増加	-9.0387
理由	-9.03994
75	-9.04012
が行われ	-9.04136
2012	-9.04164
平均	-9.04234
削減	-9.04287
影響	-9.04348
教育	-9.04904
3000	-9.04992
ディ	-9.05029
最終	-9.05115
在	-9.05427
佐	-9.05491
これまで	-9.05546
ること	-9.05559
ワ	-9.05616
が必要	-9.0577
ペ	-9.058
ギ	-9.05837
▁ただ	-9.0588
36	-9.05897
R	-9.05962
追加	-9.06048
球	-9.06151
同社	-9.06196
それ	-9.06215
成長	-9.06215
億ドル	-9.06237
差	-9.06247
都市	-9.06272
▁日本	-9.06315
出来高は概算で	-9.06365
学校	-9.06373
ール	-9.06406
職員	-9.06434
貿易	-9.06484
カー	-9.066
ひ	-9.06669
平和	-9.06671
イタリア	-9.06677
判断	-9.06701
していく	-9.06753
当	-9.06802
準備	-9.06812
定	-9.06914
政	-9.06945
商	-9.06947
するため	-9.06964
38	-9.07054
55	-9.07167
おり	-9.0722
職	-9.0723
させた	-9.07244
となっている	-9.07269
までに	-9.0729
延長	-9.0733
工事	-9.07504
動	-9.07564
地震	-9.0767
JR	-9.07689
日米	-9.07695
報告書	-9.07742
運営	-9.07863
ポイント	-9.08001
沖縄県	-9.08055
水準	-9.08112
に加え	-9.08114
雇用	-9.0816
里	-9.082
ね	-9.0827
民間	-9.08273
飛行	-9.0831
地区	-9.08325
外交	-9.0833
便	-9.08361
首位	-9.08503
ドル高となった	-9.08625
77	-9.08628
産業	-9.08702
丸	-9.08793
値	-9.08805
後半	-9.08927
37	-9.08928
打数	-9.08957
派遣	-9.09006
尾	-9.09024
多くの	-9.0919
制裁	-9.09291
プロ	-9.0943
行為	-9.09447
試験	-9.09553
プラス	-9.09611
米軍	-9.09648
常	-9.09835
サン	-9.10053
減少	-9.10093
観測	-9.10136
手続き	-9.10333
景気	-9.1037
協会	-9.10384
多	-9.10409
指定	-9.10485
営業	-9.10519
夏	-9.1055
機構	-9.10602
博	-9.10674
論	-9.10725
好	-9.10735
.	-9.10809
▁8	-9.10868
違反	-9.10912
解決	-9.1095
理解	-9.10957
インターネット	-9.11013
データ	-9.111
ひろ	-9.11165
ものの	-9.11217
練習	-9.11228
根	-9.11231
院	-9.11469
引き	-9.11507
をめぐっては	-9.11559
受け入れ	-9.11566
商品	-9.11656
ことから	-9.11682
H	-9.11736
岩	-9.11748
空港	-9.11769
時に	-9.11823
世界選手権	-9.11893
兆円	-9.11951
館	-9.12215
基地	-9.1229
する方針	-9.12403
取り	-9.12436
ことは	-9.12455
林	-9.12474
形	-9.12514
科	-9.12615
主	-9.12624
米国の	-9.12641
78	-9.12679
京	-9.12762
批判	-9.12775
人に	-9.12802
軍事	-9.12803
はなかった	-9.12838
ほぼ	-9.12879
反発	-9.13007
◆	-9.13058
しい	-9.13097
に当たる	-9.132
田中	-9.13223
76	-9.13281
警戒	-9.13518
社員	-9.13537
込み	-9.13636
打	-9.13684
引き続き	-9.13702
週間	-9.13794
武	-9.1391
下落	-9.13975
神	-9.14081
主要	-9.14143
男女	-9.14158
位で	-9.14192
責任	-9.14303
承認	-9.14338
すると	-9.14494
先発	-9.14504
古	-9.14525
閣僚	-9.14627
要求	-9.14668
幸	-9.14769
仏	-9.14807
国連	-9.14882
洋	-9.14944
親	-9.14982
期待	-9.15075
制	-9.15191
99	-9.15287
同市	-9.15384
ど	-9.1543
67	-9.15432
本部	-9.15436
事態	-9.15439
同じ	-9.15533
万ドル	-9.1572
さんの	-9.15765
副	-9.15864
ザ	-9.15921
津	-9.15923
ゴ	-9.16265
越	-9.1629
工	-9.16542
ではない	-9.16605
現在	-9.1665
マイナス	-9.16654
ター	-9.16674
39	-9.16715
藤	-9.16787
事	-9.16975
議長	-9.16983
最も	-9.17033
46	-9.17073
よし	-9.17143
地元	-9.17302
47	-9.1731
人気	-9.1737
保険	-9.17389
失点	-9.1749
戦略	-9.17541
を踏まえ	-9.17645
合計	-9.17676
エネルギー	-9.17695
資産	-9.17727
ことを明らかにした	-9.17731
内に	-9.17828
2011	-9.17861
</	-9.17892
66	-9.17908
情勢	-9.18189
導入	-9.18217
こうした	-9.1831
食	-9.18374
を求めた	-9.18382
悪化	-9.18494
各地で行われ	-9.18517
利益	-9.18701
▁10	-9.18738
震災	-9.18794
橋	-9.18821
現	-9.18851
波	-9.18866
ドル安となった	-9.18896
転	-9.18924
a	-9.18934
2013	-9.18952
2014	-9.18976
したと発表した	-9.19072
名古屋	-9.19088
前の	-9.19132
ポ	-9.192
と指摘した	-9.19248
右	-9.19253
国の	-9.19315
一般	-9.19357
68	-9.19381
連続	-9.1941
業務	-9.19463
推進	-9.19682
制限	-9.19897
ニューヨーク	-9.19919
災害	-9.19957
連敗	-9.20001
台湾	-9.20048
弁護士	-9.20111
勝ち	-9.2017
得点	-9.20186
未	-9.20318
弱	-9.2035
工場	-9.20354
勢	-9.20382
ロンドン時事	-9.20514
ソフトバンク	-9.20531
98	-9.20599
感染	-9.20708
開幕	-9.20729
自民	-9.20732
ソ	-9.20764
愛	-9.20789
市で	-9.20823
製造	-9.20836
関	-9.20946
まさ	-9.20998
東京電力福島第	-9.21029
サイト	-9.21031
捜索	-9.21084
34	-9.21156
健	-9.21198
豊	-9.21204
指導	-9.21221
購入	-9.21315
69	-9.21327
進	-9.21345
保護	-9.21374
ことも	-9.21394
可能性	-9.21516
がない	-9.21688
太	-9.21737
吉	-9.21744
語	-9.21858
供給	-9.21947
前半	-9.21965
患者	-9.22037
鈴木	-9.22039
リン	-9.22058
られ	-9.22112
隊	-9.22135
彦	-9.22315
全体	-9.22362
浜	-9.22384
イラン	-9.22396
視	-9.22492
高校	-9.2253
医療	-9.22575
高い	-9.2261
売却	-9.22655
都道府県	-9.22657
思い	-9.22748
悪	-9.22769
切り	-9.22776
病院	-9.22833
弾	-9.22878
買収	-9.22935
花	-9.22952
実現	-9.23068
95	-9.23069
ていく	-9.23117
放送	-9.23188
大阪市	-9.23227
設置	-9.23237
料	-9.23248
予算	-9.23264
私	-9.23275
79	-9.23321
際	-9.2344
通り	-9.23442
復帰	-9.2349
連絡	-9.23501
黒	-9.23592
福岡	-9.23686
57	-9.23722
700	-9.23726
33	-9.2373
デモ	-9.23733
少年	-9.23799
路	-9.23831
逆転	-9.23838
に関しては	-9.23854
各国	-9.23882
樹	-9.24024
試合が行われ	-9.24048
複数の	-9.2408
600	-9.2423
U	-9.24273
レン	-9.2432
殺害	-9.24368
津波	-9.24378
までの	-9.24384
走	-9.24452
南部	-9.24458
に伴う	-9.24534
義	-9.2457
▁逮捕容疑は	-9.24625
宣言	-9.24664
のか	-9.24672
文書	-9.2482
そう	-9.24846
公開	-9.24908
妻	-9.24929
署	-9.24944
低下	-9.24971
についても	-9.24972
対話	-9.24983
銀	-9.24996
就任	-9.25091
を持つ	-9.25151
月期	-9.2518
に入った	-9.2527
秋	-9.25285
直接	-9.25388
引き上げ	-9.25471
機能	-9.25474
勝利	-9.25509
株式	-9.25511
必要	-9.25514
順	-9.25559
展開	-9.25624
過	-9.25631
命	-9.25667
なら	-9.25695
カナダ	-9.25744
李	-9.25777
を見	-9.25847
するよう	-9.25886
ロー	-9.25902
つか	-9.25906
能力	-9.25943
不安	-9.25948
司	-9.25959
旧	-9.25998
者の	-9.26057
オーストラリア	-9.26065
政府の	-9.26124
厳しい	-9.26133
▁第	-9.26178
要請	-9.26207
世帯	-9.26229
之	-9.26318
ネット	-9.26383
800	-9.26441
永	-9.26558
どう	-9.26701
ソウル時事	-9.2671
を取り	-9.26734
ヒ	-9.26765
年から	-9.26854
継続	-9.26909
満	-9.27028
市民	-9.2704
期間	-9.27164
せず	-9.27259
せ	-9.27331
ギリシャ	-9.27488
安定	-9.27515
協定	-9.27527
課	-9.27539
政府が	-9.27565
楽	-9.27739
ガス	-9.27827
ウクライナ	-9.27928
▁◇	-9.27993
決勝	-9.28013
したとして	-9.28221
輸入	-9.28318
部隊	-9.28408
非	-9.28421
安全保障	-9.28441
保	-9.28458
日目	-9.28492
例	-9.28541
連携	-9.2857
ヤ	-9.28591
周辺	-9.28603
人と	-9.28667
を挙げた	-9.28835
IS	-9.28841
ツアー	-9.28847
映画	-9.28999
ミリ	-9.29056
死亡した	-9.29114
と判断した	-9.29126
側	-9.29155
インド	-9.29156
にとって	-9.29284
屋	-9.29296
佐藤	-9.2931
日本代表	-9.2932
スポーツ	-9.29429
49	-9.29443
相談	-9.29501
企業の	-9.29516
71	-9.29647
需要	-9.2967
人で	-9.29881
意見	-9.299
加	-9.29914
その上で	-9.30051
日朝	-9.30071
ケース	-9.30119
現地	-9.30135
に対して	-9.30158
自宅	-9.30202
断	-9.30276
言	-9.30301
再稼働	-9.3033
日の記者会見で	-9.3035
58	-9.30368
登録	-9.3043
東日本大震災	-9.30455
現場	-9.30483
相手	-9.30556
▁<	-9.3058
位に	-9.30605
左	-9.30658
のある	-9.30824
個	-9.30837
そうだ	-9.3088
自衛隊	-9.30914
以上の	-9.30919
球団	-9.30939
努力	-9.30945
連盟	-9.30967
調	-9.30968
によって	-9.31067
辞任	-9.31081
連覇	-9.31134
条件	-9.31159
が続く	-9.31162
航空	-9.31179
集	-9.31206
解除	-9.31242
ろ	-9.31275
公表	-9.31317
新たに	-9.31377
議	-9.31385
今回	-9.31424
原子力	-9.31474
との見方	-9.3148
時ごろ	-9.31492
巨人	-9.31497
細胞	-9.3151
同日	-9.31511
宮城	-9.31547
2−1	-9.31656
したこと	-9.31665
費用	-9.31682
規模	-9.31705
京都	-9.31814
を行い	-9.31883
5%	-9.31895
維持	-9.3194
爆発	-9.31965
高橋	-9.32194
途中	-9.32236
同国	-9.3224
重要	-9.3232
回答	-9.32369
拠点	-9.32401
ほど	-9.32426
の影響	-9.32443
意	-9.32489
85	-9.32506
クラブ	-9.32582
銭と前日終値比	-9.32812
72	-9.32814
具体的な	-9.3286
現金	-9.32884
32	-9.32888
ロン	-9.32947
日まで	-9.32988
退	-9.3302
福島第	-9.3304
熱	-9.33055
委員長	-9.33082
ると	-9.33123
薬	-9.33169
の一部	-9.33174
アル	-9.33222
見直し	-9.33249
類	-9.33292
業者	-9.33345
全体の	-9.33382
64	-9.33437
金利	-9.33479
07	-9.33529
2010	-9.33532
〜9	-9.33616
ビル	-9.33698
寺	-9.33705
んで	-9.33733
福	-9.33798
特定	-9.33855
96	-9.33866
ように	-9.33888
97	-9.3398
失	-9.34019
05	-9.3402
参院	-9.34148
運用	-9.34163
選手権	-9.34165
枠	-9.34272
持ち	-9.3428
44	-9.34326
かず	-9.34439
によれば	-9.3447
ホ	-9.34571
町の	-9.34613
かどうか	-9.3466
が出た	-9.34681
難	-9.34724
弘	-9.3475
数は	-9.34809
び	-9.3485
ホテル	-9.34912
対立	-9.34917
と説明した	-9.35022
シュ	-9.35033
シン	-9.35149
地裁	-9.35182
香港	-9.35185
従業員	-9.35241
2009	-9.35247
ピ	-9.35319
年ぶりの	-9.3534
基本	-9.35364
何	-9.35375
コン	-9.3538
車両	-9.35389
点で	-9.35407
史	-9.35431
北京時事	-9.35432
観光	-9.35487
九州	-9.35579
提供	-9.35593
外務省	-9.35625
長期	-9.35635
先の	-9.35653
北部	-9.35691
の男性	-9.35725
アンダーの	-9.35766
込んだ	-9.35804
88	-9.35826
審議	-9.35839
変更	-9.35881
メーカー	-9.35887
大型	-9.35984
56	-9.36029
種	-9.36042
を図る	-9.36069
法人	-9.36252
証券	-9.36493
整備	-9.36503
融資	-9.36691
学生	-9.36724
2015	-9.3677
請求	-9.36874
千葉	-9.36885
日程	-9.36907
予選	-9.3691
期限	-9.3694
部分	-9.37005
上位	-9.37018
で勝った	-9.37088
姿	-9.37202
こう	-9.37243
外相	-9.37314
士	-9.37338
▁同署によると	-9.37471
を含め	-9.37516
年金	-9.37568
過去	-9.37621
ほ	-9.37646
交	-9.37659
府	-9.37696
等	-9.37756
顔	-9.37844
行政	-9.37867
開	-9.37947
也	-9.3795
を表明	-9.38004
分に	-9.38014
園	-9.38053
L	-9.38147
民主	-9.38234
メール	-9.38263
製	-9.38278
様子	-9.38299
子さん	-9.38319
署は	-9.38366
年度の	-9.38568
教	-9.38673
4000	-9.38674
監視	-9.38888
友	-9.38893
シードの	-9.38908
国債	-9.38911
キャ	-9.39047
発言	-9.39048
製品	-9.39103
ブラジル	-9.39106
青	-9.39109
圏	-9.39128
打差の	-9.39135
子ども	-9.39148
連合	-9.39175
迫	-9.39177
被告は	-9.39356
とみられ	-9.39384
秀	-9.39448
の影響で	-9.39504
部門	-9.39538
89	-9.39577
想定	-9.39589
事実	-9.39713
V	-9.39724
フェ	-9.39784
改正	-9.39844
軽	-9.39987
幹事長	-9.40048
母	-9.4005
調べ	-9.40062
東電	-9.40123
終了	-9.40214
1−0	-9.40309
すべきだ	-9.40358
特	-9.40381
確保	-9.40417
84	-9.40431
首都	-9.40464
かわ	-9.40579
59	-9.40608
額は	-9.40611
逮捕	-9.40689
経験	-9.40695
スーパー	-9.40748
おしだ	-9.40792
メディア	-9.40798
ックス	-9.40799
近	-9.40945
リスク	-9.41143
06	-9.41151
会場	-9.41155
円高	-9.41175
疑い	-9.4119
▁12	-9.41192
円安	-9.41193
を除く	-9.41208
筋	-9.41218
鉄	-9.41265
カ所	-9.41352
規定	-9.41394
文化	-9.41551
首脳	-9.4158
燃料	-9.41612
ぐ	-9.41616
認定	-9.41625
かった	-9.41663
千	-9.41671
側は	-9.41683
清	-9.4176
国民の	-9.4182
考えを示した	-9.41901
を逮捕した	-9.4199
喜	-9.42006
63	-9.4205
と主張	-9.42078
方法	-9.42079
前年	-9.42145
基	-9.42181
新潟	-9.42253
再び	-9.42287
回目	-9.42402
知事は	-9.42472
話	-9.42503
星	-9.42514
ミサイル	-9.42517
トルコ	-9.42522
73	-9.4253
見込み	-9.42538
半	-9.42579
フィ	-9.42769
事務所	-9.42813
は同	-9.42864
このため	-9.42885
〜7	-9.43065
本塁打	-9.4307
54	-9.43115
ような	-9.43138
記念	-9.43239
で破り	-9.43266
なげ	-9.43346
【	-9.43351
しなかった	-9.43429
込む	-9.43437
欧州連合	-9.43477
発展	-9.43501
を経て	-9.43546
顧客	-9.43609
▁11	-9.43661
食品	-9.43814
やま	-9.43998
東海	-9.44127
先制	-9.44128
74	-9.4421
非常に	-9.44258
分け	-9.44264
憲法	-9.44301
を超える	-9.44347
中で	-9.44488
などによると	-9.44565
望	-9.44661
結	-9.44667
健康	-9.44688
実験	-9.44707
運動	-9.44734
中村	-9.44838
道路	-9.44853
大きく	-9.44922
河	-9.44991
バーディー	-9.45042
86	-9.45079
発射	-9.45117
阪神	-9.45119
年ぶりに	-9.45196
引き下げ	-9.45291
記	-9.45331
赤字	-9.45334
内閣	-9.45343
イスラエル	-9.45495
全て	-9.4555
他	-9.4556
とみている	-9.45583
失点で	-9.45758
▁首相は	-9.45807
隆	-9.45855
ぶり	-9.4586
といった	-9.45879
混乱	-9.45895
業績	-9.4601
世	-9.46085
スター	-9.46097
月以降	-9.46171
歩	-9.4623
浩	-9.46247
獲得	-9.46247
出席	-9.4635
▁震度	-9.46414
93	-9.46539
任	-9.46656
82	-9.46735
女	-9.46735
メンバー	-9.4678
防止	-9.46838
長官	-9.46841
位は	-9.46842
投げ	-9.46869
勤務	-9.46922
状	-9.4699
宅	-9.4701
器	-9.47031
イラク	-9.47036
当初	-9.47108
だろう	-9.47192
尖閣諸島	-9.47234
中止	-9.47272
配	-9.47323
裕	-9.47389
t	-9.4743
ジャ	-9.47437
43	-9.47501
進出	-9.4751
83	-9.47517
間の	-9.47591
分析	-9.47597
で終わった	-9.47618
電話	-9.47724
携帯電話	-9.47753
委員	-9.4781
ヤクルト	-9.4782
山口	-9.4782
起	-9.47855
消費	-9.47889
返	-9.47895
雪	-9.47901
日本時間	-9.47916
率は	-9.47989
席	-9.48032
原発事故	-9.48099
交通	-9.48175
少なくとも	-9.48199
関東	-9.48349
生徒	-9.48419
港	-9.48433
大統領は	-9.48472
提案	-9.48589
発足	-9.48667
度目の	-9.48734
装置	-9.48756
行う	-9.48796
発行	-9.48848
出馬	-9.48875
野球	-9.48898
務	-9.48957
治療	-9.49028
立ち	-9.49139
と思う	-9.49219
店舗	-9.49241
競技	-9.49287
になっている	-9.49483
まだ	-9.49606
2%	-9.49663
出荷	-9.49783
▁-	-9.49818
復旧	-9.49892
計約	-9.49925
戦の	-9.49937
介	-9.49941
委	-9.50109
色	-9.50132
太平洋	-9.50149
もあり	-9.5016
幅	-9.50167
採決	-9.50219
活用	-9.50301
各地で	-9.50308
注意	-9.50334
門	-9.50418
〜8	-9.50425
座	-9.50511
最多	-9.5057
坂	-9.50759
遺体	-9.50808
このうち	-9.50958
不足	-9.50976
ワールドカップ	-9.50988
日本ハム	-9.50989
が所属する	-9.51044
独	-9.51085
人事	-9.51099
誠	-9.51108
残	-9.51148
検証	-9.51205
サッカー	-9.51218
東日本	-9.51303
フリー	-9.51347
メキシコ	-9.51367
神戸	-9.51369
首	-9.51399
仙台	-9.51411
の中で	-9.51493
を実施	-9.51507
香	-9.51516
の動き	-9.51557
八	-9.51621
危機	-9.51729
付	-9.51732
(1)	-9.51741
イスラム国	-9.51754
血	-9.51776
GDP	-9.51905
市町村	-9.51929
策定	-9.5197
。◇	-9.51977
級	-9.52035
と訴えた	-9.52118
いて	-9.52142
42	-9.52146
衝突	-9.5225
110	-9.52302
宮城県	-9.52383
値上げ	-9.52444
さんが	-9.52453
がん	-9.5267
ライ	-9.52696
落	-9.52751
たか	-9.52802
監督は	-9.52873
現状	-9.52917
縮小	-9.52973
であり	-9.52974
増税	-9.53064
外国人	-9.53064
〜5	-9.53118
2008	-9.53132
勢力	-9.53188
と同じ	-9.53199
外国	-9.53219
消防	-9.53239
朝	-9.53282
ゴール	-9.53357
当たり	-9.53381
オバマ大統領	-9.53423
財務省	-9.53424
豪	-9.53446
意識	-9.53452
6000	-9.53506
段	-9.53554
優	-9.53562
聖	-9.53565
今後の	-9.53594
北朝鮮が	-9.53604
会長は	-9.53611
打点	-9.53652
ファン	-9.53672
大阪府	-9.53737
発売	-9.5375
株価	-9.53788
関与	-9.53809
所得	-9.5391
ファ	-9.5405
浦	-9.54087
逮捕された	-9.54134
87	-9.54135
1.1	-9.54138
延期	-9.54183
スタート	-9.54187
市内の	-9.54216
緩和	-9.54354
前年比	-9.54411
改めて	-9.54519
十	-9.5456
冠	-9.54604
からは	-9.54618
公明党	-9.54707
注	-9.54721
陸	-9.54753
した上で	-9.54762
▁一	-9.5481
守	-9.54846
トヨタ	-9.54885
石川	-9.54965
残り	-9.55033
スイス	-9.55061
示	-9.55087
トヨタ自動車	-9.55092
同社は	-9.55138
900	-9.5517
アイ	-9.55182
当局	-9.55192
などから	-9.5523
81	-9.55239
引	-9.55246
羽	-9.5533
を検討する	-9.55349
決算	-9.5535
マー	-9.55357
特に	-9.55431
工業	-9.55431
ことについて	-9.55463
独立	-9.55473
レベル	-9.5557
94	-9.55626
圧力	-9.55674
の第	-9.55712
原発の	-9.55732
現在の	-9.55741
浅	-9.55764
いない	-9.55787
票	-9.55846
修正	-9.55905
まる	-9.56183
とみて	-9.56184
竹	-9.56218
対戦	-9.56242
と話している	-9.56318
防災	-9.56328
収益	-9.56333
解	-9.56357
康	-9.56361
を認め	-9.56369
トラブル	-9.56374
病	-9.56424
県警は	-9.56443
セット	-9.56462
配備	-9.56589
した疑い	-9.56604
両国	-9.56643
富	-9.56746
打ち	-9.56756
▁(▲	-9.56775
アー	-9.56792
回収	-9.56799
市長	-9.56846
ゆ	-9.56848
可能性もある	-9.56905
目的	-9.56917
業界	-9.56922
付け	-9.56941
次リーグ	-9.56958
自由	-9.56984
したという	-9.57012
傷	-9.57068
で下し	-9.57083
120	-9.57251
石油	-9.57288
ルー	-9.5737
パリ	-9.57424
議席	-9.57493
150	-9.57527
収入	-9.57616
向	-9.57649
料金	-9.57666
政党	-9.57693
べ	-9.57787
局長	-9.57792
ロッテ	-9.57792
横	-9.57851
DeNA	-9.57866
離脱	-9.57952
送	-9.57982
異	-9.58098
賠償	-9.58122
になり	-9.58141
ホンダ	-9.58263
戦争	-9.58306
瀬	-9.58321
ップ	-9.58388
鳥	-9.58422
児	-9.58478
AFP	-9.58525
俊	-9.58525
ゲーム	-9.58557
ではなく	-9.58603
倉	-9.5862
ヤンキース	-9.58658
移動	-9.58845
点を	-9.58852
するのは	-9.58884
台風	-9.58898
人口	-9.58904
ダー	-9.58916
を進めている	-9.58922
回戦で	-9.58934
会見で	-9.58941
エジプト	-9.5897
スマートフォン	-9.5897
細	-9.59012
主導	-9.59071
層	-9.59113
労働	-9.59141
が多い	-9.59199
を始めた	-9.5927
松本	-9.59282
〜4	-9.59368
赤	-9.59402
賀	-9.59422
要	-9.59465
界	-9.59554
財務相	-9.59641
章	-9.59644
プレー	-9.59685
研究所	-9.59712
採用	-9.59733
雨	-9.59738
よ	-9.5975
につながる	-9.59806
のは初めて	-9.59869
8000	-9.59904
番右翼で出場し	-9.59912
再生	-9.59965
日には	-9.59979
早く	-9.59991
1.3	-9.60064
向上	-9.60067
共産党	-9.60098
押し	-9.60186
なし	-9.60191
の結果	-9.60215
受	-9.60273
住	-9.60363
正午現在	-9.60382
げ	-9.60455
を表明した	-9.60487
投	-9.60627
53	-9.60718
部屋	-9.60883
を出した	-9.60905
子会社	-9.60924
行われ	-9.6098
路線	-9.61028
声明	-9.61052
犯罪	-9.6111
出資	-9.61137
ジュ	-9.61143
楽天	-9.61163
富士	-9.61179
万台	-9.61389
恵	-9.61398
山田	-9.61401
全国の	-9.61414
を背景に	-9.61425
出し	-9.61473
留	-9.61476
奪三振	-9.61595
宏	-9.61639
切れ	-9.6165
障害	-9.61711
廃止	-9.61776
四	-9.61838
修	-9.61859
遺族	-9.61862
ロンドン五輪	-9.61919
公園	-9.61935
東部	-9.61961
階	-9.61993
詰め	-9.62035
消費者	-9.62052
下げ	-9.62062
北京	-9.62086
児童	-9.62315
付き	-9.62331
伊	-9.62336
医師	-9.62378
日間	-9.6238
立場	-9.62395
上の	-9.62396
統一	-9.62405
深	-9.62424
首脳会談	-9.62427
幕	-9.62475
一つ	-9.62487
段階	-9.62519
電気	-9.62565
上場	-9.6268
大統領選	-9.62689
葉	-9.62726
一郎	-9.62792
万円を	-9.62806
証	-9.62821
信頼	-9.62842
所属	-9.62843
改定	-9.62847
一方で	-9.62877
しながら	-9.62954
記者会見で	-9.63137
月期の	-9.63168
上げ	-9.63269
米大リーグは	-9.63306
人が死亡	-9.63337
罪	-9.63378
オープン	-9.63381
東京都内で	-9.63437
あき	-9.63487
ハイテク	-9.63538
検	-9.63559
金融機関	-9.63565
あり	-9.63575
〜3	-9.63585
方針だ	-9.63596
52	-9.6366
要因	-9.63739
トラック	-9.63749
岸	-9.63905
著	-9.63926
統合	-9.63946
張	-9.64014
日本政府	-9.64018
総額	-9.64042
低	-9.64054
進め	-9.64056
渡辺	-9.64114
原油	-9.64118
前後	-9.64124
岩手	-9.6414
シー	-9.6421
1.2	-9.64218
賛成	-9.64243
部品	-9.64333
貴	-9.64381
04	-9.64387
隠	-9.6443
ハン	-9.64453
(2)	-9.64469
を続ける	-9.6447
味	-9.64556
きた	-9.64577
山本	-9.64662
メートルの	-9.64686
共	-9.64689
移転	-9.64717
希望	-9.64839
実質	-9.64855
持	-9.64945
周	-9.64982
乗客	-9.65006
音	-9.65018
長野	-9.65088
力を	-9.65125
被災者	-9.65145
指名	-9.65162
八回に	-9.65215
給	-9.65235
気持ち	-9.65239
女性の	-9.65264
1−1	-9.65357
電子	-9.65365
純	-9.65407
銭高	-9.65418
かつ	-9.65525
外国為替市場の円相場は	-9.65756
乗	-9.65827
全面	-9.65845
年連続で	-9.65856
西武	-9.66
農業	-9.66052
から約	-9.66071
ワシントン	-9.66123
はなく	-9.66185
全ての	-9.66205
通報	-9.66251
2−0	-9.66306
だったが	-9.66343
ミス	-9.66357
設備	-9.66392
維新	-9.66426
情報を	-9.66438
追	-9.66443
日未明	-9.66557
最大の	-9.66598
だけで	-9.66623
としては	-9.6664
消	-9.66657
上昇した	-9.66716
吉田	-9.66766
菅	-9.66771
に伴い	-9.66813
レース	-9.66956
太郎	-9.67065
世界ランキング	-9.67069
枚	-9.67105
首相が	-9.67138
旅行	-9.67148
は同日	-9.6719
表	-9.67275
3%	-9.67301
休	-9.67301
防	-9.67307
らは	-9.67344
年末	-9.67385
安倍晋三首相	-9.67395
農	-9.67402
○	-9.67485
実績	-9.67531
ブル	-9.67598
多く	-9.67602
地域の	-9.67608
なり	-9.67679
中部	-9.67722
i	-9.67731
雅	-9.67773
トランプ氏	-9.67818
ジェ	-9.67841
に続き	-9.67869
を前に	-9.67873
内部	-9.67873
民主党の	-9.67997
)</	-9.68079
認識	-9.68089
条	-9.6812
物価	-9.68126
むら	-9.68134
歴史	-9.68145
ざ	-9.68202
できた	-9.68287
年連続	-9.68344
低迷	-9.68469
ます	-9.68518
する予定	-9.6853
ロンドン	-9.68547
設立	-9.68659
形で	-9.68713
韓国の	-9.6875
原因	-9.68755
智	-9.68763
%	-9.68792
ビー	-9.68905
解消	-9.68917
一致	-9.6893
益	-9.68965
伸び	-9.68983
柱	-9.69007
マレーシア	-9.69008
創設	-9.69011
ベトナム	-9.69156
を強化する	-9.69159
男性は	-9.69211
が続いている	-9.69293
掛け	-9.69364
まり	-9.6938
同省は	-9.69421
多い	-9.69443
>(	-9.6949
しっかり	-9.6956
ベル	-9.69571
を確認	-9.6958
を通じ	-9.69602
取得	-9.69648
▁0.0	-9.697
ことに	-9.698
質	-9.69847
仁	-9.69855
2016	-9.69865
打率	-9.69906
清水	-9.69919
01	-9.69969
する見通し	-9.69973
交流	-9.6999
確定	-9.69992
審	-9.70042
観	-9.70089
与野党	-9.70107
原則	-9.70131
首脳会議	-9.70303
別では	-9.70315
勝目を挙げた	-9.70371
実行	-9.70424
先行	-9.70424
安全性	-9.70425
放射性物質	-9.7045
栄	-9.70493
カード	-9.70523
西日本	-9.70585
布	-9.70588
〜10	-9.70605
作成	-9.70653
写真	-9.70704
航空機	-9.70707
大使	-9.70757
服	-9.70769
遠	-9.70841
利用者	-9.7086
▁14	-9.70902
北陸	-9.70932
恐れがある	-9.71078
項目	-9.71109
徳	-9.7111
質問	-9.7114
被害者	-9.71332
3−1	-9.71365
たが	-9.71387
初日	-9.71406
仕事	-9.71412
のために	-9.71433
と表明	-9.71479
7000	-9.71523
四球	-9.71569
らない	-9.71584
造	-9.71585
キム	-9.71631
学園	-9.71642
られない	-9.71741
が出	-9.71775
の話	-9.71799
もあった	-9.71801
年以降	-9.71809
62	-9.71876
建物	-9.71885
ことになる	-9.71892
成功	-9.71901
出発	-9.72044
行われた	-9.72075
千葉県	-9.72153
日の東京株式市場の日経平均株価は	-9.72159
人権	-9.72225
を務める	-9.72248
行き	-9.72267
指	-9.72268
新幹線	-9.72371
紀	-9.7241
以下	-9.72418
を対象に	-9.72478
03	-9.72544
東芝	-9.72544
カップ	-9.72565
支給	-9.72578
いち	-9.72598
当選	-9.72628
0%	-9.72633
角	-9.72671
荒	-9.72729
売	-9.72741
バイ	-9.72748
月末	-9.72754
格	-9.72899
首相の	-9.72933
専門	-9.72945
自分	-9.72949
ランド	-9.72966
は初めて	-9.73002
を訪れ	-9.73099
もう	-9.73113
疑惑	-9.73242
許可	-9.73243
ゼロ	-9.7325
極めて	-9.73321
できなかった	-9.73364
出た	-9.73407
立候補	-9.73486
重要な	-9.73496
条約	-9.73498
ゆき	-9.73563
の可能性	-9.73571
を示し	-9.736
かな	-9.73723
昭	-9.73739
柏	-9.7374
人が死亡した	-9.73767
国際社会	-9.7378
以外の	-9.73799
保有	-9.73807
ホールディングス	-9.73809
寄り	-9.73817
で行われた	-9.7383
痛	-9.73864
といい	-9.73918
言葉	-9.73925
距離	-9.73954
あった	-9.73964
犯行	-9.74049
しく	-9.74053
海上	-9.74073
合同	-9.74091
フィリピン	-9.74121
に入る	-9.74249
解散	-9.74268
宇宙	-9.7431
負け	-9.74427
に基づき	-9.74457
短	-9.745
決意	-9.74524
大変	-9.74608
ロシアの	-9.74642
o	-9.74688
点検	-9.74691
シャ	-9.7474
2017	-9.74806
届	-9.74809
の一つ	-9.74867
社の	-9.74905
報	-9.75004
ゲ	-9.75006
が出ている	-9.75057
▁13	-9.7507
べきだ	-9.75101
える	-9.7511
1%	-9.75134
バル	-9.75152
X	-9.75195
を受ける	-9.75237
場合は	-9.75255
勧告	-9.75257
〜12	-9.75266
帰国	-9.75271
=11	-9.75277
オリックス	-9.75284
れる	-9.75288
給与	-9.75326
今後も	-9.75338
乗り	-9.75339
資本	-9.75353
犯	-9.75472
ジャパン	-9.75486
飛	-9.75509
強く	-9.7553
移設	-9.75566
横綱	-9.75575
堂	-9.75586
中間	-9.756
モン	-9.75656
材料	-9.75664
極	-9.75716
のではないか	-9.7578
NHK	-9.75797
資料	-9.75808
っていない	-9.75863
集団	-9.76008
厘	-9.76062
41	-9.76115
財源	-9.76162
挑戦	-9.76205
銃	-9.7627
曲	-9.76274
損	-9.76296
欧米	-9.76339
回を	-9.76348
埼玉県	-9.76363
集中	-9.76384
共和党	-9.76433
予測	-9.76433
作品	-9.76446
債務	-9.76478
してほしい	-9.76556
入院	-9.76628
自分の	-9.76678
輪	-9.76693
小型	-9.76772
表明	-9.76784
利上げ	-9.76795
取り組み	-9.76798
節	-9.76809
好調	-9.76886
の販売	-9.76893
▁J	-9.76919
日銀	-9.76949
おお	-9.77012
川崎	-9.77064
るため	-9.7708
調べている	-9.77087
史上	-9.7717
ニー	-9.77201
採択	-9.77233
コー	-9.77277
中日	-9.77343
オランダ	-9.77344
時半ごろ	-9.77344
で回り	-9.77354
異常	-9.77467
過去最高	-9.77525
0.0	-9.7755
積	-9.77565
打数無安打	-9.77608
認められ	-9.77648
単独	-9.77731
抗議	-9.77746
駐	-9.77749
らの	-9.77761
▁この	-9.77794
気象庁によると	-9.77795
安で終わった	-9.77823
ふ	-9.77861
8%	-9.7788
新規	-9.77947
選出	-9.78022
▁山	-9.78025
の東京株式市場の日経平均株価は	-9.78051
したのは	-9.78106
次期	-9.78118
宮崎	-9.78127
競争	-9.78198
衆院選	-9.78209
乱	-9.78217
試	-9.78221
走行	-9.78255
狙い	-9.78256
を控え	-9.7829
)=	-9.78305
犠牲者	-9.78315
無職	-9.78324
父	-9.78353
陽	-9.78355
ダウ工業株	-9.78369
成果	-9.78375
暫定	-9.78435
贈	-9.78473
装	-9.78486
日本が	-9.78496
外部	-9.78557
鉄道	-9.78566
にかけて	-9.78588
総裁	-9.78617
することが	-9.78621
分野	-9.7865
×	-9.78681
もので	-9.78714
神奈川	-9.78734
に上る	-9.78765
完全	-9.78776
可能	-9.78815
危険	-9.78846
壁	-9.78854
自ら	-9.78857
発電	-9.78859
e	-9.78958
裁判長は	-9.78959
自然	-9.78972
訴訟	-9.79013
相当	-9.79068
報道官は	-9.79096
るよう	-9.79116
しか	-9.79133
0.1	-9.79144
適用	-9.79151
主力	-9.79203
電子版	-9.79241
変	-9.79265
裁判所	-9.79267
投資家	-9.7929
静岡	-9.79291
なければ	-9.79315
ごろ	-9.79332
者が	-9.79345
推薦	-9.79346
代表の	-9.79389
タン	-9.7939
主張	-9.79511
レス	-9.79556
あいさつ	-9.79565
加藤	-9.79581
上海	-9.79592
強制	-9.79645
を上回る	-9.7967
輸送	-9.79674
接	-9.7971
希	-9.7972
交換	-9.79733
傾向	-9.79764
日のニューヨーク	-9.79799
現行	-9.79826
に取り組む	-9.7985
資源	-9.79854
素	-9.79856
コメント	-9.79859
東京電力	-9.79872
合い	-9.79896
命令	-9.79919
イベント	-9.79949
提言	-9.80004
シンガポール	-9.80004
側の	-9.80012
七回	-9.8003
養	-9.80045
92	-9.80051
ハー	-9.80072
思	-9.8013
孝	-9.8017
会社員	-9.80197
れた	-9.80241
草	-9.8028
3−0	-9.80347
シーズン	-9.8039
経	-9.80392
カ月ぶりに	-9.80408
遅れ	-9.80428
るなど	-9.80432
会合で	-9.80474
国内で	-9.80493
パソコン	-9.80501
焦点	-9.80573
同省	-9.80577
〜6	-9.80584
受賞	-9.80709
厚	-9.80722
南シナ海	-9.80723
月下旬	-9.80754
で第	-9.80763
各社	-9.80763
を超えた	-9.80785
した場合	-9.80788
科学	-9.80859
が見つかった	-9.80917
帰	-9.80932
加速	-9.80993
&	-9.81056
可能性が高い	-9.81096
同署は	-9.81144
伸	-9.81157
指示	-9.81223
油	-9.81241
伊藤	-9.81291
▁男子	-9.8131
に関して	-9.8135
埼玉	-9.81352
ーズ	-9.81362
池	-9.81405
同社の	-9.81425
したり	-9.81429
映像	-9.81449
統計	-9.81491
防御率	-9.81614
消費増税	-9.81616
注目	-9.81666
救助	-9.81673
掲載	-9.81693
市場の	-9.81743
ろう	-9.81789
沖	-9.81789
スク	-9.81797
ベスト	-9.81822
これに対し	-9.8185
開かれた	-9.81885
リア	-9.81944
殺	-9.82085
理事	-9.82097
FRB	-9.8212
臨時	-9.82152
表示	-9.82209
連邦	-9.82251
拘束	-9.82278
なお	-9.82284
ナー	-9.82324
謝罪	-9.82356
日本側	-9.82387
記者会見し	-9.8248
営	-9.82518
兵	-9.82532
引退	-9.82578
パン	-9.82584
活躍	-9.82604
ッド	-9.82625
被災地	-9.82673
になって	-9.82697
環太平洋連携協定	-9.82741
していたが	-9.82773
やす	-9.82796
▁女子	-9.82811
徹底	-9.82813
減少した	-9.82834
指数	-9.82857
意欲	-9.82898
億円の	-9.82903
カメラ	-9.8291
を挙げ	-9.82923
ことなど	-9.82946
漏れ	-9.83029
関心	-9.83056
マグニチュード	-9.83078
乗用車	-9.83083
方向	-9.83083
高齢者	-9.83124
の判断	-9.83157
と判断	-9.83175
賃金	-9.83253
起訴	-9.83267
酒	-9.83281
網	-9.83364
新党	-9.83371
関税	-9.83374
骨	-9.83416
玉	-9.83432
▁15	-9.83438
子供	-9.83484
汚染	-9.83486
執行	-9.83504
移	-9.83574
と批判	-9.83602
なども	-9.8364
流出	-9.83678
ブランド	-9.83685
単	-9.83693
前週末	-9.83712
昨季	-9.83764
などは	-9.83773
領	-9.83819
鹿児島	-9.83871
書記	-9.83885
を決め	-9.8389
ヘ	-9.83915
自殺	-9.83955
デン	-9.84012
ヌ	-9.84016
会議で	-9.84036
郎	-9.84077
51	-9.84083
新しい	-9.84087
警備	-9.84102
稼働	-9.8417
▁東京	-9.8421
肉	-9.84213
1.0	-9.84214
緊張	-9.84216
担当者	-9.84241
最高裁	-9.84256
変化	-9.84258
関西	-9.84266
当局は	-9.84291
違法	-9.84375
財務	-9.84387
版	-9.84402
祭	-9.84423
自民党の	-9.84426
を持って	-9.8443
役員	-9.84442
よりも	-9.84537
年間で	-9.84578
で勝ち	-9.84618
リード	-9.8469
度目	-9.84758
愛知	-9.84793
前年同月比	-9.84801
介護	-9.84805
専門家	-9.84857
日付の	-9.84876
教授	-9.84876
の強化	-9.84893
容	-9.84952
中東	-9.85012
と報じた	-9.85036
海洋	-9.851
種目	-9.85213
ても	-9.85247
大使館	-9.8535
党の	-9.85363
警察官	-9.85387
前年同期比	-9.85387
自身の	-9.85483
明らかにした	-9.85606
損失	-9.85621
記者会見	-9.8563
は今年	-9.85648
五	-9.85667
隻	-9.85669
が必要だ	-9.8572
区の	-9.858
場で	-9.85836
精	-9.85903
回避	-9.85909
速	-9.85962
札幌	-9.85964
列車	-9.85972
最近	-9.85994
おか	-9.86002
野田佳彦首相	-9.86003
発見	-9.8607
男は	-9.86147
絶	-9.86173
)▽	-9.86173
発表した	-9.86177
を理由に	-9.8618
▁19	-9.86239
っており	-9.8626
暴行	-9.86341
と語り	-9.86362
カル	-9.86381
四国	-9.86381
▁16	-9.8639
幹部は	-9.86402
会見	-9.86407
末	-9.86427
IC	-9.86468
温	-9.865
熊本	-9.86514
逆	-9.86537
応	-9.86599
他に	-9.866
との認識を示した	-9.86615
容認	-9.86663
側に	-9.8667
ぼ	-9.86701
管	-9.86708
嶋	-9.86842
を制した	-9.8686
10%	-9.86872
2.5	-9.86875
▁安倍晋三首相は	-9.86886
これまでに	-9.86898
願	-9.86901
集会	-9.87002
※	-9.8702
に必要な	-9.8702
母親	-9.87036
限	-9.87037
暴力	-9.87045
善	-9.87065
決勝で	-9.87073
大幅に	-9.87139
ばかり	-9.87147
記者会見した	-9.87192
出す	-9.87238
02	-9.87348
を決める	-9.8741
入れ	-9.8742
を検討	-9.87423
ユーロ圏	-9.87449
火災	-9.87496
社会保障	-9.87496
遺	-9.875
王座	-9.87521
薄	-9.87552
一回に	-9.87564
小沢氏	-9.87594
日中	-9.87616
受け	-9.87632
指導者	-9.87635
不満	-9.87682
〜11	-9.87689
呼び掛け	-9.87693
列	-9.87701
範囲	-9.8773
行った	-9.87738
小学校	-9.87762
はホームで	-9.878
家庭	-9.87849
小林	-9.87864
まず	-9.87877
担当相	-9.87924
の新	-9.87976
茨城県	-9.87999
決議	-9.88008
発覚	-9.88031
事業者	-9.88141
実態	-9.88152
を強調した	-9.88179
守備	-9.88269
八回	-9.88307
時の	-9.88335
達成	-9.88356
将	-9.88363
甲子園	-9.88385
南北	-9.88407
達	-9.88464
争	-9.8849
理事長	-9.88616
ジャンプ	-9.88635
感じ	-9.88664
向き	-9.88753
調達	-9.8876
事故で	-9.88767
スタジアム	-9.88805
準決勝	-9.88829
ウイルス	-9.88867
機器	-9.88883
"	-9.8891
の増加	-9.88936
同意	-9.88968
売上高	-9.88971
早	-9.88979
年代	-9.89017
することで	-9.89022
91	-9.89048
優良株で構成	-9.89053
モスクワ時事	-9.89164
一定の	-9.89191
義務	-9.89213
像	-9.89252
のための	-9.89307
時は	-9.89345
▁風	-9.89363
ユーロは	-9.89363
と明らかにした	-9.89383
同署	-9.89399
党内	-9.8945
を検討している	-9.89451
原子炉	-9.89469
警	-9.89498
が決まった	-9.89512
控え	-9.89514
インドネシア	-9.89532
づ	-9.8955
アフリカ	-9.89636
なければならない	-9.89658
ベクレル	-9.89714
に近い	-9.89756
を求め	-9.89772
見通しだ	-9.89797
裏	-9.89847
レンジャーズ	-9.89896
▁米	-9.89909
ソウル	-9.8996
リビア	-9.89973
昨年の	-9.90214
端	-9.90232
エンジン	-9.90263
少ない	-9.90269
エン	-9.90279
経緯	-9.90281
サー	-9.90333
害	-9.9036
で約	-9.90413
返還	-9.90448
施行	-9.90454
近くの	-9.90467
新聞	-9.90489
エル	-9.90505
近畿	-9.90507
2007	-9.90516
チームが	-9.90557
要望	-9.90579
法違反	-9.90591
1500	-9.90611
続く	-9.90614
を引き	-9.90615
ガー	-9.90621
自主	-9.90639
早期	-9.90652
全く	-9.90673
不動産	-9.90692
プラ	-9.90748
の安全	-9.90796
の見直し	-9.90808
当時の	-9.90816
覚	-9.90822
相場	-9.90826
戻	-9.90863
1〜3	-9.90875
計上	-9.90909
殺人	-9.90935
月には	-9.90976
キロの	-9.91004
地点	-9.91044
安倍政権	-9.91106
ミャンマー	-9.9112
作戦	-9.91122
開かれ	-9.91231
なる	-9.91243
三菱	-9.9127
0.2	-9.91275
青森	-9.91276
バン	-9.91307
への影響	-9.91317
を使った	-9.91368
時点で	-9.91399
創	-9.91401
日夕	-9.9145
▁大	-9.91461
同容疑者	-9.91511
証拠	-9.91516
転換	-9.91557
アップル	-9.91595
死者	-9.91598
7%	-9.91602
当面	-9.91627
公式	-9.91718
放	-9.91767
▁中国	-9.91774
を使って	-9.91783
外相は	-9.91787
堀	-9.91861
市場では	-9.91871
症	-9.91979
メッセージ	-9.91986
敏	-9.92109
新設	-9.92113
しても	-9.92128
一番	-9.92146
と表明した	-9.92181
されており	-9.922
なか	-9.9224
時代	-9.92241
らず	-9.92278
ウェ	-9.92303
出した	-9.92334
資格	-9.92336
竜	-9.92373
ホール	-9.9239
歴代	-9.92399
されて	-9.92424
テニスの	-9.92428
だけでなく	-9.92438
保管	-9.92444
密	-9.92445
建	-9.92452
長崎	-9.92453
ハイ	-9.92538
移籍	-9.92568
核実験	-9.92573
を示している	-9.92609
補	-9.92609
ちゃん	-9.92613
ホーム	-9.9266
ヤード	-9.92673
岩手県	-9.92713
同点	-9.92715
態勢	-9.92745
防衛省	-9.92775
伝えた	-9.9278
問	-9.92802
賞金	-9.92811
大規模	-9.92824
社が	-9.9284
厚生労働省	-9.92951
踏み	-9.92955
確実	-9.92964
衛星	-9.92985
記者	-9.93056
したところ	-9.93065
を務めた	-9.93075
マリナーズ	-9.93109
と伝えた	-9.93161
高裁	-9.93231
延	-9.93247
カ月連続で	-9.93268
礼	-9.93361
(3)	-9.93364
投入	-9.93432
もようだ	-9.93473
を急ぐ	-9.93487
表現	-9.935
これまでの	-9.93516
マンション	-9.93538
を上回った	-9.93589
指針	-9.93614
コース	-9.93693
は敵地で	-9.93725
に入り	-9.9379
同日午後	-9.93799
両国国技館	-9.93802
白鵬	-9.93903
加盟	-9.93979
立て	-9.93997
岡田	-9.94044
ずつ	-9.94092
多数	-9.94133
ルール	-9.94162
登板	-9.94201
横浜市	-9.9423
▁政府	-9.94259
付近	-9.94265
月以来	-9.94274
に住む	-9.94302
機会	-9.94306
▁ニューヨーク	-9.94308
則	-9.94331
1.4	-9.94346
める	-9.94397
若	-9.94452
週	-9.94611
勝ち越し	-9.94677
ッチ	-9.94677
夜	-9.94694
、「(	-9.94718
パリ時事	-9.9472
大幅	-9.94772
で敗れ	-9.94776
棟	-9.9482
支持率	-9.94854
参院選	-9.94861
対円では同	-9.94883
大半	-9.94891
将来	-9.9491
全員	-9.94964
タイムズ	-9.94973
2020	-9.95024
で行われる	-9.95109
サッカーの	-9.95128
戦に先発し	-9.95147
ソニー	-9.95151
奈	-9.95192
敬	-9.95203
国内の	-9.95217
必要な	-9.95254
証言	-9.95279
歌	-9.95289
ノー	-9.95402
今回は	-9.9543
対抗	-9.95442
3−2	-9.95455
同時刻現在	-9.95458
4%	-9.9553
PRE	-9.95531
日韓	-9.95535
新人	-9.95535
前月	-9.95584
GC	-9.95593
を進め	-9.95634
にとどまった	-9.95653
本社	-9.95659
七回に	-9.9573
遊	-9.95743
納	-9.95772
▁しかし	-9.95787
を得た	-9.95829
泰	-9.95912
0.7	-9.95918
長官は	-9.95926
週末	-9.95934
クラ	-9.95953
決	-9.95979
年度に	-9.96001
への対応	-9.96067
んでいる	-9.96075
案を	-9.96148
低い	-9.96181
国が	-9.96183
典	-9.96184
完了	-9.96188
先に	-9.9619
と推定される	-9.96194
年齢	-9.9622
艦	-9.96224
意味	-9.96247
登	-9.96261
地下	-9.96345
国境	-9.96347
下院	-9.96385
容疑者が	-9.96418
板	-9.96419
難民	-9.9646
変動	-9.9652
衆院議員	-9.96525
破	-9.96572
が確認された	-9.96578
本人	-9.96648
流れ	-9.96673
止め	-9.96674
具	-9.9668
メジャー	-9.96696
材	-9.96697
クス	-9.96742
ワン	-9.96766
CC	-9.96846
を強調	-9.96881
松井	-9.96889
十分	-9.96972
同様の	-9.96974
演説	-9.9698
可決	-9.9702
車の	-9.97024
観光客	-9.97105
人目	-9.97161
コスト	-9.97172
イスラム	-9.97205
輝	-9.97211
少女	-9.97216
完成	-9.97224
▁−	-9.97227
調査結果	-9.97243
撤回	-9.97277
運転手	-9.97313
ゼ	-9.9733
憲	-9.97343
明記	-9.97373
指標	-9.9744
ジョ	-9.97502
明らかになった	-9.97541
適	-9.97578
天皇	-9.97679
てほしい	-9.9772
カン	-9.97728
▁"	-9.97755
の日本	-9.97833
行方不明	-9.9784
興	-9.97888
許	-9.97932
空爆	-9.97973
を呼び掛けた	-9.9799
構築	-9.98
失敗	-9.98014
向けの	-9.98084
で開かれた	-9.98089
参加者	-9.98093
考えだ	-9.98119
追い	-9.98128
時半	-9.98136
汚染水	-9.98183
必要がある	-9.98335
底	-9.98368
懲役	-9.98396
を認める	-9.9842
生まれ	-9.98438
柳	-9.98466
シェ	-9.98483
同年	-9.98505
成績	-9.98528
胸	-9.98528
協	-9.98561
基金	-9.98577
新型	-9.98623
者は	-9.98633
署名	-9.98753
残る	-9.9883
支出	-9.989
レッドソックス	-9.98927
を開き	-9.98929
日付で	-9.9894
噴火	-9.9895
を発表し	-9.99014
ボギーの	-9.9902
大手証券	-9.99034
人々	-9.99037
良い	-9.99037
詳細	-9.99041
地球	-9.99075
をまとめた	-9.99097
対処	-9.99133
を指摘	-9.99142
前田	-9.99149
式典	-9.9917
四半期	-9.99249
塚	-9.99262
支配	-9.99263
金正恩	-9.99278
を訴えた	-9.99313
運航	-9.99333
されていない	-9.99341
男性が	-9.99345
の対象	-9.99352
ザー	-9.99423
大規模な	-9.99431
IT	-9.9945
に基づく	-9.99461
滞在	-9.99488
リーグは	-9.9949
最後の	-9.99501
事件の	-9.99522
しているが	-9.99584
労働者	-9.99606
通常	-9.99628
けが	-9.99638
と対戦する	-9.99646
促進	-9.99646
ことを受け	-9.9974
主な	-9.99751
伝	-9.99778
目の	-9.99781
6%	-9.998
を放った	-9.998
更新	-9.99809
通過	-9.99868
間で	-9.99908
の疑いで	-9.99911
閉鎖	-9.99931
チェ	-9.99947
愛知県	-9.99952
られている	-9.99987
報酬	-9.99996
記載	-9.99999
拒否	-10.0001
月末に	-10.0004
まま	-10.0004
▁同課によると	-10.0006
0.6	-10.0008
発表された	-10.0012
リオデジャネイロ五輪	-10.0014
仮	-10.0015
医	-10.0017
詐欺	-10.0019
区域	-10.0031
ゆう	-10.0038
諸国	-10.0044
号は	-10.0044
を獲得	-10.0046
〔	-10.0047
〕	-10.0047
増加した	-10.0048
出て	-10.0059
矢	-10.006
締結	-10.0061
受注	-10.0061
選挙区	-10.0069
候補者	-10.007
金メダル	-10.0076
▁17	-10.0079
ていきたい	-10.0081
を浴び	-10.0081
助	-10.0088
陸上	-10.009
初戦	-10.009
を得	-10.0098
打撃	-10.0102
振	-10.0105
日以降	-10.0113
漁	-10.012
師	-10.012
黒字	-10.0122
総選挙	-10.0122
価	-10.0126
結婚	-10.0129
ピー	-10.0139
前月比	-10.0141
オスプレイ	-10.0142
排除	-10.0142
方式	-10.0147
のみ	-10.0153
九回に	-10.0153
いく	-10.0154
通知	-10.0156
男が	-10.0157
画像	-10.0159
モデル	-10.0163
▁新	-10.0164
日馬富士は	-10.0164
した後	-10.0167
ものだ	-10.0169
を要請	-10.017
女児	-10.0171
マル	-10.0184
が行われた	-10.0187
行われる	-10.0192
確	-10.0193
苦	-10.0194
秋田	-10.0195
市内で	-10.0196
実施する	-10.0196
を要求	-10.0198
地域で	-10.02
落ち	-10.02
盛り	-10.0207
の女性	-10.0208
蔵	-10.021
で初めて	-10.0212
結論	-10.0212
号機の	-10.0212
たこと	-10.0217
すぎ	-10.0218
起きた	-10.0221
パラリンピック	-10.0224
が入った	-10.0231
NTT	-10.0231
の首都	-10.0235
降	-10.0237
聞	-10.0241
年以来	-10.0243
抑制	-10.0255
●	-10.0266
欠	-10.0275
セル	-10.0276
岡山	-10.0278
刑事	-10.0282
ワー	-10.0282
設定	-10.0283
AC	-10.0289
FW	-10.0291
仕組み	-10.0293
遠藤	-10.0295
国土交通省	-10.0295
課税	-10.0299
静	-10.0305
画	-10.0308
まった	-10.0308
終了後	-10.0309
わない	-10.031
アンダーで	-10.0312
ひこ	-10.0315
9000	-10.0318
ラス	-10.0318
提訴	-10.0321
現時点で	-10.0322
侵入	-10.0323
件の	-10.0323
有力	-10.0325
が起きた	-10.0326
一連の	-10.0331
しょう	-10.0331
米国で	-10.0332
聴取	-10.0336
六回に	-10.0337
モスクワ	-10.0342
倒れ	-10.0343
中国が	-10.0344
であること	-10.0345
状況を	-10.0346
可能な	-10.0348
日以来	-10.0349
はこれまで	-10.0361
日にも	-10.0363
の中	-10.0371
いている	-10.0374
かねない	-10.0378
米大リーグ	-10.0379
脱	-10.0382
一部の	-10.0383
ガン	-10.0384
夢	-10.0391
でき	-10.0394
女子の	-10.0403
しん	-10.0404
を狙う	-10.0411
念	-10.0412
神奈川県	-10.0414
稲	-10.0417
優先	-10.0421
大関	-10.0421
華	-10.0426
長男	-10.0433
治安	-10.0436
72)	-10.044
を促す	-10.044
の対応	-10.0443
前日午後	-10.0444
杉	-10.0444
一層	-10.0444
双方	-10.0445
が多く	-10.0446
新潟県	-10.0446
の協力	-10.0448
接触	-10.0451
ちょう	-10.0452
部リーグで	-10.0453
同党	-10.0454
口座	-10.0458
▁昨年	-10.0461
衣	-10.0467
を公表した	-10.0471
を開始	-10.0471
着陸	-10.0478
容疑を認め	-10.0479
ガソリン	-10.0482
アサド政権	-10.0482
まれ	-10.0483
を迎える	-10.0483
実際に	-10.0484
が高い	-10.0486
製造業	-10.049
たり	-10.0491
停戦	-10.0498
従来の	-10.0499
1.5	-10.05
祐	-10.0503
定期	-10.0503
和解	-10.0506
再編	-10.0509
湖	-10.051
部長	-10.0512
オー	-10.0513
街	-10.0516
この日	-10.0518
居	-10.052
操作	-10.0525
が出る	-10.0526
由	-10.0528
最低	-10.0531
過半数	-10.0532
で引き分けた	-10.0533
付近で	-10.0537
61	-10.0541
ごとに	-10.0552
段階で	-10.0553
を果たした	-10.0553
GP	-10.0558
青木	-10.0559
は今後	-10.056
ポイント高の	-10.0561
4〜6	-10.0568
方針を	-10.0574
ほとんど	-10.0574
今後は	-10.0576
を主張	-10.0578
預金	-10.058
よく	-10.058
音楽	-10.0583
撮影	-10.0585
入国	-10.0585
中小企業	-10.0589
が原因	-10.059
恐れ	-10.0592
昌	-10.0593
>◇	-10.0597
桜	-10.0601
ライン	-10.0601
顧問	-10.0603
閣議決定	-10.0606
代打	-10.0607
会談で	-10.0619
牛	-10.0645
龍	-10.0646
を目指し	-10.065
を調べる	-10.0651
つき	-10.0653
経費	-10.0657
作業員	-10.0658
払い	-10.0658
FA	-10.0665
/	-10.0667
香川	-10.0668
決断	-10.0668
シリーズ	-10.0673
斎藤	-10.0675
のような	-10.0683
中断	-10.0685
の下	-10.0686
容疑者の	-10.0688
須	-10.0689
周年	-10.0695
価格は	-10.0696
トー	-10.0697
被災	-10.0703
介入	-10.0721
日までの	-10.0726
激しい	-10.0726
沼	-10.0732
負傷	-10.0733
泉	-10.0735
できず	-10.0737
舞台	-10.0739
解明	-10.0742
内閣府	-10.0742
事前	-10.0744
ビール	-10.0747
兼	-10.0753
入札	-10.0755
リコール	-10.0757
分野で	-10.0758
らに	-10.0761
塩	-10.0761
▁ソフトバンク	-10.0763
離	-10.0764
を見せ	-10.0766
来週	-10.077
種類	-10.077
地上	-10.0773
ホームページ	-10.0776
五回に	-10.0776
▁18	-10.0779
上空	-10.0781
は既に	-10.0781
たち	-10.0783
込め	-10.0783
を取る	-10.0784
動画	-10.0789
が続いた	-10.079
男子は	-10.0791
ベルギー	-10.0797
を開催	-10.0802
投稿	-10.0805
挙	-10.0806
両県	-10.0808
パナソニック	-10.0812
魚	-10.0812
黄	-10.0812
スタン	-10.0812
打ち上げ	-10.0815
手術	-10.0818
試算	-10.082
韓	-10.0822
トラ	-10.0823
起用	-10.0827
パレスチナ	-10.0827
国対委員長	-10.0827
女性は	-10.0834
にわたり	-10.0835
先行き	-10.0838
エア	-10.0845
できるよう	-10.0847
に備え	-10.0848
がなかった	-10.0851
司法	-10.0853
公判	-10.0854
同容疑者は	-10.0855
面で	-10.0856
感謝	-10.0857
市場予想	-10.0861
搭載	-10.0862
したため	-10.0863
した際	-10.0866
再建	-10.0866
稀勢の里は	-10.0868
乳	-10.087
ないよう	-10.0872
測定	-10.0874
プロ野球	-10.0883
決めた	-10.0887
不明	-10.0895
飛び	-10.0901
首相官邸で	-10.0904
政調会長	-10.0908
申告	-10.0908
順位	-10.0911
0−0	-10.0914
来日	-10.0915
MF	-10.0921
福井	-10.0924
ショー	-10.0925
SP	-10.0929
と話し	-10.0934
内容を	-10.0938
イチロー	-10.0944
誌	-10.0944
を改めて	-10.0945
副大臣	-10.0945
IMF	-10.0946
複数	-10.0949
増え	-10.0949
収	-10.0951
をめどに	-10.0953
令	-10.0954
東電は	-10.0955
浦和	-10.0955
を確認した	-10.0956
位に入った	-10.0959
次第	-10.096
会計	-10.096
この後	-10.0967
開設	-10.0967
かかる	-10.0968
出身の	-10.0968
刑	-10.0969
ビン	-10.097
方が	-10.0971
関連法案	-10.0972
高官	-10.0976
試合は	-10.0978
寿	-10.0981
奥	-10.0982
退任	-10.0983
するか	-10.0983
隊員	-10.0989
鶴竜は	-10.0992
増えた	-10.0996
事業の	-10.0998
ダイ	-10.1
券	-10.1002
詳しい	-10.1004
対決	-10.1006
把握	-10.1008
とう	-10.1008
0.5	-10.1008
現行の	-10.101
です	-10.1011
除染	-10.1019
することを	-10.1019
片	-10.1021
割合	-10.1022
万円の	-10.1025
否定	-10.1027
凍結	-10.1027
山形	-10.1031
求めた	-10.1034
同日午前	-10.1036
裁判	-10.1037
首位の	-10.104
▁(0−1)	-10.1042
の高い	-10.1045
壊	-10.1046
白鵬は	-10.1047
執行部	-10.1048
西部	-10.1048
主義	-10.1049
開いた	-10.1052
はある	-10.1054
のない	-10.1057
国立	-10.106
今国会	-10.1062
タイム	-10.1064
を続け	-10.1065
ことが分かった	-10.1066
づくり	-10.1071
▁調査は	-10.1072
反体制派	-10.1073
逃げ	-10.1073
するとともに	-10.1075
が相次いだ	-10.1075
然	-10.1076
争い	-10.1077
月中旬	-10.1081
同庁は	-10.1085
御	-10.109
セン	-10.1093
フォー	-10.1093
業種	-10.1093
s	-10.1093
佳	-10.1093
の上昇	-10.1094
提携	-10.11
代表は	-10.1105
権利	-10.1106
翔	-10.1108
ラグビー	-10.1123
先月	-10.1124
安保	-10.1125
メダル	-10.1125
配慮	-10.1125
土地	-10.1126
畑	-10.1131
大リーグ	-10.1132
週明け	-10.1133
東日本大震災の	-10.1133
増と	-10.1135
戦闘	-10.1136
済み	-10.1137
言及	-10.114
を出し	-10.1141
月まで	-10.1143
大分	-10.1146
部の	-10.1146
認め	-10.1147
従来	-10.1151
せる	-10.1152
人民	-10.1155
深刻な	-10.1157
ニア	-10.1159
を伝えた	-10.116
人物	-10.1161
格付け	-10.1161
実施した	-10.1162
後も	-10.1176
慎重に	-10.1178
国会議員	-10.1182
大会で	-10.1188
正式に	-10.1196
是正	-10.1198
2005	-10.1201
デモ隊	-10.1201
ーン	-10.1204
の揺れを観測した	-10.1207
白星	-10.1207
忠	-10.1207
地震の規模	-10.1207
とき	-10.1207
ベア	-10.121
さまざまな	-10.1214
年内に	-10.1215
優勝した	-10.1216
レイ	-10.1224
イングランド	-10.1226
事務	-10.1226
用の	-10.1226
などについて	-10.1227
激	-10.1227
度の	-10.1236
しま	-10.1246
側が	-10.1249
億円と	-10.125
〜13	-10.1251
9%	-10.126
談話	-10.1261
減税	-10.1261
人から	-10.1268
九回	-10.1269
権限	-10.1269
0.9	-10.127
始まった	-10.1271
演習	-10.1275
純利益	-10.1276
女性が	-10.128
移行	-10.1283
剛	-10.1283
死刑	-10.1285
連結	-10.1286
日本時間同	-10.1287
の調査	-10.1289
プレーオフ	-10.1291
賞金総額	-10.1292
激化	-10.1293
株主	-10.1295
無料	-10.1295
崩れ	-10.1298
を基に	-10.13
人のうち	-10.1302
飯	-10.1305
2006	-10.1307
していきたい	-10.1307
準々決勝	-10.1307
会社の	-10.1308
グループの	-10.131
濃度	-10.1314
広告	-10.1315
弁	-10.1318
進める	-10.1318
名古屋市	-10.1319
準	-10.1322
構想	-10.1323
総会	-10.1326
三振	-10.1332
ウン	-10.1332
三回に	-10.1336
済	-10.1336
検出	-10.1336
認可	-10.1337
答弁	-10.1338
限り	-10.1339
明らかに	-10.134
ニュージーランド	-10.1344
▁(1−0)	-10.1345
カイロ時事	-10.1347
警告	-10.1349
フル出場	-10.1349
ってきた	-10.135
機械	-10.136
源	-10.1362
を訪問	-10.1369
ラウンドが行われ	-10.1369
長野県	-10.1375
中学	-10.1376
先送り	-10.1376
積極的に	-10.1378
に上った	-10.1378
ポスト	-10.1379
なくなった	-10.1382
陣	-10.1384
指摘	-10.1385
反省	-10.1387
コメ	-10.1389
寄	-10.1394
選考	-10.14
分から	-10.1401
の早期	-10.1404
異なる	-10.1407
ワールド	-10.1407
徳島	-10.1412
世界の	-10.1417
茂	-10.1419
ュ	-10.1419
盛	-10.1421
誕生	-10.1422
合わせ	-10.1435
後退	-10.1437
つく	-10.1444
宿泊	-10.1445
に達した	-10.1447
信用	-10.1452
ボール	-10.1453
ジョン	-10.1455
に出	-10.1456
自動	-10.1458
腹	-10.146
困難	-10.1464
阿部	-10.1467
▁日本は	-10.147
に応じて	-10.1473
組の	-10.1473
慶	-10.1475
コーチ	-10.1479
チャ	-10.1479
井上	-10.1484
宇	-10.1491
撤退	-10.1491
構え	-10.1493
電機	-10.1495
野村	-10.1498
脳	-10.1499
振興	-10.15
上がり	-10.15
岐阜	-10.15
人増	-10.1501
売り上げ	-10.1501
1.6	-10.1501
自転車	-10.1507
墜落	-10.1508
かい	-10.151
位から	-10.1521
含まれ	-10.1522
全日本	-10.1522
ユ	-10.1524
宝	-10.1529
警察庁	-10.1538
交代	-10.1541
並	-10.1544
君	-10.1546
退陣	-10.1547
きょう	-10.155
数が	-10.1552
大雨	-10.1553
の平均	-10.1554
啓	-10.1554
選手が	-10.1563
任期	-10.1566
と話しているという	-10.1566
市長は	-10.157
境	-10.1571
終	-10.1571
ジー	-10.1578
男児	-10.1583
不十分	-10.1589
毎年	-10.159
推計	-10.1591
卒業	-10.1592
していたことが	-10.1592
法律	-10.1594
茨城	-10.1598
女子は	-10.1606
ために	-10.1607
責任者	-10.1607
リーグ戦	-10.1611
早大	-10.1611
視察	-10.1611
の改善	-10.1615
開かれる	-10.1617
上院	-10.1621
四回に	-10.1624
オン	-10.1624
いじめ	-10.1625
らい	-10.1628
とみられている	-10.1631
を持ち	-10.1631
武器	-10.1635
営業利益	-10.1636
IOC	-10.1641
袋	-10.1648
毛	-10.1649
就職	-10.165
負	-10.1651
を維持	-10.1654
剤	-10.1656
日のニューヨーク株式相場は	-10.1657
際に	-10.1659
裁判長	-10.1662
久保	-10.1665
と主張した	-10.1669
中心部	-10.1671
六回	-10.1672
現在は	-10.1676
チャー	-10.1679
横ばい	-10.1681
に影響	-10.1683
本部長	-10.1683
、2012	-10.1686
関電	-10.1692
暴力団	-10.1697
を決定	-10.1698
協議会	-10.17
に着手	-10.1702
と発表	-10.1702
誰	-10.1705
同行	-10.1717
自身	-10.1717
トップの	-10.172
イル	-10.1725
派の	-10.1725
が大きく	-10.1728
との見方を示した	-10.1732
存在	-10.1732
記者団に対し	-10.1734
前週	-10.1735
落下	-10.1736
漁船	-10.1739
難しい	-10.1742
仙台市	-10.1742
が行われる	-10.1742
売買	-10.1745
打席	-10.1747
幹	-10.1755
両党	-10.1758
銘柄	-10.176
通貨	-10.1761
問題を	-10.1764
照	-10.1767
散	-10.1768
このほか	-10.177
社は	-10.1776
自己	-10.1779
▁これに対し	-10.1781
氏ら	-10.1783
見解	-10.1783
2018	-10.1784
潮	-10.1785
朝鮮	-10.1787
らせ	-10.1787
退職	-10.1789
意向	-10.1791
節電	-10.1795
を訴え	-10.1798
毒	-10.1801
再発防止	-10.1807
機体	-10.1808
賢	-10.1809
冒頭	-10.1809
さらなる	-10.1817
パキスタン	-10.1817
に入って	-10.1823
と批判した	-10.1824
過去の	-10.1824
カブス	-10.1825
跡	-10.1834
党首	-10.1838
を迎えた	-10.1838
東京地裁	-10.1847
国防	-10.1848
男子シングルス	-10.185
使	-10.1852
煙	-10.1857
拡充	-10.1857
摘発	-10.1858
区間	-10.1861
決め	-10.1861
約束	-10.1861
米国は	-10.1861
熊本県	-10.1869
講演	-10.1871
現役	-10.1873
を終えた	-10.1876
などとして	-10.1877
公約	-10.1878
初優勝	-10.1883
除	-10.1884
▁気象庁は	-10.1889
金を	-10.189
県の	-10.1895
歓迎	-10.1896
さない	-10.1897
前から	-10.1901
以前	-10.1902
上限	-10.1904
航行	-10.1909
翌	-10.1918
財	-10.1918
に言及	-10.1922
が約	-10.1928
の適時打で	-10.1929
編成	-10.1932
の導入	-10.1934
ソフト	-10.1937
事実上	-10.1946
ペア	-10.1947
ション	-10.1947
堅	-10.1947
進展	-10.1949
が検出された	-10.1949
を確保	-10.195
未来	-10.1951
下落した	-10.1952
0.3	-10.1955
が起き	-10.1957
厳しく	-10.196
の再	-10.1963
リスト	-10.1963
1.7	-10.1965
単位	-10.197
(▲	-10.1976
歳以上	-10.1976
広報	-10.1978
日本と	-10.1979
年内	-10.198
突き	-10.1982
比率	-10.1984
▁JR	-10.199
されたが	-10.199
を感じ	-10.1991
症状	-10.1991
辺	-10.1994
ヘリ	-10.1999
稀勢の里	-10.1999
が同	-10.2003
福祉	-10.2004
置	-10.201
の大	-10.2011
ぬ	-10.2012
時から	-10.2015
主催	-10.2018
判定	-10.2021
指揮	-10.2021
値上がり	-10.2022
運行	-10.2024
施設の	-10.2024
えた	-10.2026
を超え	-10.2027
テン	-10.2028
で記者会見し	-10.2028
基盤	-10.2029
圧	-10.2031
250	-10.2032
活動を	-10.2032
攻	-10.2033
寄付	-10.2038
試合で	-10.2039
0.1%	-10.2039
沖で	-10.204
金属	-10.2041
米側	-10.2048
を開く	-10.2049
年には	-10.2051
合わせて	-10.2055
の内容	-10.2057
構造	-10.2059
二塁打	-10.2059
設計	-10.2061
を強化し	-10.2062
まち	-10.2062
ツイッター	-10.2062
のまま	-10.2063
若者	-10.2065
高速	-10.2065
上に	-10.2067
トロ	-10.207
静岡県	-10.2072
サイ	-10.2073
平野	-10.2078
滑	-10.2078
公表した	-10.208
一人	-10.2082
が可能	-10.2083
府警	-10.2084
条例	-10.2088
告発	-10.2089
▁1.5	-10.209
同時に	-10.209
同庁	-10.2097
戦が行われ	-10.2097
設備投資	-10.2098
舞	-10.2103
番手で登板し	-10.2103
番組	-10.2107
覚せい剤	-10.2112
切	-10.2112
に就任	-10.2119
臨	-10.2122
飲	-10.2122
労	-10.2125
を付けた	-10.2128
提示	-10.2135
クリ	-10.214
HD	-10.2141
戦後	-10.2145
の生産	-10.2146
男子の	-10.2147
知人	-10.2149
菜	-10.2149
容疑	-10.2155
出演	-10.2157
フォ	-10.2158
両氏	-10.216
日本で	-10.2163
有効	-10.2163
が強い	-10.2166
評	-10.2168
栃木	-10.2168
の間に	-10.217
マーク	-10.2179
続ける	-10.2181
直後に	-10.2183
展示	-10.2188
▁サッカーの	-10.2188
フル	-10.2189
二回に	-10.2189
病院に	-10.2189
微	-10.2194
タンク	-10.2194
ASEAN	-10.2195
世代	-10.2197
多数の	-10.2197
締め	-10.2207
すべき	-10.2208
で引き分け	-10.2211
端末	-10.2212
始めた	-10.2214
加入	-10.2217
▁20	-10.2217
休場	-10.2219
を念頭に	-10.222
キャンプ	-10.222
シャープ	-10.2221
無所属	-10.2221
周辺の	-10.2223
貸	-10.2225
に参加	-10.2225
厳	-10.223
公明両党	-10.2237
以内	-10.2244
国内総生産	-10.2245
日本勢	-10.2247
父親	-10.2247
脇	-10.2248
グラム	-10.2249
告	-10.225
年間の	-10.2252
大きい	-10.2253
日に行われる	-10.2253
を放ち	-10.2254
めた	-10.2254
この日は	-10.2254
と説明している	-10.2256
経済産業省	-10.2258
を更新	-10.2259
両社	-10.226
襲撃	-10.2261
泊	-10.2262
がれき	-10.2263
マラソン	-10.2263
習	-10.227
はたきこみ	-10.2271
する中	-10.2274
で起きた	-10.2277
漁業	-10.2279
うわて	-10.2279
ブラ	-10.2284
今夏	-10.2284
群	-10.2286
違い	-10.2289
減速	-10.2291
打者	-10.2292
速報値	-10.2297
護	-10.2297
を得る	-10.2297
抗	-10.231
グラ	-10.2312
新興国	-10.2317
兵庫県	-10.2319
▁東京都	-10.2319
本当に	-10.2328
男子ゴルフ	-10.2329
つけ	-10.2334
東京ドーム	-10.2342
運	-10.2345
は現在	-10.2347
鑑定	-10.2347
ベン	-10.2349
とした上で	-10.2356
構成	-10.2356
病院で	-10.2357
と呼ばれる	-10.2362
収支	-10.2362
価値	-10.2366
保守	-10.2366
を下回った	-10.2372
表情	-10.2382
偽	-10.2388
仕	-10.2389
が発生した	-10.239
添	-10.2392
東日本大震災で	-10.2392
離党	-10.2395
出版	-10.2396
119	-10.2396
克	-10.2398
を記録した	-10.2402
失業率	-10.2403
CEO	-10.2407
集計	-10.2408
十両	-10.2409
ここ	-10.2411
が遅れ	-10.2412
図	-10.2414
急増	-10.2417
総務	-10.242
疑いがある	-10.2422
冷却	-10.2424
琴奨菊は	-10.2425
▁0.1	-10.2426
震源の深さは約	-10.2426
自信	-10.243
委員会は	-10.2438
トゥ	-10.2441
有識者	-10.2444
公共	-10.2444
鹿島	-10.2444
取締役	-10.245
3.5	-10.2452
長は	-10.2453
琴奨菊	-10.2456
生き	-10.2457
ペース	-10.246
知事選	-10.2461
1.8	-10.2464
本名	-10.2465
額を	-10.2465
不具合	-10.2467
企画	-10.2467
鶴竜	-10.2467
選手権は	-10.247
したとみられる	-10.247
の男	-10.247
取り消し	-10.2474
サミット	-10.2475
月にも	-10.2476
未満	-10.2476
円台	-10.2476
しようと	-10.2477
と同	-10.2478
▁R	-10.2482
和平	-10.2482
連立	-10.2489
を含めた	-10.2496
上原	-10.2497
保険料	-10.2499
位となった	-10.2506
反応	-10.2512
浮上	-10.2513
合流	-10.2518
亜	-10.2525
番手	-10.2525
勝ち越した	-10.253
これを受け	-10.2531
に先立ち	-10.2534
機が	-10.2537
警官	-10.2539
東証	-10.2541
を停止	-10.2542
にかけ	-10.2543
込んで	-10.2546
米国が	-10.2546
高校生	-10.2548
ひで	-10.2548
いったん	-10.2549
神宮	-10.255
大統領の	-10.2554
開業	-10.2557
奄美	-10.2562
130	-10.2562
高安	-10.2563
特例	-10.2564
五回	-10.2566
余	-10.2566
共有	-10.2573
0−1	-10.2575
進み	-10.2579
委託	-10.2581
冷	-10.2581
もり	-10.2583
読	-10.2589
1−2	-10.2591
量は	-10.2591
たという	-10.2591
がなく	-10.2595
譲	-10.2595
正式	-10.2595
が伝えた	-10.2597
米軍普天間飛行場	-10.2597
モー	-10.2597
グル	-10.2601
卒	-10.2604
大宮	-10.2604
昇格	-10.2606
まつ	-10.2606
をはじめ	-10.2612
招致	-10.2614
絵	-10.2614
検討する	-10.2618
を目指している	-10.2619
闘	-10.262
元首相	-10.2622
を狙った	-10.2623
寛	-10.2623
廃炉	-10.2632
故	-10.2636
友人	-10.2638
大会連続	-10.2638
農家	-10.2644
年度から	-10.2649
救援	-10.2649
にわたって	-10.2649
けん	-10.265
の声	-10.265
ペン	-10.2653
共通	-10.2653
警報	-10.2659
不振	-10.2661
いか	-10.2664
兵庫	-10.2664
高知	-10.2664
ディー	-10.2664
副社長	-10.2666
発信	-10.2669
和田	-10.2669
富山	-10.2672
を始める	-10.2672
の必要性	-10.2673
上がった	-10.2674
追及	-10.2676
キー	-10.2677
スマホ	-10.2677
盗	-10.268
意向を示した	-10.2681
スウェーデン	-10.2684
辞職	-10.2686
民進党	-10.2687
印	-10.2692
固	-10.2693
交付	-10.2696
参	-10.2698
都内で	-10.2702
戦い	-10.2709
飲食店	-10.271
倒	-10.2711
日経平均	-10.2711
半導体	-10.2711
市場で	-10.2711
戦は	-10.2712
前期比	-10.2712
ウィ	-10.2713
核兵器	-10.2718
判断する	-10.2723
検察	-10.2728
分間	-10.2729
甲府	-10.2729
発覚した	-10.2733
適時打	-10.2742
小野	-10.2745
2.7	-10.2751
年東京五輪	-10.2751
築	-10.2752
来た	-10.2753
選手の	-10.2761
やすい	-10.2762
アップ	-10.2763
免許	-10.2764
現職	-10.2767
六	-10.2771
内野手	-10.2773
回転	-10.2774
が浮上	-10.2776
開く	-10.2782
深く	-10.2785
域	-10.2788
の拡大	-10.279
ング	-10.279
河野	-10.279
手段	-10.279
に進出	-10.279
住民の	-10.2792
と認定	-10.2796
署によると	-10.2797
アク	-10.2802
人も	-10.2802
の実施	-10.281
所で	-10.281
登場	-10.2813
1.9	-10.2814
尚	-10.2817
いけ	-10.2818
を認めた	-10.2818
報じた	-10.2818
火山	-10.282
説	-10.2828
の設置	-10.2829
気象庁は	-10.2833
との関係	-10.2834
と思った	-10.2836
チームの	-10.2839
改	-10.2839
夫婦	-10.2845
で優勝した	-10.285
受け止め	-10.2852
朝鮮半島	-10.2853
ルート	-10.2859
薬物	-10.286
カ月間	-10.2862
を求めている	-10.2865
ドル高	-10.2866
方針を示した	-10.2867
届け出	-10.2869
旗	-10.2874
防衛相	-10.2877
良く	-10.2878
のワールドカップ	-10.2881
、2014	-10.2885
支部	-10.2886
を開始した	-10.2887
2004	-10.2888
▁さらに	-10.2893
もっと	-10.2894
手当	-10.2897
帯	-10.2898
高速道路	-10.2899
くなる	-10.2899
帰宅	-10.2899
審議会	-10.2905
問題について	-10.2906
の是非	-10.2907
キューバ	-10.2916
化学	-10.2917
年生	-10.2919
金額	-10.292
就	-10.2922
重大な	-10.2922
課は	-10.2923
=""	-10.2925
応援	-10.2925
鹿児島県	-10.2926
金融緩和	-10.2936
シングルス	-10.2938
を更新した	-10.2939
数十	-10.2939
状態で	-10.2942
▁日本ハム	-10.2944
ーター	-10.2944
傘下の	-10.2944
時代の	-10.295
ドラ	-10.2951
孫	-10.2952
ホワイトハウス	-10.2952
に約	-10.2957
を盛り込んだ	-10.296
敗目	-10.2964
各党	-10.2966
た上で	-10.2967
近い	-10.2967
を支援する	-10.2972
最大手	-10.2972
諸島	-10.2974
していなかった	-10.2976
ブリ	-10.2978
みんな	-10.2979
撤去	-10.2979
日にかけて	-10.2979
0.5%	-10.298
デー	-10.2984
ニュー	-10.2985
取り組む	-10.2986
補助金	-10.2987
前で	-10.2989
スタ	-10.299
企業が	-10.2992
銭と前日午後	-10.2992
優勝の	-10.2996
合併	-10.2999
委員長は	-10.3001
されれば	-10.3003
様	-10.3005
を強め	-10.3006
氷	-10.3006
が参加	-10.3013
品目	-10.3015
プーチン大統領	-10.3015
グーグル	-10.3015
準決勝で	-10.3021
われわれは	-10.3024
売上高は	-10.3027
確認した	-10.303
長女	-10.3031
記事	-10.3033
日清食品	-10.3034
する必要がある	-10.3035
最終的に	-10.3036
連れ	-10.3036
拉致問題	-10.3037
保有する	-10.3039
歳で	-10.3039
を否定	-10.304
クラシック	-10.3043
終値	-10.3044
日産	-10.3046
中国は	-10.3058
節の	-10.3058
理事会で	-10.306
が発生	-10.306
地元の	-10.3062
の間で	-10.3064
する一方	-10.3065
ないと	-10.3065
高さ	-10.3067
トル	-10.3068
差し	-10.3069
寝	-10.307
選択肢	-10.3079
2.1	-10.3083
らと	-10.3088
雲	-10.3088
の責任	-10.3089
給付	-10.309
食べ	-10.3092
ロサンゼルス時事	-10.3092
月上旬	-10.3093
中国側	-10.3093
化学兵器	-10.3098
0000	-10.3104
独自	-10.3108
ショック	-10.3108
女子シングルス	-10.3111
英語	-10.3114
劇	-10.3116
世紀	-10.3117
攻め	-10.3118
精神	-10.3123
不当	-10.3125
芳	-10.3125
ポイント安の	-10.3126
その後は	-10.3128
被害を受けた	-10.313
していること	-10.3135
日馬富士	-10.3138
食料	-10.3142
動機	-10.3147
タル	-10.3148
豪栄道	-10.3149
を見せた	-10.315
の在り方	-10.3153
返済	-10.3154
、2013	-10.3159
ようだ	-10.316
少	-10.3161
政権の	-10.3162
委員会で	-10.3164
関係者は	-10.3165
0.4	-10.3165
全米	-10.3175
組合	-10.3176
入手	-10.3182
敵	-10.3182
債	-10.3183
電源	-10.3184
朗	-10.319
絞	-10.319
急落	-10.3193
を終え	-10.3195
方向で調整	-10.3196
嘉	-10.3198
アルゼンチン	-10.3199
悲	-10.3199
することを決めた	-10.3203
論文	-10.3207
課長	-10.3208
今年の	-10.3209
解任	-10.321
電話で	-10.3213
スカ	-10.3213
の割合	-10.3213
ドル高の	-10.3215
とされ	-10.3216
来季	-10.3218
焼	-10.3223
情	-10.3226
|	-10.3226
転落	-10.3227
伝え	-10.3232
買	-10.3233
改ざん	-10.3235
かもしれない	-10.3236
加盟国	-10.3238
の意向	-10.3241
放射線量	-10.3241
▁島	-10.3243
を拒否	-10.3244
鉱	-10.3245
と答えた	-10.3248
者に	-10.3249
柔道	-10.3255
の支援	-10.3262
依存	-10.3264
釈放	-10.3264
後は	-10.3264
大量	-10.3268
の開発	-10.327
金沢	-10.328
時現在は	-10.3281
途	-10.3282
捜査関係者によると	-10.3284
庫	-10.3285
目撃	-10.3286
替え	-10.3295
貢献	-10.3295
を開いた	-10.3295
と指摘し	-10.33
効	-10.3301
証券取引所の出来高は前日比	-10.3301
トンネル	-10.3302
で震度	-10.3305
阻止	-10.331
娘	-10.3311
結果を	-10.3316
スキー	-10.3319
を高める	-10.332
県内	-10.332
セント	-10.3324
と共に	-10.3326
監査	-10.333
に続く	-10.333
ゴルフ	-10.3334
為替	-10.3336
位置	-10.3346
勢い	-10.3347
房	-10.3348
寄与	-10.3349
定数	-10.3352
アピール	-10.3354
求める	-10.3355
県は	-10.3356
代の	-10.3359
得られ	-10.336
あと	-10.336
入団	-10.3365
万トン	-10.3366
国交省	-10.3368
たけ	-10.3369
ていたが	-10.3369
抜き	-10.3371
夫妻	-10.3373
決着	-10.3379
アパート	-10.338
▁高	-10.3385
3.4	-10.3385
犯人	-10.3386
ことはない	-10.3388
メートルで	-10.3389
幅は	-10.3389
7〜9	-10.3393
日本維新の会	-10.3396
位に浮上した	-10.3399
あって	-10.3409
行事	-10.341
しているという	-10.3411
が出席	-10.3411
安打無失点	-10.3414
沈	-10.3414
ビジネス	-10.3414
補償	-10.3415
姿勢を示した	-10.3415
損傷	-10.3416
豪栄道は	-10.342
罪で	-10.3421
は記者会見で	-10.3421
成長率	-10.3421
のが狙い	-10.3422
ピーク	-10.3425
わが国	-10.3426
▁プロ野球	-10.3429
する方針だ	-10.3431
断念	-10.3435
0.3%	-10.3435
成田	-10.3436
プレ	-10.3439
日本選手	-10.3442
▁26	-10.3444
自宅で	-10.3448
上陸	-10.3454
消費税	-10.3454
職員が	-10.3455
KO	-10.3457
シェア	-10.3459
敗で	-10.346
軽自動車	-10.3461
問題が	-10.3465
領海	-10.3465
書類	-10.3468
冬	-10.3469
つけた	-10.3469
外野手	-10.3471
損害賠償	-10.3471
0.2%	-10.3473
車が	-10.3475
及	-10.3477
2−2	-10.3479
床	-10.348
経済成長	-10.3482
第一	-10.3486
結成	-10.3486
今大会	-10.3487
折	-10.3488
公安	-10.3489
前提	-10.349
通信によると	-10.3491
国に	-10.3492
ラウンド	-10.3494
かれ	-10.3495
の発言	-10.3496
切った	-10.3496
勤	-10.3498
さんと	-10.3502
。<	-10.3504
続いた	-10.3504
接近	-10.3504
植	-10.3506
哲	-10.3508
奈良	-10.3509
ダン	-10.3511
振り	-10.3512
那	-10.3519
心配	-10.3523
サッカーのドイツ	-10.3526
しなければならない	-10.3531
快	-10.3533
▁今回の	-10.3537
基調	-10.3538
族	-10.3546
車種	-10.355
にとどまる	-10.3554
つつ	-10.3556
早期に	-10.3556
規	-10.3559
保安院	-10.3559
かけて	-10.356
年以上	-10.3562
の整備	-10.3564
2.0	-10.3564
配分	-10.3566
時までの	-10.3567
の立場	-10.3568
もない	-10.3569
億ユーロ	-10.357
支払い	-10.3576
推	-10.3577
賃上げ	-10.3579
に報告	-10.358
前日の	-10.3587
判明した	-10.3589
群馬	-10.359
発見された	-10.3592
国間	-10.3593
呼	-10.3595
...	-10.3596
インフラ	-10.3596
紛争	-10.3596
する方針を固めた	-10.36
分からない	-10.3605
WBC	-10.3606
たい考えだ	-10.3608
恒	-10.3614
トライ	-10.3614
千代	-10.3618
程度の	-10.3618
男性の	-10.3625
機の	-10.3625
駐車場	-10.3625
始まり	-10.3625
奪	-10.3626
を続けている	-10.3627
半ば	-10.3628
税収	-10.3628
勇	-10.3633
を達成した	-10.3634
錦織圭	-10.3634
普通	-10.3635
北米	-10.3638
小幅	-10.3638
は当初	-10.364
響	-10.364
広島は	-10.3641
彼	-10.3644
があれば	-10.3645
軍の	-10.3648
▁同社は	-10.3651
メン	-10.3656
敷	-10.3657
大統領府	-10.3657
首都圏	-10.3657
を再	-10.3658
計画を	-10.3661
況	-10.3662
は今月	-10.3663
アフガン	-10.3664
崩壊	-10.3664
債券	-10.3665
選定	-10.3667
ユー	-10.367
去	-10.3673
中心	-10.3674
能	-10.3677
邦	-10.3683
会い	-10.3684
リング	-10.3686
名目	-10.3686
参院議員	-10.3688
を取って	-10.3689
鳴	-10.3691
金融政策	-10.3693
選抜	-10.3694
問題の	-10.3695
資	-10.3697
死去	-10.3698
ける	-10.3699
を実施する	-10.3701
理事会	-10.3703
を公表	-10.3706
会談し	-10.3707
抑え	-10.3709
腰	-10.3712
は後半	-10.3712
ニュース	-10.3714
個人消費	-10.3715
▁県警	-10.3723
牧	-10.3725
が通算	-10.3726
するという	-10.3726
直前	-10.3726
を大幅に	-10.3726
ティー	-10.3728
切る	-10.3729
をめぐって	-10.3732
パス	-10.3737
持ち直し	-10.3746
閉	-10.3749
挑発	-10.3749
形だ	-10.3751
聴	-10.3758
ナン	-10.3759
福田	-10.3759
息	-10.376
ベース	-10.376
委員会の	-10.3761
前進	-10.3765
に応じ	-10.3767
大谷	-10.3767
と分析	-10.3767
ないといけない	-10.3767
だと	-10.3769
三つ	-10.3769
なっている	-10.3774
賄	-10.378
郡	-10.3781
人間	-10.3788
0.4%	-10.3792
裁	-10.3796
2.9	-10.3801
王者の	-10.3801
元気	-10.3802
鶴	-10.3807
した結果	-10.3808
0.8	-10.3809
二塁	-10.381
ていたという	-10.3811
専	-10.3812
全国で	-10.3818
操業	-10.382
大島	-10.382
海域	-10.3825
種平均は前日終値比	-10.383
越え	-10.3831
タイトル	-10.3831
周辺で	-10.3836
ぞ	-10.3836
了承	-10.3837
逆転勝ち	-10.3838
招待	-10.384
措置を	-10.384
度目の優勝	-10.3846
充実	-10.3853
事実上の	-10.3855
辞	-10.3859
デビュー	-10.3859
橋下氏	-10.386
銃撃	-10.386
求め	-10.3861
を出す	-10.3871
平田	-10.3871
予備	-10.3873
、2011	-10.3874
シア	-10.3875
公明	-10.3877
披露	-10.3879
性能	-10.3881
平壌	-10.3889
国民に	-10.389
本格	-10.3892
DF	-10.3893
大事	-10.3894
わずか	-10.3896
俳優	-10.3899
意見交換	-10.3903
伸び率	-10.3906
和歌山	-10.3906
参考	-10.3909
を強く	-10.391
ルド	-10.3912
菅義偉官房長官	-10.3913
皆さん	-10.3914
話した	-10.3915
所持	-10.3916
ISS	-10.3917
4−1	-10.3917
プラン	-10.3924
当局者	-10.3926
肩	-10.3928
前倒し	-10.3929
を務め	-10.393
まとめた	-10.3931
敷地内	-10.3933
▁国	-10.3934
が続き	-10.3934
、2015	-10.3937
ボン	-10.3938
直後	-10.3938
保健	-10.3945
3、4	-10.3948
破壊	-10.395
ダム	-10.395
代理	-10.3959
ドジャース	-10.3959
移植	-10.396
リーグの	-10.396
と供述している	-10.3961
地検	-10.3961
整	-10.3965
過去に	-10.3968
に対しては	-10.3969
4−0	-10.397
各国の	-10.3971
果	-10.3972
に続いて	-10.3981
人当たり	-10.3984
松山	-10.3987
かれた	-10.399
算	-10.399
米大リーグの	-10.399
参入	-10.3991
先物	-10.3992
慎重な	-10.3996
かせ	-10.3996
ファー	-10.3998
▁25	-10.3999
UFJ	-10.3999
で破った	-10.3999
流通	-10.4007
していたという	-10.4007
揮	-10.4009
拡大した	-10.4009
スズキ	-10.4009
に達し	-10.4009
に立ち	-10.401
整理	-10.401
全体で	-10.4012
に臨む	-10.4012
抜け	-10.4014
月下旬に	-10.4015
年まで	-10.4017
を繰り返し	-10.4018
原発事故で	-10.4019
相次いで	-10.402
人材	-10.4021
日投開票	-10.4023
百	-10.4024
制覇	-10.4027
完	-10.4028
行使	-10.4028
割れ	-10.4029
オーストリア	-10.4029
ヘル	-10.4029
起き	-10.4031
縮	-10.4035
ボー	-10.4036
番があった	-10.4037
シャル	-10.404
演	-10.4041
かない	-10.4042
で逆転勝ちし	-10.4045
快勝	-10.4045
群馬県	-10.4047
に反対する	-10.4047
年度予算	-10.4047
祝	-10.4048
七	-10.405
規模の	-10.4052
日本に	-10.4052
直ちに	-10.4054
会員	-10.4054
安藤	-10.4055
一致した	-10.4057
販	-10.4057
最初の	-10.4057
技	-10.4058
マーリンズ	-10.4059
に向かって	-10.406
依然	-10.406
沿岸	-10.4061
6−3	-10.4061
われわれ	-10.4064
人が負傷した	-10.4064
鹿	-10.4065
注文	-10.4066
目的で	-10.407
氏と	-10.4076
供述	-10.4076
会で	-10.4077
スー	-10.4078
難航	-10.4079
毅	-10.408
つつある	-10.4084
金融庁	-10.4085
卵	-10.409
王者	-10.409
ヨ	-10.409
高度	-10.4091
キング	-10.4093
カ月ぶりの	-10.4093
期間は	-10.4096
順次	-10.4097
侵害	-10.41
陳	-10.41
大会は	-10.4101
キン	-10.4104
にあった	-10.4106
明確	-10.4109
酸	-10.4109
死因	-10.4111
戦闘機	-10.4112
配当	-10.4113
情報提供	-10.4115
に転じた	-10.4115
▁27	-10.4117
アンダー	-10.4119
m	-10.412
たばこ	-10.4121
は不明	-10.4123
〜15	-10.4123
橋本	-10.4126
市長選	-10.4127
の実現	-10.4127
これから	-10.4134
称	-10.4135
彩	-10.4141
人だった	-10.4141
まい	-10.4141
暴	-10.4142
をしていた	-10.415
関脇	-10.4158
フェイスブック	-10.4161
損害	-10.4161
川内	-10.4163
原発事故の	-10.4164
事務局長	-10.4167
事情	-10.4172
航	-10.4175
一審	-10.4176
佐々木	-10.4181
模索	-10.4181
とコメントした	-10.4182
トリ	-10.4182
1.5%	-10.4183
フランスの	-10.4186
言い	-10.4186
残高	-10.4188
最後	-10.4189
避難所	-10.419
タクシー	-10.4192
朴	-10.4192
最終戦	-10.4193
北朝鮮は	-10.4198
会談後	-10.42
溝	-10.4202
復活	-10.4202
ことだ	-10.4205
古川	-10.4208
熊	-10.4215
なった	-10.4217
と位置付け	-10.4221
180	-10.4224
クト	-10.4224
大幅な	-10.4224
したほか	-10.4224
ョ	-10.4225
本格化	-10.4227
(30)	-10.4227
次回	-10.4228
r	-10.4232
遺伝子	-10.4233
申し立て	-10.4233
の末	-10.4233
トランプ米大統領	-10.4233
春闘	-10.4235
砂	-10.4241
かし	-10.4246
会派	-10.4248
総額は	-10.4252
みや	-10.4253
茶	-10.4253
月ごろ	-10.4253
考える	-10.4254
兵士	-10.4255
規制委	-10.4255
若手	-10.426
がいる	-10.4261
内訳は	-10.4263
特殊	-10.4263
ステージ	-10.4264
GM	-10.4265
示した	-10.4265
時すぎ	-10.4265
駆け付けた	-10.4266
常務	-10.4266
初勝利	-10.4268
非難	-10.4268
いつ	-10.4269
パーク	-10.4272
強入り	-10.4273
のぶ	-10.4273
穂	-10.4273
と発言	-10.4273
を逃した	-10.4275
るのは	-10.4276
に触れ	-10.4277
率いる	-10.4279
1、2	-10.4281
線の	-10.4281
首相と	-10.4283
態度	-10.4286
拉致	-10.4288
用意	-10.4289
人が参加	-10.4291
まとめ	-10.4292
カ月ぶり	-10.4293
進行	-10.4295
一歩	-10.4296
の利用	-10.4296
家の	-10.4298
PC	-10.4301
本田	-10.4303
内定	-10.4305
今年は	-10.4308
ホー	-10.4308
伸びた	-10.4309
ダウは	-10.4311
ていること	-10.4313
国王	-10.4315
ヘリコプター	-10.4315
アンド	-10.4318
ことが判明	-10.432
皇	-10.4322
海軍	-10.4322
書を	-10.4322
の全	-10.4323
逃走	-10.4323
ているが	-10.4324
うれしい	-10.4326
安倍晋三首相は	-10.4326
米中	-10.4328
個人情報	-10.4329
協議する	-10.4336
販売台数	-10.4336
市立	-10.4337
降り	-10.4338
麻	-10.4338
案は	-10.4339
プール	-10.4342
が昨年	-10.4346
責任を	-10.4346
使われ	-10.4346
リオ	-10.4347
在庫	-10.4347
高木	-10.435
暗	-10.4356
ブルージェイズ	-10.4357
半径	-10.4357
を重ね	-10.436
声明を出し	-10.4363
支え	-10.4366
通常国会	-10.4366
億円を	-10.4367
安倍晋三首相が	-10.4372
現実	-10.4373
合わせた	-10.4374
救	-10.4375
島の	-10.4377
救出	-10.4377
秘密	-10.4378
三回	-10.4379
2.2	-10.438
支店	-10.438
からも	-10.4381
同課は	-10.4382
を展開	-10.4382
型機	-10.4386
エイ	-10.4386
率が	-10.4387
この日の	-10.4389
反撃	-10.4389
意見を	-10.4391
する可能性	-10.4392
発着	-10.4392
する計画	-10.4394
イー	-10.4395
同紙	-10.4397
基礎	-10.4398
鉄鋼	-10.4399
を付け	-10.44
チェック	-10.4401
動向	-10.4402
次官	-10.4406
<	-10.4407
108	-10.4407
との指摘	-10.4409
イオン	-10.4409
選手は	-10.4409
友好	-10.4412
6−4	-10.4413
を決定した	-10.4414
ーション	-10.4414
大和	-10.4415
一緒に	-10.4416
に向かう	-10.4419
が確認され	-10.4423
重点	-10.4423
市内	-10.4424
違	-10.4426
猛	-10.443
に合わせ	-10.4432
対応を	-10.4436
106	-10.4447
で下して	-10.4447
始まる	-10.4448
固定	-10.4452
盛り込まれ	-10.4457
を強める	-10.4457
らなかった	-10.4457
▁24	-10.4457
従	-10.4457
京都市	-10.4458
米韓	-10.4458
山中	-10.4458
要件	-10.4459
佐賀	-10.4459
氏を	-10.4465
募集	-10.4473
ドル安の	-10.4473
爆弾	-10.4474
ニング	-10.4475
違う	-10.4476
合意した	-10.4478
発生した	-10.4482
あらゆる	-10.4482
景気回復	-10.4489
十分な	-10.4489
妨害	-10.4492
掘	-10.4493
けい	-10.4495
死刑囚	-10.4503
消費税増税	-10.4504
ていなかった	-10.4507
両国の	-10.4508
2.8	-10.4509
引き上げる	-10.451
▁23	-10.4513
湯	-10.4514
試合連続	-10.4516
名誉	-10.4517
テーマ	-10.4521
4.5	-10.4522
)<	-10.4528
専用	-10.453
の世界	-10.4532
署員が	-10.4535
減額	-10.4536
もと	-10.4538
中国人	-10.4543
アス	-10.4547
応じ	-10.4547
撃	-10.4549
やり	-10.455
反映	-10.4554
ドルと	-10.4555
経団連	-10.4556
▁22	-10.4557
磐田	-10.4557
2.4	-10.4558
ないこと	-10.4561
を獲得した	-10.4566
履行	-10.4568
育	-10.4569
は難しい	-10.4574
買われ	-10.4576
教諭	-10.4577
ロス	-10.4578
ヨン	-10.4579
▁このほか	-10.4579
掛けた	-10.458
課などは	-10.4581
が高まっている	-10.4582
配信	-10.4583
安保理	-10.4584
死者は	-10.4585
おとし	-10.4586
三重	-10.4586
参拝	-10.4588
▁稀勢の里	-10.4588
▁21	-10.4589
を発表	-10.4596
設	-10.4597
語った	-10.4598
序盤	-10.4599
予定の	-10.4602
を受けている	-10.4603
無罪	-10.4603
米政府	-10.4606
封	-10.4609
曽	-10.4609
粉	-10.4609
妥結	-10.4609
税率	-10.4612
竹島	-10.4612
件数	-10.4613
好投	-10.4615
保存	-10.4617
ドコモ	-10.462
で開かれる	-10.4623
最多の	-10.4626
▁菅義偉官房長官は	-10.4627
衆	-10.4628
既存	-10.4631
阿	-10.4633
に提出した	-10.4633
利回り	-10.4635
貫	-10.4637
梨	-10.4639
搬送	-10.4641
根拠	-10.4641
テル	-10.4643
以外	-10.4647
みずほ	-10.4651
6−1	-10.4651
番号	-10.4664
ドゥ	-10.4669
の元	-10.4671
警察は	-10.4671
宗	-10.4673
ひき	-10.4674
捨て	-10.4674
意義	-10.4677
るか	-10.468
申	-10.4683
株中心のナスダック総合指数は同	-10.4684
を避け	-10.4684
重い	-10.4684
幅広い	-10.4684
ウル	-10.4685
擁立	-10.4688
山梨	-10.4689
今季初	-10.4689
張り	-10.4694
桁	-10.4695
車を	-10.4697
合う	-10.47
高水準	-10.47
を明確に	-10.4702
年までに	-10.4702
高級	-10.4703
慎	-10.471
を使い	-10.4711
外れ	-10.4712
パク	-10.4715
ということ	-10.4716
〜20	-10.4716
2.6	-10.4717
だい	-10.4718
カラ	-10.4722
ッシュ	-10.4722
編	-10.4724
半分	-10.4727
ノルウェー	-10.4727
周囲	-10.4728
落ち込んだ	-10.4729
交渉参加	-10.473
われ	-10.473
枠組み	-10.473
探	-10.4731
せた	-10.4734
景	-10.4736
署に	-10.4736
ボクシング	-10.4737
下げ幅	-10.4737
拓	-10.4737
と会談し	-10.4738
るべきだ	-10.4738
出された	-10.474
補助	-10.474
▁3.1	-10.4741
を与え	-10.4743
野田	-10.4744
混	-10.4744
を掲げ	-10.4746
ウム	-10.4751
との認識	-10.4754
成田空港	-10.4754
得	-10.4755
演説で	-10.4756
マリ	-10.4757
組み合わせ	-10.4758
を喫した	-10.4759
司令官	-10.476
予告	-10.476
公開した	-10.4762
に上り	-10.4762
▁日馬富士	-10.4764
山崎	-10.4765
主席	-10.4768
札幌市	-10.477
前期	-10.477
重視	-10.4772
れない	-10.4773
少なく	-10.4773
成長戦略	-10.4773
室内	-10.4778
鋼	-10.4781
見方	-10.4783
窓口	-10.4783
の一	-10.4784
を入れ	-10.4784
に合わせて	-10.4785
消費税率	-10.4786
物質	-10.4789
責	-10.4791
余り	-10.4792
の主張	-10.4794
への取材で	-10.4797
140	-10.4798
を結ぶ	-10.4803
東京五輪	-10.4804
▁白	-10.4806
織	-10.4807
垣	-10.4812
個別	-10.4813
に決まった	-10.4813
働	-10.4814
の減少	-10.4814
過激派組織	-10.4819
としても	-10.4827
代表選	-10.483
を発見	-10.4832
の輸入	-10.4833
背	-10.4835
労組	-10.4837
の伸び	-10.4842
を設け	-10.4847
法案を	-10.4847
仲介	-10.4847
総務省	-10.485
二つ	-10.4852
増える	-10.4852
情報収集	-10.4853
の検討	-10.4854
国と	-10.4858
羽田	-10.4858
減った	-10.4858
体育館	-10.486
型の	-10.4865
まれた	-10.4866
ことにした	-10.4866
栃煌山	-10.4875
務め	-10.488
藤井	-10.4888
紹介	-10.4889
梅	-10.4891
武装勢力	-10.4891
設け	-10.4894
本格的な	-10.4895
に達する	-10.4896
小池氏	-10.4899
JA	-10.4901
脚	-10.4902
埋め立て	-10.4902
▁東証	-10.4904
に関連し	-10.4905
婚	-10.4911
プロジェクト	-10.4913
事前に	-10.4916
湾	-10.4919
その後も	-10.4921
3.6	-10.4922
ブルワーズ	-10.4924
警戒感	-10.4927
東海大	-10.4931
揺れ	-10.4933
地の	-10.4935
する見通しだ	-10.4935
大雪	-10.4936
キロ以内	-10.4938
自治	-10.4942
ひと	-10.4942
属	-10.4943
大統領が	-10.4946
近郊	-10.4946
触れ	-10.4948
ベルリン時事	-10.495
大阪府警	-10.495
次の	-10.4951
との情報	-10.4952
与党は	-10.4957
援助	-10.4957
日夜に	-10.4957
インフレ	-10.4958
復	-10.4958
フォード	-10.4963
公認	-10.4963
オーバーの	-10.4965
息子	-10.4966
に大きな	-10.4972
法制	-10.4977
退けた	-10.4977
国会内で	-10.4978
系の	-10.4978
百貨店	-10.4979
収容	-10.4981
働き掛け	-10.4981
適切な	-10.4982
を集め	-10.4984
映	-10.4987
同国の	-10.4988
さか	-10.4989
沙	-10.499
を支持する	-10.499
月末までに	-10.499
説明会	-10.4991
家電	-10.4992
プレミアリーグ	-10.4992
▁ロッテ	-10.4996
題	-10.4996
ことや	-10.4997
建築	-10.5002
陣営	-10.5002
が大きい	-10.5003
決める	-10.5005
続	-10.5005
に乗り	-10.5006
数百	-10.5007
四回	-10.5008
活	-10.5008
推定	-10.5009
故障	-10.5012
低気圧	-10.5012
加点した	-10.5017
チャン	-10.5019
首位に立った	-10.5021
弾道ミサイル	-10.5022
を占めた	-10.5023
聡	-10.5023
菊池	-10.5024
前年度比	-10.5024
燃費	-10.5025
背景	-10.503
後任	-10.5031
月期決算	-10.5032
かみ	-10.5033
放射能	-10.5034
活性化	-10.5034
長谷川	-10.5034
局は	-10.5035
大使は	-10.5038
間に	-10.5038
東電の	-10.5038
期間中	-10.5039
はいずれも	-10.5039
原子力規制委員会	-10.5045
0.7%	-10.5047
協調	-10.5047
コム	-10.5048
が確定	-10.5049
入場	-10.5049
米国と	-10.505
若い	-10.5051
福井県	-10.5051
ことを確認した	-10.5052
を考慮し	-10.5054
併	-10.5054
に入れ	-10.5055
即	-10.5056
を広げ	-10.5056
抵抗	-10.5057
に反対	-10.5057
神戸市	-10.5061
ソー	-10.5062
後の記者会見で	-10.5065
2.3	-10.5065
の自由	-10.5067
ECB	-10.5068
放置	-10.5068
訴え	-10.5069
発効	-10.507
▁28	-10.5071
▁東	-10.5072
女子ゴルフ	-10.5072
両親	-10.5073
出場し	-10.5073
当局者は	-10.5075
見つかった	-10.5076
流入	-10.5077
出して	-10.5077
領有権	-10.5079
セルビア	-10.5079
日ごろ	-10.5086
取引所	-10.5088
が選ばれた	-10.5089
曜	-10.509
▲	-10.5091
栃木県	-10.5093
障害者	-10.5094
銅	-10.5097
なくなる	-10.5099
非核化	-10.5101
亮	-10.5101
速やかに	-10.5101
北朝鮮に	-10.5104
の使用	-10.5114
答え	-10.5115
診断	-10.5117
木村	-10.5119
点差	-10.5119
一つの	-10.5121
今季は	-10.5122
殺害された	-10.5123
国政	-10.5123
年目	-10.5125
小選挙区	-10.513
オープンは	-10.5131
襲	-10.5135
鳥栖	-10.5135
▁判決によると	-10.5136
授業	-10.5136
書き	-10.5139
日立	-10.514
巻	-10.514
反動	-10.5142
鳥取	-10.5142
菅直人首相	-10.5143
会談した	-10.5143
隣	-10.5146
における	-10.5146
GI	-10.5148
マイ	-10.515
民族	-10.5155
ミリシーベルト	-10.5157
棒	-10.5157
選択	-10.5158
緩	-10.516
判断を	-10.5169
爆	-10.5169
民主党は	-10.517
日産自動車	-10.5171
を確認する	-10.5176
発進	-10.5179
骨折	-10.5181
意図	-10.5181
んでいた	-10.5181
ミサイル発射	-10.5182
訳	-10.5185
浮	-10.5186
政府に	-10.5187
するための	-10.5189
の話として	-10.5191
書かれ	-10.5192
革命	-10.5192
電気料金	-10.5193
(27)	-10.5194
ませ	-10.5198
各地で第	-10.5203
秘書	-10.5204
相は	-10.5206
最終日	-10.521
老	-10.5211
必至	-10.5214
東京都千代田区	-10.5215
連覇を狙う	-10.5215
を押し	-10.5219
職員の	-10.522
化する	-10.5222
伝統	-10.5226
部リーグ	-10.5226
商業	-10.5226
登山	-10.5228
にいた	-10.5236
せい	-10.5236
も含め	-10.5237
罰金	-10.5237
配置	-10.5238
居住	-10.5238
共産	-10.5238
バンク	-10.5239
チョ	-10.5243
取材	-10.5243
する考え	-10.5244
綱	-10.5245
訪日	-10.5246
有権者	-10.5248
相撲	-10.5248
三塁	-10.5249
られていた	-10.5254
する意向	-10.5254
日銀の	-10.5259
ミー	-10.5259
1.3%	-10.5261
ロイター通信	-10.5262
東アジア	-10.5265
に当たって	-10.5272
も出ている	-10.5272
やって	-10.5275
九	-10.5279
青森県	-10.5281
福岡県	-10.5283
事業を	-10.5283
を示していた	-10.5284
ッツ	-10.5284
忘れ	-10.529
番手の	-10.5291
優勢	-10.5292
する可能性がある	-10.5295
が予想される	-10.5296
で最も	-10.5296
今年度	-10.5302
HS	-10.5303
キロ級	-10.5303
を担う	-10.5304
芸	-10.5305
おわび	-10.5305
同僚	-10.5308
▁ヤクルト	-10.5308
に発表した	-10.5309
(47)	-10.531
見え	-10.5312
が発生し	-10.5313
前日比	-10.5314
これにより	-10.5316
下げた	-10.532
(28)	-10.5322
にくい	-10.5325
ジャイアンツ	-10.5328
の重要性	-10.5329
と訴え	-10.5331
キロ級の	-10.5332
最長	-10.5334
クラス	-10.5334
ことを踏まえ	-10.5336
刻	-10.5337
監督の	-10.5337
圧倒	-10.5338
義務付け	-10.5341
関係者によると	-10.5341
車で	-10.5347
謝罪した	-10.5349
教授は	-10.5352
全日本選手権	-10.5357
石井	-10.5358
日本海側	-10.5362
ボーイング	-10.5362
過去最大	-10.5363
の際	-10.5363
電力会社	-10.5364
ナイ	-10.5366
計算	-10.5367
160	-10.5368
しげ	-10.5369
月までに	-10.5373
で推移	-10.5376
開示	-10.5381
予定していた	-10.5381
当地で	-10.5381
付近の	-10.5385
のに対し	-10.5386
準優勝	-10.5387
日大	-10.5389
逮捕した	-10.539
初め	-10.5391
を高め	-10.5391
リーマン	-10.5396
回目の	-10.5399
続け	-10.5399
毎日	-10.5401
停電	-10.5405
前年同期	-10.5407
テスト	-10.5407
親方	-10.5408
連敗を	-10.541
育成	-10.541
被ばく	-10.5411
誤	-10.5412
の開催	-10.5418
ヘン	-10.5419
FOMC	-10.542
が確定した	-10.5422
を占める	-10.5423
の見通し	-10.5424
今季初勝利	-10.5425
小川	-10.5425
固め	-10.543
で快勝	-10.5432
前向きな	-10.5432
明大	-10.5432
マス	-10.5432
鮮明	-10.5432
格差	-10.5433
下り	-10.5435
減と	-10.5435
3=	-10.5441
を投げ	-10.5441
の建設	-10.5442
太陽	-10.5444
原油価格	-10.5449
早い	-10.5449
迫った	-10.5454
面会	-10.5454
分離	-10.5454
三井住友	-10.5454
代行	-10.5456
を達成	-10.5459
具体的に	-10.546
幕内	-10.5462
英国の	-10.5464
触	-10.5465
ひさ	-10.547
の計	-10.5471
は来年	-10.5474
に貢献した	-10.5476
高値	-10.5477
の名前	-10.5477
(41)	-10.5479
残念	-10.5479
になっていた	-10.548
を取得	-10.5481
ずに	-10.5482
伸ばし	-10.5482
を行っている	-10.5483
一定	-10.5485
直後の	-10.5486
日中関係	-10.5489
代金	-10.5491
予定だった	-10.5492
する際	-10.5494
2500	-10.5495
いきたい	-10.5496
ポリ	-10.55
同日の	-10.5501
終わり	-10.5501
代替	-10.5502
0.8%	-10.5503
立ち入り	-10.5503
放出	-10.5504
助け	-10.5505
田沢	-10.5507
で快勝し	-10.5508
小学	-10.5509
公演	-10.5515
に対応する	-10.5515
字	-10.5518
採	-10.5519
成立した	-10.5522
したとされる	-10.5524
一体	-10.5524
穴	-10.5524
を追う	-10.5526
集まった	-10.5526
解析	-10.5526
再発防止策	-10.5527
これらの	-10.5528
限定	-10.5529
と期待	-10.5531
東京都内の	-10.5535
協会は	-10.5535
県民	-10.5536
デザイン	-10.5536
が進む	-10.5537
0.9%	-10.5537
主将	-10.5539
ボル	-10.5539
作り	-10.5541
に努め	-10.5543
しかった	-10.5544
はないという	-10.5547
上げる	-10.5548
(31)	-10.5549
FC	-10.555
行方不明者	-10.5553
歳以下	-10.5555
公務員	-10.5558
巡	-10.5558
に終わった	-10.5559
撤廃	-10.5559
バルセロナ	-10.556
イメージ	-10.556
全額	-10.5564
だけに	-10.5565
▁(1−1)	-10.5573
ほしい	-10.5574
対象は	-10.5574
告示	-10.5574
はマイナス	-10.5574
▁中	-10.5575
大学生	-10.5576
▁厚生労働省は	-10.5578
時代に	-10.5579
上げた	-10.5583
入れる	-10.5584
配布	-10.5585
自らの	-10.5586
メル	-10.5587
▁民主党の	-10.5588
ドイツの	-10.559
腕	-10.5593
倍の	-10.5595
船舶	-10.5595
アラ	-10.5599
イランの	-10.5604
文部科学省	-10.5604
マドリード	-10.5607
法的	-10.5607
回った	-10.561
登板し	-10.5612
組は	-10.5614
被告の	-10.5615
ドル安	-10.5615
▁3.2	-10.5615
の有無	-10.5619
最優先	-10.5621
抜	-10.5625
ランで	-10.5625
預	-10.5626
込	-10.5627
安全対策	-10.5627
誇	-10.5628
キロで	-10.5631
三浦	-10.5632
親族	-10.5632
委は	-10.5635
加点	-10.5637
0.6%	-10.5644
〜14	-10.5646
万キロワット	-10.5647
酒井	-10.5647
発症	-10.5648
にあり	-10.565
以下の	-10.565
借り	-10.5651
▁現場は	-10.5653
の一環	-10.5653
儀	-10.5654
店で	-10.5654
声明で	-10.5661
リス	-10.5662
税制	-10.5663
込まれ	-10.5664
主に	-10.5665
内外	-10.5666
後継	-10.5667
▁豊	-10.5667
解放	-10.5667
ジュネーブ時事	-10.5669
▁玉	-10.5675
2〜3	-10.5676
郷	-10.5677
徹	-10.5677
そこ	-10.5678
標的	-10.5679
警視庁は	-10.5685
の路上で	-10.5686
にとどめ	-10.569
TOPIX	-10.569
疑問	-10.569
意欲を示した	-10.5693
法人税	-10.5695
側から	-10.5699
を紹介	-10.5703
最大瞬間風速は	-10.5709
することも	-10.571
東大	-10.571
負傷者	-10.5711
▁豪栄道	-10.5712
指導部	-10.5712
l	-10.5713
待ち	-10.5715
番組で	-10.5715
治安部隊	-10.5715
持つ	-10.5718
170	-10.5719
量が	-10.5721
年連続の	-10.5722
対応する	-10.5722
傘下	-10.5725
されなかった	-10.5725
虐待	-10.5725
わず	-10.5726
北方領土	-10.5727
額が	-10.5729
経営者	-10.573
6.5	-10.5731
日発表され	-10.5734
引き下げる	-10.5735
との声	-10.5736
の取り組み	-10.5736
身元	-10.5736
2003	-10.5736
厚労省	-10.5737
哉	-10.5737
朝方	-10.5738
衆院解散	-10.574
歴	-10.5741
回り	-10.5742
(37)	-10.5744
2001	-10.5746
控訴	-10.5749
ポーランド	-10.575
1.1%	-10.5751
で合意	-10.5752
準々決勝で	-10.5753
人以上が	-10.5754
北朝鮮による	-10.5755
ました	-10.5761
尖閣	-10.5761
運輸	-10.5761
内では	-10.5761
続伸	-10.5762
洪水	-10.5763
危険性	-10.5769
通商	-10.5771
を強めている	-10.5771
みな	-10.5772
させて	-10.5774
欠席	-10.5775
当局が	-10.5775
よう求めた	-10.5775
田村	-10.5776
深い	-10.5778
付けた	-10.5779
太平洋側	-10.5781
現場で	-10.5781
を上げ	-10.5782
落札	-10.5786
訪米	-10.5787
を守る	-10.5792
ラム	-10.5795
競	-10.5795
加工	-10.5796
晴	-10.5796
ロケット	-10.5799
民家	-10.58
(45)	-10.5801
容疑を認めているという	-10.5801
なので	-10.5802
質疑	-10.5804
並み	-10.5805
年度末	-10.5805
同社が	-10.5806
講	-10.5806
川崎は	-10.581
ファイ	-10.581
の赤字	-10.5811
受給	-10.5812
かつて	-10.5815
としていた	-10.5818
▁豪	-10.5818
氏に	-10.582
那覇	-10.5821
=12	-10.5822
ミニ	-10.583
豪州	-10.5831
覆	-10.5832
ミキハウス	-10.5833
アベノミクス	-10.5833
誘導	-10.5833
特徴	-10.5834
加え	-10.5834
回戦に進んだ	-10.5834
トランプ大統領	-10.5835
空軍	-10.5835
資金を	-10.5839
を把握	-10.5839
識	-10.5839
書類送検	-10.5843
マツダ	-10.5845
コンビニ	-10.5845
博物館	-10.5845
長い	-10.5846
接続	-10.5846
値下がり	-10.5846
京都府	-10.5851
われわれの	-10.5854
製の	-10.5855
ょ	-10.5857
取りまとめ	-10.5858
公募	-10.5859
琴欧洲	-10.5859
廃棄物	-10.586
武田	-10.586
となっていた	-10.5861
を見て	-10.5863
たとして	-10.5864
領土	-10.5864
雨量	-10.5866
還	-10.5867
携帯	-10.5869
黒田	-10.5869
経済産業相	-10.5869
10〜12	-10.587
無効	-10.5872
の地震	-10.5874
判決は	-10.5876
CO	-10.5877
遺体を	-10.5878
セーブ	-10.5879
したことが	-10.5879
絡	-10.588
分を	-10.5881
を加えた	-10.5881
最高経営責任者	-10.5882
吾	-10.5882
掲げた	-10.5883
争点	-10.5885
充	-10.5887
ライト	-10.589
データを	-10.5891
中堅	-10.5892
ばら	-10.5892
ミラノ	-10.5894
渡航	-10.5895
1.2%	-10.5895
したことについて	-10.5896
長期化	-10.5896
公的	-10.5898
検察側	-10.59
を含めて	-10.5902
国民投票	-10.5905
陥	-10.5905
意思	-10.5905
待	-10.5906
多機能携帯電話	-10.5906
印象	-10.5906
サイバー攻撃	-10.5907
ブリュッセル時事	-10.5909
町長	-10.591
その他	-10.591
する考えを示した	-10.5912
(40)	-10.5913
退位	-10.5913
ことなどから	-10.5915
同盟	-10.5916
避け	-10.5917
原告	-10.592
が広がった	-10.5921
電池	-10.5921
(32)	-10.5924
吹	-10.5925
州の	-10.5927
積み	-10.5927
ステ	-10.5928
岐阜県	-10.5929
文科省	-10.593
国際的な	-10.5934
教員	-10.5934
対象となる	-10.5935
参加した	-10.5937
これを	-10.5941
ポルトガル	-10.5942
と会談した	-10.5942
国籍	-10.5943
の運用	-10.5947
大量の	-10.5948
慎重	-10.5948
「『	-10.5948
3.7	-10.5954
日銀が	-10.5955
脅迫	-10.5955
小沢	-10.5955
デル	-10.5959
月上旬に	-10.5961
(29)	-10.5966
日本航空	-10.5967
わけではない	-10.5968
改修	-10.5968
任務	-10.5969
容疑者ら	-10.5971
http	-10.5979
://	-10.5979
上がる	-10.5979
20%	-10.599
歯	-10.5991
東北地方	-10.5991
朴槿恵	-10.5999
を維持する	-10.6001
交渉の	-10.6002
オール	-10.6002
痕	-10.6004
と応じた	-10.6004
との見通しを示した	-10.6005
との考えを示した	-10.6005
3.8	-10.6008
岡崎	-10.6013
甲	-10.6015
全日空	-10.6016
で下した	-10.602
取り組んで	-10.6022
燃	-10.6024
高く	-10.6026
グランプリ	-10.6028
枝	-10.6028
比較的	-10.6028
厚労省は	-10.6028
イスラム教	-10.6029
勝負	-10.603
しつつ	-10.6031
分裂	-10.6032
注入	-10.6033
乗っていた	-10.6036
日航	-10.6038
上げて	-10.604
ブレーキ	-10.604
搭乗	-10.604
漏えい	-10.604
を問う	-10.6041
関西電力	-10.6043
が始まった	-10.6047
広島市	-10.605
相場は	-10.6054
大会の	-10.6054
社内	-10.6055
ことを決めた	-10.6055
を痛め	-10.6056
バンコク	-10.6058
阪	-10.6062
(50)	-10.6062
2002	-10.6063
法改正案	-10.6064
環境相	-10.6065
制御	-10.6067
到着	-10.6067
銀メダル	-10.607
日本政府は	-10.6071
世界的な	-10.6073
大手の	-10.6073
いずれ	-10.6074
を始め	-10.6076
事故の	-10.6077
に変更	-10.6078
得る	-10.6079
女子生徒	-10.6079
理由について	-10.6082
一度	-10.6085
埋め	-10.6089
を継続	-10.6092
(42)	-10.6093
72、	-10.6098
月中に	-10.6101
徐々に	-10.6103
に応じる	-10.6106
べき	-10.6106
グループが	-10.6108
(26)	-10.611
チャンス	-10.6112
と比べ	-10.6114
サントリー	-10.6115
の発表	-10.6116
評議会	-10.6117
日間の	-10.6119
日本海	-10.612
ひろし	-10.6121
幹事長は	-10.6122
アナ	-10.6123
悪い	-10.6124
内田	-10.6124
議長は	-10.6124
吸	-10.6125
にとどまり	-10.6127
クル	-10.6131
最大限	-10.6135
敗退	-10.6137
▁関係者によると	-10.6138
d	-10.6139
(64)	-10.6141
残留	-10.6141
移民	-10.6143
▁0.2	-10.6146
を受けていた	-10.615
繰り	-10.615
停滞	-10.6152
涙	-10.6152
学院	-10.6153
1.4%	-10.6153
を提出	-10.6155
増強	-10.6155
情報が	-10.6157
を記録	-10.6159
歌手	-10.616
刊	-10.6164
飾	-10.6164
生命	-10.6164
パネル	-10.6166
メッツ	-10.6166
施設で	-10.617
近年	-10.6174
国家公務員	-10.6178
差し止め	-10.6179
できるだけ	-10.618
で止めた	-10.618
名称	-10.618
確認された	-10.618
出る	-10.6181
現場の	-10.6181
政権が	-10.6182
南アフリカ	-10.6182
ボギー	-10.6184
に就任した	-10.6184
本来	-10.6185
ソチ五輪	-10.6186
に貢献	-10.6187
ことができる	-10.6189
っと	-10.619
離れ	-10.6194
頂	-10.6195
権を	-10.6196
女優	-10.6196
同校	-10.62
劣	-10.6202
予約	-10.6202
と評価	-10.6211
緑	-10.6214
けん引	-10.6215
2.5%	-10.6216
方向だ	-10.6217
EV	-10.6221
発注	-10.6222
しっかりと	-10.6223
サル	-10.6224
北西	-10.6225
ドラフト	-10.6227
発砲	-10.6227
1.6%	-10.6228
(43)	-10.623
芝	-10.6233
(33)	-10.6233
を通じた	-10.6234
と明記	-10.6236
ようと	-10.6239
4−3	-10.6239
にもかかわらず	-10.6239
カ月連続	-10.6241
と供述	-10.6241
法相	-10.6242
決議案	-10.6243
扱う	-10.6243
ガル	-10.6243
物資	-10.6246
手法	-10.6247
招	-10.6247
の際に	-10.6248
で構成する	-10.6248
1200	-10.625
1〜2	-10.6251
金融市場	-10.6252
天皇陛下	-10.6252
空母	-10.6257
調べる	-10.6258
速度	-10.6258
総会で	-10.6259
大教授	-10.626
付いた	-10.626
下の	-10.6262
される見通し	-10.6262
をそれぞれ	-10.6265
ロイヤルズ	-10.6265
を訴える	-10.6266
上昇し	-10.6271
を受け取った	-10.6272
人以上	-10.6275
日系	-10.6276
気温	-10.6276
ベンチ	-10.6278
が高まる	-10.6278
邦人	-10.6278
1.7%	-10.6278
日午前の記者会見で	-10.6279
発動	-10.6279
通常の	-10.628
自体	-10.6281
ぞう	-10.6281
とされた	-10.6283
そのまま	-10.6283
が対象	-10.6284
国営	-10.6284
アリ	-10.6289
平方メートル	-10.629
台と	-10.629
体験	-10.629
海水	-10.6291
かり	-10.6292
番目	-10.6294
働き	-10.6294
VW	-10.6298
の最終	-10.6298
池田	-10.6299
を奪った	-10.63
コンピューター	-10.6302
▁鵬	-10.6306
がわ	-10.631
完全に	-10.6311
託	-10.6311
写	-10.6313
あお	-10.6314
は困難	-10.6314
記憶	-10.6315
犬	-10.6315
医薬品	-10.6315
はまだ	-10.6317
払	-10.6318
進んでいる	-10.6318
自民党は	-10.6319
スピード	-10.6327
棄却	-10.6328
削除	-10.6328
罪に問われた	-10.6329
制定	-10.6331
自社	-10.6333
大切	-10.6336
電車	-10.6337
ダウ	-10.6339
(60)	-10.634
包	-10.634
威	-10.634
FIFA	-10.634
岐	-10.634
につながった	-10.634
土砂災害	-10.6341
を提案	-10.6343
考え方	-10.6345
炎	-10.6347
頼	-10.6351
けど	-10.6351
ヨルダン	-10.6353
安打で	-10.6353
四大大会	-10.6353
軌道	-10.6353
続投	-10.6354
相互	-10.6354
話し合う	-10.6356
以来の	-10.6357
狙いがある	-10.6359
保安	-10.6363
が相次いで	-10.6363
上野	-10.6364
に占める	-10.6366
芸術	-10.6366
(56)	-10.6368
を使用	-10.637
二つの	-10.6371
逃げ切った	-10.6371
住所	-10.6372
p	-10.6376
何らかの	-10.6378
競争力	-10.638
長さ	-10.638
ないように	-10.6382
景気の	-10.6383
新宿	-10.6384
に努める	-10.6384
昨年末	-10.6385
保護者	-10.6386
を得て	-10.6388
ら約	-10.6388
弟	-10.6391
勲	-10.6391
標準	-10.6391
倒壊	-10.6392
自粛	-10.6392
JT	-10.6393
先頭	-10.6393
を深め	-10.6394
アプリ	-10.6395
ためだ	-10.6397
調査によると	-10.64
濃	-10.6402
ユナイテッド	-10.6404
太田	-10.6404
を調査	-10.6405
経由	-10.6405
6.2	-10.6408
最高値	-10.6408
すけ	-10.6409
カ国の	-10.6409
事務総長	-10.6417
早ければ	-10.6417
沖縄県宜野湾市	-10.6417
アレ	-10.6419
最優秀選手	-10.6421
期待している	-10.6421
電話会談	-10.6425
安心	-10.6427
事実関係	-10.6427
現場に	-10.6428
DNA	-10.6429
信号	-10.6432
将来の	-10.6434
日本から	-10.6435
市は	-10.6439
皮	-10.6442
で快勝した	-10.6447
研	-10.645
地下水	-10.6451
殴	-10.6454
軽減	-10.6456
突入	-10.6457
、2010	-10.6457
衛生	-10.6457
ポート	-10.6461
ていたことが	-10.6462
海外で	-10.6466
日報	-10.6467
後藤	-10.6467
割り	-10.6467
傾	-10.6467
練	-10.6467
アイフォーン	-10.6468
調査委員会	-10.647
インテル	-10.647
▁竜	-10.6472
に当たり	-10.6472
夫人	-10.6472
さんら	-10.6475
下で	-10.6476
の支払い	-10.6477
▁旭天鵬	-10.6479
ロボット	-10.6481
淳	-10.6481
那覇市	-10.6481
葬儀	-10.6481
最下位	-10.6482
協議で	-10.6483
が発表した	-10.6485
所有	-10.6485
いだ	-10.6485
3.9	-10.6486
決勝が行われ	-10.649
を設ける	-10.6492
の主要	-10.6492
以外に	-10.6493
巣	-10.6494
驚	-10.6494
HP	-10.6495
死亡が確認された	-10.6496
政府関係者	-10.6496
月額	-10.6498
の一部を	-10.6502
三重県	-10.6503
▁DeNA	-10.6505
提案した	-10.6506
リットル	-10.6506
(63)	-10.6507
を迎え	-10.6507
▁琴奨菊	-10.6508
1.0%	-10.6508
再選	-10.6508
考慮	-10.6509
行為を	-10.6512
突	-10.6512
を見極め	-10.6514
(48)	-10.6514
海岸	-10.6516
中国と	-10.6517
歳だった	-10.6518
不透明感	-10.652
を生かし	-10.6522
たかし	-10.653
巨	-10.653
株主総会	-10.6532
本拠地	-10.6532
インディアンス	-10.6532
土俵	-10.6532
両首脳は	-10.6532
ドア	-10.6536
明け	-10.6538
死去した	-10.6538
0−2	-10.6541
州で	-10.6542
変わらず	-10.6544
学院大	-10.6544
事務局	-10.6545
申し訳ない	-10.6545
橋下徹	-10.6545
担	-10.6546
のように	-10.6546
促	-10.6547
松田	-10.6548
階の	-10.655
担当相は	-10.655
同大	-10.6551
憲法改正	-10.6552
テレ	-10.6555
私の	-10.6557
アニメ	-10.6558
上げ幅	-10.6559
BS	-10.656
貨物	-10.656
半数	-10.6561
▁魁	-10.6561
中川	-10.6562
を見込む	-10.6562
▁3.3	-10.6569
総裁は	-10.6569
されたのは	-10.657
係	-10.657
観点から	-10.6571
競泳	-10.6571
議題	-10.6572
中学生	-10.6573
あまり	-10.6575
▁嘉	-10.6576
5.5	-10.6576
正恩氏	-10.6581
中国政府	-10.6581
建て	-10.6582
思う	-10.6584
取った	-10.6584
一段と	-10.6584
やる	-10.6585
US	-10.6586
保証	-10.6587
(57)	-10.6588
時速	-10.659
想	-10.6591
感染者	-10.6591
主権	-10.6596
短期	-10.6596
岡田克也	-10.6597
やりとり	-10.6597
ふみ	-10.6599
▁30	-10.6599
南米	-10.6603
働く	-10.6604
が目立った	-10.6604
ヤマ	-10.6604
ランキング	-10.6607
アブ	-10.6608
位決定戦	-10.6608
に次ぐ	-10.661
ファンド	-10.661
落ち込み	-10.6612
を発見した	-10.6615
県で	-10.6617
の確保	-10.6617
部リーグは	-10.662
開け	-10.6622
場面	-10.6623
日時点	-10.6624
を訪れた	-10.6627
数字	-10.6627
米連邦準備制度理事会	-10.6628
▁29	-10.663
着工	-10.6631
万円で	-10.6631
ANA	-10.6631
少し	-10.6632
ッジ	-10.6632
大企業	-10.6633
普及	-10.6635
国有化	-10.6636
ているという	-10.6637
共同声明	-10.6639
因	-10.6639
影響力	-10.6641
ておらず	-10.6642
対日	-10.6644
の略歴	-10.6645
相手の	-10.665
視聴	-10.6651
断層	-10.6652
任意	-10.6652
▁響	-10.6654
昭和	-10.6654
羽田空港	-10.6654
放射線	-10.6655
無事	-10.6656
6.3	-10.6659
体を	-10.6661
交付金	-10.6661
雷	-10.6662
話を	-10.6662
東洋大	-10.6663
これで	-10.6665
明治	-10.6665
などによる	-10.6672
推移	-10.6673
帳	-10.6675
報復	-10.6676
朝日	-10.6677
4.2	-10.6681
の各	-10.6683
のメンバー	-10.6683
無線	-10.6684
月中旬に	-10.6685
かけ	-10.6685
浪	-10.6688
最近の	-10.6688
戒	-10.6688
決勝に進んだ	-10.6689
6−2	-10.669
予定で	-10.6691
続いて	-10.6695
訪れた	-10.6697
を取った	-10.6697
マラ	-10.6698
競り	-10.6698
しかない	-10.6698
経産省	-10.6702
ビデオ	-10.6702
との連携	-10.6708
されたこと	-10.6711
県内の	-10.6713
石川遼は	-10.6713
と警告した	-10.6714
気象	-10.6714
滝	-10.6715
牛肉	-10.6716
抱	-10.6716
▁鶴	-10.6719
世界経済	-10.6721
ことに関し	-10.6725
請	-10.6727
FTA	-10.6728
豆	-10.6728
(44)	-10.6732
に協力	-10.6737
着実に	-10.6737
取り調べ	-10.6738
パート	-10.6739
▁安美錦	-10.674
亡くなった	-10.6741
を批判	-10.6743
ジャン	-10.6744
月末まで	-10.6744
▁その上で	-10.6746
4−2	-10.6749
がそれぞれ	-10.6749
歳出	-10.675
合格	-10.6754
灯	-10.6754
辻	-10.6754
温暖化	-10.6755
高騰	-10.6756
当然	-10.6757
ンズ	-10.6758
で退け	-10.6759
座長	-10.6759
さき	-10.6765
使い	-10.6769
ナンバー	-10.6769
(25)	-10.6772
不審	-10.6776
箱	-10.678
1.8%	-10.6782
発表する	-10.6783
中田	-10.6784
世論調査	-10.6784
全員が	-10.6786
入りした	-10.6788
こそ	-10.6789
線量	-10.6791
晃	-10.6794
h	-10.6796
を寄せ	-10.6798
副会長	-10.6798
銅メダル	-10.6799
二審	-10.6799
除外	-10.6801
病院に搬送された	-10.6804
と言われ	-10.6805
過去最多	-10.6806
フィギュアスケート	-10.6807
程	-10.6808
信じ	-10.6808
(54)	-10.6809
が広がり	-10.681
被災地の	-10.681
金子	-10.681
マリン	-10.6811
出来高は	-10.6811
事例	-10.6812
ネス	-10.6812
(55)	-10.6813
管内	-10.6813
置き	-10.6815
国債の	-10.6816
が初めて	-10.6817
国防相	-10.6819
開幕戦	-10.6819
放棄	-10.6821
AT	-10.6825
内戦	-10.6827
早期の	-10.6827
〜17	-10.6827
ミン	-10.6828
の大幅	-10.6833
逸ノ城	-10.6834
起こす	-10.6834
ランク	-10.6835
観客	-10.6838
最高の	-10.6838
支援策	-10.6846
バイク	-10.6846
LNG	-10.6848
画面	-10.6848
持続	-10.6848
大気	-10.685
日本企業	-10.6852
の議論	-10.6853
(46)	-10.6854
を集めた	-10.6856
面積	-10.6858
炭	-10.6859
範	-10.6861
占拠	-10.6861
カ月の	-10.6865
与	-10.6865
▁栃煌山	-10.6867
350	-10.6867
訴	-10.6868
捜査本部は	-10.687
みつ	-10.6871
関連の	-10.6873
応え	-10.6873
結束	-10.6874
完封	-10.6875
岸田文雄外相	-10.6876
積極的な	-10.6877
測	-10.6878
Y	-10.6882
(36)	-10.6883
セブン	-10.6888
政治的	-10.6889
栃ノ心	-10.689
▁3.0	-10.6891
の高さ	-10.6891
楽天は	-10.6891
訪中	-10.6893
が相次ぎ	-10.6897
万件	-10.6898
共に	-10.6898
上回った	-10.6898
▁安	-10.6899
官邸	-10.6899
位となり	-10.6901
取り上げ	-10.6901
部門の	-10.6905
チェコ	-10.6907
改正案	-10.691
サヨナラ勝ち	-10.6915
近藤	-10.6918
重要だ	-10.6922
前線	-10.6924
▁栃ノ心	-10.6925
ダルビッシュ	-10.6928
の意見	-10.693
会合では	-10.6931
ケル	-10.6932
勝った	-10.6933
は未定	-10.6933
(65)	-10.6934
〜16	-10.6935
本土	-10.694
ネットワーク	-10.6941
急速に	-10.6942
研修	-10.6942
首相に	-10.6943
、2016	-10.6943
容疑などで	-10.6948
4.9	-10.6948
の原因	-10.695
が多かった	-10.6951
募	-10.6951
に関与した	-10.6952
ための	-10.6954
▁北太樹	-10.6955
経産相	-10.6955
を除き	-10.6955
を破り	-10.6955
これに先立ち	-10.6957
連合会	-10.6958
住民が	-10.6963
浸水	-10.6964
かん	-10.6965
▁鷲	-10.6966
テニス	-10.6966
(24)	-10.6967
鎮	-10.6968
盗塁	-10.6969
のり	-10.6975
に到着	-10.6975
に相当する	-10.6976
▁豊ノ島	-10.698
を設置	-10.698
力士	-10.6981
ボストン	-10.6983
追い風	-10.6984
岩田	-10.6985
上田	-10.6985
亀	-10.6987
いわ	-10.6995
変え	-10.6995
甘	-10.6995
つながり	-10.6995
モーター	-10.6996
同級	-10.6996
続落	-10.6996
経過	-10.7002
とみて調べている	-10.7006
アンケート	-10.7009
予防	-10.701
取る	-10.7011
かなり	-10.7012
大野	-10.7013
4.7	-10.7013
わら	-10.7015
続けて	-10.702
中学校	-10.7022
耐震	-10.7022
公表する	-10.7025
審理	-10.7026
会合を開き	-10.7029
7.5	-10.7031
廃	-10.7032
負傷した	-10.7033
換	-10.7034
などへの	-10.7035
▁阿	-10.7035
ゾ	-10.7036
アストロズ	-10.7036
延長十回	-10.7036
が決まる	-10.7037
2.2%	-10.7037
終盤	-10.7038
の条件	-10.7041
人数	-10.7044
高額	-10.7047
レイズ	-10.7049
満足	-10.705
はならなかった	-10.705
温度	-10.7051
庁舎	-10.7052
地検は	-10.7053
似	-10.7057
収集	-10.7063
墓	-10.7063
エス	-10.7068
ができる	-10.7068
回数	-10.7068
価格が	-10.7071
同氏	-10.7072
需要が	-10.7074
の行方	-10.7075
捜査関係者への取材で	-10.7077
を導入	-10.7078
(4)	-10.7079
向けに	-10.7079
豪雨	-10.708
政府と	-10.708
定め	-10.708
何も	-10.7081
落とし	-10.7082
中央区	-10.7083
不法	-10.7085
射	-10.7085
-	-10.7087
は今季	-10.7088
開き	-10.7089
▁臥牙丸	-10.7089
西村	-10.709
人となった	-10.709
射殺	-10.7091
を言い渡した	-10.7091
階級	-10.7092
最新	-10.7093
バック	-10.7096
上告	-10.7098
活動家	-10.7102
安で推移している	-10.7105
高で推移している	-10.7105
(59)	-10.7106
自身が	-10.7106
入居	-10.7108
追悼	-10.711
と改めて	-10.7117
▁時天空	-10.7118
が増えた	-10.7119
ショ	-10.7129
坂本	-10.7134
韓国政府	-10.7137
▁東電は	-10.7138
の下で	-10.7138
市役所	-10.7138
問い合わせ	-10.7139
を新たに	-10.714
都内の	-10.7143
作業を	-10.7144
バランス	-10.7145
副首相	-10.7146
渋谷	-10.7146
を提供	-10.715
(34)	-10.7152
激しく	-10.7153
4.4	-10.7155
(38)	-10.7155
悪化した	-10.7156
に配慮し	-10.7156
できれば	-10.7163
(35)	-10.7164
同日夜	-10.7165
を説明した	-10.7167
要請した	-10.7167
学習	-10.7168
郵便	-10.7168
必要性	-10.7169
日体大	-10.7172
宮内庁	-10.7173
申し入れ	-10.7173
工場で	-10.7173
拘束された	-10.7174
避難指示	-10.7176
認める	-10.7177
国会で	-10.7177
村田	-10.7179
翌日	-10.718
石原氏	-10.7184
備え	-10.7185
重大	-10.7186
ナゴヤドーム	-10.7187
オーバー	-10.7187
▁聖	-10.7189
刺	-10.7191
を求める声	-10.7192
逃	-10.7193
値下げ	-10.7193
者ら	-10.7193
(39)	-10.7194
国産	-10.7194
していることが	-10.7195
u	-10.7199
民主化	-10.7201
労使	-10.7201
延べ	-10.7202
ゴー	-10.7203
首を	-10.7203
(67)	-10.7204
を上げた	-10.7208
閣議	-10.7209
時事通信	-10.7209
と話す	-10.7215
応募	-10.7215
下方修正	-10.722
非常	-10.722
定例	-10.722
パラ	-10.7222
室で	-10.7223
選挙戦	-10.7223
を運営する	-10.7223
だし	-10.7226
東シナ海	-10.7228
体操	-10.7229
閉幕	-10.7229
完投	-10.7229
1.9%	-10.7229
九州電力	-10.7233
医療機関	-10.7235
遺産	-10.7239
販売する	-10.724
偽造	-10.7243
見送り	-10.7243
移送	-10.7244
月末時点	-10.7248
同署によると	-10.7249
予定だ	-10.7251
改善した	-10.7251
巨人は	-10.7253
北区	-10.7253
脅	-10.7255
が強まっている	-10.7255
デジタル	-10.7256
アフガニスタン	-10.7256
シャン	-10.7261
駆け	-10.7263
国際空港	-10.7263
窃盗	-10.7264
以上に	-10.7264
取れ	-10.7265
(62)	-10.7268
に踏み切る	-10.727
脅威	-10.7271
聞き	-10.7279
含	-10.7281
マンチェスター	-10.7284
洗	-10.7284
補佐官	-10.7284
階建て	-10.7284
ろうと	-10.7285
アスレチックス	-10.7286
ホームで	-10.7287
に成功した	-10.7289
だから	-10.729
予	-10.729
PK	-10.7291
を定めた	-10.7293
を反映し	-10.7295
じま	-10.7298
短縮	-10.7299
入学	-10.7299
出産	-10.7302
導	-10.7302
かね	-10.7308
▁県警によると	-10.731
組が	-10.7311
武装	-10.7312
APEC	-10.7312
受験	-10.7312
を置く	-10.7312
召集	-10.7312
銭と前週末終値比	-10.7312
比例	-10.7312
三塁打	-10.7313
特許	-10.7313
取材に応じ	-10.7315
公立	-10.7315
校長	-10.7317
米フロリダ州	-10.7319
外務	-10.732
問われ	-10.7321
が増え	-10.7321
姫	-10.7326
(23)	-10.7326
開会式	-10.7326
jp	-10.7326
だったという	-10.7326
ヒル	-10.7327
を中止	-10.7332
判明	-10.7332
ドン	-10.7336
裏付け	-10.7337
年度予算案	-10.7339
匹	-10.734
の一部が	-10.734
たため	-10.7343
鈍化	-10.7344
学部	-10.7346
生じ	-10.7346
が高く	-10.7347
を与える	-10.7347
きり	-10.7348
引き分け	-10.7353
ヤフー	-10.7354
狭	-10.7354
大きかった	-10.7354
メイ	-10.7354
えば	-10.7356
年収	-10.7358
と分析している	-10.7358
と協議	-10.7359
山下	-10.7362
期待感	-10.7363
日本大使館	-10.7363
山梨県	-10.7365
至	-10.7366
寒	-10.7366
セシウム	-10.7368
を要請した	-10.737
石炭	-10.737
が流れ	-10.737
ドラマ	-10.7375
昇	-10.7375
球場	-10.7379
主体	-10.7379
が指摘され	-10.7381
仮設住宅	-10.7383
前原氏	-10.7383
歳未満	-10.7386
シル	-10.7387
ベイ	-10.7388
の無職	-10.7388
105	-10.7392
明らか	-10.7392
させること	-10.7392
初会合	-10.7393
すぐに	-10.7393
5.0	-10.7394
ことになった	-10.7394
NATO	-10.7396
WBA	-10.7396
を失った	-10.7397
機種	-10.7397
国外	-10.7397
(68)	-10.7399
届け	-10.7401
本会議で	-10.7403
年目の	-10.7404
巨大	-10.7405
とても	-10.7406
水素	-10.7406
万株減の	-10.7407
ファイナル	-10.741
コロンビア	-10.741
の準備	-10.7411
を残し	-10.7411
写真を	-10.7412
強盗	-10.7412
するほか	-10.7413
かた	-10.7413
ぐち	-10.7416
異例の	-10.7417
(22)	-10.7418
方向性	-10.7419
▁隠岐の海	-10.7421
(53)	-10.7424
次世代	-10.7427
▁0.3	-10.7429
原子力安全	-10.7431
否決	-10.7434
総務相	-10.7435
ジム	-10.7437
露	-10.7438
構えだ	-10.7441
各地の	-10.7441
大阪は	-10.7442
適切に	-10.7444
OS	-10.7445
くり	-10.7446
来年の	-10.7446
活発化	-10.7446
の動向	-10.7449
縮小した	-10.7449
試み	-10.7451
中京大	-10.7452
サムスン	-10.7452
趣旨	-10.7452
を目指して	-10.7452
納得	-10.7453
籍	-10.7455
全面的に	-10.7462
を打ち	-10.7464
組み	-10.7465
駐留	-10.7468
十数	-10.7474
すべて	-10.7475
困難な	-10.7476
緒	-10.748
が判明	-10.748
北野建設	-10.7481
4.3	-10.7484
送信	-10.7485
たおし	-10.7485
を明らかにした	-10.7487
根強い	-10.7488
、2020	-10.7489
への懸念	-10.7489
記録を	-10.7489
作家	-10.7489
新政権	-10.749
フランクフルト	-10.749
パル	-10.7492
▁覧	-10.7493
途中で	-10.7494
時間を	-10.7495
即時	-10.7499
終了した	-10.7499
ロード	-10.75
OB	-10.7501
(51)	-10.7507
相次ぐ	-10.7509
鏡	-10.7509
(58)	-10.751
福岡市	-10.7511
投球	-10.7513
繰り返し	-10.7515
会期	-10.7515
当日	-10.7515
減益	-10.7517
やすく	-10.7517
番左翼で出場し	-10.7524
を設置し	-10.7525
(49)	-10.7526
デュ	-10.7526
でない	-10.753
代理人	-10.7531
分野の	-10.7532
予定だったが	-10.7533
最優秀	-10.7533
オバマ政権	-10.7534
よう求め	-10.7534
豊田	-10.7534
糸	-10.7536
活断層	-10.7538
に充てる	-10.7538
を崩	-10.754
国防省	-10.754
ドルで終了	-10.7541
を実施した	-10.7542
私は	-10.7545
話し合い	-10.7548
任命	-10.7551
株式市場	-10.7552
滑走路	-10.7552
遺棄	-10.7552
突然	-10.7553
しておらず	-10.7553
はこの日	-10.7553
ニューデリー時事	-10.7554
料理	-10.7558
両容疑者	-10.7558
合宿	-10.756
ドー	-10.7572
ながらも	-10.7572
巻き	-10.7573
広島県	-10.7574
に出場する	-10.7574
となって	-10.7575
首相官邸	-10.7576
であれば	-10.7582
オバマ米大統領	-10.7584
を機に	-10.7586
人員	-10.7586
大会第	-10.7587
を目指した	-10.7588
検査で	-10.7596
北朝鮮の核	-10.7596
重傷	-10.7596
私たち	-10.7597
車は	-10.7601
比例代表	-10.7602
ディア	-10.7605
支持者	-10.7607
没	-10.7609
伝達	-10.7611
裁判官	-10.7612
セーブ目	-10.7613
を求めた訴訟	-10.7614
車内	-10.7616
返し	-10.7617
を視察	-10.7617
をマークし	-10.7623
NEC	-10.7624
関東甲信	-10.7624
タリバン	-10.7624
振り返	-10.7625
いし	-10.7625
を防ぐ	-10.7626
に比べて	-10.7627
を続けた	-10.7633
たい考え	-10.7636
トランプ氏は	-10.7637
所属の	-10.7638
オリンパス	-10.7638
そろって	-10.7639
倫理	-10.7639
回の	-10.7639
参列	-10.7639
男子生徒	-10.764
億円だった	-10.7641
ったり	-10.7643
近くで	-10.7645
企業に	-10.7646
エンゼルス	-10.7651
切られ	-10.7652
施策	-10.7652
チェーン	-10.7654
水道	-10.7654
経営陣	-10.7656
高校野球	-10.7656
更	-10.7659
事案	-10.7659
やった	-10.7662
労働党	-10.7665
日本女子	-10.7665
アクセス	-10.7666
ブログ	-10.7667
株高	-10.7668
緩やかな	-10.7668
活躍した	-10.7668
知られ	-10.7669
沖の	-10.7675
分かり	-10.7676
込まれた	-10.7676
夜間	-10.7677
先進国	-10.7677
▁西	-10.7679
前原誠司	-10.7682
オブ	-10.7682
専務理事	-10.7682
2.1%	-10.7683
覧	-10.7684
決定する	-10.7685
HV	-10.7686
ごみ	-10.7689
安倍首相	-10.7693
の報告	-10.7694
深刻化	-10.7694
量的緩和	-10.7696
帰還	-10.7697
直前に	-10.7699
▁雅	-10.7699
4.6	-10.7701
含み	-10.7702
期待する	-10.7703
残っている	-10.7704
小売り	-10.7704
億円で	-10.7704
したものの	-10.7707
人を逮捕した	-10.7707
オバマ米大統領は	-10.7708
日目の	-10.7708
を防ぐため	-10.7709
否	-10.771
をまとめる	-10.771
を変え	-10.7711
運ばれ	-10.7711
韓国側	-10.7711
代の男性	-10.7714
への期待	-10.7715
ことがある	-10.7716
クロ	-10.7717
が大幅に	-10.772
付ける	-10.7721
表明した	-10.7722
諸	-10.7725
易	-10.7725
文学	-10.7726
の安定	-10.7727
万株増の	-10.773
堅調	-10.773
取りやめ	-10.7735
のソロで	-10.7736
燃え	-10.7736
法違反容疑で	-10.7737
カ所で	-10.7738
を相手に	-10.7738
旭	-10.774
装備	-10.774
の流れ	-10.7742
通告	-10.7743
病気	-10.7746
関係改善	-10.7749
人を含む	-10.775
空気	-10.7751
卓	-10.7753
サウジアラビア	-10.7755
救済	-10.7755
するかどうか	-10.7756
ナイフ	-10.7758
職務	-10.7758
拠出	-10.7759
過ぎ	-10.7759
訪	-10.7767
強風	-10.7767
オリオールズ	-10.7769
を争う	-10.7769
の諮問機関	-10.7769
近くに	-10.777
攻勢	-10.7771
以降に	-10.7772
迅速	-10.7774
懇談会	-10.7775
特別委員会	-10.778
秒で	-10.7781
検討会	-10.7783
炉	-10.7784
卓球	-10.7785
サンパウロ時事	-10.7786
当初は	-10.7786
送付	-10.7786
で合意した	-10.779
エース	-10.7792
存	-10.7796
4.8	-10.7796
弁護側は	-10.7796
モンゴル	-10.7798
いっぱい	-10.7799
九電	-10.78
運び	-10.78
民進党の	-10.7801
上方修正	-10.7801
なくても	-10.7809
効率	-10.781
廃棄	-10.781
されること	-10.7812
丹	-10.7812
貞	-10.7813
国際通貨基金	-10.7813
つもり	-10.7813
iPS	-10.7814
を抱える	-10.7818
0−3	-10.7822
かく	-10.7824
空間	-10.7824
札	-10.7825
新記録	-10.7828
換算	-10.7828
えない	-10.7829
名義	-10.7838
被告が	-10.7842
をつくる	-10.7842
色の	-10.7843
中央銀行	-10.7843
よう求める	-10.7843
で破って	-10.7846
カイ	-10.7849
と会談	-10.7849
環境省	-10.785
駅で	-10.7851
軸	-10.7852
有識者会議	-10.7853
政治家	-10.7854
沿岸部	-10.7856
が必要な	-10.7856
ドルトムント	-10.7857
の一人	-10.7857
交差点	-10.7857
川崎市	-10.786
大綱	-10.7861
ぜ	-10.7861
われる	-10.7861
海底	-10.7863
チェン	-10.7864
チリ	-10.7867
副大統領	-10.7869
バラ	-10.7869
に戻	-10.7871
マツダスタジアム	-10.7873
先進	-10.7874
上回る	-10.7874
富士通	-10.7874
市場関係者	-10.7875
人道	-10.7875
引き渡し	-10.7875
十分に	-10.7875
適正	-10.7879
に進んだ	-10.788
財団	-10.7881
形成	-10.7882
年春	-10.7882
(21)	-10.7885
示す	-10.7885
出火	-10.7886
拳銃	-10.7887
東京都港区	-10.7888
米軍の	-10.7889
車線	-10.789
人質	-10.7892
を制し	-10.7895
っていく	-10.7899
▁個別銘柄では	-10.79
と述べるにとどめた	-10.7902
レディース	-10.7902
が相次いでいる	-10.7904
で勝利	-10.7906
先制し	-10.7906
水産	-10.7906
採取	-10.7906
買い取り	-10.7909
滋賀	-10.791
▁自民党の	-10.791
するよう求めた	-10.7914
対策本部	-10.7919
高齢	-10.792
原爆	-10.7921
自動車大手	-10.7923
さとう	-10.7924
トランプ政権	-10.7926
(61)	-10.7927
方針を固めた	-10.7928
見せ	-10.7931
低下した	-10.7932
菅長官は	-10.7933
ウォー	-10.7933
を下回る	-10.7935
すこと	-10.7937
同区	-10.7938
調査では	-10.7939
日付	-10.794
の専門家	-10.7941
痛み	-10.7941
半年	-10.7942
挙げ	-10.7943
をかけ	-10.7943
生活保護	-10.7945
で引けた	-10.7946
依然として	-10.7946
惨	-10.7946
湘南	-10.7946
そういう	-10.7946
られなかった	-10.7948
を確保する	-10.7948
2.0%	-10.7948
飲料	-10.7948
開放	-10.7948
決勝進出	-10.7949
頭部	-10.7954
砲	-10.7958
▁今年	-10.7959
敵地で	-10.7959
幼稚園	-10.7961
さず	-10.7966
との会談	-10.797
住民投票	-10.7972
嘉風	-10.7973
米メディア	-10.7974
妊	-10.7976
マウス	-10.7976
ジン	-10.7979
2−3	-10.798
借金	-10.7981
広場	-10.7981
水を	-10.7984
進む	-10.7984
5.1	-10.7987
日米韓	-10.7987
けん制	-10.7989
年度は	-10.7991
葬	-10.7991
バレーボール	-10.7991
アマチュア	-10.7991
暫定値	-10.7994
エルサレム時事	-10.7995
片山	-10.7997
排出	-10.7999
米欧	-10.7999
ベースで	-10.8
4.0	-10.8
月末の	-10.8003
殿	-10.8004
で知られる	-10.8005
平昌五輪	-10.8013
PS	-10.8014
の適用	-10.8015
メートルは	-10.8016
強硬	-10.8016
製品の	-10.8018
火力発電	-10.8019
羅	-10.8021
冷静	-10.8022
人以上の	-10.8022
などして	-10.8022
日本経済	-10.8023
欠場	-10.8027
捕	-10.8032
小結	-10.8035
を抱え	-10.8035
1−3	-10.8036
訴追	-10.8037
表面	-10.8038
食い	-10.8039
押し上げ	-10.8039
となる見通し	-10.8041
高山	-10.8043
を挙げて	-10.8045
村上	-10.8047
舎	-10.8051
ミュンヘン	-10.8051
原料	-10.8053
子さま	-10.8055
懸	-10.8055
ガザ	-10.8058
誘	-10.8066
少数	-10.8067
熊本地震	-10.8068
覇者の	-10.8069
いなかった	-10.8069
1300	-10.8072
自民党が	-10.8072
6.4	-10.8072
中だった	-10.8074
世論	-10.8077
の遅れ	-10.8078
埋	-10.8078
と非難	-10.8078
騒	-10.8079
(52)	-10.808
2.6%	-10.8082
負担軽減	-10.8083
ぐらい	-10.8085
述べ	-10.8089
に応じた	-10.809
仲間	-10.8091
▁把瑠都	-10.8094
2.7%	-10.8098
麻薬	-10.8098
放火	-10.81
が見つかり	-10.8105
カ所の	-10.8106
ふく	-10.8107
神経	-10.8108
増額	-10.8112
くら	-10.8116
空港で	-10.8117
を大きく	-10.8119
暮らし	-10.8122
ません	-10.8123
だという	-10.8123
捜査している	-10.8124
純損益	-10.8127
モルガン	-10.8127
飲酒	-10.8128
初出場	-10.8133
前年度	-10.8134
沖縄の	-10.8136
をまとめ	-10.8141
普天間	-10.8142
決まり	-10.8143
4.1	-10.8147
各社は	-10.8149
初当選	-10.8149
承	-10.8149
危	-10.815
ロサンゼルス	-10.8151
との立場	-10.8151
地方の	-10.8155
押収	-10.8155
功	-10.8155
決勝トーナメント	-10.8157
慰霊	-10.8157
は次の通り	-10.8162
欧州の	-10.8164
オフ	-10.8167
との懸念	-10.8167
変わらない	-10.8171
問題など	-10.8172
に提出	-10.8177
ひら	-10.8177
危機感	-10.8178
てもらいたい	-10.8179
に引き上げる	-10.8179
1600	-10.8181
件数は	-10.8187
が強く	-10.8187
柔軟	-10.8188
精査	-10.8188
をさらに	-10.8191
女王	-10.8193
に到着した	-10.8193
離れた	-10.8193
沿い	-10.8195
地位	-10.8197
軽傷	-10.8198
米国に	-10.8199
数値	-10.8199
〜18	-10.8201
控除	-10.8203
みんなの党	-10.8203
心臓	-10.8203
ロシアが	-10.8205
現代	-10.8207
たのは	-10.8209
可能性があるという	-10.821
に参加する	-10.8212
へ進んだ	-10.8213
あい	-10.8213
したことを明らかにした	-10.8213
数千	-10.8214
日昼	-10.8215
ざき	-10.8218
圧縮	-10.8219
を踏まえて	-10.8228
決まった	-10.8228
すくい	-10.8229
た疑い	-10.823
島根県	-10.823
台に	-10.8233
解禁	-10.8234
日本一	-10.8235
晴れ	-10.8235
両日に	-10.8235
の一環として	-10.8236
を呼び掛ける	-10.8237
併せて	-10.8239
1995	-10.8243
長崎県	-10.8244
ミル	-10.8245
虚偽	-10.8245
途上国	-10.8249
閲覧	-10.8249
虚偽の	-10.8252
事項	-10.8253
に強い	-10.8255
決勝は	-10.8256
どこ	-10.8259
気温が	-10.8262
鋭	-10.8264
遺体は	-10.8264
パイプ	-10.8264
余震	-10.8264
協力する	-10.827
ヌー	-10.8273
でプレー	-10.8277
5.2	-10.8277
のようなもの	-10.8279
ジョコビッチ	-10.8279
は声明で	-10.8282
二回	-10.8282
催	-10.8284
累計	-10.8285
は前月比	-10.8285
大陸	-10.8286
エー	-10.8286
ならない	-10.829
劉	-10.8295
複合	-10.8296
を抑え	-10.8296
の普及	-10.8297
長期金利	-10.8299
反発した	-10.8299
前大統領	-10.8303
震度	-10.8304
保育	-10.8307
大大学院	-10.8308
外国為替市場	-10.831
私立	-10.8314
しろ	-10.8314
最終日は	-10.8316
名前	-10.8324
せん	-10.8324
大分県	-10.8326
ゼネラル	-10.8326
動物	-10.8326
を下して	-10.8327
地下鉄	-10.8328
感情	-10.8328
たく	-10.833
建屋	-10.8335
または	-10.8336
今週	-10.8336
同氏は	-10.8337
域内	-10.8339
低く	-10.8343
ダウン	-10.8346
レーダー	-10.8348
億円の赤字	-10.8351
宮里美香	-10.8357
スピードスケート	-10.8357
手配	-10.8358
国籍の	-10.8363
容疑を否認している	-10.8364
課によると	-10.8364
岳	-10.8365
で大勝し	-10.837
無人	-10.8371
朴大統領	-10.8372
横峯さくら	-10.8372
に並ぶ	-10.8372
千代大龍	-10.8372
負債	-10.8373
監督が	-10.8373
者数	-10.8374
弾圧	-10.8374
地区で	-10.8375
法改正	-10.8377
台湾の	-10.8378
実務	-10.8378
被害者の	-10.8378
ざわ	-10.8379
で見つかった	-10.838
〜30	-10.838
リーダー	-10.838
5−1	-10.8382
の削減	-10.8382
選手に	-10.8383
との意見	-10.8384
競技場	-10.8384
答申	-10.8388
ハワイ	-10.839
伊勢	-10.8391
子育て	-10.8392
で構成	-10.8392
したことを受け	-10.8403
及ばなかった	-10.8403
コール	-10.8404
順調に	-10.8404
の確認	-10.8404
初優勝した	-10.8405
並び	-10.8405
独自の	-10.8407
編集	-10.8407
ケット	-10.841
出動	-10.8411
浦和は	-10.8412
釜	-10.8414
並んだ	-10.8414
を伝える	-10.8414
▁琴欧洲	-10.8417
庭	-10.8417
池田勇太	-10.8419
▁若の里	-10.8419
機動	-10.8419
事情聴取	-10.842
判決で	-10.842
が響いた	-10.842
米政府は	-10.8421
倍に	-10.8422
を持っている	-10.8426
頭を	-10.8428
メディアによると	-10.8428
c	-10.8429
歩道	-10.843
カイロ	-10.8432
場所で	-10.8433
制作	-10.8435
一回	-10.8435
遼	-10.8436
の意思	-10.8438
旅客機	-10.8442
も示した	-10.8445
主催者	-10.8445
意向を表明	-10.8447
が広がっている	-10.8447
人件費	-10.845
点を加えた	-10.8451
2.3%	-10.8452
時間半	-10.8452
も多く	-10.8453
自由化	-10.8453
勝って	-10.8458
人死亡	-10.846
銭高の	-10.8466
(69)	-10.8467
頑張って	-10.8467
圧迫	-10.8468
制度改革	-10.8472
仕掛け	-10.8472
3.0	-10.8474
局面	-10.8475
アルジェリア	-10.8482
www	-10.8482
悩	-10.8482
ふじ	-10.8482
時刻	-10.8484
確立	-10.8487
入試	-10.8487
指数は	-10.8492
一斉に	-10.8496
カッコ内は	-10.8497
国際オリンピック委員会	-10.8497
寧	-10.8497
思惑	-10.8498
季ぶり	-10.8498
日中韓	-10.8499
厳格	-10.8499
フラン	-10.8499
株中心のナスダック総合指数は	-10.8499
番目の	-10.8501
問題視	-10.8503
されない	-10.8504
野菜	-10.8504
中日は	-10.8504
国際線	-10.8509
にそれぞれ	-10.851
衆参両院	-10.8513
九州北部	-10.8517
大西	-10.8517
シャー	-10.8517
良かった	-10.8518
すべての	-10.852
5.3	-10.8523
けが人	-10.8523
で開幕し	-10.8526
実際の	-10.8527
ビザ	-10.8527
債権	-10.8528
(70)	-10.8528
会場で	-10.8529
▼	-10.8529
速報	-10.8529
劇場	-10.853
▁0.4	-10.8531
を見直す	-10.8536
西川	-10.8537
動か	-10.8537
787	-10.8538
心理	-10.854
訴えた	-10.8542
てくれた	-10.8542
顕	-10.8545
改憲	-10.8546
15%	-10.8546
補正予算	-10.8548
受理	-10.8549
日現在	-10.8551
玄	-10.8552
衛	-10.8554
見る	-10.8555
送電	-10.856
幼	-10.8561
が強まり	-10.8561
札幌ドーム	-10.8561
各県	-10.8563
を提供する	-10.8565
▁東京電力は	-10.857
樹立	-10.8572
点二塁打	-10.8574
で競り勝ち	-10.8576
隣接する	-10.8576
必ず	-10.8578
定める	-10.8579
ソロ	-10.858
と一緒に	-10.8583
季	-10.8583
双方の	-10.8584
Z	-10.8584
マク	-10.8586
犠牲	-10.8588
よう要請	-10.8591
包丁	-10.8592
以降は	-10.8593
高かった	-10.8597
津市	-10.8599
労働組合	-10.8604
も検討する	-10.8605
愛媛県	-10.8606
日本勢は	-10.8608
チャンピオン	-10.8608
CS	-10.8609
小学生	-10.8612
ケー	-10.8615
1999	-10.8616
位に後退した	-10.8616
中山	-10.8617
を設置する	-10.8619
件で	-10.8621
全力で	-10.8622
クアラルンプール	-10.8624
拡散	-10.8624
なければいけない	-10.8624
食事	-10.8625
が生じ	-10.8625
ホン	-10.8625
2.9%	-10.8625
日本相撲協会	-10.8627
大津	-10.8629
連勝とした	-10.863
表彰	-10.8632
(18)	-10.8637
例年	-10.864
差別	-10.8642
公平	-10.8646
発令	-10.8646
(66)	-10.8646
載	-10.8649
献金	-10.8653
1800	-10.8655
長く	-10.8655
伏	-10.8656
跳	-10.8656
バッテリー	-10.8656
ムード	-10.8656
切って	-10.8656
中野	-10.8658
を支払う	-10.8659
乱れ	-10.8663
りょう	-10.8663
バンコク時事	-10.8664
所長	-10.8665
と呼び掛けた	-10.8666
に参加した	-10.8669
捜査員	-10.8671
受刑者	-10.8672
に提出する	-10.8673
めど	-10.8676
結び	-10.8676
拉致被害者	-10.8676
を下した	-10.8677
に屈し	-10.8677
掲げる	-10.8677
照ノ富士	-10.8682
津波で	-10.8686
以外で	-10.8686
励	-10.8688
就任後	-10.869
党大会	-10.8693
始め	-10.8694
▁大統領は	-10.8697
サラ	-10.8697
同士の	-10.8701
権力	-10.8704
を急いでいる	-10.8704
出国	-10.8705
書き込み	-10.8706
納付	-10.8706
工場の	-10.8707
突き放した	-10.8707
報じられ	-10.8707
助成	-10.8709
脱原発	-10.8713
四つ	-10.8713
引け	-10.8714
部会	-10.8717
8.5	-10.8719
依頼	-10.8719
斗	-10.872
素晴らしい	-10.872
斉藤	-10.8721
記者団に語った	-10.8722
仲	-10.8725
を伝え	-10.8725
立大	-10.8727
死一	-10.8729
停止した	-10.873
後初めて	-10.8734
に進む	-10.8736
唯	-10.8736
縁	-10.8736
キロ圏内	-10.8736
紅	-10.8736
じん	-10.8738
期間を	-10.8741
開催される	-10.8746
となりそうだ	-10.8748
AI	-10.875
ヤンキースのイチローは	-10.8752
2.4%	-10.8753
同時テロ	-10.8754
大勢	-10.8756
米大統領選	-10.876
支払	-10.8761
予定通り	-10.8761
〜50	-10.8762
バッグ	-10.8768
辛	-10.8769
尻	-10.8769
ポイント上昇の	-10.8769
安否	-10.8772
はら	-10.8774
も同様の	-10.8777
当局の	-10.8777
術	-10.8778
堺	-10.878
ウイ	-10.8783
カタール	-10.8785
IAEA	-10.8785
汚職	-10.8785
ないため	-10.8786
は前年同月比	-10.8786
デフレ	-10.8786
入社	-10.8787
隠岐の海	-10.8789
遅	-10.8792
ことで一致した	-10.8793
肺	-10.8801
EPA	-10.8801
ブルワーズの青木は	-10.8801
鶏	-10.8801
きちんと	-10.8801
商品を	-10.8802
南スーダン	-10.8802
付近に	-10.8802
これら	-10.8803
できるように	-10.8804
当面は	-10.8808
発達	-10.8808
強調した	-10.881
ハリ	-10.8812
走り	-10.8813
5.7	-10.8814
社会保障と税の一体改革	-10.8817
で止まった	-10.8818
違憲	-10.8826
を継続する	-10.8828
硬	-10.8832
運転していた	-10.8833
継承	-10.8834
プログラム	-10.8836
談	-10.8838
サッカーのイングランド	-10.8841
▁野田佳彦首相は	-10.8843
が中心	-10.8844
原因を調べている	-10.8845
役割を果た	-10.8849
度目の優勝を果たした	-10.885
その結果	-10.8851
に出席する	-10.8851
名簿	-10.8853
が強まった	-10.8861
人工	-10.8861
山口県	-10.8862
王子	-10.8866
相場の	-10.8866
頃	-10.8866
将棋	-10.8866
楽しみ	-10.8867
話題	-10.8869
1998	-10.8874
(19)	-10.8875
できるか	-10.8876
に戻った	-10.8877
旅客	-10.8878
ドーム	-10.8879
慰安婦	-10.888
を再開した	-10.888
盤	-10.8881
テキサス州	-10.8883
限定的	-10.8884
巡査部長	-10.8884
カット	-10.8884
愛媛	-10.8885
政府軍	-10.8885
2=	-10.8886
閣僚会合	-10.8886
平年	-10.8887
過失	-10.8887
に侵入し	-10.8889
トイレ	-10.889
を占め	-10.889
人生	-10.8893
活発	-10.8893
との間で	-10.8894
シート	-10.8895
合わせる	-10.8895
足を	-10.8896
無失点	-10.8897
アマゾン	-10.8899
奨	-10.8899
笠	-10.8899
売買代金は	-10.8899
お願い	-10.8899
▁豊真将	-10.8902
に戻る	-10.8906
▁阪	-10.8908
米大統領	-10.8912
北京で	-10.8913
部員	-10.8913
実施される	-10.8914
小池百合子	-10.8915
求刑	-10.8915
討議	-10.8915
に基づいて	-10.8915
液晶	-10.8915
上半期	-10.8915
申し出	-10.8916
警察当局	-10.8916
メニュー	-10.8918
求人	-10.8923
試合連続安打	-10.8928
戦う	-10.8929
バスケットボール	-10.8931
灰	-10.8932
今まで	-10.8932
の担当者は	-10.8934
同原発	-10.8935
を実現	-10.8936
発表される	-10.8939
でつくる	-10.8939
を示唆した	-10.8941
をつけ	-10.8941
合った	-10.8943
爆発物	-10.8946
忍	-10.8948
浴	-10.8948
するなどして	-10.895
これに関し	-10.8954
を指示	-10.8958
常に	-10.8961
ターン	-10.8962
西武は	-10.8963
を余儀なくされ	-10.8964
追い付き	-10.8966
米国人	-10.8969
生存	-10.8971
かす	-10.8973
われた	-10.8975
競馬	-10.8975
に移籍	-10.8976
天候	-10.898
農産物	-10.8981
謙	-10.8981
を合わせた	-10.8985
せない	-10.8987
くらい	-10.8989
無理	-10.8989
阪神は	-10.899
中島	-10.899
執	-10.8994
配管	-10.8995
ラジオ	-10.8998
耕	-10.8998
据え置いた	-10.8998
中部電力	-10.9002
を与えた	-10.9002
チン	-10.9005
液	-10.9007
屈	-10.9009
ソチ	-10.9011
同時	-10.9012
財政健全化	-10.9014
▁翔天狼	-10.9014
東南アジア	-10.9014
朝鮮中央通信	-10.9014
しようとした	-10.9015
ジョンウン	-10.9015
横領	-10.9016
左右	-10.9019
を提示	-10.902
オーバーで	-10.902
いちろう	-10.9021
137	-10.9026
年前に	-10.9028
を購入	-10.9031
g	-10.9031
報道官	-10.9032
上がって	-10.9032
を採用	-10.9034
を突破した	-10.9038
を命じた	-10.9042
議決	-10.9046
特捜部	-10.9047
アイルランド	-10.9047
挟	-10.9047
適時二塁打	-10.9047
に敗れた	-10.9048
2.8%	-10.9048
慶大	-10.9049
離陸	-10.9049
ビア	-10.905
認	-10.905
敗となった	-10.9051
が始まる	-10.9052
を明らかにし	-10.9056
夕	-10.9056
次男	-10.9056
で行う	-10.9061
管制	-10.9062
需給	-10.9063
4−6	-10.9063
放射性セシウム	-10.9064
無償修理	-10.9064
と主張している	-10.9068
戻り	-10.9069
共謀	-10.9071
誤って	-10.9072
さい	-10.9073
基準値	-10.9073
フロリダ州	-10.9073
流出した	-10.9075
が生じる	-10.9078
KDDI	-10.9081
審判	-10.9081
します	-10.9083
方向で検討	-10.9085
続き	-10.9086
間違いない	-10.9088
官民	-10.909
首長	-10.909
日正午	-10.9095
を行って	-10.9095
を送った	-10.9095
出席者	-10.9096
農林水産省	-10.9099
米メディアによると	-10.9099
134	-10.9101
しゃ	-10.9102
6.6	-10.9102
飛ば	-10.9103
滋賀県	-10.9105
アイス	-10.9107
シード	-10.9111
窓	-10.9112
ポイント低下	-10.9112
見直す	-10.9113
_	-10.9114
再生可能エネルギー	-10.9114
突破	-10.9115
東レ	-10.9116
つきお	-10.9117
を整え	-10.9117
3.2	-10.9118
受信	-10.9118
逃走した	-10.9119
余地	-10.9121
きっかけ	-10.9122
カリ	-10.9125
後半に	-10.9127
ずれ	-10.9128
皇太子	-10.9131
カザフスタン	-10.9131
勘	-10.9131
右前打	-10.9131
サイバー	-10.9132
3.5%	-10.9132
市場関係者からは	-10.9132
予選落ち	-10.9133
強さ	-10.9134
考えを強調した	-10.9134
パワー	-10.9136
近隣	-10.9137
荷	-10.9137
初黒星	-10.9138
するために	-10.9138
になれば	-10.914
ケア	-10.914
心から	-10.914
ジャー	-10.9143
メー	-10.9146
塔	-10.9148
陸上自衛隊	-10.915
日開幕	-10.915
をしっかり	-10.915
と予想される	-10.9153
株価指数	-10.9155
6.0	-10.916
ロイター通信によると	-10.916
監	-10.916
グリ	-10.9162
注目される	-10.9163
うまく	-10.9165
浜田	-10.9165
ティス	-10.9166
規則	-10.9166
国務長官	-10.9166
脱出	-10.9167
品質	-10.9169
を逮捕	-10.9169
島根	-10.9171
調査団	-10.9177
アメリカ	-10.9178
自殺した	-10.9179
防犯カメラ	-10.9181
乃	-10.9181
点を先取	-10.9181
マリー	-10.9183
出場権	-10.9185
始	-10.9186
プリ	-10.9187
松坂	-10.9188
SS	-10.9188
体重	-10.9192
9.5	-10.9193
を求めていた	-10.9194
宣	-10.9197
の上限	-10.9197
両陛下	-10.9198
噴	-10.9202
銭と前日比	-10.9202
たくさん	-10.9203
米朝	-10.9204
武藤	-10.9204
1990	-10.9204
青山	-10.9205
DI	-10.9207
ネル	-10.9213
滞	-10.9214
遭	-10.9214
祖	-10.9214
を選んだ	-10.9215
習主席	-10.9215
▁個別銘柄	-10.9217
広域	-10.9217
受け付け	-10.9219
6.7	-10.922
化石	-10.9221
標	-10.9224
入った	-10.9225
部長は	-10.9231
に踏み切った	-10.9232
手口	-10.9233
をマークした	-10.9234
位につけた	-10.9234
WTO	-10.9234
教委	-10.9237
立法	-10.9239
選ばれ	-10.9241
を促した	-10.9244
考えを明らかにした	-10.9246
シリコンバレー時事	-10.9249
肥	-10.9249
パレード	-10.9249
同士	-10.9251
交際	-10.9251
チュ	-10.9251
入り口	-10.9252
線路	-10.9253
塁	-10.9253
西岡	-10.9254
医療費	-10.9257
神奈川県警	-10.9263
CNN	-10.9266
聯合ニュース	-10.9266
ささげ	-10.9266
宿	-10.9266
伝えられ	-10.9267
ポー	-10.927
研究者	-10.9271
貿易赤字	-10.9271
基本方針	-10.9273
年ごろ	-10.9275
の扱い	-10.9276
ブラック	-10.9277
エフ	-10.9279
大塚	-10.928
悠	-10.9283
宣伝	-10.9283
を柱とする	-10.9283
オーナー	-10.9284
鹿島は	-10.9284
を兼ね	-10.9284
建造	-10.9284
首位を守った	-10.9286
強入りした	-10.9287
動員	-10.9288
有罪	-10.9291
の判決が	-10.9295
この中で	-10.9296
ヘクトパスカル	-10.93
篤	-10.93
否定した	-10.93
国連安保理	-10.93
送金	-10.9301
が起きる	-10.9306
理解を求めた	-10.9307
傷害	-10.9307
25%	-10.9307
節目	-10.9308
中継	-10.9309
50%	-10.9309
自動車道	-10.9311
に限定	-10.9313
▁トランプ氏は	-10.9315
3.1	-10.9315
北朝鮮側	-10.9316
筒	-10.9316
黙	-10.9317
ドーピング	-10.9317
に当たった	-10.9317
スタッフ	-10.9317
決済	-10.9317
千葉市	-10.9318
ウィリアムズ	-10.9318
ジョンソン	-10.9319
できていない	-10.9321
ブレ	-10.9322
北上	-10.9332
決定した	-10.9332
船長	-10.9332
調査会	-10.9333
貝	-10.9334
格納容器	-10.9334
に輝いた	-10.9334
反政府勢力	-10.9334
タイミング	-10.9335
同党の	-10.9335
助言	-10.9336
初出場の	-10.9337
に全力を挙げる	-10.9339
億円程度	-10.9343
月期連結決算	-10.9351
▁若荒雄	-10.9351
語り	-10.9351
李明博	-10.9351
を持った	-10.9352
ピン	-10.9355
co	-10.9357
を守り	-10.9358
祈	-10.936
自宅に	-10.9362
しなければ	-10.9362
予算案	-10.9363
一切	-10.9364
破綻	-10.9367
の脅威	-10.9367
倒産	-10.9371
来月	-10.9374
安倍首相は	-10.9375
の二塁打で	-10.9379
が増える	-10.9383
臨時国会	-10.9384
刑務所	-10.9385
石原慎太郎	-10.9385
サウジ	-10.9386
海兵隊	-10.9386
JP	-10.939
麻生	-10.9392
を増やす	-10.9392
関係者ら	-10.9393
上司	-10.9394
する予定だ	-10.9399
米アップル	-10.9401
点適時打	-10.9401
警部補	-10.9402
万ユーロ	-10.9404
があること	-10.9405
ブロック	-10.9405
▁0.5	-10.9407
オリックスは	-10.9408
日時点で	-10.9413
が高まった	-10.9417
経済政策	-10.9418
b	-10.942
の犠飛で	-10.942
▁(1−2)	-10.9421
日分かった	-10.9425
緩やかに	-10.9426
所得税	-10.943
ロック	-10.9434
で制した	-10.9437
漫画	-10.9437
▁同庁によると	-10.9437
優遇	-10.9437
飼育	-10.9437
罰則	-10.9438
6.8	-10.9439
暴風	-10.944
に行った	-10.9442
が明らかにした	-10.9442
主任	-10.9442
ができた	-10.9443
のインタビューで	-10.9444
溶	-10.9446
支	-10.9446
講じ	-10.9447
今秋	-10.9447
ロフ	-10.9448
7−6	-10.945
模	-10.9454
ないまま	-10.9454
党員	-10.9455
伴	-10.9458
横断	-10.9458
ポンド	-10.9458
社民党	-10.9464
戦力	-10.9464
不適切な	-10.9467
官房長官	-10.9467
秋田県	-10.947
包括	-10.9471
6.1	-10.9471
オリ	-10.9472
縦	-10.9472
漂	-10.9472
黒田東彦	-10.9472
雰囲気	-10.9472
▁0.8	-10.9476
外出	-10.9476
せずに	-10.9478
集め	-10.9479
を奪って	-10.9482
国道	-10.9483
代わりに	-10.9484
安値	-10.9485
所有者	-10.9486
プーチン氏	-10.9486
ベルリン	-10.9486
ことはできない	-10.9486
途中出場	-10.9487
松鳳山	-10.9487
嫌	-10.9489
アルバイト	-10.9489
りゅう	-10.9489
スコア	-10.9489
統治	-10.949
3.3%	-10.9491
ウォン	-10.9492
財政再建	-10.9492
を述べた	-10.9492
略	-10.9495
踏	-10.9497
一気に	-10.9498
他社	-10.95
投開票	-10.9501
くなった	-10.9503
フラ	-10.9504
ダブル	-10.9504
幹部ら	-10.9505
に並んだ	-10.9506
影	-10.9506
WHO	-10.9507
と振り返った	-10.9507
瑞	-10.9507
欧	-10.9508
通行	-10.9508
を行うこと	-10.9508
貨	-10.9509
検討している	-10.9513
描	-10.9514
なぜ	-10.9518
徒	-10.9519
8.0	-10.952
を設定	-10.9521
ベルト	-10.9521
との会談で	-10.9522
蓮舫	-10.9524
均衡	-10.9524
ぽ	-10.9524
原子炉建屋	-10.9524
訪朝	-10.9525
敗を守った	-10.9525
敷地	-10.9527
東日本大震災の復興	-10.9528
日未明に	-10.9529
▁民主党は	-10.953
反対派	-10.9532
と警告	-10.9533
する方向で	-10.9534
つり	-10.9539
教育委員会	-10.954
日本郵政	-10.954
弁護団	-10.9541
ダイヤモンドバックス	-10.9541
監禁	-10.9541
アリーナ	-10.9542
演技	-10.9542
5−0	-10.9543
藤田	-10.9543
サーバー	-10.9545
側近	-10.9546
を提出した	-10.9548
1〜4	-10.9548
近海	-10.955
5.4	-10.955
を突破	-10.9551
南西	-10.9555
れなかった	-10.9557
を見つけ	-10.9558
北東部	-10.9558
出力	-10.9559
原市	-10.9559
丘	-10.9559
日の閣議後記者会見で	-10.9559
ジョージ	-10.9559
ank	-10.9559
踏ん張	-10.9559
▁富士東	-10.9559
日本シリーズ	-10.9562
食料品	-10.9562
出席した	-10.9563
検事	-10.9563
を追加	-10.9568
カバー	-10.957
(5)	-10.9571
当て	-10.9571
影響を与え	-10.9573
リオデジャネイロ	-10.9574
気象庁	-10.9575
徴収	-10.9577
デンマーク	-10.9578
降板	-10.9578
取り締まり	-10.9579
聞いて	-10.9582
構造改革	-10.9583
始める	-10.9587
も多い	-10.9587
と判断し	-10.9588
投票で	-10.9591
を示唆	-10.9591
天然ガス	-10.9594
フリーエージェント	-10.9594
乗組員	-10.9594
刷新	-10.9595
改め	-10.9598
経験者	-10.9599
を語った	-10.96
さなかった	-10.9605
の大きさ	-10.9611
小沢一郎元代表	-10.9612
の指示	-10.9612
オバマ	-10.9616
脱線	-10.9617
学校法人	-10.9617
高松	-10.9618
低水準	-10.9621
京セラドーム大阪	-10.9629
調べたところ	-10.9629
演奏	-10.9629
グリーン	-10.963
宮崎県	-10.9631
知識	-10.9632
魅力	-10.9632
出され	-10.9632
▁日銀は	-10.9632
野党側	-10.9634
ミサイル開発	-10.9637
後ろ	-10.9638
福島市	-10.964
教会	-10.9644
ドリ	-10.9646
萩	-10.9647
〜25	-10.965
通販	-10.965
目指す	-10.9652
年前の	-10.9652
を軸に	-10.9653
首脳会談で	-10.9662
被	-10.9663
詳しく	-10.9664
行進	-10.9665
碧山	-10.9666
第三者	-10.9669
家宅捜索	-10.9671
を上回り	-10.9673
中銀	-10.9674
半島	-10.9674
の進展	-10.9678
ジャカルタ	-10.9682
グローバル	-10.9682
土屋ホーム	-10.9682
収束	-10.9682
概要	-10.9682
しそうだ	-10.9687
高齢化	-10.9688
同組	-10.969
を使う	-10.9691
疑	-10.9691
難しく	-10.9691
状況だ	-10.9693
の存在	-10.9696
"">	-10.9697
と評価した	-10.9697
例外	-10.9697
継ぎ	-10.9698
雑	-10.9699
迷	-10.9699
回戦が行われ	-10.9699
藤村修官房長官	-10.97
全銘柄の値動きを示す東証株価指数	-10.97
菌	-10.97
られて	-10.97
せき	-10.9702
ワイ	-10.9702
照ノ富士は	-10.9706
増やす	-10.9706
クリントン氏	-10.9706
に転じ	-10.9708
最新の	-10.9709
北朝鮮への	-10.9709
原油安	-10.9713
海上保安庁	-10.9718
▁同社によると	-10.9719
を訪問し	-10.9719
3−6	-10.972
5.8	-10.972
民主党政権	-10.9724
日本語	-10.9725
全域	-10.9726
路上	-10.9727
経済対策	-10.9727
ベー	-10.9729
山形県	-10.9731
連覇を目指す	-10.9733
考	-10.9734
展望	-10.9736
同居	-10.9739
求	-10.974
送り	-10.974
打開	-10.9741
予定されている	-10.9742
者数は	-10.9743
のマンション	-10.9744
役割	-10.9747
シドニー	-10.9747
取材に対し	-10.9748
尊	-10.9751
打線が	-10.9752
フィンランド	-10.9753
を図り	-10.9753
刺激	-10.9754
石原	-10.9755
7.3	-10.9756
〜19	-10.9757
ステー	-10.976
ではないか	-10.976
参院で	-10.9763
否定的な	-10.9763
人たち	-10.9764
郊外の	-10.9765
何か	-10.9766
成人	-10.9769
弥	-10.9771
検索	-10.9771
レスリング	-10.9772
年明け	-10.9774
製薬	-10.9775
流行	-10.9777
ユニ	-10.9781
今春	-10.9782
長年	-10.9783
みち	-10.9785
主催の	-10.9785
締	-10.9785
ハウス	-10.9789
=102	-10.9789
(20)	-10.9789
を招く	-10.9789
ゴロ	-10.9791
把瑠都	-10.9792
よかった	-10.9792
得意	-10.9795
新井	-10.9798
回無失点	-10.9804
ナショナル	-10.9804
を求めて	-10.9805
スケート	-10.9807
タレント	-10.9807
上乗せ	-10.9807
カンボジア	-10.9807
身柄	-10.9807
除去	-10.9808
▁(0−2)	-10.9808
好機	-10.9808
転倒	-10.9809
に関わる	-10.9809
点を奪った	-10.981
方向に	-10.9819
試合ぶり	-10.982
右足	-10.9823
猪	-10.9825
供与	-10.9825
黙とう	-10.9825
ください	-10.9825
まずは	-10.9826
宗教	-10.9826
なん	-10.9826
したりする	-10.9827
を行っていた	-10.9828
に出席した	-10.9828
PKO	-10.983
を増やし	-10.9831
を判断する	-10.9833
と思っている	-10.9833
米カリフォルニア州	-10.9833
大会ぶり	-10.9834
告訴	-10.9836
を重ねて	-10.9836
を見送った	-10.9839
中核	-10.9841
ものではない	-10.9841
おおむね	-10.9843
葛	-10.9843
マイクロソフト	-10.9843
同様に	-10.9844
答	-10.9846
減らし	-10.9847
行い	-10.9848
志向	-10.9848
こともあり	-10.985
を免れ	-10.985
を発射	-10.9851
生まれた	-10.9851
万人以上	-10.9851
ボート	-10.9852
2、3	-10.9853
格下げ	-10.9854
同町	-10.9856
冷え	-10.9856
県警捜査	-10.9857
連邦公開市場委員会	-10.9861
てはならない	-10.9861
法務省	-10.9862
3.4%	-10.9862
消え	-10.9862
限界	-10.9863
それによると	-10.9863
公務	-10.9867
法に基づき	-10.9871
圭	-10.9879
プロセス	-10.9879
カダフィ	-10.9879
懲戒処分	-10.9879
ルイス	-10.988
レッド	-10.9882
要員	-10.9884
ごう	-10.9894
▁明治安田	-10.9895
テロ対策	-10.9896
佑	-10.9897
どちら	-10.9897
対中	-10.9897
具体的	-10.9898
▁松鳳山	-10.9899
ッカー	-10.9901
納入	-10.9902
女子ダブルス	-10.9913
日経平均株価は	-10.9915
磨	-10.9915
該当	-10.9915
bl	-10.9915
証券取引所	-10.9917
卸	-10.9918
出頭	-10.9919
発電所	-10.992
発言を	-10.992
たけし	-10.9926
したい考えだ	-10.9927
タイプ	-10.9928
菅野	-10.9928
影響を与える	-10.9932
スプリント	-10.9933
唐	-10.9933
疾患	-10.9933
▁主な各地の震度は次の通り	-10.9936
で敗れて	-10.9936
の枠組み	-10.9947
あん	-10.9948
好調な	-10.995
万人増	-10.9951
礁	-10.9951
譲歩	-10.9953
混入	-10.9954
教え	-10.9956
世界経済の	-10.9957
医学	-10.9957
免	-10.9957
を奪い	-10.9959
を送り	-10.9961
さま	-10.9963
好き	-10.9965
も参加	-10.9967
滅	-10.9969
Q	-10.997
にわたる	-10.997
掲げ	-10.997
政務官	-10.997
陵	-10.997
渋滞	-10.997
ポンプ	-10.9971
銀座	-10.9974
を呼び	-10.9976
に設定	-10.998
と容疑を認めているという	-10.9982
退いた	-10.9985
も含めて	-10.9987
避難した	-10.9987
につなげる	-10.9988
漢	-10.9988
歌舞伎	-10.9988
禁錮	-10.9988
業者に	-10.9988
ピア	-10.9988
地震で	-10.999
声を掛け	-10.999
株安	-10.9991
シドニー時事	-10.9994
立て直し	-10.9996
キロ級は	-10.9996
撮影した	-10.9997
解体	-10.9999
日深夜	-11.0001
白書	-11.0004
変わる	-11.0006
波及	-11.0008
決して	-11.0008
保全	-11.0008
自分が	-11.0009
金総書記	-11.0009
巻き込まれ	-11.0012
シニア	-11.0012
する場合	-11.0013
亀田	-11.0015
との見通し	-11.0017
革	-11.0018
トランプ	-11.0021
する恐れがある	-11.0023
法廷	-11.0024
および	-11.0024
鍵	-11.0025
篠	-11.0025
神宮球場で	-11.0025
町村	-11.0028
が見込まれる	-11.0028
とは別に	-11.0029
しんし	-11.0035
が見られ	-11.0037
先週	-11.0038
同センター	-11.0038
使われた	-11.0039
このような	-11.0039
育て	-11.004
公示	-11.0041
無傷の	-11.0043
執行猶予	-11.0043
つい	-11.0044
パートナー	-11.0044
ポン	-11.0045
松山英樹は	-11.0046
完敗	-11.0049
衆院選で	-11.0049
に切り替え	-11.005
(17)	-11.005
この問題	-11.0051
れず	-11.0053
に敗れて	-11.006
レッ	-11.0061
塾	-11.0061
崔	-11.0061
日米両政府	-11.0061
弱い	-11.0063
であった	-11.007
住民ら	-11.0071
ニコ	-11.0072
被災した	-11.0073
氏への答弁	-11.0076
ダイハツ	-11.0079
SNS	-11.008
巨額の	-11.008
との見解を示した	-11.0081
独裁	-11.0081
レール	-11.0083
初公判	-11.0085
逮捕され	-11.0086
▁妙義龍	-11.0087
地帯	-11.0087
対象とする	-11.0087
立地	-11.0089
安倍氏	-11.009
点を奪い	-11.0091
を放って	-11.0094
恩	-11.0097
法に基づく	-11.0098
に見舞われ	-11.0098
デフレ脱却	-11.0098
授与	-11.0098
を好感し	-11.0099
が出ていた	-11.01
詐欺容疑で	-11.01
取られ	-11.01
強行	-11.0101
みず	-11.0109
研究開発	-11.0113
クリミア	-11.0116
ボランティア	-11.0117
迎撃	-11.0117
奪還	-11.0117
民主主義	-11.0119
シリーズ第	-11.012
自動運転	-11.0121
笑	-11.0122
警視庁捜査	-11.0125
歩み	-11.0125
るなどして	-11.0126
を支持し	-11.0128
焼き	-11.013
軟	-11.0134
グアム	-11.0134
NPB	-11.0135
6−0	-11.0136
騎手	-11.0136
求められ	-11.0138
占	-11.0146
訴状	-11.0146
秋山	-11.0147
▁栃乃若	-11.0147
らえ	-11.0148
スペース	-11.0149
ウィンブルドン	-11.0154
はっきり	-11.0154
ショートプログラム	-11.0154
教訓	-11.0154
債務危機	-11.0154
住宅ローン	-11.0155
詳細な	-11.0159
金融危機	-11.0159
を見送る	-11.0164
米経済	-11.0166
海保	-11.0168
卸売	-11.0169
環	-11.017
アラブ	-11.017
方々	-11.0171
k	-11.0172
公聴会	-11.0172
ディズニー	-11.0172
バイエルン	-11.0172
JOC	-11.0172
慢	-11.0172
カダフィ大佐	-11.0172
慈	-11.0172
同法	-11.0174
エリア	-11.0175
を支える	-11.0175
逃れ	-11.0178
を開始する	-11.0182
くじ	-11.0185
発生から	-11.0186
日本選手権	-11.0188
ref	-11.0188
診療	-11.019
丁	-11.0191
野村敏京	-11.0191
基調判断	-11.0191
うえ	-11.0191
注視	-11.0192
▁(2−1)	-11.0194
の中心	-11.0194
順守	-11.0195
喜び	-11.0195
ID	-11.0196
ブルー	-11.0197
郊外	-11.0197
など計	-11.0199
時間帯	-11.0199
改造	-11.02
が残る	-11.0204
事業所	-11.0204
を否定した	-11.0205
と会談する	-11.0205
スタートした	-11.0208
レアル	-11.0209
3.3	-11.0209
襲われ	-11.0209
官房副長官	-11.0209
arge	-11.0209
休暇	-11.021
皆さま	-11.021
滑り	-11.021
たつ	-11.0212
除く	-11.0213
皆	-11.022
を進めた	-11.0222
次期衆院選	-11.0223
を重視する	-11.0224
共同開発	-11.0224
市教委	-11.0225
生物	-11.0225
親ロシア派	-11.0228
を退けて	-11.0228
で発生した	-11.0228
井戸	-11.0229
停車	-11.0229
改良	-11.0231
明かした	-11.0234
モノ	-11.0234
物価上昇	-11.0234
算出	-11.0237
明言	-11.0239
自国	-11.0239
に追い込まれ	-11.0239
◇	-11.0241
して以来	-11.0246
誘致	-11.0247
を呼び掛けている	-11.0247
ケーブル	-11.0248
国家主席	-11.0249
まこと	-11.0249
する見込み	-11.0251
を殺害した	-11.0254
陰	-11.0266
血液	-11.0266
レッズ	-11.0269
ガラス	-11.0269
大学院	-11.0272
制球	-11.0274
飲食	-11.0276
期目	-11.0277
を受け入れる	-11.0279
を立て	-11.028
妙	-11.0285
に直面	-11.0285
おい	-11.0287
キロ離れた	-11.0288
怒り	-11.0289
致死	-11.0298
が一段と	-11.03
北東	-11.0301
▁h	-11.0301
寄せられた	-11.0302
咲	-11.0303
を起こした	-11.0303
圧勝	-11.0306
プーチン	-11.0307
小さい	-11.0307
点目	-11.0309
キロ当たり	-11.0315
こんな	-11.0319
容疑で逮捕	-11.0324
を起こし	-11.0324
▁(2−0)	-11.0325
下がった	-11.0325
輔	-11.0328
小規模	-11.0332
玄関	-11.0332
と同時に	-11.0334
妙義龍	-11.0334
で終了した	-11.0336
うそ	-11.0339
宮里藍は	-11.034
巡視船	-11.0341
雪印メグミルク	-11.0341
毎	-11.0341
直径	-11.0341
してもらう	-11.0342
のソロ	-11.0349
ホル	-11.035
耐	-11.035
陸自	-11.0351
重さ	-11.0354
しないよう	-11.0355
と伝え	-11.0358
続けた	-11.0358
に使う	-11.0361
担保	-11.0361
恐れもある	-11.0364
広州	-11.0364
南東	-11.0364
ブラジル大会	-11.0366
人暮らし	-11.0369
エリ	-11.0373
ダブルス	-11.0373
ローマ	-11.0375
3500	-11.0375
誓	-11.0379
経常利益	-11.0379
抽選	-11.0379
熱中症	-11.0379
未遂	-11.038
三菱電機	-11.038
訪日外国人	-11.038
公式サイト	-11.0382
ミラン	-11.0385
AR	-11.0386
武力	-11.0389
をきっかけに	-11.0389
農林水産	-11.039
も出席	-11.0391
に集中	-11.0393
で開催される	-11.0398
不良	-11.0398
早急に	-11.0399
追突	-11.0399
譲渡	-11.0401
金星	-11.0402
人を対象に	-11.0403
大臣	-11.0403
核開発	-11.0411
!	-11.0414
▁白鵬は	-11.0414
=101	-11.0414
を遂げ	-11.0417
八百長	-11.0417
を破った	-11.0417
弾道ミサイル発射	-11.0417
大勝	-11.042
来春	-11.0421
森田	-11.0422
広く	-11.0424
同日付で	-11.0428
位に終わった	-11.0429
ユーロ安	-11.0431
柄	-11.0435
えい	-11.0435
抱負を語った	-11.0436
親ロ派	-11.0436
競売	-11.0437
準決勝に進んだ	-11.0437
シティ	-11.0438
西側	-11.0439
慣	-11.0441
遅く	-11.0442
可	-11.0449
7.7	-11.0449
安倍晋三首相と	-11.0454
が不可欠	-11.0455
強力な	-11.0455
閣議後の記者会見で	-11.0456
周辺に	-11.0456
を手に	-11.0457
さえ	-11.0459
たかはし	-11.0459
同一	-11.0459
仙	-11.046
中盤	-11.0467
5.6	-11.0469
発見した	-11.0472
ノルディックスキーの	-11.0474
▁起訴状によると	-11.0474
フォーラム	-11.0475
3.2%	-11.0476
同じく	-11.0476
昼	-11.0477
週連続	-11.0478
同級生	-11.0479
で講演し	-11.0482
外貨	-11.0486
江戸	-11.0486
明示	-11.0487
ES	-11.0487
今井	-11.0488
産品	-11.0489
准教授	-11.049
ゲン	-11.0493
などを経て	-11.0493
可能性も	-11.0494
事務次官	-11.0494
時期について	-11.0495
繁	-11.0497
沿	-11.0498
上村	-11.0498
をやめ	-11.0498
反体制	-11.05
落ちた	-11.05
ヒット	-11.0503
〜29	-11.0505
道筋	-11.0508
民間企業	-11.0511
仁川	-11.0512
敗退した	-11.0512
乾	-11.0513
祥	-11.0513
自公両党	-11.0513
刺し	-11.0517
銭安の	-11.0518
代わり	-11.0518
経済協力	-11.0519
タイガース	-11.0519
駒	-11.052
が進んだ	-11.0521
と対戦し	-11.0522
と言って	-11.0525
扱い	-11.0527
を重視し	-11.0529
他国	-11.0532
を伴う	-11.0532
僕	-11.0532
共和国	-11.0532
3.0%	-11.0534
終結	-11.0534
と非難した	-11.0535
米ロ	-11.054
学会	-11.0541
に衝突	-11.0542
を後押しする	-11.0542
実施された	-11.0546
がなければ	-11.0548
五輪代表	-11.0551
荘	-11.0551
総領事館	-11.0551
運賃	-11.0551
司法解剖	-11.0551
1997	-11.0552
函館	-11.0552
を図った	-11.0552
孤立	-11.0552
を見据え	-11.0552
は難航	-11.0553
ムン	-11.0554
定員	-11.0554
議選	-11.0568
国土	-11.057
ベネズエラ	-11.0571
条項	-11.0571
位置付け	-11.0571
収賄	-11.0572
三井	-11.0572
点を先制	-11.0573
明確な	-11.0573
実力	-11.0574
市場に	-11.0577
展	-11.058
吉川	-11.0581
との批判	-11.0587
カージナルス	-11.059
ボーナス	-11.059
y	-11.059
五輪出場	-11.059
唯一の	-11.0591
店頭	-11.0591
接種	-11.0593
中国外務省	-11.0595
特区	-11.0595
訪れ	-11.0596
RC	-11.0597
倒れた	-11.0599
を前提に	-11.0603
訴訟で	-11.0604
で競り勝った	-11.0605
主な各地の震度は次の通り	-11.0607
危機管理	-11.0607
元大統領	-11.0609
ICBM	-11.061
東南アジア諸国連合	-11.061
複雑	-11.061
震源	-11.061
店員	-11.061
サイド	-11.0619
本体	-11.062
シカゴ	-11.0623
と回答した	-11.0624
クレ	-11.0625
石川県	-11.0626
年率	-11.0628
カ国協議	-11.0628
打線は	-11.0629
サンフランシスコ	-11.0629
身長	-11.0631
はフル出場した	-11.0631
に所属する	-11.0632
終え	-11.0633
▁大相撲の	-11.0634
罪で起訴	-11.0636
所在	-11.0637
メモ	-11.0638
を果たし	-11.0639
と考えている	-11.0639
航空会社	-11.0639
市川	-11.064
菊	-11.0641
堅調な	-11.0644
秘	-11.0646
象徴	-11.0648
フェデラー	-11.0648
看護師	-11.0648
ヤフオクドーム	-11.0649
提起	-11.0649
規律	-11.0649
点を挙げ	-11.065
通期	-11.0651
荷物	-11.0652
ナダル	-11.0655
付いて	-11.0656
うか	-11.0656
簡	-11.0656
が生じた	-11.0659
カリフォルニア州	-11.0661
手紙	-11.0662
地方自治体	-11.0662
増益	-11.0664
公開された	-11.0665
翼	-11.0666
を指示した	-11.0668
文化財	-11.0668
省庁	-11.0668
QVC	-11.0668
マリナーズのイチローは	-11.0668
欠陥	-11.0669
編入	-11.0669
正しい	-11.0669
排水	-11.0671
込んでいる	-11.0672
前週末比	-11.0674
と言う	-11.0675
に伸ばした	-11.0675
都内	-11.0675
会議を開き	-11.0676
MS	-11.0677
2019	-11.0681
が参加する	-11.0681
有利	-11.0685
が広がる	-11.0685
在日米軍	-11.0688
壇	-11.0688
乱射	-11.0688
辞退	-11.0689
年度以降	-11.069
切断	-11.069
配達	-11.069
警戒区域	-11.0691
買い物	-11.0692
もらった	-11.0693
段階的に	-11.0695
▁北朝鮮は	-11.07
日早朝	-11.0706
米海兵隊	-11.0707
兄	-11.0707
ツイッターで	-11.0707
呉	-11.0707
リゾート	-11.0707
酷	-11.0707
終盤に	-11.0708
レストラン	-11.0708
広がって	-11.0709
在住の	-11.0709
をつくり	-11.0709
氏名	-11.071
含む	-11.0711
問題をめぐり	-11.0716
運転士	-11.0717
地震があり	-11.0718
はなかったという	-11.0718
▁国土交通省は	-11.072
骨子	-11.0723
▁宝富士	-11.0725
賞を受賞	-11.0726
残った	-11.0726
飼	-11.0727
震源地は	-11.0727
を招いた	-11.0727
軒並み	-11.0727
大筋合意	-11.0727
に陥った	-11.0727
スパイ	-11.0727
にけがはなかった	-11.0727
進んで	-11.0728
3.1%	-11.0728
温泉	-11.073
保持	-11.0731
地盤	-11.0731
ペルー	-11.0732
和歌山県	-11.0732
を抑える	-11.0733
を推進する	-11.0733
美さん	-11.0735
を確保した	-11.0736
おく	-11.0741
した際に	-11.0741
5.9	-11.0742
PR	-11.0743
▁自民党は	-11.0744
頑	-11.0745
日本列島	-11.0747
洲	-11.0747
ライフ	-11.0747
説得	-11.0747
に充て	-11.0747
3.6%	-11.0748
小松	-11.0749
度目の出場	-11.0752
代女性	-11.0754
最後まで	-11.0756
プレート	-11.0757
大震災	-11.0757
帰り	-11.0758
の役割	-11.0759
農地	-11.0764
嘉手納	-11.0766
中心気圧は	-11.0766
谷垣氏	-11.0766
甲子園球場で	-11.0767
教師	-11.0769
八木	-11.0777
都議会	-11.0781
迎え	-11.0784
回にわたり	-11.0785
困	-11.0785
稼	-11.0786
フィリーズ	-11.0786
ビッグ	-11.0786
被爆	-11.0791
マリア	-11.0792
不要	-11.0797
クリントン	-11.0799
火口	-11.08
3〜5	-11.0803
両者	-11.0804
大阪桐蔭	-11.0806
パドレス	-11.0806
TO	-11.0806
を除いた	-11.0806
る必要がある	-11.0807
いかなる	-11.0807
乗員	-11.081
前年同月	-11.081
られず	-11.0811
捕手	-11.0812
ウィン	-11.0815
金庫	-11.0816
東京高裁	-11.0819
3〜4	-11.082
目となる	-11.0821
回を無安打無失点	-11.0824
が懸かる	-11.0826
ドライバー	-11.0826
老朽化	-11.0826
皇居	-11.0826
修復	-11.0827
三菱自	-11.083
キュ	-11.0831
呼び	-11.0833
懸案	-11.0835
危険な	-11.0836
起訴された	-11.0837
ヒト	-11.084
けた	-11.0842
対象外	-11.0845
鎌	-11.0846
右翼	-11.0847
宛て	-11.0847
書簡	-11.0847
ってほしい	-11.0848
ドローン	-11.0849
慰安婦問題	-11.0849
案件	-11.0849
多かった	-11.085
ボス	-11.0851
〜24	-11.0852
狙いがあるとみられる	-11.0852
対応を協議	-11.0852
支払う	-11.0852
▁碧	-11.0855
震	-11.0858
社民	-11.0858
ン氏	-11.0865
(16)	-11.0865
認めている	-11.0865
iPhone	-11.0866
普段	-11.0866
で争う	-11.0866
架空	-11.0867
軍事介入	-11.0868
中間報告	-11.0869
と診断された	-11.0871
ものと	-11.0871
一体改革	-11.0873
民進	-11.0875
取材に	-11.088
ていくこと	-11.0885
虫	-11.0885
3.8%	-11.0887
安美錦	-11.0887
警官隊	-11.0888
できるようにする	-11.0888
と話していた	-11.0888
台頭	-11.0888
を踏まえた	-11.0888
欧州中央銀行	-11.0888
立ち入り検査	-11.0889
同盟国	-11.0891
世論調査で	-11.0892
の裁判員裁判	-11.0897
見える	-11.09
GK	-11.0903
7.1	-11.0904
を中心とする	-11.0906
次々と	-11.0906
土砂	-11.0907
降格	-11.0907
わけ	-11.0909
強調	-11.0909
9.9	-11.091
1〜6	-11.0913
正義	-11.0913
と指摘している	-11.0919
政府高官	-11.092
てはいけない	-11.092
歴史的	-11.0921
最大野党	-11.0922
アテネ	-11.0925
を投じ	-11.0926
あきら	-11.0926
投与	-11.0927
/""	-11.0929
宝富士	-11.0929
を掲げる	-11.0934
天井	-11.0935
笑顔で	-11.0941
中前打	-11.0941
半減	-11.0944
を維持した	-11.0945
ウェイ	-11.0945
バドミントン	-11.0945
メートル以上の強風域	-11.0946
イヤー	-11.0947
豊ノ島	-11.0948
国税局	-11.0948
保育所	-11.095
元横綱	-11.0951
教職員	-11.0952
本塁打を含む	-11.0952
だまし	-11.0952
屋根	-11.0952
東北電力	-11.0957
事故を起こした	-11.0959
売られた	-11.0962
ニーズ	-11.0965
パイレーツ	-11.0966
チュニジア	-11.0966
主婦	-11.0967
道警	-11.0968
為	-11.0968
巨額	-11.0968
北日本	-11.0969
措置を取る	-11.0971
植物	-11.0972
リーグ優勝	-11.0974
をつくっ	-11.0977
を離れ	-11.0979
揚げ	-11.0979
への参加	-11.0985
クーデター	-11.0986
を盛り込む	-11.0986
現場から	-11.0987
で始まった	-11.0988
を担当する	-11.099
大相撲	-11.099
石田	-11.0995
殺人容疑で	-11.0996
されず	-11.0997
次長	-11.0997
7.9	-11.1001
車体	-11.1001
罰	-11.1002
もらえる	-11.1006
紗	-11.1006
膨らんだ	-11.1006
包括的	-11.1007
苦し	-11.1007
4.1%	-11.1007
容疑で逮捕された	-11.1009
ケニア	-11.101
を探る	-11.1012
論議	-11.1013
5−4	-11.1015
予定される	-11.1017
調査会社	-11.1018
証明	-11.1018
との考え	-11.102
フレ	-11.1023
させるため	-11.1023
春場所	-11.1025
と結論付けた	-11.1026
往復	-11.1027
敵失	-11.1028
割以上	-11.1029
厚生労働相	-11.1029
集約	-11.1029
優位	-11.1031
朴槿恵大統領	-11.1035
閣	-11.1035
作動	-11.1038
錦織は	-11.1041
査	-11.1041
を最後に	-11.1042
折り	-11.1043
大橋	-11.1048
余裕	-11.1048
書籍	-11.1049
を予定している	-11.1051
修理	-11.1052
する可能性もある	-11.1056
年契約	-11.1058
隣国	-11.106
走者	-11.106
リオ五輪	-11.1063
状況など	-11.1064
を切った	-11.1066
インター	-11.1067
蹴	-11.1067
処罰	-11.1067
が響き	-11.1068
ファースト	-11.107
東日本大震災の被災地	-11.1072
で決勝が行われ	-11.1073
原案	-11.1074
次郎	-11.1074
バイオ	-11.1076
原口	-11.1077
と同様	-11.1079
法大	-11.108
に抑えた	-11.1081
物流	-11.1082
雇用統計	-11.1082
ポイント増の	-11.1084
を現行犯逮捕した	-11.1086
にならない	-11.1087
本格的に	-11.1087
総括	-11.1087
授賞式	-11.1087
亡命	-11.1088
になったと発表した	-11.1089
制圧	-11.109
ゃ	-11.1094
実感	-11.1096
ティン	-11.1097
ダル	-11.1099
研究員	-11.1099
ヤン	-11.1099
報道陣に	-11.11
わせ	-11.11
7.2	-11.1102
ビス	-11.1103
9.4	-11.1105
られるよう	-11.1105
を下し	-11.1107
拒	-11.1107
パイロット	-11.1108
多額の	-11.1108
申し上げ	-11.1108
実戦	-11.1109
〜28	-11.1109
ロシアのプーチン大統領	-11.1109
在籍	-11.1109
との観測	-11.1111
文字	-11.1111
水泳	-11.1111
首席	-11.1111
てしまった	-11.1112
上院議員	-11.1112
持っていた	-11.1113
マッチ	-11.112
全国平均	-11.1123
浜松	-11.1123
定期検査	-11.1127
出店	-11.1128
迷惑	-11.1128
皇后両陛下	-11.1128
7.0	-11.1129
住居	-11.113
海監	-11.1131
っぱ	-11.1134
日に行われた	-11.1135
兵器	-11.1135
超過	-11.1135
守り	-11.1137
春夏	-11.1138
表彰台	-11.1138
としながらも	-11.114
戦全勝	-11.114
が影響した	-11.1142
問われる	-11.1143
安田	-11.1143
不適切	-11.1144
党本部で	-11.1144
下げる	-11.1144
次補正	-11.1145
選ばれた	-11.1145
操縦	-11.1148
掃	-11.1148
仮想通貨	-11.1149
国連安全保障理事会	-11.1149
桃	-11.1149
桑	-11.1149
すずき	-11.1149
AN	-11.1149
補給	-11.1151
くま	-11.1152
全米オープン	-11.1152
ウクライナ東部	-11.1153
家計	-11.1154
米兵	-11.1155
に乗せ	-11.1159
実現すれば	-11.1159
疑いが持たれている	-11.1161
ディス	-11.1162
止ま	-11.1164
刃物	-11.1166
組織委	-11.1169
モバイル	-11.1169
厚労相	-11.1169
取り付け	-11.1171
に関しても	-11.1172
白い	-11.1174
▁環境省は	-11.1175
水位	-11.1177
9.3	-11.1185
互	-11.1186
決選投票	-11.119
マスターズ	-11.119
記述	-11.119
なでしこジャパン	-11.119
免除	-11.119
解雇	-11.119
チー氏	-11.119
欧州債務危機	-11.1192
開票	-11.1193
対ドルで	-11.1193
前営業日	-11.1194
中期	-11.1196
よう指示した	-11.1202
あさ	-11.1203
悪影響	-11.1205
バンド	-11.1209
案を提示	-11.1209
カジノ	-11.121
ケネディ	-11.121
熟	-11.121
平年並み	-11.1211
ゼン	-11.1211
金メダルを獲得した	-11.1211
アウト	-11.1212
最高指導者	-11.1216
燃料費	-11.122
値動き	-11.122
るべき	-11.1224
などを背景に	-11.1228
崇	-11.1231
まとめる	-11.1234
0−4	-11.1236
挙げた	-11.1237
を終えて	-11.1241
連動	-11.1244
8.1	-11.1245
敗とした	-11.1245
死者数	-11.1245
永井	-11.1246
着用	-11.1249
到	-11.125
峰	-11.125
潜水艦	-11.1252
売られ	-11.1253
買い戻し	-11.1253
倉庫	-11.1253
とも述べ	-11.1255
シカゴ時事	-11.1258
経済再生	-11.1259
町田	-11.126
を批判した	-11.1262
都議選	-11.1262
を進めていた	-11.1269
引き出し	-11.127
暖	-11.1272
随	-11.1272
泥	-11.1272
軽傷を負った	-11.1272
守る	-11.1273
が高まり	-11.1273
家庭用	-11.1275
MA	-11.1279
帰国した	-11.1281
日本協会	-11.1283
各地	-11.1286
支払われ	-11.1286
公式戦	-11.1286
サイン	-11.129
潤	-11.1293
マニフェスト	-11.1293
破損	-11.1295
すぐ	-11.1296
(71)	-11.1298
熊谷	-11.1298
松原	-11.13
継投	-11.13
平年より	-11.1303
分後に	-11.1304
9.8	-11.1305
ボルト	-11.1306
と明言	-11.1308
逮捕状	-11.1309
安倍	-11.131
県外	-11.131
小池	-11.1311
潜	-11.1313
干	-11.1314
虎	-11.1314
▁朝赤龍	-11.1314
見られる	-11.1315
密輸	-11.1316
魁聖	-11.1319
とは言えない	-11.132
さいたま市	-11.1321
規制緩和	-11.1322
リンク	-11.1323
後任に	-11.1323
機密	-11.1323
乗っ	-11.1324
オープン戦	-11.1325
裂	-11.1327
執行役員	-11.1331
普天間飛行場	-11.1334
据え	-11.1334
成分	-11.1334
コンクリート	-11.1335
紋	-11.1335
貴ノ岩	-11.1335
打診	-11.1336
ロッ	-11.1336
処	-11.1336
決勝ラウンド	-11.1337
韓国軍	-11.1337
日午後の記者会見で	-11.1338
刃物で	-11.1339
ことを確認	-11.1346
藤本	-11.1347
家屋	-11.1348
切り替え	-11.1349
たなか	-11.135
に選ばれた	-11.135
を再開する	-11.1352
9.7	-11.1355
絶対に	-11.1355
手数料	-11.1356
呈	-11.1356
誘拐	-11.1356
漁獲	-11.1356
何度も	-11.1356
軽減税率	-11.1356
3.9%	-11.1357
▁(2−2)	-11.1357
9.6	-11.1358
断固	-11.1358
する仕組み	-11.1359
と連携し	-11.1362
過程で	-11.1364
1996	-11.1365
を活用し	-11.1366
たかった	-11.1367
下方修正した	-11.1368
ジュネーブ	-11.137
既	-11.1371
特急	-11.1372
報じ	-11.1372
PT	-11.1373
(102	-11.1375
国内線	-11.1376
欲	-11.1376
背景には	-11.1376
阻	-11.1377
を震源とする地震があ	-11.1378
回を投げて	-11.1379
公正	-11.1379
ウッド	-11.1384
周知	-11.1385
購入した	-11.1386
競馬場	-11.1387
を打ち出した	-11.1388
内閣改造	-11.1389
クター	-11.1391
東日本大震災後	-11.1395
同州	-11.1396
御嶽海	-11.1398
零封	-11.1398
北京五輪	-11.1407
駅から	-11.1407
東側	-11.1409
8.6	-11.141
ロムニー氏	-11.1411
過程	-11.1412
泳	-11.1415
受けた	-11.1418
わいせつ	-11.1418
考えていない	-11.1418
衰	-11.1419
シュート	-11.1419
棚	-11.1419
ワクチン	-11.1419
秩序	-11.1419
試合に出場し	-11.1419
加算	-11.1421
安心感	-11.1421
ライバル	-11.1422
遺体が見つかった	-11.1424
代男性	-11.1425
オート	-11.1427
一家	-11.1427
が悪化し	-11.1433
があったという	-11.1436
を通過し	-11.1437
時間後に	-11.1437
5−2	-11.1439
一時金	-11.144
ムバラク	-11.144
コード	-11.144
雪崩	-11.144
精密	-11.1442
時間がかかる	-11.1443
ことが重要だ	-11.1444
米アリゾナ州	-11.1444
消費者庁	-11.1446
7.4	-11.1446
ノート	-11.1447
受け取っ	-11.1448
大地震	-11.1448
個別に	-11.145
核問題	-11.145
年半	-11.1453
場合には	-11.1454
見込みだ	-11.1459
へい	-11.146
教科書	-11.1461
ローン	-11.1462
上海時事	-11.1465
との協議	-11.1466
どこまで	-11.1469
通話	-11.1471
報道陣	-11.1473
愛知県警	-11.1478
ノン	-11.1479
独占	-11.1483
4.5%	-11.1484
ノバク	-11.1484
打たれ	-11.1484
マイナー	-11.1485
大久保	-11.1485
海上自衛隊	-11.1486
を命じ	-11.1489
石垣	-11.149
与えられ	-11.1499
筆	-11.1502
を隠し	-11.1502
長谷部	-11.1503
:	-11.1504
不可欠	-11.1504
フライ級	-11.1504
圧力をかけ	-11.1506
見送られ	-11.1509
健太	-11.151
桜井	-11.151
財政赤字	-11.151
尾崎	-11.1513
熊本市	-11.1514
予算委	-11.1518
置いて	-11.1519
民間人	-11.1519
囲	-11.1524
吉村	-11.1524
梶	-11.1525
イエメン	-11.1525
膨	-11.1525
体調不良	-11.1525
準々決勝に進んだ	-11.1525
を依頼	-11.1526
昇進	-11.1526
を対象とした	-11.1526
8.2	-11.1526
各種	-11.1527
金メダリスト	-11.1529
(1)◆	-11.153
コフ	-11.1531
東京都内で記者会見し	-11.1539
▁巨人が	-11.1541
左足	-11.1542
必	-11.1543
ガイドライン	-11.1546
休止	-11.1547
><	-11.1549
ロジャー	-11.1551
に支障	-11.1553
運営会社	-11.1554
国務省	-11.1554
似た	-11.1557
形式	-11.1558
すみ	-11.1561
ブリュッセル	-11.1561
長の話	-11.1565
不透明	-11.1566
を破って	-11.1567
一括	-11.1568
印刷	-11.1568
猫	-11.1568
宿舎	-11.1568
をもたらし	-11.1568
ィ	-11.1568
MVP	-11.1569
金銭	-11.1569
(101	-11.1571
音声	-11.1573
を訪問する	-11.1574
込んでいた	-11.1574
奪われた	-11.1575
を振り	-11.1577
よこ	-11.1578
安倍内閣	-11.1579
河村	-11.1584
できること	-11.1587
宜野湾市	-11.1588
マニラ	-11.1589
勝てば	-11.1589
ようやく	-11.1589
国立競技場	-11.159
を決めている	-11.159
経済的	-11.1591
米雇用統計	-11.1598
することで合意した	-11.1604
双	-11.1604
声明を発表	-11.1607
バーグ	-11.1608
ています	-11.1608
キヤノン	-11.161
呂	-11.161
概算要求	-11.161
村山	-11.161
コンサート	-11.161
中心付近の最大風速は	-11.161
踊	-11.161
監視団	-11.1611
献花	-11.1611
▁000	-11.1612
方面	-11.1613
米議会	-11.1614
倍増	-11.1616
と明言した	-11.1618
使う	-11.1619
佐賀県	-11.162
根本	-11.1626
前週から	-11.1628
禁じ	-11.1629
与え	-11.1631
ブレーブス	-11.1632
どういう	-11.1632
BBC	-11.1632
職場	-11.1634
※(※=	-11.1636
高田	-11.1637
▁+	-11.1638
を本格化させ	-11.1638
瀬戸	-11.1639
前節	-11.164
〜35	-11.1642
を待って	-11.1644
7.6	-11.1645
と面会	-11.1649
人民元	-11.165
止まっ	-11.1653
謀	-11.1653
会館	-11.1653
観察	-11.1654
ギャ	-11.1654
臨床	-11.1654
鴻海	-11.1655
6.9	-11.1657
閉じ	-11.1658
てくれる	-11.166
大麻	-11.166
けがをした	-11.1668
初勝利を挙げた	-11.1674
▁マーリンズのイチローは	-11.1674
簡易	-11.1675
定めた	-11.1675
に立った	-11.1676
山口組	-11.1677
談合	-11.1678
広瀬	-11.1681
国防長官	-11.1684
それでも	-11.1685
を想定した	-11.1686
政府機関	-11.169
体調	-11.169
なくなり	-11.1691
謝	-11.1693
デフォルト	-11.1697
渕	-11.1697
正社員	-11.1697
別に見ると	-11.1697
ようになった	-11.1698
剣	-11.17
ツェ	-11.17
准	-11.1701
サンダー	-11.1702
国内外の	-11.1705
実施している	-11.1706
狙	-11.1707
ルノー	-11.1711
起こした	-11.1713
に立つ	-11.1714
香港時事	-11.1714
宜	-11.1718
九段	-11.172
木造	-11.172
学者	-11.1722
AP	-11.1722
をアピールする	-11.1724
税関	-11.1725
位で出た	-11.1727
で勝って	-11.173
に行く	-11.173
夏の参院選	-11.1733
世界一	-11.1734
高崎	-11.1739
よう呼び掛けた	-11.174
籠	-11.174
釣魚島	-11.174
を提出する	-11.1741
ひな	-11.1741
算定	-11.175
よい	-11.1751
になりそうだ	-11.1753
全国的に	-11.1754
リアル	-11.1754
を所持し	-11.1756
亡	-11.1759
地元メディア	-11.1759
文科相	-11.1762
への支援	-11.1764
n	-11.1765
高知県	-11.1766
進退	-11.1768
先端	-11.177
以来となる	-11.1771
効率化	-11.1774
ごとの	-11.1774
選び	-11.1777
我	-11.1784
ウォ	-11.1784
具体策	-11.1784
と思っていた	-11.1785
指定暴力団	-11.1787
ナショナルズ	-11.1788
労働時間	-11.1788
をはじめとする	-11.179
メント	-11.1793
施	-11.1795
増す	-11.1798
財産	-11.1802
対外	-11.1803
詩	-11.1806
透	-11.1806
を寄り切って	-11.1806
公明党の山口那津男代表	-11.1806
チョン	-11.1806
も視野に	-11.1806
療養	-11.1806
沈没	-11.1806
最後に	-11.1807
AIJ	-11.1809
コスト削減	-11.181
経路	-11.1811
を導入する	-11.1811
政府として	-11.1812
クネ	-11.1813
意向だ	-11.1813
などで行われ	-11.1815
に臨み	-11.1819
用品	-11.1819
深刻	-11.1821
建設業	-11.1824
FBI	-11.1827
管区海上保安本部	-11.1827
瓶	-11.1827
碑	-11.1827
フィナンシャル	-11.1828
国交相	-11.1828
すごく	-11.1828
逮捕容疑	-11.1829
ATM	-11.1831
を圧倒し	-11.1832
漏れた	-11.1833
敗北	-11.1833
落選	-11.1834
度目の防衛	-11.1834
無人機	-11.1835
前年より	-11.1837
年度第	-11.1837
トラン	-11.1839
筑波大	-11.1839
この結果	-11.1839
農協	-11.1842
になる見通し	-11.1842
を展開する	-11.1847
を想定し	-11.1847
ユネスコ	-11.185
皇太子さま	-11.185
招集	-11.1851
特使	-11.1852
が懸念される	-11.1852
手掛かり	-11.1852
LCC	-11.1852
米海軍	-11.1854
三菱自動車	-11.1856
情報機関	-11.1857
を要求した	-11.1857
オバマ氏	-11.1868
同胞団	-11.1872
嶺	-11.1872
▁東電によると	-11.1872
と同様に	-11.1874
低調	-11.1876
議長国	-11.188
リュ	-11.188
位に浮上	-11.1882
認めた	-11.1885
研究チームは	-11.1886
滞在中	-11.1886
最終的な	-11.1889
加えて	-11.189
東京都新宿区	-11.1894
▁佐田の富士	-11.1894
化粧品	-11.1894
イスラム教徒	-11.1894
過去最低	-11.1896
ッキー	-11.1896
メートルリレー	-11.1897
経営再建	-11.1898
できて	-11.1899
流用	-11.19
まき	-11.1903
ことで合意	-11.1903
態	-11.1907
来る	-11.1909
止めた	-11.191
ベテラン	-11.1916
良好な	-11.1916
が続いていた	-11.1916
循環	-11.1916
存続	-11.1916
が集まり	-11.1916
操縦士	-11.1917
場面もあった	-11.1917
同席した	-11.1917
td	-11.1918
日米同盟	-11.1918
▁(3−1)	-11.1918
取れる	-11.1925
再調査	-11.1926
教授ら	-11.1927
乗車	-11.1933
署員	-11.1934
辞め	-11.1938
にとどまっている	-11.1938
検察官	-11.1941
らが出席	-11.1944
が増えている	-11.1945
上回って	-11.1945
減収	-11.1946
漏	-11.1951
伊東	-11.1956
FG	-11.1957
年以内に	-11.1957
前日終値比	-11.1958
所管	-11.1958
休業	-11.1959
イスタンブール	-11.196
貧困	-11.196
偏	-11.196
斜	-11.196
わたなべ	-11.196
背番号	-11.1961
3.7%	-11.1961
防護	-11.1962
子どもたち	-11.1963
副総裁	-11.1966
に盛り込む	-11.1968
ロシア軍	-11.1969
会を開き	-11.1969
教室	-11.1972
8.8	-11.1975
参戦	-11.1978
唱	-11.198
マインツ	-11.1982
撤収	-11.1982
実用化	-11.1982
腐敗	-11.1984
を視察した	-11.1987
農林水産相	-11.199
前週末午後	-11.1991
7.8	-11.1993
おらず	-11.1996
渡部	-11.1997
票の格差	-11.2
姉	-11.2005
USTR	-11.2005
福岡国際センター	-11.2005
思想	-11.2006
!」	-11.2008
減産	-11.2009
セイ	-11.2012
(75)	-11.2016
を強いられ	-11.2018
終わった	-11.2021
ていただきたい	-11.2022
ユーロ高	-11.2024
ケン	-11.2026
調子	-11.2026
缶	-11.2027
国交正常化	-11.2027
磁	-11.2027
セクハラ	-11.2027
をけん制した	-11.2027
ブルージェイズの川崎は	-11.2027
衝撃	-11.2027
排ガス	-11.2028
予報	-11.2028
内需	-11.203
砲撃	-11.2031
世界遺産	-11.2036
横田	-11.2037
旅	-11.204
出張	-11.2041
万円以上	-11.2045
PM	-11.2045
20〜30	-11.2047
辺野古	-11.2049
かど番	-11.2049
コート	-11.2049
日本ユニシス	-11.205
地方創生	-11.205
砕	-11.205
キャンペーン	-11.205
勧誘	-11.205
参院予算委員会	-11.205
賛成多数で可決	-11.205
8.4	-11.205
体罰	-11.2052
方針を決めた	-11.2055
ジェット	-11.2057
を残した	-11.2057
不可能	-11.2059
姿勢を示し	-11.2062
協力して	-11.2063
ない限り	-11.2064
重量	-11.2068
採取した	-11.2068
陳謝	-11.207
かが焦点	-11.2072
記念日	-11.2072
班	-11.2072
過激組織	-11.2072
綾	-11.2072
頑張りたい	-11.2072
に就いた	-11.2072
営業日ぶりに	-11.2072
不全	-11.2073
構	-11.2075
原告側	-11.2077
最終予選	-11.208
小説	-11.2081
研究センター	-11.2084
を聞いた	-11.2085
積極	-11.2085
ハル	-11.2087
金融支援	-11.2087
席上	-11.2088
歴訪	-11.2089
を繰り返した	-11.2091
禁	-11.2091
得た	-11.2092
悔	-11.2093
景況感	-11.2094
の中から	-11.2095
松井一郎	-11.2097
ツアー通算	-11.21
安全な	-11.2101
生息	-11.2101
5〜6	-11.2102
たくない	-11.2104
9.2	-11.2104
輸出額	-11.2105
せば	-11.2107
インタビュー	-11.2109
捜査当局	-11.211
川村	-11.2111
避難者	-11.2111
寄せ	-11.2112
てん	-11.2113
を実現する	-11.2114
誠に遺憾	-11.2117
具体化	-11.2117
辰	-11.2117
損壊	-11.2119
総統	-11.2119
9.0	-11.212
現金約	-11.2122
笑顔	-11.2123
▁総務省は	-11.2125
市議会	-11.213
と言い	-11.2132
市議	-11.2133
減り	-11.2134
来年度	-11.2135
膨らむ	-11.214
桂	-11.214
に挑む	-11.214
背中	-11.214
対象者	-11.2142
ことで合意した	-11.2142
に到達	-11.2144
一段の	-11.2144
ライアン	-11.2153
可能性があり	-11.2154
懸念を表明	-11.2158
を目的に	-11.2159
白紙	-11.216
命に別条はない	-11.2162
消費者物価指数	-11.2163
液化天然ガス	-11.2163
参院本会議で	-11.2164
並んで	-11.2167
テロリスト	-11.2167
開始以来	-11.2168
広げ	-11.217
勝つ	-11.217
ダンス	-11.217
掛ける	-11.2175
発売した	-11.2176
クー	-11.218
誤り	-11.218
失点に抑え	-11.2182
猶予	-11.2185
LINE	-11.2185
終了間際に	-11.2185
指揮を執	-11.2185
不祥事	-11.2185
乏	-11.2185
払拭	-11.2185
▁(3−3)	-11.2186
搬入	-11.2186
闘争	-11.2186
最終ラウンドが行われ	-11.2189
脱税	-11.219
よう要求	-11.2192
言動	-11.2193
名護市辺野古	-11.2199
を減らす	-11.2201
取締役会	-11.2207
シーア派	-11.2208
丁寧に	-11.2208
マクドナルド	-11.2208
一本化	-11.2208
鄭	-11.2208
退避	-11.2209
表れ	-11.2211
サポート	-11.2212
の病院で死去	-11.2213
資金調達	-11.2213
全身	-11.2214
増資	-11.2215
出そろった	-11.2217
半面	-11.2219
用意がある	-11.222
無断	-11.2221
南極	-11.2226
との見解	-11.2229
隔	-11.223
眠	-11.2231
東京都渋谷区	-11.2231
アジア太平洋経済協力会議	-11.2231
両国関係	-11.2231
亀裂	-11.2231
への引き上げ	-11.2231
任期満了に伴う	-11.2232
否認	-11.2235
用地	-11.2236
を発表する	-11.2238
国防総省	-11.2241
コカ	-11.2242
を訪れる	-11.2246
原則として	-11.2252
政権交代	-11.2254
国際サッカー連盟	-11.2254
広東省	-11.2254
従軍慰安婦	-11.2254
をにらみ	-11.2254
言う	-11.2255
追跡	-11.2255
ダイヤ	-11.2257
号ソロ	-11.2257
ゲル	-11.2259
非公開	-11.226
ることができる	-11.2261
退院	-11.2261
を徹底する	-11.2266
東京都出身	-11.2269
ソロ本塁打	-11.2273
わなかった	-11.2274
しょく	-11.2277
ドネツク	-11.2277
現象	-11.2277
非正規	-11.2277
共闘	-11.2278
転覆	-11.2279
臨み	-11.2279
2−6	-11.228
ない場合	-11.2281
失望	-11.2282
毎月	-11.2292
失業者	-11.2297
習近平	-11.2299
位と出遅れた	-11.23
養殖	-11.23
ニャ	-11.2301
4.2%	-11.2301
出てきた	-11.2303
習氏	-11.2308
づけ	-11.2314
どのような	-11.2319
統	-11.2321
本会議	-11.2321
琴	-11.2323
ジャーナリスト	-11.2323
ディーゼル	-11.2323
▁大相撲初場所	-11.2323
欠航	-11.2324
▁(1−3)	-11.2324
付与	-11.2324
出身者	-11.2325
分まで	-11.2327
南相馬市	-11.2328
ふっ	-11.2329
寄せられ	-11.2329
させたい	-11.2331
進んだ	-11.2331
信任	-11.2332
書を提出	-11.2337
だと思う	-11.2338
を拡大する	-11.234
交通事故	-11.234
しつつある	-11.2342
アマ	-11.2342
北西部	-11.2345
日の東京株式市場は	-11.2345
輿石氏	-11.2346
風評被害	-11.2346
も盛り込んだ	-11.2346
援護	-11.2346
において	-11.2347
バク	-11.2348
8.3	-11.2349
を対象に実施	-11.2352
後方	-11.2358
工作	-11.2358
(7)	-11.236
〜27	-11.2361
駆	-11.2366
位以内	-11.2366
全土	-11.2367
拝	-11.2368
3−3	-11.2368
変わり	-11.2369
4.3%	-11.237
面談	-11.2371
自称	-11.2372
作業部会	-11.2372
回を投げ	-11.2375
やりたい	-11.2376
実際	-11.2381
粘	-11.2384
案内	-11.2384
透明性	-11.2385
ッター	-11.2387
について説明	-11.2387
を利用した	-11.239
方策	-11.239
使える	-11.2391
眼	-11.2392
の可否	-11.2392
サウサンプトン	-11.2392
重傷を負った	-11.2392
畠	-11.2392
石破氏	-11.2392
戦績は	-11.2392
無罪を主張	-11.2393
非常事態	-11.2394
福留	-11.2397
恐れがあるとして	-11.2398
エール	-11.2398
総合研究所	-11.2399
=78	-11.24
着服	-11.24
確率	-11.2403
CIA	-11.2406
に次いで	-11.241
数カ月	-11.2411
小型車	-11.2415
チベット	-11.2415
甘利明	-11.2415
仰	-11.2415
変わった	-11.2415
呼吸	-11.2416
幅広く	-11.2416
同課によると	-11.2418
を落とした	-11.2418
演じ	-11.242
岡本	-11.2422
に敗れ	-11.2422
二重	-11.2422
を交わし	-11.2424
否認している	-11.2434
国連総会	-11.2435
知らせ	-11.2438
共同代表	-11.2438
庄	-11.2439
五十嵐	-11.2439
喫煙	-11.2439
爆破	-11.244
経済指標	-11.2441
佐野	-11.2447
出品	-11.2449
みたい	-11.2456
一時的に	-11.2456
県立	-11.2457
鑑	-11.2461
大関かど番	-11.2463
4.9%	-11.2463
解説	-11.2464
これ以上	-11.2472
を用い	-11.2473
社長ら	-11.2483
正常化	-11.2485
不信任案	-11.2485
当地の	-11.2489
震災後	-11.249
と反論した	-11.2491
費など	-11.2495
一貫して	-11.2496
筑	-11.2497
郵便局	-11.2498
に含まれる	-11.2503
複数回	-11.2504
証明書	-11.2505
(15)	-11.2506
農水省	-11.2509
相模原	-11.2509
靖	-11.2509
ジャーナル	-11.2509
エコノミスト	-11.2509
セキュリティー	-11.2509
エアバッグ	-11.2509
ドーハ	-11.2512
藤原	-11.2514
破産	-11.2514
東日本大震災の影響で	-11.2518
被害届	-11.2518
JX	-11.2519
ついた	-11.252
ケイ	-11.2528
日連続で	-11.253
見返り	-11.2532
を中心とした	-11.2532
内野安打	-11.2533
▁同省によると	-11.2533
決まる	-11.2533
竜巻	-11.2535
経済界	-11.2537
初期	-11.2543
交代した	-11.2545
ザン	-11.2546
への関与	-11.2546
次リーグが行われ	-11.2551
被爆者	-11.2551
クロアチア	-11.2556
妹	-11.2556
季節調整済み	-11.2556
諮問	-11.2556
棄権した	-11.2556
週刊	-11.2556
an	-11.2557
不備	-11.2558
】◆	-11.2559
登校	-11.2561
をけん制する	-11.2562
核燃料	-11.2563
吹き	-11.2565
問い	-11.2566
バブル	-11.2569
賛同	-11.2577
ならず	-11.2578
蓄	-11.2579
滋	-11.2579
暑	-11.2579
ルーマニア	-11.258
棋聖	-11.258
相続	-11.2582
サッカーのイタリア	-11.2583
作った	-11.2585
巡査	-11.2592
東京ガス	-11.2593
傾向にある	-11.2594
会合後	-11.2596
署など	-11.2598
送られ	-11.2598
苦戦	-11.2601
と呼ばれ	-11.2601
討論会	-11.2602
架	-11.2602
記者団	-11.2603
不在	-11.2603
キャラクター	-11.2603
海峡	-11.2604
欧州チャンピオンズリーグ	-11.2605
運休	-11.2605
5−3	-11.2606
定着	-11.2607
などを盛り込んだ	-11.2607
30%	-11.2608
代の女性	-11.2608
モリ	-11.2609
政権公約	-11.2612
7−1	-11.2614
不起訴	-11.2614
関係国	-11.262
浮き彫り	-11.2621
存在感	-11.2623
1−4	-11.2625
特別な	-11.2625
てくる	-11.2626
全日本空輸	-11.2627
in	-11.2628
らせる	-11.2628
金正日	-11.2628
スタイル	-11.2628
統計局	-11.2632
風速	-11.2633
いとう	-11.2633
主要な	-11.2635
CL	-11.2636
返す	-11.2636
毎時	-11.2637
声明を発表した	-11.2643
最終調整	-11.2645
軽い	-11.2647
広がり	-11.2648
他人	-11.265
腸	-11.2651
ポロシェンコ	-11.2651
薫	-11.2651
が続いており	-11.2651
道交法違反	-11.2651
6.5%	-11.2652
書店	-11.2653
太陽光	-11.2654
が期待される	-11.2655
合弁	-11.2657
暴行を加え	-11.2657
得票	-11.266
先発出場し	-11.2662
しやすい	-11.2662
よう指示	-11.2663
改革案	-11.2664
不透明だ	-11.2672
うつ	-11.2673
諾	-11.2675
賛	-11.2675
リットル当たり	-11.2676
5.3%	-11.2676
消費税率引き上げ	-11.2677
美術	-11.2677
景気減速	-11.2678
ウィーン	-11.2678
弁護側	-11.2678
愛知県体育館	-11.2683
第三者委員会	-11.2683
▁内閣府が	-11.2684
都内のホテルで	-11.2685
原因究明	-11.2687
導入した	-11.2688
素案	-11.2692
初場所	-11.2692
と反論	-11.2693
往	-11.2698
酔	-11.2699
脂	-11.2699
シュツットガルト	-11.2699
浸透	-11.2699
ストリート	-11.2699
脱却	-11.2699
侵略	-11.2699
反落	-11.27
付属	-11.27
著しく	-11.2702
住友	-11.2703
検察当局	-11.2707
電波	-11.2708
冬季	-11.2709
フランクフルト時事	-11.271
市民団体	-11.2713
黒人	-11.2714
マイクロ	-11.2716
いただき	-11.2716
メダリスト	-11.2718
期末	-11.272
彰	-11.2722
住人	-11.2722
ライブ	-11.2722
偉	-11.2723
トレーニング	-11.2723
膜	-11.2723
澄	-11.2723
に陥る	-11.2724
4.6%	-11.2724
暗殺	-11.2724
を避けるため	-11.2724
上級	-11.2726
精神的	-11.2732
する方針を決めた	-11.2732
割引	-11.2733
分担	-11.2735
尽	-11.2736
オル	-11.2739
まって	-11.2741
適切	-11.2742
〜26	-11.2744
陸軍	-11.2745
衝	-11.2746
封鎖	-11.2747
関税撤廃	-11.2748
過ぎた	-11.2749
改選	-11.275
モーターズ	-11.2752
デラ	-11.2755
フジ	-11.2755
交番	-11.2757
自治区	-11.2758
増収	-11.2758
差をつけ	-11.2758
容量	-11.2762
沢村	-11.2765
駅前	-11.2766
到達	-11.2767
一方的に	-11.2768
終わる	-11.2771
留学	-11.2771
看板	-11.2771
東方	-11.2772
都知事選	-11.2773
無安打	-11.2775
残業	-11.2776
▁報告書は	-11.2776
世界的に	-11.2776
ボックス	-11.278
離島	-11.2789
事故原因	-11.2789
行っている	-11.279
エネルギー政策	-11.279
=109	-11.2791
ページ	-11.2793
マイアミ	-11.2795
刀	-11.2795
司令部	-11.2795
アカデミー	-11.2795
無期懲役	-11.2795
の高まり	-11.2796
奈良県	-11.2801
進められ	-11.2802
信頼回復	-11.2804
勝率	-11.2805
クリア	-11.2805
▁西武が	-11.2808
日本郵便	-11.2814
肺炎	-11.2819
駄目	-11.282
覚悟	-11.282
採算	-11.282
潜在	-11.2821
7.5%	-11.2821
岸田	-11.2822
送検	-11.2822
就業者数	-11.2823
体育	-11.2824
実刑	-11.2824
刺した	-11.2824
分かる	-11.2826
を務めていた	-11.2827
一服	-11.2831
全勝	-11.2835
インフルエンザ	-11.2843
著作権	-11.2843
変わらなかった	-11.2843
ヘクタール	-11.2844
ハイブリッド車	-11.2844
元社長	-11.2845
てしまう	-11.2847
する方針を明らかにした	-11.2848
巨大地震	-11.285
上積み	-11.2852
巡査長	-11.2854
倍以上	-11.2854
国際会議	-11.2855
羽生	-11.2857
政府側	-11.2858
別れ	-11.286
6−7	-11.286
手術を受けた	-11.2862
CM	-11.2863
旬	-11.2864
緊縮策	-11.2868
日立製作所	-11.2868
との認識で一致	-11.2869
偽装	-11.2869
ジュニア	-11.287
旅行者	-11.2872
住宅街	-11.2872
を利用して	-11.2873
異論	-11.2874
不透明な	-11.2876
考えを表明した	-11.2877
継	-11.2878
著名	-11.2881
アルミ	-11.2881
業績予想	-11.2884
に設置された	-11.2885
税金	-11.2887
と認めた	-11.2888
ウナギ	-11.2892
SUV	-11.2892
掲示板	-11.2892
死満塁から	-11.2893
することになった	-11.2893
選任	-11.2894
COP	-11.2895
状態だった	-11.2896
を開いて	-11.2897
観戦	-11.29
手順	-11.2901
=79	-11.2901
支払った	-11.2903
審議入り	-11.2907
団長	-11.2907
冊	-11.2917
叫	-11.2917
あくまで	-11.2917
奉	-11.2917
日韓関係	-11.2917
公取委	-11.2919
されてきた	-11.292
身体	-11.2921
明石	-11.2921
小中学校	-11.2923
を観測した	-11.2928
MV	-11.2929
まえ	-11.293
ツインズ	-11.2933
IR	-11.2934
自動車メーカー	-11.2936
政令市	-11.2937
宇都宮	-11.294
駆け込み需要	-11.2941
レッドソックスの田沢は	-11.2941
つなぎ	-11.2941
人道支援	-11.2942
宮城県石巻市	-11.2942
インフラ整備	-11.2943
グレ	-11.2945
軍事作戦	-11.2945
ビーチ	-11.2946
全農	-11.2947
UN	-11.2949
広報部	-11.295
読み	-11.295
たろう	-11.2956
焦	-11.2958
室長	-11.2964
繁華街	-11.2966
を歴任	-11.2966
統一地方選	-11.2967
港湾	-11.2967
とおる	-11.2969
を許した	-11.297
知らない	-11.2975
てくれ	-11.2983
無償	-11.2986
後押し	-11.2986
逸	-11.299
就労	-11.2991
遺族ら	-11.2995
いつも	-11.2996
経済制裁	-11.2996
立件	-11.2997
方針を明らかにした	-11.3
で制し	-11.3001
認められる	-11.3004
バレル	-11.3005
避	-11.3011
習近平国家主席	-11.3014
法令	-11.3015
ユダヤ	-11.3015
影響を及ぼす	-11.3015
長距離	-11.3016
打数無安打だった	-11.3017
火力発電所	-11.3019
一律	-11.302
今場所	-11.302
に際し	-11.3023
▁広島が	-11.3024
違法な	-11.3031
新監督	-11.3032
北側	-11.3037
侵	-11.3037
プル	-11.3039
吐	-11.304
当事者	-11.304
雨が降った	-11.304
趙	-11.304
▁大相撲夏場所	-11.304
沖縄本島	-11.304
シェブロン	-11.304
綱とり	-11.304
玉鷲	-11.3041
年度までに	-11.3043
とも語った	-11.3045
方針を表明	-11.3046
いろいろな	-11.3047
シャツ	-11.3047
相馬	-11.3048
チュー	-11.305
電力供給	-11.305
鈍	-11.3056
院長	-11.3059
調整している	-11.3062
有罪判決	-11.3064
が主因	-11.3065
注水	-11.3065
細川	-11.3066
を阻止する	-11.3066
取り扱い	-11.3067
信者	-11.3067
伊達	-11.3067
を搭載した	-11.3068
宮本	-11.3069
納税	-11.307
競り勝った	-11.307
追加緩和	-11.3072
仮設	-11.3075
北海道と東北	-11.3076
リレー	-11.3082
オペ	-11.3084
か分からない	-11.3085
墜落した	-11.3086
縄	-11.3089
メートル平泳ぎ	-11.3089
ダニエル	-11.3089
ラブロフ外相	-11.3089
妃	-11.3089
エクソンモービル	-11.3089
バンクーバー	-11.309
又	-11.309
管轄	-11.309
仮称	-11.3091
過去最高を更新した	-11.3091
読売	-11.3091
はしもと	-11.3093
アメリカン	-11.3094
を使用した	-11.3097
代表団	-11.31
自公	-11.3105
期連続	-11.3105
大輔	-11.3106
数人	-11.3107
職員ら	-11.3108
これからも	-11.3108
正式決定する	-11.3109
聞いた	-11.3113
ぜん	-11.3114
こういう	-11.3114
破棄	-11.3115
償還	-11.3115
が集まる	-11.3115
芸能	-11.3115
5.7%	-11.3115
ちゃ	-11.312
団結	-11.3121
照明	-11.3121
博士	-11.3122
現地調査	-11.3123
福山	-11.3127
出場しなかった	-11.3131
供	-11.3134
授	-11.3137
ワイン	-11.3138
中央銀行総裁会議	-11.3139
アドレス	-11.3139
アラブ首長国連邦	-11.3139
軽井沢	-11.314
師匠	-11.314
細野氏	-11.314
6〜7	-11.314
休養	-11.3142
を説明する	-11.3143
亀井	-11.3144
単独首位に立った	-11.3145
政界	-11.3146
直す	-11.3148
どんな	-11.315
チャレンジ	-11.315
商業施設	-11.3151
3−4	-11.3152
祈り	-11.3152
電気自動車	-11.316
として知られる	-11.3164
イエレン	-11.3165
ベースボール	-11.3166
専務	-11.3166
記念式典	-11.3167
古賀	-11.317
9.1	-11.3172
シティー	-11.3173
サーブ	-11.3177
開通	-11.3177
インターネット上で	-11.3178
予定されていた	-11.3184
を派遣し	-11.3188
過ごし	-11.3189
赤十字	-11.3189
自由貿易協定	-11.319
と釈明	-11.319
カ月半ぶり	-11.319
摩擦	-11.319
メートルを飛び	-11.319
認知症	-11.319
マスク	-11.319
追い付いた	-11.3191
アルコール	-11.3191
拍手	-11.3191
日系証券	-11.3191
100%	-11.3193
蒸気	-11.3193
関係省庁	-11.3193
消火	-11.3197
可能だ	-11.3197
科学技術	-11.3197
外交筋	-11.3197
一斉	-11.3197
を承認した	-11.3199
鳥取県	-11.3206
▁阪神が	-11.3206
米ツアー	-11.3208
柴	-11.3208
都県	-11.321
塗	-11.3215
栽培	-11.3215
からの報道によると	-11.3215
カウント	-11.3215
ウェブサイト	-11.3215
金正恩朝鮮労働党委員長	-11.3215
新車販売	-11.3215
次補正予算案	-11.3215
求刑懲役	-11.3215
九州場所	-11.3216
武装集団	-11.3216
=110	-11.3216
押収した	-11.3218
キリン	-11.3218
決まって	-11.3219
を握る	-11.3219
暫定政権	-11.3221
打差	-11.3226
車を運転	-11.3228
文言	-11.3229
ジェン	-11.3231
論点	-11.3232
深さ	-11.3234
不審な	-11.3237
事業費	-11.3238
出生	-11.3238
森友学園	-11.324
▁大相撲九州場所	-11.324
冷凍	-11.324
ミュー	-11.324
残念だ	-11.3241
自爆テロ	-11.3241
4.7%	-11.3241
育児	-11.3242
一般会計	-11.3243
増設	-11.325
1−6	-11.3251
伊方	-11.3252
小泉	-11.3252
広がる	-11.3259
かかった	-11.3259
野生	-11.3262
償	-11.3263
沖合	-11.3264
かれる	-11.3264
パスワード	-11.3265
弁護人	-11.3265
(73)	-11.3266
菓子	-11.3267
捜査本部	-11.3269
自制	-11.3276
下支え	-11.3278
を加速させる	-11.3278
個人総合	-11.3279
地域政党	-11.3281
北九州市	-11.3285
リサーチ	-11.329
低所得者	-11.3291
傍	-11.3291
賛否	-11.3291
を手掛ける	-11.3291
激励	-11.3291
火星	-11.33
爆弾テロ	-11.33
8.7	-11.331
上方修正した	-11.3312
位に入り	-11.3314
枚目	-11.3315
かけた	-11.3315
稔	-11.3316
藤田寛之	-11.3316
旧ソ連	-11.3316
右膝	-11.3317
ノルディックスキー	-11.3317
までの間	-11.3318
ボウ	-11.332
も視野に入れ	-11.332
宮殿	-11.332
への警戒感	-11.3321
東京都知事	-11.3323
との回答	-11.3323
駆け付け	-11.3325
預け	-11.3331
意見交換した	-11.3331
解釈	-11.3341
このまま	-11.3341
配偶者	-11.3342
ネタニヤフ	-11.3342
上原彩子	-11.3342
惜	-11.3342
中心限月	-11.3342
再度	-11.3342
講師	-11.3343
謝意	-11.3343
強盗殺人	-11.3343
融通	-11.3344
チケット	-11.3344
形跡	-11.3345
横山	-11.3346
正式決定	-11.3347
最初に	-11.3349
染	-11.3365
系統	-11.3366
OPEC	-11.3367
タカタ	-11.3367
人手不足	-11.3367
公算が大きい	-11.3367
バンタム級	-11.3367
金融政策決定会合	-11.3367
を選ぶ	-11.3368
敗れた	-11.3368
5.1%	-11.3369
悪天候	-11.3369
不安定な	-11.337
を徹底し	-11.3373
警備員	-11.3373
国際法	-11.3375
必要はない	-11.3376
目標を掲げ	-11.3378
将来的に	-11.3378
星野	-11.3378
問題解決	-11.338
アジア大会	-11.3388
生命保険	-11.3392
低減	-11.3392
衆院予算委員会	-11.3393
就航	-11.3394
に臨んだ	-11.3395
決まっている	-11.3395
不可	-11.3396
ぜひ	-11.3397
初制覇	-11.3399
エコ	-11.3399
感覚	-11.3399
航空自衛隊	-11.34
億円規模	-11.3401
は確認されていない	-11.3404
有料	-11.3407
極東	-11.3408
割程度	-11.3408
を容認する	-11.341
笑い	-11.341
関係閣僚	-11.3413
PO	-11.3413
実現に向け	-11.3417
に絡み	-11.3419
楊	-11.3419
大飯原発	-11.3419
臓器	-11.3419
マイケル	-11.3419
よう呼び掛けている	-11.3419
理事会を開き	-11.342
5.5%	-11.3421
(113	-11.3421
となっており	-11.3421
に乗り出す	-11.3422
消費増税関連法案	-11.3422
南京	-11.3425
代表代行	-11.3425
と考えられる	-11.3432
かじ	-11.3432
7〜8	-11.3435
左前打	-11.344
政局	-11.3443
過ぎる	-11.3444
車いす	-11.3444
に及ぶ	-11.3445
玄葉光一郎外相	-11.3445
兼務	-11.3447
ヘイ	-11.3448
方がいい	-11.3449
犠牲になった	-11.3449
選管	-11.345
竹内	-11.345
付く	-11.3451
負け越し	-11.3452
との対話	-11.3452
恐	-11.3452
受け取る	-11.3453
粘り	-11.3454
言った	-11.3455
誤った	-11.3457
立つ	-11.346
点リード	-11.3464
思い出	-11.3468
外食	-11.3469
遠隔操作	-11.347
本田圭佑	-11.347
髪	-11.347
したおし	-11.3472
税制調査会	-11.3472
東京都中央区	-11.3476
呼び掛けた	-11.3476
反落した	-11.3477
略歴	-11.3479
NY	-11.3481
法王	-11.3484
を促し	-11.3488
替	-11.3495
己	-11.3495
を科す	-11.3496
ネパール	-11.3496
香川真司	-11.3496
しゅう	-11.3496
胡	-11.3496
緊迫	-11.3497
コーラ	-11.3497
er	-11.3498
公邸	-11.3498
攻防	-11.3498
認知	-11.3498
続けている	-11.3499
始まって	-11.3499
も含めた	-11.35
勇気	-11.3501
重ねて	-11.3504
ローソン	-11.3506
交流戦	-11.3508
休み	-11.3508
などの罪に問われた	-11.3511
握	-11.3513
けがをさせた	-11.3515
地銀	-11.3515
を送る	-11.3516
市で震度	-11.3519
緊密に	-11.3521
岩国基地	-11.3522
楢葉町	-11.3522
ヴィ	-11.3522
遠征	-11.3522
連絡が取れ	-11.3523
イーグル	-11.3523
尊重	-11.3523
昨年より	-11.3523
▁(4−3)	-11.3523
4.4%	-11.3524
直線	-11.3528
ストレス	-11.353
を迫られ	-11.3531
下回った	-11.3531
▁オリックスが	-11.3535
あら	-11.3535
討論	-11.3538
黒星	-11.3544
民主派	-11.3546
原発再稼働	-11.3546
左派	-11.3548
アジア太平洋地域	-11.3548
ナイジェリア	-11.3548
リック	-11.3548
を繰り返す	-11.3548
7.8%	-11.3549
充電	-11.355
4.0%	-11.355
退去	-11.3551
死亡したのは	-11.3553
8.9	-11.3554
九州南部	-11.3555
審議官	-11.3557
有名	-11.3559
して以降	-11.3567
新会社	-11.3571
珍	-11.3573
勧	-11.3574
ベンチから外れた	-11.3574
タブレット	-11.3574
問責決議	-11.3574
枝野幸男官房長官	-11.3575
と比べて	-11.3576
これを受けて	-11.3576
容器	-11.3577
非製造業	-11.3578
戦闘員	-11.3579
契	-11.3586
演出	-11.3594
川口	-11.3596
んじ	-11.36
強姦	-11.36
晩	-11.3601
NPO	-11.3602
ユーロ圏諸国	-11.3602
アジア最終予選	-11.3605
フライ	-11.3608
央	-11.3611
減らす	-11.3613
入力	-11.3615
と共謀し	-11.3616
が示された	-11.3619
自己最高	-11.3621
一時停止	-11.3622
南西部	-11.3623
出勤	-11.3623
平井	-11.3623
奏	-11.3626
ヴ	-11.3627
魚釣島	-11.3627
醸	-11.3627
も踏まえ	-11.3627
憤	-11.3627
日の閣議で	-11.3627
間もなく	-11.3627
暴走	-11.3629
向かい	-11.3629
河川	-11.3629
打倒	-11.363
与党内	-11.3632
億円の黒字	-11.3633
府県	-11.3635
▁楽天が	-11.3641
を設置した	-11.3642
を要する	-11.3643
放水	-11.3645
桐	-11.365
1994	-11.3651
徴	-11.3652
正午	-11.3652
ラファエル	-11.3653
細野豪志	-11.3653
東日本大震災からの復興	-11.3653
珠	-11.3653
明るい	-11.3653
に至る	-11.3654
を望む	-11.3654
目立った	-11.3655
実行犯	-11.3656
集中審議	-11.3658
北京市	-11.3665
に対抗する	-11.3667
最高気温	-11.367
国旗	-11.367
制裁決議	-11.3673
変わって	-11.3673
一帯	-11.3673
を作る	-11.3674
打線も	-11.3675
レット	-11.3677
受給者	-11.3677
トーナメント	-11.3679
任せ	-11.3679
ロッキーズ	-11.3679
見つけ	-11.3679
日経平均株価の	-11.3679
キプロス	-11.3679
監察	-11.368
人の遺体	-11.368
正式な	-11.3683
積雪	-11.3683
最少	-11.3684
都心	-11.3684
に注意が必要	-11.3686
前回調査	-11.3694
こうじ	-11.3694
冬季五輪	-11.3695
帝	-11.3697
県議	-11.3701
フォルクスワーゲン	-11.3706
▁大相撲秋場所	-11.3706
上田桃子	-11.3706
潔	-11.3706
撃墜	-11.3706
▁(2−3)	-11.3707
池袋	-11.3708
が経過し	-11.3709
ことができた	-11.3711
ぼう	-11.3712
貯金	-11.3713
出てくる	-11.3716
とも指摘	-11.3719
に携わ	-11.3721
長期間	-11.3722
原材料	-11.3724
ワールドシリーズ	-11.3726
(74)	-11.373
てもらう	-11.3731
地裁であった	-11.3732
NASA	-11.3732
持ち株会社	-11.3732
オフィス	-11.3732
衣料品	-11.3732
停職	-11.3733
陸上競技場	-11.3733
6.3%	-11.3734
は出ていない	-11.3734
馬場	-11.374
▁逮捕容疑は昨年	-11.374
年の男子生徒	-11.3741
万年前	-11.3741
調査委	-11.3746
波の高さは	-11.3747
ランなどで	-11.3747
始めている	-11.375
ポール	-11.3751
さわ	-11.3756
邸	-11.3756
(109	-11.3758
独島	-11.3758
疫	-11.3759
海江田万里	-11.3759
▁大相撲名古屋場所	-11.3759
ウッズ	-11.3759
瑠	-11.3759
岩隈	-11.3759
最新鋭	-11.3759
▁(2−4)	-11.3759
1,0	-11.376
を可能にする	-11.3761
▁東芝は	-11.3762
強豪	-11.3771
工藤	-11.3776
に使われる	-11.3776
になること	-11.3777
鈴	-11.3783
正面	-11.3785
メルセデス	-11.3786
セリーナ	-11.3786
尿	-11.3786
?	-11.3786
▁(4−4)	-11.3786
橋下徹大阪市長	-11.3786
接続水域	-11.3786
殺人事件	-11.3786
誤解	-11.3787
反政府デモ	-11.3789
海老	-11.3791
このほど	-11.3792
そのもの	-11.3795
できている	-11.3796
円相場は	-11.3799
限度	-11.3799
ハード	-11.38
鶴岡	-11.3803
で迎えた	-11.3804
リポート	-11.3806
関連会社	-11.381
苦しい	-11.3812
ドナルド	-11.3812
クレジットカード	-11.3812
▁大相撲春場所	-11.3812
谷垣禎一	-11.3812
ストーカー	-11.3812
番指名打者で出場し	-11.3813
遮断	-11.3813
ことに触れ	-11.3814
プロデビュー	-11.3816
代表者	-11.3818
少なかった	-11.3819
少しでも	-11.3821
以	-11.3826
格好だ	-11.3829
手術を受け	-11.3832
政権運営	-11.3832
答えた	-11.3834
都府県	-11.3835
針	-11.3836
稽古	-11.3839
カーブ	-11.3839
課徴金	-11.3839
正男氏	-11.3839
動く	-11.3839
克服	-11.3841
ゅ	-11.3842
裁判員	-11.3843
が発生する	-11.3844
中国当局	-11.3844
道府県	-11.3846
深夜	-11.385
台北	-11.3852
を不正に	-11.3853
フィー	-11.3854
見学	-11.3857
受賞者	-11.3861
双葉町	-11.3862
人に上る	-11.3862
レスター	-11.3862
を作成し	-11.3864
調査で分かった	-11.3864
霊	-11.3866
はベンチ入りしたが	-11.3866
メリット	-11.3866
霞	-11.3866
伯	-11.3866
しばらく	-11.3866
を乗り越え	-11.3866
盗撮	-11.3866
全般	-11.3867
躍進	-11.3867
5.6%	-11.3867
の前提となる	-11.3867
待機	-11.3868
めどが立	-11.3873
疲れ	-11.3873
副議長	-11.3876
射撃	-11.3878
を講じる	-11.3881
造船	-11.3884
増産	-11.3886
人に上った	-11.3886
と思って	-11.3889
国交省によると	-11.3889
立憲	-11.3891
AKB	-11.3893
を訪ね	-11.3893
▁(5−3)	-11.3894
総合指数	-11.3895
不正アクセス	-11.3896
艦隊	-11.3897
スーツ	-11.3897
現地時間	-11.3898
柴田	-11.39
史上初の	-11.3902
非公式	-11.3903
学長	-11.3907
米国防総省	-11.3908
昨夏	-11.391
引き締め	-11.3911
ことが決まった	-11.3916
均	-11.3918
斎	-11.3919
内相	-11.392
をもたらす	-11.392
アイスホッケー	-11.392
弔	-11.392
擁護	-11.392
に従事	-11.3921
定めている	-11.3922
まつもと	-11.3922
騒ぎ	-11.3922
自分たち	-11.3922
弁論	-11.3924
パーティー	-11.3925
想定される	-11.3926
刺された	-11.3927
週第	-11.3928
店内	-11.3928
野田政権	-11.3929
押し出し	-11.3935
歳入	-11.3935
に掲載された	-11.3936
融	-11.3938
加わった	-11.3943
創業者	-11.3943
昨年優勝の	-11.3943
内海	-11.3946
インタビューに応じ	-11.3946
産地	-11.3946
怠	-11.3947
ターミナル	-11.3947
国際テロ組織アルカイダ	-11.3947
▁送検容疑は	-11.3947
丈	-11.3947
OECD	-11.3947
羽生結弦	-11.3947
スポンサー	-11.3947
穏	-11.3947
大田区	-11.3947
称賛	-11.3948
受診	-11.3948
関わっ	-11.3949
組の日本は	-11.3954
面接	-11.3956
タイヤ	-11.3958
日付で発表され	-11.3964
つきだ	-11.397
宮沢	-11.3971
追い上げ	-11.3973
靖国神社	-11.3974
肝	-11.3974
パナマ	-11.3974
とのコメントを発表した	-11.3974
米男子ゴルフの	-11.3975
5.4%	-11.3975
小売業	-11.3976
下がり	-11.3978
を投げて	-11.3979
早朝	-11.398
交際相手	-11.398
取り押さえ	-11.3984
7−5	-11.3984
いただいた	-11.3986
水戸市	-11.3988
公文書	-11.3989
追悼式	-11.399
調査の結果	-11.399
キロワット	-11.3991
アジア選手権	-11.3992
決算発表	-11.3995
▁警察庁は	-11.3996
組織犯罪対策	-11.4001
オークション	-11.4002
特例公債法案	-11.4002
温室効果ガス	-11.4002
喚	-11.4002
奇	-11.4002
に及んだ	-11.4002
に至った	-11.4002
がみられる	-11.4003
を唱え	-11.4005
貿易収支	-11.4005
続行	-11.4009
っていなかった	-11.4011
入れ替え	-11.4016
懇談	-11.4017
▁中日が	-11.4018
互いに	-11.4023
させた疑い	-11.4024
統括	-11.4027
メドベージェフ	-11.4029
貯蔵	-11.4029
事件後	-11.4029
猛暑	-11.4029
棄権	-11.4029
=119	-11.4031
上昇率	-11.4031
開門	-11.4034
最速	-11.4036
声が上がった	-11.4038
をテーマに	-11.4039
重なる	-11.4041
場合でも	-11.4042
単位億円	-11.4046
希望者	-11.4049
多発	-11.4051
に戻す	-11.4053
機運	-11.4054
協力を要請	-11.4056
千秋楽	-11.4056
使用済み核燃料	-11.4056
ゆっくり	-11.4056
6.8%	-11.4057
落ち着いて	-11.4057
夏場所	-11.4059
年俸	-11.4059
夕方	-11.4059
その際	-11.4064
計画停電	-11.4064
引き受け	-11.4066
せなかった	-11.4067
という気持ち	-11.4068
受け取り	-11.4069
を集めて	-11.4073
もあり得る	-11.4077
そうな	-11.4078
がないか	-11.408
を迫られる	-11.4083
東京地検	-11.4083
岡崎慎司	-11.4084
有村智恵	-11.4084
茂木敏充	-11.4084
東京地検特捜部	-11.4084
タクシン	-11.4084
パトカー	-11.4084
阿蘇	-11.4084
多摩	-11.4085
あす	-11.4085
4.8%	-11.4085
大関陣	-11.4085
に抗議する	-11.4086
延び	-11.4087
株式市場では	-11.409
CD	-11.4091
に沿って	-11.4091
レジ	-11.4092
液体	-11.4094
全焼	-11.4095
を活用した	-11.4097
全線	-11.4097
作製	-11.4098
じょう	-11.4107
ここまで	-11.4109
MD	-11.4111
笹	-11.4111
富裕層	-11.4111
シナリオ	-11.4111
イスラエル軍	-11.4116
仕入れ	-11.4124
一塁	-11.4124
博多	-11.4127
ロリー	-11.4129
汚	-11.4138
淡	-11.4138
帽	-11.4139
オリンピック	-11.4139
当たらない	-11.4139
が目立つ	-11.4139
衆院本会議	-11.4139
運搬	-11.4139
クライマックスシリーズ	-11.4139
右肘	-11.4139
リャ	-11.414
遭難	-11.414
を押し上げた	-11.4141
補修	-11.4142
要素	-11.4142
に立って	-11.4144
サッカーのワールドカップ	-11.4144
グレー	-11.4145
ツァ	-11.4148
帝国	-11.4148
方針を確認した	-11.4149
買い入れ	-11.4149
ようとした	-11.4152
政治資金	-11.4159
屋内	-11.416
法定	-11.4163
受け付ける	-11.4165
認証	-11.4165
に備えた	-11.4166
キロ以内が風速	-11.4167
マネー	-11.4167
マイクロシーベルト	-11.4167
あふれ	-11.4167
金正日総書記	-11.4167
兄弟	-11.4167
最年長	-11.4167
遊撃	-11.4168
米朝首脳会談	-11.417
スティン	-11.4171
初代	-11.4172
引き分けた	-11.4173
救急	-11.4175
挑発行為	-11.4176
適用される	-11.4178
ドット	-11.418
集合	-11.4183
てもらい	-11.4184
大統領令	-11.4186
で演説し	-11.4192
悟	-11.4194
石破茂	-11.4194
INAC	-11.4194
取り沙汰され	-11.4194
生鮮食品	-11.4194
栄誉	-11.4195
焼却	-11.4195
べきではない	-11.4195
なかなか	-11.4197
栗山	-11.4199
屋外	-11.4199
小法廷	-11.4199
抗議行動	-11.4201
1992	-11.4202
正規	-11.4202
国民新党	-11.4203
制服	-11.4208
下がって	-11.4212
通行人	-11.4215
しゅん	-11.422
チャンピオンズリーグ	-11.422
工程表	-11.4222
チェース	-11.4222
イレブン	-11.4222
つながっ	-11.4222
潜伏	-11.4223
ことを認めた	-11.4223
PP	-11.4224
を続けていた	-11.4224
分科会	-11.4224
筆頭	-11.4224
入賞	-11.4224
素材	-11.4225
資金繰り	-11.4225
所属事務所	-11.4227
金融大手	-11.4229
清武	-11.423
連休	-11.4231
最も多かった	-11.4232
野田氏	-11.4234
懸け	-11.4234
五つ	-11.4235
業界団体	-11.4235
祭り	-11.4237
月物は	-11.4238
都市部	-11.424
エルサレム	-11.4244
タイガー	-11.4246
日以内に	-11.4246
賭博	-11.425
クリスマス	-11.425
雌	-11.425
メートル個人メドレー	-11.425
▁(3−4)	-11.4251
壊滅	-11.4251
6.9%	-11.4251
複数回答	-11.4254
最大規模	-11.4255
責任を果た	-11.4255
止まり	-11.4257
閣僚級	-11.4257
大阪市内で	-11.4258
薬品	-11.4261
婦	-11.4275
発見され	-11.4275
恭	-11.4278
虐殺	-11.4278
何とか	-11.4279
5.8%	-11.4279
の研究チームが	-11.4279
遺跡	-11.428
野田首相	-11.4281
GE	-11.4281
体力	-11.4282
ケルン	-11.4284
みなみ	-11.4286
南側	-11.4286
国会に提出	-11.4293
きよ	-11.4293
方針を表明した	-11.4295
を守るため	-11.4295
イスラム過激派	-11.4296
傷害容疑で	-11.4296
逃げた	-11.43
誤認	-11.4303
ミズノ	-11.4306
に進めなかった	-11.4306
逃亡	-11.4307
堤防	-11.4307
多大な	-11.4307
▁(6−5)	-11.4307
歯止め	-11.4307
6.6%	-11.4308
子ども手当	-11.4309
エアコン	-11.431
カーリング	-11.431
創業家	-11.431
銭と前週末午後	-11.431
ロシア大会	-11.4314
社会的	-11.4314
可能性があるとみて	-11.4314
束	-11.4315
理研	-11.4315
ロープ	-11.4316
農場	-11.4318
ずっと	-11.4319
自営業	-11.4319
可能性もあるとみて	-11.432
一巡	-11.4321
小さな	-11.4322
経緯がある	-11.4325
ホワイトソックス	-11.4328
恋	-11.4334
と断定	-11.4334
サポーター	-11.4334
不快感	-11.4334
NSC	-11.4334
を招き	-11.4335
仲裁	-11.4335
6.7%	-11.4336
結論を出す	-11.4336
6.1%	-11.4336
人権侵害	-11.4336
5.2%	-11.4336
主演	-11.4338
署捜査本部は	-11.434
専用機	-11.434
ざるを得ない	-11.4341
就業	-11.4343
電力不足	-11.4343
調書	-11.4345
ハーグ	-11.4345
訴える	-11.4347
LS	-11.435
野口	-11.4351
当たる	-11.4351
訪れる	-11.4354
加わる	-11.4354
総裁選	-11.4356
即位	-11.4358
スカイツリー	-11.4363
急激な	-11.4363
のゴールで	-11.4363
を怠った	-11.4363
分に退いた	-11.4364
境界	-11.4365
こん	-11.4366
と連携して	-11.4368
に指示した	-11.4369
歴史的な	-11.4373
側面	-11.4376
簡単に	-11.4378
足元	-11.4378
栗原	-11.4381
国際大会	-11.4387
摩	-11.439
プリウス	-11.4391
アシスト	-11.4391
寸	-11.4391
湿	-11.4391
吸収	-11.4392
6.4%	-11.4392
▁無新	-11.4393
かは不透明だ	-11.4394
無差別	-11.4394
連覇を果たした	-11.4395
尽力	-11.4397
付着	-11.4403
市内で記者会見し	-11.4408
テレビ局	-11.4411
現場付近	-11.4412
上値	-11.4412
開催地	-11.4416
組員	-11.4419
養鶏場	-11.4419
聞き取り	-11.4419
農水相	-11.4419
転嫁	-11.4419
厚生年金	-11.442
リハビリ	-11.442
の適時打などで	-11.442
宇都宮市	-11.442
を改めて示した	-11.4421
上がっている	-11.4421
政府間	-11.4421
に関わった	-11.4422
司法省	-11.4425
狙いもある	-11.4426
企業業績	-11.443
6〜8	-11.4435
候補地	-11.4437
が高まっ	-11.4439
野田佳彦	-11.4439
勉	-11.4446
増やし	-11.4447
集団的自衛権の行使	-11.4448
たんぱく質	-11.4448
UAE	-11.4448
崩落	-11.4449
赤ちゃん	-11.4451
握手	-11.4453
ビッチ	-11.4456
と位置付ける	-11.4457
ウクライナ情勢	-11.4457
海警	-11.4459
に反する	-11.4467
応用	-11.447
現れ	-11.4471
一般公開	-11.4474
未定	-11.4476
円は対ユーロで	-11.4476
スケジュール	-11.4476
協同組合	-11.4477
葛西紀明	-11.4477
インターナショナル	-11.4477
契約を結んだ	-11.4478
×××	-11.448
挑	-11.4482
サッカー日本代表	-11.4483
再現	-11.4484
日本生命	-11.4486
情報通信	-11.4488
仲井真弘多	-11.4489
残っていた	-11.4489
次女	-11.449
を打ち出し	-11.4496
くなって	-11.4497
死傷者	-11.4502
患	-11.4504
バングラデシュ	-11.4505
大阪維新の会	-11.4505
業務上過失致死	-11.4505
を充てる	-11.4505
延長十一回	-11.4505
得失点差で	-11.4505
国有地	-11.4505
水増し	-11.4506
トリポリ	-11.4506
待機児童	-11.4506
8.5%	-11.4507
を求める訴訟を	-11.4507
粒子	-11.4507
ショット	-11.4509
赤坂	-11.451
に反発し	-11.451
元日本代表	-11.451
に拡大する	-11.4512
が入る	-11.4513
亜大	-11.4513
に向かった	-11.4521
安定化	-11.4522
対応策	-11.4523
販売店	-11.4524
を変える	-11.453
援	-11.4531
全豪オープン	-11.4534
職業不詳	-11.4534
ウォルフスブルク	-11.4534
駿	-11.4534
スンニ派	-11.4534
壮	-11.4534
宇宙航空研究開発機構	-11.4534
スコットランド	-11.4534
撃たれ	-11.4535
二度と	-11.4536
入閣	-11.4537
を図っ	-11.4537
理念	-11.4539
楽観	-11.4539
割を占める	-11.4541
堺市	-11.4542
経営統合	-11.4543
DL	-11.4545
初登板	-11.4545
原発事故後	-11.4549
北方	-11.4549
日の会合で	-11.4551
電通	-11.4554
保障	-11.4557
のが目的	-11.4557
実質的な	-11.456
代打で出場し	-11.4562
小笠原	-11.4562
スポークスマン	-11.4563
飛躍	-11.4563
▁(5−4)	-11.4564
法整備	-11.4566
ハマス	-11.4567
に転落した	-11.457
人事院	-11.457
岡山県	-11.4572
能見	-11.4573
強かった	-11.4578
山頂	-11.4578
精度	-11.4583
ことになり	-11.4585
こともある	-11.4588
歩行者	-11.4592
ゲート	-11.4592
掌握	-11.4592
超党派	-11.4592
左翼	-11.4593
高速鉄道	-11.4594
品川	-11.4595
ボクシング協会	-11.4595
軍事的	-11.4596
需	-11.4597
改定値	-11.4599
を義務付ける	-11.4609
去った	-11.4609
扱	-11.4612
に違反し	-11.4612
北海道電力	-11.462
挫	-11.4621
とのコメントを出した	-11.4621
パトロール	-11.4621
▁舛ノ山	-11.4621
福井県おおい町	-11.4621
神社	-11.4621
拙	-11.4621
生産台数	-11.4621
あなた	-11.4621
に分かれ	-11.4621
日に開幕する	-11.4622
も予想される	-11.4623
短距離	-11.4624
社債	-11.4624
秋場所	-11.4631
サイズ	-11.4631
規制値	-11.4637
悪質	-11.4643
押	-11.4645
揚	-11.4649
土居美咲	-11.4649
義援金	-11.465
ベラルーシ	-11.465
提唱	-11.465
首を絞め	-11.465
エレベーター	-11.465
気候変動	-11.465
キリスト教	-11.465
ALSOK	-11.465
公職選挙法	-11.465
連敗を免れた	-11.465
も検討している	-11.465
離婚	-11.4651
7.3%	-11.4651
日間の日程で	-11.4651
んぺい	-11.4654
総書記	-11.4654
をアピールした	-11.4654
頻	-11.4656
アンディ	-11.4658
絶対	-11.4661
直近	-11.4662
辺野古移設	-11.4662
パック	-11.4667
を乗せた	-11.4667
朝日新聞	-11.4673
校舎	-11.4674
無視	-11.4677
看	-11.4678
危険ドラッグ	-11.4679
アルカイダ	-11.4679
輿石東幹事長	-11.4679
との指摘が聞かれた	-11.4679
主要国首脳会議	-11.4679
NGO	-11.4679
オハイオ州	-11.4679
皇族	-11.468
いただく	-11.4683
けんじ	-11.4683
0〜60	-11.4691
耐え	-11.4694
区割り	-11.4699
会津	-11.4702
を想定している	-11.4703
に違反する	-11.4703
刺され	-11.4705
死満塁	-11.4707
省エネ	-11.4708
糖	-11.4708
裸	-11.4708
舛添要一	-11.4708
寮	-11.4708
柿	-11.4708
フェニックス	-11.4708
リズム	-11.4708
に代わる	-11.4715
に復帰した	-11.4716
柏崎刈羽原発	-11.4717
上場企業	-11.4717
役員会で	-11.4718
6−5	-11.4718
高級車	-11.472
TV	-11.4721
終わって	-11.4721
副知事	-11.4724
地元紙	-11.4724
▁防衛省は	-11.4734
万円相当	-11.4736
盛岡市	-11.4736
メートル自由形	-11.4737
ハノイ	-11.4737
きゅう	-11.4738
注意を呼び掛けている	-11.4739
軟調	-11.4739
万円の損害賠償	-11.4739
▁(3−2)	-11.474
高温	-11.4741
に委ね	-11.4743
テック	-11.4746
おうと	-11.4751
予備選	-11.4755
外相会談	-11.4758
間違い	-11.4761
排	-11.4762
ハノーバー	-11.4767
新車販売台数	-11.4767
御嶽山	-11.4767
TBC	-11.4767
嗣	-11.4767
副作用	-11.4767
土砂崩れ	-11.4767
繁栄	-11.4768
年半ぶり	-11.4768
▁(0−3)	-11.4768
▁(4−2)	-11.4768
維新の党	-11.477
双葉	-11.4773
みずほ銀行	-11.4773
台北時事	-11.4774
として活躍	-11.4777
問題の解決	-11.4779
地元メディアによると	-11.478
長崎市	-11.4781
法務	-11.4784
ティング	-11.4785
同日中に	-11.4785
高く評価	-11.4785
信頼関係	-11.4786
不安定	-11.4787
じゅん	-11.4789
カール	-11.479
過激派	-11.4794
北日本物産	-11.4796
睡眠	-11.4796
市街地	-11.4796
因果関係	-11.4796
鍋	-11.4796
包囲	-11.4797
景気の先行き	-11.4797
騒音	-11.4797
7.2%	-11.4798
安全保障関連法	-11.4799
移管	-11.4799
5.0%	-11.4799
殺意	-11.4801
避難勧告	-11.4804
っておらず	-11.4814
準決勝が行われ	-11.4816
国益	-11.482
突っ	-11.482
粛	-11.4825
日本電産サンキョー	-11.4826
荻	-11.4826
巧	-11.4826
冬型の気圧配置	-11.4826
あり得ない	-11.4826
国際原子力機関	-11.4826
捕獲	-11.4826
白石	-11.4827
7.0%	-11.4827
祖父	-11.4827
例目	-11.4828
災害対策本部	-11.4828
を傷つけ	-11.4828
栄養	-11.4829
移住	-11.4829
わせる	-11.4831
日に発表され	-11.4833
の中前打で	-11.4833
再燃	-11.4838
医療保険	-11.4839
平等	-11.484
安定供給	-11.4841
無得点	-11.4844
されていなかった	-11.4845
親会社	-11.4846
原発の事故	-11.4848
新興	-11.4848
力強く	-11.4851
処遇	-11.4855
アレッポ	-11.4855
縛	-11.4855
▁(2−5)	-11.4856
坪	-11.4856
社外取締役	-11.4856
艦艇	-11.4856
を目指していた	-11.4858
興味	-11.4859
基本ソフト	-11.4859
マイク	-11.486
競合	-11.4861
を収め	-11.4867
人に達した	-11.4868
巡回	-11.4873
詰	-11.4875
致	-11.4884
公共事業	-11.4885
日本オリンピック委員会	-11.4885
に与える影響	-11.4885
副総理	-11.4885
北大西洋条約機構	-11.4885
今季限りで	-11.4885
打ち出した	-11.4885
郵送	-11.4886
録音	-11.4886
使途	-11.4887
ってくる	-11.4888
京都府警	-11.4889
適合	-11.4895
を確保するため	-11.4895
求めていた	-11.4895
に移す	-11.4899
戦略的	-11.4899
ことで一致	-11.4902
得票率	-11.4903
度目の代表	-11.4908
遣	-11.4914
取引先	-11.4914
依	-11.4914
乗務員	-11.4915
全人代	-11.4915
タイトルマッチ	-11.4916
日米通算	-11.4916
▁(5−2)	-11.4916
ビジョン	-11.4916
正確な	-11.4916
応じる	-11.4917
6.2%	-11.4917
できなくなった	-11.4917
歳出削減	-11.4918
経営側	-11.4919
急伸	-11.4924
退団	-11.4926
噴出	-11.4928
の多くは	-11.4929
のは異例	-11.493
さいたま	-11.4935
鮮	-11.4938
続いている	-11.4939
エステティック	-11.4945
小野寺五典防衛相	-11.4945
レッドソックスの上原は	-11.4945
実効支配	-11.4945
鳳	-11.4945
囲碁	-11.4946
旅館	-11.4946
固まった	-11.4947
周辺海域	-11.4948
運ぶ	-11.4951
▁-1.	-11.4952
港区	-11.4954
幸せ	-11.4955
が占め	-11.4956
実質的に	-11.4957
をはね	-11.4961
登用	-11.4962
で首位に並んだ	-11.4964
西アフリカ	-11.4971
されておらず	-11.4973
出場権を獲得	-11.4974
鎖	-11.4974
秩父	-11.4975
ミョン	-11.4975
掘削	-11.4975
紛失	-11.4976
長谷部誠	-11.4976
領事	-11.4981
になっており	-11.4984
直樹	-11.499
失われ	-11.499
を確実に	-11.4991
▁---	-11.4992
鵬	-11.4992
跡地	-11.4992
党首会談	-11.4993
復興相	-11.4998
切り付け	-11.4999
名護市	-11.5003
会社役員	-11.5005
チャイ	-11.5005
断続的に	-11.5005
もんじゅ	-11.5005
を描いた	-11.5005
労災	-11.5006
そんな	-11.5006
センサー	-11.5007
最低賃金	-11.5008
戸籍	-11.5008
選挙制度改革	-11.5009
民衆	-11.5009
設定した	-11.501
万円をだまし取った	-11.501
治療薬	-11.5012
メートル離れた	-11.5013
手応え	-11.5015
昨秋	-11.5018
につなげ	-11.5032
とマイナー契約	-11.5034
知り合った	-11.5035
月初旬	-11.5036
厳しい状況	-11.5036
衆参	-11.5036
言っている	-11.5036
へ向け	-11.5037
運送	-11.5038
▁(3−0)	-11.5039
武装組織	-11.5039
ていれば	-11.504
補佐	-11.504
知らなかった	-11.504
混合	-11.5041
が続出	-11.5042
次いで	-11.5043
西地区	-11.5044
修正協議	-11.5046
駒大	-11.5054
を許し	-11.5056
に使った	-11.5058
判	-11.506
史上最多	-11.506
敦	-11.5065
捜	-11.5066
使用済み燃料	-11.5066
国際宇宙ステーション	-11.5066
かかり	-11.5066
潘基文	-11.5066
暫定規制値	-11.5066
東日本大震災で被災した	-11.5066
先勝した	-11.5067
7.7%	-11.5067
現役引退	-11.5068
支社	-11.507
更生	-11.5072
となる見込み	-11.5073
名古屋場所	-11.5075
の大台	-11.5079
できる限り	-11.5079
抜く	-11.508
中西部	-11.5081
事故が起きた	-11.5082
国民生活	-11.5092
平昌	-11.5094
を視野に	-11.5094
ゆうちょ銀	-11.5096
ユニクロ	-11.5096
隔たり	-11.5097
でサヨナラ勝ちし	-11.5097
原油相場	-11.5097
NSA	-11.51
結集	-11.5103
系列	-11.5103
副委員長	-11.5104
ACL	-11.5104
果たす	-11.511
金融株	-11.5113
不明者	-11.5117
杉本	-11.5117
選手権最終日は	-11.5123
アサド大統領	-11.5127
貸し出し	-11.5127
じゃない	-11.5127
真実	-11.5127
技能	-11.5128
兆候	-11.5128
放映	-11.5128
を検証する	-11.5128
ずれ込む	-11.5128
美術館	-11.5128
たたき	-11.5129
優れた	-11.5131
賞与	-11.5131
収支報告書	-11.5131
起こし	-11.5132
菊地	-11.5138
創業	-11.5139
考えを表明	-11.5142
政権側	-11.5143
の質問に	-11.5147
失業	-11.5148
出来高	-11.5149
に抑える	-11.5151
分散	-11.5153
を変更し	-11.5154
IL	-11.5155
宇宙飛行士	-11.5157
培	-11.5157
オランド大統領	-11.5157
長友佑都	-11.5157
NLD	-11.5157
懐	-11.5157
恒例の	-11.5157
据え置き	-11.5158
通行止め	-11.5158
資材	-11.5159
住んでいた	-11.5159
コミュニケーションズ	-11.5159
過労	-11.5161
釣り	-11.5162
掛かっ	-11.5164
排出量	-11.5172
ウラン	-11.5174
ォ	-11.5175
富山県	-11.5178
を支援し	-11.5182
惑星	-11.5185
ラスベガス	-11.5188
覚せい剤取締法違反	-11.5188
鷹	-11.5188
ダマスカス	-11.5188
硫	-11.5188
おわび申し上げる	-11.5188
莉	-11.5188
運転を見合わせ	-11.5188
をかける	-11.5188
射程	-11.5189
棋士	-11.5189
大関昇進	-11.5189
を打ち出す	-11.519
地震発生	-11.519
7−0	-11.519
なかむら	-11.5191
使っていた	-11.5192
中南米	-11.5194
投手陣	-11.5194
ものとみられる	-11.5197
ゴールド	-11.5199
宇宙船	-11.5199
万バレル	-11.5201
三郎	-11.5203
動い	-11.5209
〜09	-11.5212
渡辺氏	-11.5213
すでに	-11.5214
黒字化	-11.5214
洪	-11.5215
艇	-11.5218
ルネサス	-11.5219
を割り込んだ	-11.5219
澤	-11.5219
マイナンバー	-11.5219
太陽光発電	-11.522
金日成	-11.522
7.4%	-11.522
ブルペン	-11.5221
節の残り	-11.5221
体質	-11.5234
環境整備	-11.5234
組合員	-11.5234
に対応した	-11.5235
客船	-11.5241
を代表する	-11.5247
番右翼で	-11.5249
クルム伊達公子	-11.5249
公正取引委員会	-11.5249
如	-11.525
アサヒ	-11.525
アルプス	-11.525
小笠原諸島	-11.525
折り返し	-11.5251
が期待できる	-11.5252
自衛	-11.5252
瞬間	-11.5253
TKO	-11.5256
衆院議員会館で	-11.5256
計測	-11.5257
ゲーム機	-11.5258
不調	-11.5267
タワー	-11.5271
インディ	-11.5277
一日も早く	-11.5281
重く受け止め	-11.5281
に専念	-11.5281
全力を尽くす	-11.5281
いろんな	-11.5281
分かっていない	-11.5281
人工衛星	-11.5281
5.9%	-11.5282
ゴールドマン	-11.5282
悔しい	-11.5282
形態	-11.5282
殺傷	-11.5284
を支援するため	-11.5286
回戦制	-11.5294
大阪地裁	-11.5295
プロゴルフ	-11.5298
姿を見せ	-11.5298
企業向け	-11.5299
原発事故を受け	-11.5301
超え	-11.5301
ことも判明	-11.5306
彼ら	-11.5311
サッポロ	-11.5311
暁	-11.5311
エボラ出血熱	-11.5311
最小限	-11.5312
浮かべ	-11.5312
▁木村山	-11.5312
喪失	-11.5312
クルーズ	-11.5313
▁(6−3)	-11.5313
ロイター通信調べ	-11.5314
遺骨	-11.5314
▁−○	-11.5315
食材	-11.5316
を書類送検した	-11.5318
服役	-11.532
岩崎	-11.5326
ポイント減の	-11.5327
今月下旬	-11.534
市区町村	-11.5343
▁(3−5)	-11.5343
CPI	-11.5343
上下両院	-11.5343
運輸安全委員会	-11.5343
国土交通相	-11.5343
外務次官	-11.5343
樋口	-11.5343
西武ドーム	-11.5344
6.0%	-11.5344
出血	-11.5345
転売	-11.5349
ひろゆき	-11.535
無償化	-11.5351
教団	-11.5354
私的	-11.5354
フィット	-11.5356
米国務省	-11.5363
欧州委員会	-11.5365
を派遣する	-11.5365
兵庫県警	-11.5366
人が出席	-11.5366
見守っ	-11.5367
一挙	-11.537
惑	-11.5372
くりだし	-11.5374
j	-11.5374
耐久財	-11.5374
大砂嵐	-11.5374
インタファクス通信	-11.5374
メートルバタフライ	-11.5374
分かって	-11.5374
▁(4−5)	-11.5374
JAXA	-11.5374
ソフトボール	-11.5375
追加金融緩和	-11.5378
f	-11.5379
管理体制	-11.5381
始動	-11.5381
で臨む	-11.5386
低価格	-11.5396
捕鯨	-11.5398
都構想	-11.5398
ウィー	-11.5399
履	-11.5402
番遊撃で出場し	-11.5405
貴重な	-11.5405
スロベニア	-11.5405
と言明	-11.5405
雑誌	-11.5406
をもって	-11.5406
放射能汚染水	-11.5407
使命	-11.5409
下ろ	-11.541
盗んだ	-11.541
二郎	-11.5415
借り入れ	-11.5421
殺人未遂	-11.5421
小さく	-11.5421
ファイル	-11.5422
柳田	-11.5435
最年少	-11.5436
枝野幸男	-11.5436
奈良くるみ	-11.5437
沸	-11.5437
苗	-11.5437
罪などに問われ	-11.5437
実効性	-11.5437
扇	-11.5437
控訴審	-11.5438
投資ファンド	-11.5441
さいとう	-11.5442
男女とも	-11.5455
早川	-11.5461
役場	-11.5464
渋	-11.5466
ビットコイン	-11.5468
媒	-11.5468
との声が聞かれた	-11.5468
コナミ	-11.5468
幾	-11.5468
防空識別圏	-11.5468
働き方改革	-11.5468
を襲った	-11.5469
8.8%	-11.5469
を誇る	-11.547
子供たち	-11.5471
ゴム	-11.5473
接戦	-11.5477
錦織	-11.5477
日米首脳会談	-11.5483
警戒が必要	-11.5489
人質事件	-11.5493
江東区	-11.5496
研究グループ	-11.5497
は不明だが	-11.5497
政治団体	-11.5499
萌	-11.55
キロ超級	-11.55
被害に遭った	-11.55
▁(8−6)	-11.55
高梨沙羅	-11.55
に反し	-11.5501
尋ね	-11.5501
スコット	-11.5501
7.6%	-11.5501
漏らした	-11.5501
季連続	-11.5502
と陳謝した	-11.5503
グラウンド	-11.5507
ユン	-11.5507
飛行機	-11.5515
連打	-11.5519
出場枠	-11.5519
を希望する	-11.5524
クロス	-11.5527
上回り	-11.5529
安倍政権の経済政策	-11.5532
乾燥	-11.5532
コンビニエンスストア	-11.5532
梁	-11.5532
メッセンジャー	-11.5532
鉱工業生産	-11.5532
禁輸	-11.5532
難色を示し	-11.5532
大気汚染	-11.5533
哲郎	-11.5534
の継投で	-11.5534
メモリー	-11.5535
従来予想	-11.5537
補強	-11.5542
焼け	-11.5542
さくら	-11.5543
新築	-11.5543
意志	-11.5543
結んだ	-11.5545
花火	-11.5546
輸入制限	-11.5546
職業	-11.5549
頭取	-11.5552
解決策	-11.5553
添田	-11.5555
首席交渉官	-11.5563
墨	-11.5564
不信感	-11.5564
入所者	-11.5564
偶	-11.5564
季節調整値	-11.5564
やむを得ない	-11.5564
聞こえ	-11.5564
増収増益	-11.5564
▁(2−6)	-11.5564
沖縄防衛局	-11.5564
マーリンズのイチローは	-11.5564
許されない	-11.5565
オンライン	-11.5565
ロシア側	-11.5566
藤浪	-11.5566
シアトル時事	-11.5568
やまもと	-11.5568
を注視し	-11.5568
勉強	-11.5571
恐れがあり	-11.5572
合格者	-11.5574
ワゴン車	-11.5585
三菱重工	-11.5594
倫	-11.5594
全仏オープン	-11.5595
麗	-11.5595
収拾	-11.5596
致傷	-11.5596
連結純利益	-11.5597
2−4	-11.5599
円台後半	-11.5601
よね	-11.5604
志賀	-11.5604
に抗議し	-11.5606
新聞社	-11.5609
戻って	-11.5612
治安当局	-11.5613
に押され	-11.5614
直球	-11.5614
位に後退	-11.5615
牧田	-11.5616
マイル	-11.5618
死体遺棄	-11.5618
経済連携協定	-11.5627
綿	-11.5628
常任理事国	-11.5628
アスレチックスの松井は	-11.5628
▁捜査本部によると	-11.5628
もらいたい	-11.5628
福島県いわき市	-11.5629
聞き取り調査	-11.563
備	-11.5635
週内に	-11.5639
自動車部品	-11.564
取り下げ	-11.564
終値は前日比	-11.5642
を評価し	-11.5645
政策金利	-11.565
を得られる	-11.565
抑止	-11.5651
制裁強化	-11.5651
小倉	-11.5653
発熱	-11.5653
ブレーク	-11.5659
石巻市	-11.5659
民営化	-11.566
豊洲市場	-11.566
極めて遺憾	-11.566
加計学園	-11.566
▁(5−6)	-11.566
二酸化炭素	-11.566
延長十二回	-11.566
淵	-11.566
大丈夫	-11.566
新入幕	-11.566
に期待を示した	-11.566
とはいえ	-11.5662
ユニホーム	-11.5662
シリア内戦	-11.5664
反日デモ	-11.5666
引き揚げ	-11.5672
地図	-11.5673
地元自治体	-11.5674
昨	-11.5675
公正な	-11.5675
シリア情勢	-11.5678
物価目標	-11.5683
を新設する	-11.5685
死傷	-11.5687
南東部	-11.569
市教育委員会	-11.569
なでしこ	-11.5691
扉	-11.5692
ショッピング	-11.5692
坑	-11.5692
朱	-11.5692
メートル以上の暴風域	-11.5692
不戦勝	-11.5692
敗に後退	-11.5692
▁(7−6)	-11.5693
殴った	-11.5694
ゆかり	-11.5694
電力需給	-11.5695
売れ	-11.5695
旭天鵬	-11.5695
寒気	-11.5696
医療機器	-11.5697
駐在	-11.5699
下院議員	-11.57
ミング	-11.5704
貸出	-11.5706
報道機関	-11.5712
失点と好投	-11.5712
姿勢を示す	-11.5717
会話	-11.5718
見極め	-11.572
稿	-11.5724
ハンガリー	-11.5724
怖	-11.5724
注意喚起	-11.5724
獣	-11.5724
オウム真理教	-11.5724
バレンティン	-11.5724
無駄	-11.5725
クルド人	-11.5725
起こさ	-11.5726
之助	-11.5729
▁菅直人首相は	-11.5734
を利用し	-11.5736
米経済指標	-11.5738
に乗った	-11.5742
テント	-11.5745
に置かれ	-11.5747
まだまだ	-11.5747
公民	-11.5751
ヨー	-11.5753
脈	-11.5756
メルケル首相	-11.5756
キャッチボール	-11.5757
胡錦濤	-11.5757
打撲	-11.5757
板門店	-11.5757
中間貯蔵施設	-11.5757
レギュラーシーズン	-11.5757
海賊	-11.5757
命じた	-11.5757
左膝	-11.5758
労働力	-11.5759
もらう	-11.5761
基本合意	-11.5762
探査	-11.5763
健康被害	-11.5763
仮処分	-11.5766
初白星	-11.5771
に就く	-11.5774
気圧	-11.5775
格好	-11.5776
領土問題	-11.5778
探査機	-11.5784
災	-11.5786
ウラン濃縮	-11.5789
魔	-11.5789
及ばず	-11.5789
債務超過	-11.579
を抜いて	-11.5791
ショップ	-11.5791
財布	-11.5792
0〜70	-11.5792
連帯	-11.5796
医学部	-11.5797
不能	-11.5798
種目別	-11.5799
に向けた取り組み	-11.5801
やり方	-11.5802
炎上	-11.5803
水域	-11.5806
に乗って	-11.5808
遅い	-11.5809
留学生	-11.5816
申し込み	-11.5822
隅	-11.5822
賓	-11.5822
舛添氏	-11.5822
中央情報局	-11.5822
浪江町	-11.5822
国家安全保障会議	-11.5822
泣	-11.5822
カンファレンス	-11.5822
涌井	-11.5823
を進めてきた	-11.5829
茂木	-11.5832
関東地方	-11.5835
強要	-11.5836
違憲状態	-11.5838
0.0%	-11.5841
杉山	-11.5846
フーズ	-11.5847
低金利	-11.5849
で記者団の質問に答えた	-11.5852
安打に抑え	-11.5853
翻	-11.5855
▁(5−5)	-11.5855
有価証券	-11.5855
国連平和維持活動	-11.5855
トリプル	-11.5855
今のところ	-11.5856
丹羽	-11.5856
近所の	-11.5856
信託銀行	-11.5857
広がった	-11.5858
恒久	-11.586
早々	-11.5862
ブッシュ	-11.5863
窃盗容疑で	-11.5868
殺人未遂容疑で	-11.587
体育館で行われ	-11.587
伝えている	-11.5873
被害額	-11.5877
意見書	-11.5879
に来て	-11.588
見えない	-11.5882
戦術	-11.5884
是	-11.5885
ハリケーン	-11.5888
x	-11.5888
に万全を期す	-11.5888
主導権を握	-11.5888
政治資金規正法	-11.5888
チーフ	-11.5888
経済財政担当相	-11.5888
浜岡原発	-11.5888
年度税制改正	-11.5888
敗目を喫した	-11.5889
米女子ゴルフの	-11.5889
摂取	-11.5889
au	-11.589
暴動	-11.5891
メルボルン時事	-11.5894
5−7	-11.5894
高止まり	-11.5896
悪質な	-11.5901
総当たり	-11.5901
特別委	-11.5902
▁内閣府は	-11.5903
進めており	-11.5904
NZ	-11.5904
を整備する	-11.591
護衛艦	-11.5921
曹	-11.5921
洞	-11.5921
の平和と安定	-11.5921
豚肉	-11.5921
匿名	-11.5922
海江田氏	-11.5922
強く反発	-11.5923
保護主義	-11.5925
TBS	-11.5925
期待されている	-11.5931
自民党総裁	-11.5942
大名誉教授	-11.5944
浜松市	-11.5945
下請け	-11.5954
STAP	-11.5954
東京消防庁	-11.5954
ヒューストン	-11.5954
鐘	-11.5954
石川佳純	-11.5954
錯	-11.5954
大陸間弾道ミサイル	-11.5954
竹内択	-11.5954
構図	-11.5954
終始	-11.5955
足りない	-11.5955
7.1%	-11.5955
保育園	-11.5956
飯塚	-11.5956
有力候補	-11.5964
調理	-11.5966
読み上げ	-11.597
文氏	-11.5973
迅速な	-11.5976
言えない	-11.598
厳正に対処する	-11.5987
シャラポワ	-11.5987
穀	-11.5987
袖	-11.5987
が殺害された事件で	-11.5987
リーダーシップ	-11.5987
▁(5−1)	-11.5988
を見込んでいる	-11.5989
ソマリア	-11.5989
経営破綻	-11.599
準決勝進出	-11.5992
が検出され	-11.5993
ふさ	-11.5996
第一生命	-11.5999
場所連続	-11.6001
見つかり	-11.6002
次予選	-11.6004
進入	-11.6007
遅らせ	-11.6008
メルボルン	-11.6014
を込めた	-11.6019
錠	-11.602
コーヒー	-11.602
メートル背泳ぎ	-11.602
玄海原発	-11.602
タービン建屋	-11.602
夕食会	-11.602
に導いた	-11.6021
割り当て	-11.6021
と意気込みを語	-11.6023
位に上がった	-11.6024
抜本的な	-11.6027
基本給	-11.6027
書面	-11.6039
短期間	-11.6042
人気を集め	-11.6042
輸入額	-11.6045
再任	-11.6048
抗議デモ	-11.6051
兆円規模	-11.6053
新華社電によると	-11.6054
女子ゴルフの最新世界ランキングが	-11.6054
証人喚問	-11.6054
胴	-11.6054
マリナーズの岩隈は	-11.6054
メカニズム	-11.6054
ストックホルム	-11.6054
ノウハウ	-11.6054
句	-11.6054
に就き	-11.6054
試合に登板し	-11.6054
ダイエー	-11.6055
フジテレビ	-11.6059
を主導した	-11.6059
座席	-11.6061
が求められる	-11.6065
最終報告	-11.6066
今後の対応	-11.6071
外遊	-11.6074
を懸念し	-11.6078
on	-11.608
いわき市	-11.6083
が好調で	-11.6084
診	-11.6085
上手投げ	-11.6087
石原伸晃	-11.6087
バーレーン	-11.6087
→	-11.6087
めぐみ	-11.6087
チェルシー	-11.6087
ライトフライ級	-11.6088
建て替え	-11.6088
鳥インフルエンザ	-11.6088
債務上限	-11.609
告げ	-11.609
右肩	-11.6091
前年実績	-11.6093
実情	-11.6093
相次ぎ	-11.6097
除名	-11.6098
メーン	-11.61
山岳	-11.6104
殖	-11.612
金額は推定	-11.6121
靴	-11.6121
国際親善試合	-11.6121
多様な	-11.6121
急きょ	-11.6121
旧日本軍	-11.6121
は避けられない	-11.6121
迷惑を掛け	-11.6122
動揺	-11.6122
憲法解釈	-11.6122
追放	-11.6124
景気動向	-11.6125
緊張緩和	-11.6125
通勤	-11.6127
誠意	-11.6129
件あった	-11.6132
雇用情勢	-11.6134
との見方もある	-11.6135
連邦準備制度理事会	-11.6143
ランで先制	-11.6149
勝目を挙げ	-11.6153
に位置する	-11.6153
徳洲会	-11.6155
靱帯	-11.6155
深くおわびする	-11.6155
窮	-11.6155
ヒュー	-11.6155
収録	-11.6155
インターネット交流サイト	-11.6156
愛称	-11.6158
地方公務員	-11.6159
家裁	-11.6161
抱え	-11.6161
抑止力	-11.6164
に引き上げた	-11.6164
為替相場	-11.6164
世界王者	-11.6174
コメントを発表	-11.6178
を開発した	-11.6183
下がる	-11.6184
△	-11.6189
アイドルグループ	-11.6189
◎	-11.6189
諦め	-11.6189
▁(3−6)	-11.619
8.2%	-11.619
暴投	-11.6191
敵対	-11.6192
装着	-11.6193
浄化	-11.6196
若松	-11.6197
万全の	-11.621
被告側	-11.6218
起動	-11.6218
を条件に	-11.622
連邦捜査	-11.6221
債務不履行	-11.6223
吉田麻也	-11.6223
才	-11.6223
胆	-11.6223
小保方氏	-11.6223
と言える	-11.6223
琴勇輝	-11.6223
関西電力大飯原発	-11.6223
調停	-11.6223
巻き返し	-11.6224
宝塚	-11.6225
の南海上	-11.6225
突風	-11.6226
文部科学相	-11.6227
東京都江東区	-11.6227
訪日客	-11.6227
合理的	-11.6228
同機は	-11.6231
に入っている	-11.6232
新規制基準	-11.6233
必要があると判断した	-11.6235
8−1	-11.6238
盛り上げ	-11.6245
感染症	-11.6252
照会	-11.6254
酒気帯び	-11.6257
に先立つ	-11.6257
レンジャーズのダルビッシュは	-11.6257
鬼	-11.6257
トランプ米政権	-11.6257
に役立つ	-11.6257
枝野幸男経済産業相	-11.6257
IBF	-11.6257
幹事長代行	-11.6259
飛散	-11.6259
及び	-11.626
探知	-11.6262
給食	-11.6264
▁文部科学省は	-11.6265
番付	-11.627
進路	-11.6277
邦銀	-11.6277
リュー	-11.6283
覇者	-11.6286
暮	-11.6287
茨	-11.629
徐	-11.629
マニュアル	-11.6291
隙	-11.6291
WBO	-11.6291
勝ちっ放し	-11.6291
詳しく調べる	-11.6292
8.6%	-11.6292
8.7%	-11.6292
強く非難	-11.6294
故意	-11.6294
感想	-11.6295
冨田	-11.6295
歴史認識	-11.6296
施工	-11.6296
の一角	-11.6296
岸田氏は	-11.6299
戦の七回に	-11.63
重症	-11.6303
身元確認	-11.6304
位から出た	-11.6309
都知事	-11.6318
男子ダブルス	-11.6322
塊	-11.6325
榊	-11.6325
ケリー米国務長官	-11.6326
損失隠し	-11.6326
日本野球機構	-11.6326
を放つなど	-11.6326
フェンス	-11.6326
銅メダルを獲得した	-11.6326
クレーン	-11.6326
圧力容器	-11.6326
行方を追っている	-11.6327
を振る	-11.6331
出廷	-11.6331
にすぎない	-11.6338
時事通信社	-11.6347
を無視し	-11.6348
メダル獲得	-11.6349
メディアが報じた	-11.6354
麻生氏	-11.6357
概	-11.6359
ビンラディン容疑者	-11.636
アーセナル	-11.636
全柔連	-11.636
つなぐ	-11.636
スポーツ用多目的車	-11.636
偵察	-11.636
を挟んで	-11.636
を満たす	-11.636
麻生太郎財務相	-11.636
佐藤雄平	-11.636
を加える	-11.6361
次大戦	-11.6361
ってくれ	-11.6362
在住	-11.6362
保健機関	-11.6365
の左前打で	-11.6366
飛来	-11.6369
政令	-11.6371
タウン	-11.6373
はずだ	-11.6382
国営テレビ	-11.6383
が届い	-11.6392
届かなかった	-11.6395
神戸製鋼	-11.6395
▁隆の山	-11.6395
幣	-11.6395
枢	-11.6395
を持たせ	-11.6395
狩	-11.6395
を除いて	-11.6395
フィールド	-11.6395
綬	-11.6395
無安打無失点	-11.6395
ベースアップ	-11.6396
取り出し	-11.6396
小麦	-11.6396
殴られ	-11.6396
国連安保理決議	-11.6398
残業代	-11.6399
自治政府	-11.6401
配送	-11.6401
が予想され	-11.6401
襲撃事件	-11.6401
適当	-11.6401
を優先し	-11.6402
調査捕鯨	-11.6403
を投入し	-11.6404
ある程度	-11.6405
全国の警察	-11.6407
持ち越し	-11.6411
臭	-11.6429
米通商代表部	-11.6429
築地市場	-11.6429
リベリア	-11.6429
選挙管理委員会	-11.6429
ふさわしい	-11.6429
ロペス	-11.6429
宣誓	-11.643
を口にした	-11.643
凶器	-11.643
両編成	-11.643
筒香	-11.6431
電子部品	-11.6434
福岡県警	-11.644
出場機会	-11.6441
釜山	-11.6441
苦しみ	-11.6442
が含まれる	-11.6442
政権下で	-11.6443
出迎え	-11.6443
を禁止する	-11.6446
どのように	-11.6447
膝	-11.6462
ナスダック	-11.6464
利便性	-11.6464
ウルグアイ	-11.6464
▁(1−5)	-11.6464
EEZ	-11.6464
モスル	-11.6464
揺さぶ	-11.6464
の顔合わせ	-11.6464
保釈	-11.6465
三菱重工業	-11.6466
9.5%	-11.6466
計画を策定	-11.6466
栗	-11.6467
につなげたい	-11.6469
直撃	-11.6469
0−6	-11.6472
もありそうだ	-11.6476
ことなく	-11.6477
税調	-11.6478
借	-11.648
複	-11.6491
豪風	-11.6498
有効求人倍率	-11.6499
イージス艦	-11.6499
威嚇	-11.6499
粗	-11.6499
甚大な被害	-11.6499
踏切	-11.65
救援陣が	-11.65
知的財産権	-11.65
再発防止に努める	-11.65
9.1%	-11.65
四半期連続	-11.6504
会期末	-11.6506
銀河	-11.6508
あげ	-11.6511
重傷を負わせ	-11.6514
天理	-11.652
を通して	-11.6524
影響はない	-11.6529
ディング	-11.6532
扶	-11.6534
エンブレム	-11.6534
旭化成	-11.6534
米大リーグのオープン戦は	-11.6534
国税庁	-11.6534
を下回り	-11.6534
破裂	-11.6535
乗客乗員	-11.6535
が強まっ	-11.6537
最大震度	-11.6538
円台前半	-11.654
ことも明らかにした	-11.6541
今冬	-11.6543
もともと	-11.6545
一審判決	-11.6553
松山英樹	-11.6564
が加速し	-11.6568
堤	-11.6569
慰	-11.6569
内務省	-11.6569
蘭	-11.6569
ストレステスト	-11.657
通算成績は	-11.657
夏季	-11.6572
自爆	-11.6572
東京都世田谷区	-11.6572
四国電力	-11.6577
専門学校	-11.6577
見送る	-11.6585
ウィリアム	-11.6602
アイパッド	-11.6605
天安門	-11.6605
ムーディーズ	-11.6605
故障者リスト	-11.6605
にかかわらず	-11.6605
バリ島	-11.6605
洗浄	-11.6605
八幡	-11.6605
8.3%	-11.6606
にさらされ	-11.6606
注射	-11.6606
ステップ	-11.6607
郵政	-11.6607
交流サイト	-11.6611
変化球	-11.6612
を表す	-11.6614
止	-11.6626
摂	-11.6639
宰	-11.664
年夏季五輪	-11.664
浅田真央	-11.664
に絡む	-11.664
広瀬直己	-11.664
仕留め	-11.664
帝京大	-11.664
総務省消防庁	-11.664
郭	-11.664
日のニューヨーク株式市場は	-11.664
年度補正予算案	-11.664
ODA	-11.6641
幅広い銘柄	-11.6641
投資信託	-11.6642
哲也	-11.6643
を拠点に	-11.6661
大型連休	-11.6662
刑事責任	-11.6668
却	-11.667
スカイマーク	-11.6676
玲	-11.6676
ダイヤモンド	-11.6676
食中毒	-11.6676
派閥	-11.6676
消極的	-11.6677
訪韓	-11.6677
9.6%	-11.6677
ダイハツ工業	-11.6677
伝わっ	-11.6679
こういち	-11.6701
単独首位	-11.6704
▁3.00	-11.6706
腐	-11.6708
LED	-11.6711
合理化	-11.6711
ダルビッシュ有投手	-11.6711
ロイヤルズの青木は	-11.6711
こばやし	-11.6711
文在寅	-11.6712
訓	-11.6712
突っ込んだ	-11.6712
9.2%	-11.6713
警護	-11.6714
責務	-11.6714
各省庁	-11.6716
強硬姿勢	-11.6727
つもりはない	-11.673
外需	-11.6734
を狙って	-11.6736
ってしまった	-11.6739
肌	-11.6747
をにじませた	-11.6747
盗まれた	-11.6749
と予想され	-11.6749
▁日本中央競馬会は	-11.675
仕分け	-11.6751
に移し	-11.6752
補選	-11.6753
監視委	-11.676
納め	-11.676
立憲民主党	-11.6762
をだまし取ったとして	-11.6763
事故を起こし	-11.6769
に巻き込まれた	-11.677
テレビ番組	-11.6773
ピッチ	-11.678
軒	-11.6783
旋	-11.6783
有志連合	-11.6783
釧路	-11.6783
満塁本塁打	-11.6783
恐竜	-11.6784
応答	-11.6784
人民日報	-11.6785
恩恵	-11.6785
賞金ランキング	-11.6785
苦情	-11.6785
ブラウン	-11.6785
もう少し	-11.6785
となれば	-11.6785
クリーン	-11.6787
面識	-11.6788
御所	-11.6793
を促進する	-11.6794
が見込まれ	-11.6806
領域	-11.6808
高まっている	-11.6812
ェ	-11.6815
議決権	-11.6817
ロイター	-11.6818
ナチス	-11.6819
を名乗る	-11.6819
樫	-11.682
騎乗	-11.682
最高峰	-11.6822
右腕	-11.6823
リスク回避	-11.6825
造反	-11.6829
を取り戻し	-11.6831
開城	-11.6832
を管理する	-11.6835
準々決勝が行われ	-11.6837
が含まれている	-11.6837
究明	-11.6838
が制した	-11.6846
スティーブ	-11.6856
浙江省	-11.6856
錦	-11.6856
を繰り広げ	-11.6856
8.9%	-11.6857
デンソー	-11.6857
先輩	-11.6858
と予想している	-11.6858
由紀	-11.6859
微博	-11.686
中央日報	-11.6861
が背景にある	-11.6862
低かった	-11.6862
親善	-11.6862
権益	-11.6866
殺処分	-11.6867
人以上が死亡	-11.6878
レギュラー	-11.6892
製作所	-11.6892
餌	-11.6892
新日鉄住金	-11.6892
久光製薬	-11.6892
酒井高徳	-11.6892
牡	-11.6892
俗	-11.6892
土がついた	-11.6892
大熊町	-11.6892
年物国債	-11.6892
8.4%	-11.6893
動物園	-11.6894
厳正に	-11.6894
漁協	-11.6895
慎重論	-11.6895
月内にも	-11.6896
却下	-11.6896
撃ち	-11.6896
八王子	-11.6897
どの程度	-11.6897
奪取	-11.6897
慎重な姿勢	-11.6897
減免	-11.6898
留任	-11.6898
経理	-11.6901
に反映させる	-11.6903
を求めていく	-11.6914
官僚	-11.6916
救急車	-11.6923
悼	-11.6928
出番はなかった	-11.6928
を取り戻す	-11.6929
熙	-11.6929
敗を堅持	-11.6929
ごうかん	-11.6929
7.9%	-11.693
スタ宮城	-11.6932
器具	-11.6933
を失い	-11.6934
糸井	-11.6934
戦にフル出場し	-11.6939
死体遺棄容疑で	-11.6939
お互い	-11.6941
債権者	-11.6946
を率い	-11.6952
撮	-11.6965
テープ	-11.6965
ジャマイカ	-11.6965
威力業務妨害	-11.6965
レバノン	-11.6965
懲戒免職	-11.6965
絆	-11.6965
かばん	-11.6965
魂	-11.6965
ローマ法王	-11.6965
窓ガラス	-11.6965
灯油	-11.6967
初優勝を果たした	-11.6967
水産庁	-11.6968
調印	-11.6969
小惑星	-11.6969
信用不安	-11.697
業務提携	-11.697
を家宅捜索した	-11.6988
を警戒し	-11.6998
躍	-11.7
埼	-11.7001
磯	-11.7002
厳重注意	-11.7002
*	-11.7002
稲田朋美	-11.7002
頑張る	-11.7002
テクノロジー	-11.7002
碁	-11.7002
携帯端末	-11.7003
を目的とした	-11.7003
清掃	-11.7003
措置を講じる	-11.7004
広報担当者	-11.7004
降雨	-11.7005
ガス料金	-11.701
引き上げられ	-11.701
を歓迎する	-11.7011
相撲協会	-11.7012
を固めた	-11.7021
律	-11.7028
任期満了	-11.7038
集団的自衛権	-11.7039
ソユーズ	-11.7039
意識不明の重体	-11.7039
田中将大投手	-11.7039
翁長氏	-11.7039
任天堂	-11.7039
▁(4−7)	-11.7039
▁磋牙司	-11.7039
貼	-11.7039
娯楽	-11.7039
格安航空会社	-11.7039
雇用創出	-11.7039
少子化	-11.7039
を亡くした	-11.7039
関係者への取材で	-11.704
できなくなる	-11.704
殺害した疑い	-11.7041
▁(4−1)	-11.7041
録画	-11.7049
判事	-11.706
可能性を示唆した	-11.7061
掛かり	-11.7072
慰謝料	-11.7076
▁(3−7)	-11.7076
常幸龍	-11.7076
賃貸	-11.7076
に気付いた	-11.7076
世界ボクシング評議会	-11.7076
を共有し	-11.7076
統制	-11.7078
決勝トーナメント進出	-11.7078
と語る	-11.708
を知って	-11.7081
地裁に起こした	-11.7081
財源確保	-11.7082
載せ	-11.7091
歴代最多	-11.7098
齢	-11.711
特別措置法	-11.7112
コントロール	-11.7113
殻	-11.7113
米科学誌	-11.7113
粘り強く	-11.7114
▁(4−6)	-11.7114
夏休み	-11.7115
オリオールズ戦に	-11.7115
昼食	-11.7115
を喫し	-11.7115
畜産	-11.7121
の民家で	-11.7131
▁総務省が	-11.7131
仲井真弘多知事	-11.7135
に署名した	-11.7135
合同捜査本部	-11.7143
勉強会	-11.7144
ホワイト	-11.715
てこ入れ	-11.715
楽しめる	-11.715
シンポジウム	-11.715
カ月連続のプラス	-11.715
宮里藍	-11.7152
もう一度	-11.7152
秋季	-11.7153
意見集約	-11.7155
にくく	-11.7156
出展	-11.7174
は同日の記者会見で	-11.7175
破砕帯	-11.7188
コミッショナー	-11.7188
離党届を提出	-11.7188
経常収支	-11.7188
守備には就か	-11.7188
厳しさ	-11.7188
物理学	-11.7188
盾	-11.7188
日の定例記者会見で	-11.7188
先島諸島	-11.7188
鳩山氏	-11.7188
あつし	-11.7188
強制わいせつ	-11.7189
市内のホテルで	-11.719
言われ	-11.7191
献	-11.7194
稲田氏	-11.7195
公選法	-11.7195
運んだ	-11.7196
片岡	-11.7197
代理店	-11.7199
を建設する	-11.7201
権を行使	-11.7205
関係者が明らかにした	-11.7206
明らかになっ	-11.7209
持ち込み	-11.7212
打ち切り	-11.7223
東京メトロ	-11.7225
IBM	-11.7225
関学大	-11.7225
恨	-11.7225
v	-11.7225
ぎりぎり	-11.7225
伊豆諸島	-11.7225
スノーボード	-11.7225
紫	-11.7226
番勝負第	-11.7226
度を観測	-11.7229
階段	-11.7231
広範囲	-11.7233
捻出	-11.7239
7−3	-11.7245
を結んで	-11.7254
銘	-11.7263
どれだけ	-11.7263
ポケモン	-11.7263
▁千代の国	-11.7263
分から出場した	-11.7263
ふるさと	-11.7263
ブリヂストン	-11.7263
筆頭株主	-11.7264
▁(7−5)	-11.7264
9.3%	-11.7265
仕様	-11.7265
阪神大震災	-11.7265
を国土交通省に届け出	-11.7265
箱根	-11.7266
単純	-11.7267
市西区	-11.7273
罪に問われ	-11.7274
つながる	-11.7276
に追われ	-11.7279
と衝突し	-11.7289
に加わ	-11.7293
サンパウロ	-11.7295
串	-11.7301
苑	-11.7301
オークランド	-11.7301
男子ゴルフの最新世界ランキングが	-11.7301
BMW	-11.7301
ASKA	-11.7301
姓	-11.7301
遥	-11.7301
こども	-11.7301
ゼネラルマネジャー	-11.7301
帝拳	-11.7301
緊密に連携し	-11.7302
アラブ連盟	-11.7303
融和	-11.7304
ハッカー	-11.7305
桐生	-11.7305
見送った	-11.7308
廃案	-11.731
学校側	-11.732
見合わせ	-11.7321
トリノ	-11.7324
積み重ね	-11.7329
緊	-11.7335
序	-11.7339
実業家	-11.7339
小田孔明	-11.7339
森田理香子	-11.7339
椎	-11.7339
酸素	-11.7341
不安定化	-11.7356
も辞さない	-11.7361
宋	-11.7377
ホノルル	-11.7377
豊富な	-11.7377
米紙ニューヨーク	-11.7377
南海トラフ	-11.7377
ヤンキースの田中は	-11.7377
地方交付税	-11.7377
降雪量	-11.7377
確かめ	-11.7378
受け皿	-11.7378
に気付き	-11.7378
来場者	-11.7378
9.9%	-11.7379
ノーベル賞	-11.7379
失速	-11.7383
第三者委	-11.7389
潟	-11.7408
アスレチックス戦に	-11.741
を希望し	-11.7412
日本中央競馬会	-11.7413
レーバークーゼン	-11.7415
ニュルンベルク	-11.7415
緊縮財政	-11.7415
酒井宏樹	-11.7415
晋	-11.7415
人が重軽傷を負った	-11.7415
哨	-11.7415
会長兼社長	-11.7416
ちょっと	-11.7416
俣	-11.7416
延坪島	-11.7416
売れ行き	-11.7416
9.4%	-11.7417
▁日本サッカー協会は	-11.7418
開拓	-11.7418
ロケット弾	-11.7419
祝福	-11.7419
失格	-11.7422
が得られる	-11.7445
遊び	-11.7453
ADB	-11.7454
繊維	-11.7454
銀行系証券	-11.7454
沈静化	-11.7454
セミナー	-11.7454
近づく	-11.7454
恥	-11.7454
ありがとう	-11.7454
繁殖	-11.7454
種平均は前週末終値比	-11.7454
を嫌気し	-11.7454
種平均が	-11.7454
投資家心理	-11.7455
▁資源エネルギー庁が	-11.7455
使え	-11.7465
,000	-11.7477
で個人第	-11.7483
ていかなければならない	-11.7484
を築い	-11.7489
が設置され	-11.749
スカート	-11.7492
長引く	-11.7492
あっせん	-11.7493
ハーフナー	-11.7493
あってはならない	-11.7493
勾留	-11.7493
掛かる	-11.7493
家賃	-11.7494
イチロー外野手	-11.7494
民主化運動	-11.7495
重複	-11.7495
栗東	-11.7497
正常な	-11.7498
が関与した	-11.7505
削	-11.7512
を残す	-11.7516
規格	-11.7521
被ばく量	-11.7524
回選抜高校野球大会	-11.7531
シンクタンク	-11.7531
時価総額	-11.7531
東京都文京区	-11.7531
抜本改革	-11.7531
若年層	-11.7531
商店街	-11.7531
爆撃機	-11.7531
敦賀	-11.7532
決まっていない	-11.7533
分かっている	-11.7534
を負う	-11.7535
データ改ざん	-11.7536
判決を言い渡	-11.7544
溶け	-11.7551
議席を獲得	-11.7552
ストレート勝ち	-11.7557
いろいろ	-11.7559
喪	-11.7569
虚	-11.757
消息筋	-11.757
谷原秀人	-11.757
プルトニウム	-11.757
霧	-11.757
モニタリング	-11.757
副報道局長は	-11.757
意思疎通	-11.757
症候群	-11.757
敢	-11.757
平方キロ	-11.757
長距離弾道ミサイル発射	-11.7571
9.0%	-11.7572
8.1%	-11.7572
9.8%	-11.7572
遂行	-11.7572
8.0%	-11.7572
単価	-11.7573
帯広	-11.7576
公的資金	-11.7586
支局	-11.7591
臣	-11.7597
かかって	-11.7604
栃	-11.7607
サヨナラ	-11.7608
証券取引所の出来高は前週末比	-11.7609
ブルガリア	-11.7609
陽性反応	-11.7609
CSKA	-11.7609
▁(7−4)	-11.7609
郁	-11.7609
図書館	-11.7609
猛烈な	-11.7609
舟	-11.7609
皇后さま	-11.7609
功績	-11.7609
集団的自衛権行使	-11.761
信託	-11.7611
希望の党	-11.7611
中国の習近平国家主席	-11.7612
コーナー	-11.7613
薬剤	-11.7614
定数削減	-11.7614
軽乗用車	-11.7615
折れ	-11.762
敗の勝ち点	-11.762
を発足させ	-11.7624
安保理決議	-11.7625
描かれ	-11.7632
を懸けて	-11.7639
凍	-11.7645
骸	-11.7648
AIIB	-11.7648
長時間労働	-11.7648
パチンコ	-11.7649
涼	-11.7649
飯舘村	-11.7649
代表選考会	-11.7649
据え置く	-11.7649
冥	-11.7649
宮古島	-11.7649
はやぶさ	-11.7649
リットル当たりの店頭価格	-11.7649
箇所	-11.7649
安住淳財務相	-11.7649
▁円は対ユーロでも	-11.7649
ダブルボギーの	-11.765
動脈	-11.765
清算	-11.7652
第三者機関	-11.7652
▁県によると	-11.7653
大筋で	-11.7654
を尽く	-11.7666
を守った	-11.7678
が敗れ	-11.7683
に乗り出した	-11.7684
で開幕する	-11.7686
小売売上高	-11.7688
ウズベキスタン	-11.7688
バーナンキ	-11.7688
出番がなかった	-11.7688
マキロイ	-11.7688
琉	-11.7688
暮らす	-11.7688
コンテナ	-11.7688
を奪う	-11.7689
関係閣僚会議	-11.7689
▁(1−4)	-11.7689
数値目標	-11.769
書き込んだ	-11.7691
レイズ戦に	-11.7707
に従い	-11.7709
を計画している	-11.771
トロント	-11.7727
幹線道路	-11.7727
株当たり利益	-11.7727
ヴァ	-11.7727
亨	-11.7728
引責辞任	-11.7728
マネジメント	-11.7728
エコカー補助金	-11.7728
武力行使	-11.7728
穴埋め	-11.7728
急騰	-11.7728
絶滅	-11.7729
9.7%	-11.7729
エコカー	-11.7729
背負	-11.7729
収監	-11.7729
季節	-11.773
日の日程で	-11.773
乱調	-11.7734
ワゴン	-11.7741
携	-11.7742
電話番号	-11.7742
に従って	-11.7743
翁長雄志知事	-11.7745
を非難し	-11.7755
を表した	-11.7758
経済の先行き	-11.7763
晶	-11.7767
ロナルド	-11.7767
蔡	-11.7767
ら上位に変動はな	-11.7767
ミニマム級	-11.7767
WTI	-11.7767
疑念	-11.7768
刺殺	-11.7769
カルテル	-11.7769
▁(6−4)	-11.7769
破片	-11.777
を意識し	-11.7775
署への取材で	-11.7785
疑われ	-11.7786
抽出	-11.7787
ステルス	-11.7796
本塁打を放った	-11.7805
キャンセル	-11.7807
輸出関連株	-11.7807
独立行政法人	-11.7807
甚	-11.7807
と意気込んだ	-11.7807
緊密な	-11.7807
鳩	-11.7807
途絶え	-11.7807
常任幹事会	-11.7807
白川方明	-11.7807
耳	-11.7807
を誓った	-11.7807
▁(6−2)	-11.7809
回目の核実験	-11.7809
参画	-11.7809
例えば	-11.781
左腕	-11.781
クリスティ	-11.7811
乳児	-11.7811
経済産業省原子力	-11.7829
に取り組んでいる	-11.7829
に設置した	-11.7835
真剣に	-11.7842
撲滅	-11.7847
コボスタ宮城	-11.7847
行方が分からなくな	-11.7847
湧	-11.7847
米紙ウォール	-11.7847
診察	-11.7847
辱	-11.7847
にも注意が必要	-11.7847
ベネッセ	-11.7847
妊婦	-11.7847
拡張	-11.7848
若干	-11.7848
珍しい	-11.7849
揺	-11.7849
を見いだ	-11.7851
を優先する	-11.7851
返納	-11.7852
で圧勝し	-11.7865
が衝突し	-11.7868
慣れ	-11.7877
を起用する	-11.7877
商務省	-11.7885
たびたび	-11.7887
蚊	-11.7887
廊	-11.7887
降水量	-11.7887
狂	-11.7887
傷害致死	-11.7887
興奮	-11.7888
銀メダルを獲得した	-11.7888
故郷	-11.7889
を懸けた	-11.7889
想像	-11.7889
骨格	-11.7891
エンゼルス戦に	-11.7892
選に出馬	-11.7905
ワイヤ	-11.7913
税制改革	-11.7916
せざるを得ない	-11.7917
ビュー	-11.7926
詞	-11.7927
ノーベル平和賞	-11.7928
垂	-11.7928
カ月連続のマイナス	-11.7928
膨らみ	-11.7928
淡路	-11.7929
祝賀	-11.793
肉牛	-11.793
地中海	-11.7931
最大級の	-11.7938
が低下し	-11.7943
貯	-11.7956
詐取	-11.7958
厚生労働	-11.7961
沖を震源とする地震があ	-11.7963
アウクスブルク	-11.7968
下敷き	-11.7968
大山志保	-11.7968
益城町	-11.7968
アトランタ	-11.7968
垂直離着陸輸送機	-11.7968
事情を聴く	-11.7968
は見つかっていない	-11.7968
NBA	-11.7968
丼	-11.7968
で逆転負けし	-11.7968
蓄積	-11.7969
並行して	-11.7969
を失う	-11.797
小沢一郎	-11.797
▁1,5	-11.7989
を奪われ	-11.7997
怒	-11.8
歓声	-11.8005
輩	-11.8006
エリートアカデミー	-11.8008
男子テニスの最新世界ランキングが	-11.8008
喝	-11.8009
マジック	-11.8009
フェザー級	-11.8009
曇	-11.8009
SMBC	-11.8009
蒼国来	-11.8009
待遇	-11.8009
施錠	-11.8009
混雑	-11.8009
自力で	-11.8009
人材育成	-11.801
免税	-11.8012
を視野に入れ	-11.8012
舗	-11.8047
再審請求	-11.8049
両院議員総会	-11.8049
片山晋呉	-11.8049
▁(7−7)	-11.8049
モロッコ	-11.8049
損失を計上	-11.8049
暴露	-11.805
タイブレーク	-11.8051
関係者の話で	-11.8051
0〜90	-11.8055
を設立し	-11.8063
サッカーのオランダ	-11.8087
ヨネックス	-11.809
ウラジオストク	-11.809
プライバシー	-11.809
佐世保	-11.809
▁(3−8)	-11.809
▁天鎧鵬	-11.809
ギャンブル	-11.809
田中俊一	-11.809
疲労	-11.809
が疑われる	-11.8091
も含まれる	-11.8092
可能性は低い	-11.8093
商標	-11.8093
裁判員裁判	-11.8108
で取引を終えた	-11.8116
に伴って	-11.8122
明徳義塾	-11.8131
槻	-11.8131
米女子ゴルフツアーの	-11.8132
知名度	-11.8132
通関ベース	-11.8132
ジョーンズ	-11.8132
横須賀	-11.8132
立方メートル	-11.8132
ABC	-11.8132
小平奈緒	-11.8132
鼓	-11.8132
を祝う	-11.8132
貸し付け	-11.8132
声が上がっている	-11.8136
を強行した	-11.8164
意気込み	-11.8166
監督を務め	-11.8172
【201	-11.8172
実務者協議	-11.8173
コーポレーション	-11.8173
ネバダ州	-11.8173
植民地	-11.8173
山中伸弥	-11.8173
スタンダード	-11.8173
自民党の谷垣禎一総裁	-11.8173
金融商品取引法	-11.8173
為替レート	-11.8173
剥奪	-11.8173
史上最年少	-11.8174
診療報酬	-11.8174
進んでいない	-11.8175
サンプル	-11.8175
どころ	-11.8175
麻生太郎副総理兼財務相	-11.8175
意向を明らかにした	-11.8194
を緩和する	-11.8212
療	-11.8212
訓示	-11.8212
NBC	-11.8214
ロヒンギャ	-11.8214
実証実験	-11.8214
プエルトリコ	-11.8214
監察官室	-11.8214
セレモニー	-11.8214
宮里優作	-11.8214
鼻	-11.8214
理化学研究所	-11.8214
駐屯地	-11.8214
ャ	-11.8218
は前週と変わらず	-11.8219
鷲	-11.822
ツインズ戦に	-11.8228
05〜0	-11.8243
尽くす	-11.825
渉	-11.8255
法科大学院	-11.8256
望遠鏡	-11.8256
振り込め詐欺	-11.8256
コマツ	-11.8256
杉並区	-11.8256
▁(6−6)	-11.8256
ヒアリング	-11.8256
帆	-11.8256
名指し	-11.8256
en	-11.8257
に取り組んだ	-11.8258
三井住友海上	-11.8258
に至ら	-11.8259
を抑制する	-11.8278
に設置する	-11.8288
容疑で現行犯逮捕	-11.8293
雇	-11.8293
懲	-11.8296
DVD	-11.8298
小平智	-11.8298
田祐一	-11.8298
弓	-11.8298
樽	-11.8298
と抱負を述べた	-11.8298
紘	-11.8298
刈	-11.8298
大胆な	-11.8298
邪	-11.8298
時間雨量は多い所で	-11.8298
姉妹	-11.8298
掃討作戦	-11.8298
突き落とし	-11.8301
じゅんいち	-11.8306
ホワイトソックス戦に	-11.8307
に届け出た	-11.831
と診断され	-11.8311
輸	-11.8316
振り切った	-11.8318
北東へ進	-11.8319
を後押しし	-11.8336
スーダン	-11.8338
征	-11.8339
ペットボトル	-11.834
侍ジャパン	-11.834
わけにはいかない	-11.834
偉大な	-11.834
江蘇省	-11.834
処刑	-11.8341
ファイナルステージ	-11.8341
に分けて	-11.8348
打ち上げられ	-11.8358
午前の終値は	-11.8363
22〜2	-11.8369
を向上させ	-11.837
に接近する	-11.8371
アリゾナ州	-11.8376
マグロ	-11.8382
女子テニスの最新世界ランキングが	-11.8382
度目の優勝を遂げた	-11.8382
バチカン	-11.8382
助手席	-11.8382
高島屋	-11.8382
切符	-11.8382
トランプ次期米大統領	-11.8382
成し遂げ	-11.8382
日発表したレギュラーガソリン	-11.8382
各種目の	-11.8383
自衛官	-11.8384
億円を計上	-11.8385
衣装	-11.8386
公用車	-11.8389
強制起訴	-11.8389
06〜0	-11.8395
安打無失点に抑え	-11.8416
バレエ	-11.8424
稜	-11.8424
ウイルスに感染	-11.8424
or	-11.8424
肝臓	-11.8424
侮辱	-11.8424
サンクトペテルブルク	-11.8424
模様	-11.8425
押し出し四球	-11.8426
を統括する	-11.8427
持ってい	-11.8466
もちろん	-11.8467
伊勢志摩サミット	-11.8467
作新学院	-11.8467
コンクール	-11.8467
獄	-11.8467
速やかな	-11.8467
あらかじめ	-11.8467
紳	-11.8467
エチオピア	-11.8467
伊東大貴	-11.8467
と推定され	-11.8467
起こる	-11.8467
送致	-11.8468
野球賭博	-11.8468
階級制覇	-11.8468
タイガース戦に	-11.8468
吸引	-11.8469
留置	-11.847
が示され	-11.8472
を取りまとめる	-11.8485
刃	-11.8507
工業団地	-11.851
滴	-11.851
アンドロイド	-11.851
福原愛	-11.851
みどり	-11.851
巳	-11.851
盆	-11.851
cc	-11.851
▁(6−7)	-11.8511
職務質問	-11.8511
×|	-11.8512
を非難する	-11.8515
を探し	-11.852
格差是正	-11.8521
を通過する	-11.8537
意向を示している	-11.8551
尋	-11.8551
窒	-11.8552
商工会議所	-11.8553
猪瀬直樹	-11.8553
罷免	-11.8553
街頭演説	-11.8553
閑	-11.8553
矛盾	-11.8553
眞子さま	-11.8553
備蓄	-11.8553
の要請を受け	-11.8553
張成沢	-11.8553
旅券	-11.8553
電話をかけ	-11.8563
見通せ	-11.8566
停	-11.8576
掲	-11.8595
水俣病	-11.8596
が見込める	-11.8596
児童相談所	-11.8596
三菱商事	-11.8596
松野頼久	-11.8596
スタジオ	-11.8596
悲しみ	-11.8596
女川町	-11.8596
四日市	-11.8596
を盗んだとして	-11.8596
アナリスト	-11.8597
グアム移転	-11.8597
駐日大使	-11.8598
を約束した	-11.8603
法案の成立	-11.8604
組み立て	-11.8611
斉	-11.8627
が殺到	-11.8639
海洋監視船	-11.8639
有効回収率は	-11.8639
w	-11.8639
窒息死	-11.8639
ケリー長官	-11.8639
米倉弘昌	-11.8639
エレクトリック	-11.8639
を回避するため	-11.864
隔離	-11.864
残骸	-11.864
▁(1−6)	-11.864
カ月ぶりの高値	-11.864
身柄を拘束	-11.8641
ことが大事だ	-11.8643
を装って	-11.8647
てきている	-11.8647
プレミア	-11.8672
ロイヤル	-11.8679
スマート	-11.8682
キャタピラー	-11.8682
朴仁妃	-11.8682
全容解明	-11.8682
交通の乱れ	-11.8683
と笑顔を見せた	-11.8683
不測の事態	-11.8683
THAAD	-11.8683
南三陸町	-11.8683
りそな	-11.8683
高濃度の	-11.8684
盗聴	-11.8684
還付	-11.8685
に限られ	-11.8712
を了承した	-11.8716
正確に	-11.8718
シアトル	-11.8721
番左翼で	-11.8726
デトロイト	-11.8726
搬送先の病院で	-11.8726
宇佐美	-11.8726
固有の領土	-11.8726
糾	-11.8726
現金自動預払機	-11.8726
一生懸命	-11.8726
きそん	-11.8726
とスコアを伸ばし	-11.8726
人工知能	-11.8726
事情を聴いて	-11.8726
正当化	-11.8726
免疫	-11.8726
虚偽記載	-11.8727
に派遣し	-11.8748
青学大	-11.8752
ゴールを挙げ	-11.876
長距離弾道ミサイル	-11.877
二階俊博	-11.877
水谷隼	-11.877
第三のビール	-11.877
自販連	-11.877
▁土佐豊	-11.877
お客さま	-11.877
けが人はいなかった	-11.877
罪などで起訴	-11.877
クロマグロ	-11.877
搬送先の病院で死亡が確認された	-11.877
ピョンヤン	-11.877
講習	-11.8771
を突き付け	-11.8772
穂積	-11.8772
を共有する	-11.8775
急激に	-11.8779
で開催中の	-11.8791
頻繁に	-11.8805
戦没者	-11.8814
を待たず	-11.8814
宴	-11.8814
局地的に	-11.8814
▁(8−5)	-11.8814
乾貴士	-11.8814
JFE	-11.8814
甘利氏	-11.8814
パシフィック	-11.8814
を尊重する	-11.8815
を組む	-11.8815
いのうえ	-11.8815
ポイント上昇し	-11.8818
を詐取した	-11.8825
利益確定売り	-11.8829
連休明け	-11.8833
市南区	-11.8836
▁1,2	-11.8851
コミュニケーション	-11.8855
奮	-11.8858
拾	-11.8858
ファッション	-11.8858
休憩	-11.8858
バージニア州	-11.8858
▁(2−7)	-11.8858
相沢病院	-11.8858
警察庁のまとめで	-11.8858
人工多能性幹細胞	-11.8858
黒田総裁は	-11.8859
河川敷	-11.8862
を禁じた	-11.8863
ミリと予想され	-11.8867
ァ	-11.8895
梅雨前線	-11.8903
芽	-11.8903
青木宣親外野手	-11.8903
可視化	-11.8903
参事官	-11.8903
原子力規制庁	-11.8903
ヤンゴン	-11.8903
英科学誌ネイチャー	-11.8903
気仙沼	-11.8903
に変わりはない	-11.8903
都道県	-11.8905
を尊重し	-11.8906
を認識し	-11.8909
が残され	-11.8931
象	-11.8942
険	-11.8946
伊藤竜馬	-11.8947
陸前高田市	-11.8947
年末年始	-11.8947
多様化	-11.8947
尹炳世	-11.8947
を差し引いた	-11.8947
殿堂入り	-11.8947
土石流	-11.8947
尹	-11.8947
本業のもうけを示す	-11.8947
在任中	-11.8947
枝野氏	-11.8948
を大きく上回った	-11.8948
カ月ぶりの安値	-11.8948
揺るが	-11.8948
追い付かれたが	-11.8948
を抱い	-11.897
と考えられ	-11.8982
述	-11.8991
スロバキア	-11.8992
懲戒解雇	-11.8992
バグダッド	-11.8992
ウィンドウズ	-11.8992
ストローク	-11.8992
と確信している	-11.8992
くろだ	-11.8992
月の貿易統計	-11.8993
乗り換え	-11.8993
を待つ	-11.8993
容易に	-11.8994
を象徴する	-11.8994
変革	-11.9006
翁長雄志	-11.9017
容疑を否認	-11.9017
畜	-11.9027
8−0	-11.9028
の範囲内	-11.9029
は全国初	-11.9029
蘇	-11.9036
アーリントン時事	-11.9037
清武弘嗣	-11.9037
書き換え	-11.9037
ホッフェンハイム	-11.9037
酵	-11.9037
見つからなかった	-11.9037
アウェー	-11.9037
落ち着いた	-11.9037
必ずしも	-11.9038
靖国神社参拝	-11.9038
歓	-11.9041
に支えられ	-11.9062
の適時打で加点	-11.9071
千代田区	-11.908
童	-11.9082
キャッシュカード	-11.9082
回締約国会議	-11.9082
基礎的財政収支	-11.9082
悦	-11.9082
▁(5−8)	-11.9083
ベルルスコーニ	-11.9083
ノースカロライナ州	-11.9083
屋久島	-11.9083
に沿った	-11.9083
法令順守	-11.9083
執筆	-11.9083
後援会	-11.9084
しんちょ	-11.9094
棋	-11.9126
追い付かれ	-11.9127
ヒラリー	-11.9128
を不服として	-11.9128
気を引き締め	-11.9128
豊田章男	-11.9128
正当性	-11.9128
秋篠宮ご夫妻	-11.9128
稚	-11.9128
標準家庭の	-11.9128
旺	-11.9128
オスロ	-11.9128
常磐	-11.9129
▁(7−3)	-11.9129
崩	-11.9146
も指摘され	-11.9147
領海に侵入	-11.9148
賭	-11.9172
内村航平	-11.9174
プラスチック	-11.9174
茨城県日立市	-11.9174
エボラ熱	-11.9174
鴨	-11.9174
ぷ	-11.9174
引き継ぐ	-11.9174
味の素	-11.9174
の連続適時打で	-11.9174
恐怖	-11.9174
をお願いしたい	-11.9174
サヨナラ負け	-11.9174
▁(5−7)	-11.9175
意向を固めた	-11.9181
話し合った	-11.9187
法の規定	-11.9192
に移行する	-11.92
虐	-11.9219
仙谷由人	-11.9219
エディオンアリーナ大阪	-11.922
ボディメーカーコロシアム	-11.922
庸	-11.922
禁じられ	-11.922
宮城県気仙沼市	-11.922
憂慮	-11.922
嘆	-11.922
安全資産とされる	-11.922
山東省	-11.922
米国産標準油種	-11.922
世界ジュニア選手権	-11.922
つないで	-11.9223
を課す	-11.9228
項	-11.9246
剥	-11.9265
住所不定	-11.9265
▁玉飛鳥	-11.9266
テヘラン	-11.9266
東京都台東区	-11.9266
腕時計	-11.9266
蛇	-11.9266
査察	-11.9266
新華社	-11.9266
ダウンロード	-11.9266
サウス	-11.9267
近づいて	-11.9268
自発的	-11.9275
ありがたい	-11.9276
努	-11.9299
連絡が取れなくなっ	-11.931
遮	-11.9311
匠	-11.9311
発泡酒	-11.9312
〈	-11.9312
〉	-11.9312
国連教育科学文化機関	-11.9312
万円の支払いを命じた	-11.9312
スイッチ	-11.9312
ミドル級	-11.9312
忙	-11.9312
新型輸送機	-11.9312
が続けば	-11.9312
を寄り切り	-11.9312
を飾った	-11.9312
種平均は	-11.9313
照射	-11.9313
児童ポルノ	-11.9325
ガイド	-11.9334
擁	-11.9341
三越伊勢丹	-11.9358
仙台育英	-11.9358
コンテンツ	-11.9358
出来事	-11.9358
ハンブルガー	-11.9358
笠りつ子	-11.9358
トレード	-11.9358
癒	-11.9358
フィリップ	-11.9359
与謝野	-11.9359
いずみ	-11.9361
雨が降り	-11.9362
を反映させ	-11.937
掛	-11.9393
安倍晋三	-11.9393
冷蔵庫	-11.9405
ドジャースの前田は	-11.9405
烈	-11.9405
知り合い	-11.9405
林芳正	-11.9405
と引き換えに	-11.9405
敬称略	-11.9405
主人公	-11.9405
ウォルマート	-11.9405
量的金融緩和	-11.9405
加害者	-11.9405
ブーム	-11.9405
寂	-11.9405
全国人民代表大会	-11.9405
クリミア半島	-11.9406
救急搬送	-11.9406
踏襲	-11.9406
継いで	-11.9407
を招いて	-11.9417
党首討論	-11.9426
に時間がかか	-11.9449
賛成多数で	-11.9452
を損なう	-11.9452
匡	-11.9452
スノーデン容疑者	-11.9452
汗を流した	-11.9452
ライセンス	-11.9452
パ両リーグ	-11.9452
ご迷惑をお掛けし	-11.9452
本因坊	-11.9453
各府省	-11.9453
ゾーン	-11.9454
前橋市	-11.9458
振るわなかった	-11.9478
米航空宇宙局	-11.9499
ジョーダン	-11.9499
を問題にせず	-11.9499
かんぽ生命	-11.9499
正当な	-11.9499
ダウ平均は	-11.9499
幻	-11.9499
自責点	-11.9499
外為市場	-11.9499
尽くし	-11.9544
臓	-11.9544
尋ねたところ	-11.9547
シエラレオネ	-11.9547
侑	-11.9547
早稲田大	-11.9547
ドイツのメルケル首相	-11.9547
は明らかにしていない	-11.9567
を明らかにする	-11.9572
人態勢で	-11.9587
に限って	-11.9589
に接近し	-11.9591
孤	-11.9592
木更津	-11.9594
フィギュアスケートのグランプリ	-11.9594
東京都品川区	-11.9594
独禁法違反	-11.9594
落ち着き	-11.9594
▁初顔合わせ	-11.9594
▁(5−9)	-11.9594
ソフトウエア	-11.9594
斐	-11.9594
ボイコット	-11.9594
内閣不信任決議案	-11.9594
慨	-11.9594
の遺体が見つかった事件で	-11.9594
営業日続伸	-11.9595
激しい雨が降る	-11.9595
週刊誌	-11.9595
▁1,4	-11.9616
ルモンド	-11.9642
ヨウ素	-11.9642
フリースタイルスキー	-11.9642
核保有国	-11.9642
腫	-11.9642
世耕弘成	-11.9642
伊藤美誠	-11.9642
出場選手登録	-11.9642
條	-11.9642
核軍縮	-11.9642
貴乃花親方	-11.9642
うれしく	-11.9642
差し押さえ	-11.9643
ルクセンブルク	-11.969
繕	-11.969
袴	-11.969
奨学金	-11.969
特定秘密保護法	-11.969
帰還困難区域	-11.969
▁(6−8)	-11.969
司令塔	-11.969
抹消	-11.969
郵政民営化	-11.969
年次総会	-11.969
引き継いだ	-11.969
一丸となって	-11.9691
を盗んだ疑い	-11.9692
買い戻され	-11.9693
簿	-11.973
録	-11.9736
喪主は妻	-11.9738
森田あゆみ	-11.9738
渡部暁斗	-11.9738
胃	-11.9738
比較可能な	-11.9738
求心力	-11.9738
ツインズの西岡は	-11.9738
違和感	-11.9738
四川省	-11.9738
牝	-11.9739
EFSF	-11.9739
ドミニカ共和国	-11.9739
村井嘉浩	-11.9739
モルシ派	-11.9739
いただける	-11.9742
を緩め	-11.9747
と名付け	-11.9748
▁1,6	-11.9748
に恵まれ	-11.9749
支障	-11.9771
+	-11.9774
を守って	-11.9779
鴻	-11.9784
東京都墨田区	-11.9787
福知山	-11.9787
国営新華社通信	-11.9787
.........	-11.9787
▁(8−4)	-11.9787
猿	-11.9787
を描く	-11.9787
を負い	-11.9789
チーさん	-11.9792
埋まっ	-11.98
大法卒	-11.9809
メッシ	-11.9812
ブレーメン	-11.9836
旨	-11.9836
エクアドル	-11.9836
駆け込み需要の反動	-11.9836
詳しい状況を調べている	-11.9836
アルペンスキー	-11.9836
経済財政諮問会議	-11.9836
森喜朗	-11.9836
ヤヌコビッチ	-11.9836
につれ	-11.9837
を禁じる	-11.9841
続けられ	-11.9879
詳	-11.9882
暴風や高波	-11.9884
別にみると	-11.9885
延長戦の末	-11.9885
何者かが	-11.9885
六回途中まで	-11.9885
▁(8−7)	-11.9885
天候不順	-11.9885
履正社	-11.9885
堆	-11.9885
番二塁で出場し	-11.9885
槽	-11.9885
在来線	-11.9885
すごい	-11.9885
青森県八戸市	-11.9885
プアーズ	-11.9885
を積んだ	-11.9885
が急務	-11.9886
ちゅう	-11.9886
年末商戦	-11.9886
上り線	-11.9888
を担っ	-11.9891
切り離し	-11.9902
にはねられ	-11.9906
フロリダ	-11.9929
日本サッカー協会	-11.9931
択	-11.9932
リエージュ	-11.9934
関わり	-11.9934
シフト	-11.9934
ボギーなしの	-11.9934
ジェームズ	-11.9934
国家公安委員長	-11.9934
股	-11.9934
強固な	-11.9934
予断を許さない	-11.9934
大王製紙	-11.9934
崖	-11.9934
王座決定戦	-11.9934
を募らせ	-11.9935
が目立ち	-11.9935
きれい	-11.9935
やり直し	-11.9942
振るわず	-11.9952
ーティング	-11.9957
大会に出場	-11.9972
豊真将	-11.9974
傘	-11.9977
紛	-11.9982
ロドリゲス	-11.9984
糖尿病	-11.9984
伊藤有希	-11.9984
デリバティブ	-11.9984
レアアース	-11.9984
仙谷氏	-11.9984
を背景とした	-11.9984
を振り返り	-11.9985
党役員人事	-11.9989
にストレート勝ちし	-12
押さえ	-12.0016
拡	-12.0018
下回る	-12.0029
を持たない	-12.0032
フロント	-12.0033
爪	-12.0033
一騎打ち	-12.0033
認否を明らかにしていない	-12.0033
久場島	-12.0033
最重要課題	-12.0033
ストロンチウム	-12.0033
髄	-12.0033
中国公船	-12.0033
対戦成績は	-12.0033
国家安全保障局	-12.0034
米商務省が	-12.0035
落とす	-12.0035
00〜0	-12.0055
楽しんで	-12.0056
瞬	-12.0077
求職者	-12.0083
ベランダ	-12.0083
ユーチューブ	-12.0083
噴火警戒レベル	-12.0083
高市早苗	-12.0083
クオーター	-12.0083
ヘッドコーチ	-12.0083
曇りや雨	-12.0083
欠かせない	-12.0083
パレスチナ自治区ガザ	-12.0083
議事堂	-12.0084
混合ダブルス	-12.0084
[...]
